{"<s>":0,"<pad>":1,"</s>":2,"<unk>":3,"<mask>":4,"!":5,"\"":6,"#":7,"$":8,"%":9,"&":10,"'":11,"(":12,")":13,"*":14,"+":15,",":16,"-":17,".":18,"/":19,"0":20,"1":21,"2":22,"3":23,"4":24,"5":25,"6":26,"7":27,"8":28,"9":29,":":30,";":31,"<":32,"=":33,">":34,"?":35,"@":36,"A":37,"B":38,"C":39,"D":40,"E":41,"F":42,"G":43,"H":44,"I":45,"J":46,"K":47,"L":48,"M":49,"N":50,"O":51,"P":52,"Q":53,"R":54,"S":55,"T":56,"U":57,"V":58,"W":59,"X":60,"Y":61,"Z":62,"[":63,"\\":64,"]":65,"^":66,"_":67,"`":68,"a":69,"b":70,"c":71,"d":72,"e":73,"f":74,"g":75,"h":76,"i":77,"j":78,"k":79,"l":80,"m":81,"n":82,"o":83,"p":84,"q":85,"r":86,"s":87,"t":88,"u":89,"v":90,"w":91,"x":92,"y":93,"z":94,"{":95,"|":96,"}":97,"~":98,"¡":99,"¢":100,"£":101,"¤":102,"¥":103,"¦":104,"§":105,"¨":106,"©":107,"ª":108,"«":109,"¬":110,"®":111,"¯":112,"°":113,"±":114,"²":115,"³":116,"´":117,"µ":118,"¶":119,"·":120,"¸":121,"¹":122,"º":123,"»":124,"¼":125,"½":126,"¾":127,"¿":128,"À":129,"Á":130,"Â":131,"Ã":132,"Ä":133,"Å":134,"Æ":135,"Ç":136,"È":137,"É":138,"Ê":139,"Ë":140,"Ì":141,"Í":142,"Î":143,"Ï":144,"Ð":145,"Ñ":146,"Ò":147,"Ó":148,"Ô":149,"Õ":150,"Ö":151,"×":152,"Ø":153,"Ù":154,"Ú":155,"Û":156,"Ü":157,"Ý":158,"Þ":159,"ß":160,"à":161,"á":162,"â":163,"ã":164,"ä":165,"å":166,"æ":167,"ç":168,"è":169,"é":170,"ê":171,"ë":172,"ì":173,"í":174,"î":175,"ï":176,"ð":177,"ñ":178,"ò":179,"ó":180,"ô":181,"õ":182,"ö":183,"÷":184,"ø":185,"ù":186,"ú":187,"û":188,"ü":189,"ý":190,"þ":191,"ÿ":192,"Ā":193,"ā":194,"Ă":195,"ă":196,"Ą":197,"ą":198,"Ć":199,"ć":200,"Ĉ":201,"ĉ":202,"Ċ":203,"ċ":204,"Č":205,"č":206,"Ď":207,"ď":208,"Đ":209,"đ":210,"Ē":211,"ē":212,"Ĕ":213,"ĕ":214,"Ė":215,"ė":216,"Ę":217,"ę":218,"Ě":219,"ě":220,"Ĝ":221,"ĝ":222,"Ğ":223,"ğ":224,"Ġ":225,"ġ":226,"Ģ":227,"ģ":228,"Ĥ":229,"ĥ":230,"Ħ":231,"ħ":232,"Ĩ":233,"ĩ":234,"Ī":235,"ī":236,"Ĭ":237,"ĭ":238,"Į":239,"į":240,"İ":241,"ı":242,"Ĳ":243,"ĳ":244,"Ĵ":245,"ĵ":246,"Ķ":247,"ķ":248,"ĸ":249,"Ĺ":250,"ĺ":251,"Ļ":252,"ļ":253,"Ľ":254,"ľ":255,"Ŀ":256,"ŀ":257,"Ł":258,"ł":259,"Ń":260,"an":261,"ar":262,"er":263,"in":264,"en":265,"on":266,"al":267,"or":268,"el":269,"il":270,"as":271,"es":272,"ch":273,"ur":274,"am":275,"de":276,"la":277,"le":278,"at":279,"San":280,"os":281,"ou":282,"ol":283,"Ã©":284,"is":285,"ta":286,"ĠC":287,"ad":288,"it":289,"re":290,"ov":291,"ing":292,"Ġde":293,"ia":294,"ra":295,"ĠM":296,"te":297,"ic":298,"ĠP":299,"ang":300,"ay":301,"un":302,"ro":303,"Äģ":304,"Ã¡":305,"ĠS":306,"ri":307,"et":308,"La":309,"ĠB":310,"ig":311,"ton":312,"ag":313,"om":314,"ill":315,"im":316,"Ch":317,"au":318,"ĠA":319,"Ã³":320,"ac":321,"Ġd":322,"to":323,"ab":324,"ir":325,"and":326,"ÃŃ":327,"ed":328,"th":329,"ak":330,"sk":331,"ain":332,"ĠT":333,"od":334,"ĠH":335,"ĠR":336,"Al":337,"ap":338,"ul":339,"ĠG":340,"ah":341,"ĠV":342,"id":343,"us":344,"io":345,"ie":346,"ille":347,"ong":348,"av":349,"ti":350,"ne":351,"co":352,"ba":353,"ano":354,"ka":355,"ber":356,"ue":357,"um":358,"Sain":359,"ĠL":360,"El":361,"ville":362,"Saint":363,"he":364,"ell":365,"Äĥ":366,"ot":367,"iv":368,"âĢ":369,"ter":370,"ĠJ":371,"ec":372,"em":373,"oy":374,"Mar":375,"ĠN":376,"ast":377,"ow":378,"ok":379,"ĠF":380,"ÅŁ":381,"ers":382,"og":383,"ran":384,"ik":385,"Ã¶":386,"illa":387,"Ã¼":388,"ont":389,"sh":390,"eng":391,"ach":392,"Santa":393,"oc":394,"ob":395,"ai":396,"Ġdel":397,"Sh":398,"az":399,"all":400,"ĠD":401,"eg":402,"st":403,"Ã¡n":404,"Ar":405,"amp":406,"ino":407,"Ä«":408,"Ã³n":409,"ard":410,"qu":411,"est":412,"An":413,"orf":414,"bur":415,"ana":416,"ev":417,"ud":418,"op":419,"ĠMar":420,"ts":421,"ara":422,"li":423,"ale":424,"ge":425,"âĢĻ":426,"na":427,"ent":428,"uc":429,"end":430,"ina":431,"ĠK":432,"ich":433,"St":434,"ark":435,"gu":436,"zh":437,"ey":438,"ice":439,"ub":440,"ort":441,"eld":442,"ord":443,"Ne":444,"ut":445,"ass":446,"ek":447,"res":448,"ĠE":449,"ip":450,"ern":451,"sur":452,"ĠI":453,"iy":454,"Ã¨":455,"Le":456,"aw":457,"Ã¢":458,"ce":459,"ca":460,"ci":461,"ug":462,"our":463,"up":464,"ke":465,"ib":466,"ier":467,"uan":468,"ĠO":469,"ens":470,"Ã±":471,"uk":472,"go":473,"ovo":474,"Mon":475,"eni":476,"berg":477,"ĠCh":478,"ian":479,"Bar":480,"za":481,"Ä±":482,"ood":483,"ny":484,"Å«":485,"ĠW":486,"Gu":487,"ine":488,"Car":489,"ung":490,"orth":491,"Br":492,"uz":493,"ley":494,"da":495,"burg":496,"hu":497,"ala":498,"ant":499,"ez":500,"nd":501,"bach":502,"Col":503,"ate":504,"ĠLa":505,"ff":506,"oh":507,"Ġ(":508,"land":509,"ÈĻ":510,"amb":511,"ni":512,"ry":513,"ng":514,"aya":515,"iz":516,"aj":517,"ity":518,"heim":519,"oye":520,"oz":521,"ond":522,"orn":523,"ica":524,"Ġla":525,"Th":526,"fi":527,"dorf":528,"ei":529,"era":530,"ingen":531,"ten":532,"Val":533,"eb":534,"ero":535,"Villa":536,"no":537,"Cast":538,"ĠPark":539,"igh":540,"uel":541,"lo":542,"ep":543,"ham":544,"Sch":545,"Sant":546,"Qu":547,"les":548,"Ã¤":549,"Am":550,"va":551,"âĢĺ":552,"ss":553,"ind":554,"ha":555,"lan":556,"ola":557,"outh":558,"Vill":559,"ĠCity":560,"ÃŃa":561,"yn":562,"Gr":563,"ÅŁti":564,"och":565,"Bel":566,"ington":567,"Ġdi":568,"ĠAl":569,"Ã³w":570,"Mont":571,"erm":572,"Ãº":573,"ĠHill":574,"one":575,"field":576,"sen":577,"ada":578,"int":579,"wn":580,"que":581,"ena":582,"oun":583,"Or":584,"wood":585,"pur":586,"Å¡":587,"alm":588,"se":589,"vo":590,"ore":591,"aro":592,"olo":593,"West":594,"ash":595,"oro":596,"rÃ©":597,"gh":598,"Man":599,"ĠSan":600,"ÅĤ":601,"af":602,"Ã§":603,"Äģn":604,"ari":605,"Sal":606,"Ber":607,"uch":608,"Be":609,"Ã£":610,"ani":611,"ford":612,"ij":613,"of":614,"New":615,"art":616,"den":617,"Pr":618,"han":619,"ck":620,"uer":621,"ly":622,"pr":623,"oss":624,"ÃŃn":625,"ien":626,"Nov":627,"Mal":628,"Mor":629,"und":630,"ĠVal":631,"jo":632,"tad":633,"Hu":634,"ga":635,"ata":636,"ins":637,"ĠJos":638,"Å£":639,"br":640,"illo":641,"Cal":642,"Bal":643,"North":644,"Äį":645,"ita":646,"ings":647,"tep":648,"ira":649,"kh":650,"ito":651,"town":652,"skiy":653,"Bu":654,"ĠZ":655,"ja":656,"Kr":657,"arr":658,"Cor":659,"itz":660,"á¸":661,"Kh":662,"by":663,"Es":664,"Ã£o":665,"ui":666,"osa":667,"ign":668,"Cas":669,"Se":670,"Ã«":671,"err":672,"ĠCr":673,"be":674,"lÃ¡n":675,"son":676,"ya":677,"zo":678,"ve":679,"ĠHe":680,"Ol":681,"Tor":682,"ki":683,"ish":684,"Bur":685,"iang":686,"rov":687,"Bo":688,"ma":689,"bo":690,"ama":691,"Ma":692,"Gre":693,"Par":694,"ula":695,"ora":696,"Tr":697,"len":698,"man":699,"Ad":700,"ste":701,"iano":702,"Ġl":703,"South":704,"á»":705,"ona":706,"ÈĻti":707,"Ab":708,"ied":709,"Per":710,"uy":711,"wa":712,"ĠY":713,"chen":714,"Ã©n":715,"ÃŁ":716,"onte":717,"skoye":718,"ath":719,"ick":720,"ello":721,"áº":722,"ist":723,"Bor":724,"anj":725,"Kar":726,"ĠAr":727,"pa":728,"iss":729,"lin":730,"ranc":731,"Con":732,"Los":733,"ess":734,"ĠAn":735,"ze":736,"ĠBe":737,"ock":738,"ux":739,"ver":740,"onia":741,"ico":742,"rid":743,"Me":744,"ix":745,"ns":746,"ion":747,"ova":748,"any":749,"ivka":750,"ights":751,"Ba":752,"ila":753,"Mer":754,"iri":755,"ente":756,"ald":757,"Co":758,"East":759,"ella":760,"Camp":761,"ĠHeights":762,"Bad":763,"De":764,"ele":765,"ato":766,"ua":767,"ans":768,"ĠJuan":769,"che":770,"Pal":771,"Äģr":772,"ausen":773,"zy":774,"are":775,"ista":776,"bor":777,"Monte":778,"elle":779,"Re":780,"tt":781,"ura":782,"nes":783,"Bro":784,"edro":785,"ĠBeach":786,"As":787,"Mo":788,"Sp":789,"Sar":790,"oug":791,"isco":792,"ĠJosÃ©":793,"Ban":794,"Ro":795,"ount":796,"ere":797,"feld":798,"Las":799,"ies":800,"me":801,"inc":802,"Long":803,"Ãł":804,"tor":805,"Ã¡r":806,"Ġam":807,"ĠSh":808,"Bre":809,"per":810,"ane":811,"ciÃ³n":812,"ĠLake":813,"ire":814,"tepec":815,"He":816,"ost":817,"endorf":818,"Ag":819,"els":820,"oll":821,"Ġ/":822,"arm":823,"ĠIs":824,"ĠU":825,"ado":826,"ron":827,"Ak":828,"aul":829,"Er":830,"Äģd":831,"Cer":832,"Is":833,"Port":834,"lor":835,"ys":836,"Ġdo":837,"ÃŃo":838,"ĠPo":839,"In":840,"Ver":841,"je":842,"Cap":843,"ye":844,"iguel":845,"Can":846,"ao":847,"iel":848,"Zh":849,"Ã¡s":850,"ust":851,"Kal":852,"oul":853,"ago":854,"Ros":855,"iet":856,"ank":857,"kt":858,"Bay":859,"Pet":860,"Mat":861,"pe":862,"urt":863,"ĠVilla":864,"ĠMarÃŃa":865,"gar":866,"we":867,"old":868,"itt":869,"Ã¨s":870,"rancisco":871,"pan":872,"ush":873,"ĠBay":874,"omb":875,"Ben":876,"Gro":877,"ĠPedro":878,"iew":879,"tadt":880,"cu":881,"oli":882,"Ober":883,"sa":884,"ure":885,"Te":886,"org":887,"ide":888,"Åį":889,"Cr":890,"Mag":891,"rac":892,"ĠHills":893,"ĠCruz":894,"ho":895,"iu":896,"ling":897,"uang":898,"Ġder":899,"ueva":900,"Pl":901,"ren":902,"ÄŁ":903,"And":904,"iÃ©":905,"ridge":906,"ela":907,"ester":908,"Ãī":909,"ovka":910,"iago":911,"skaya":912,"ĠMiguel":913,"Kir":914,"ole":915,"bro":916,"cal":917,"rad":918,"Åŀ":919,"mer":920,"uf":921,"Ãģ":922,"ann":923,"Por":924,"Ã¸":925,"Ġal":926,"apa":927,"Colonia":928,"ater":929,"Cl":930,"ene":931,"bury":932,"Ġan":933,"anch":934,"oma":935,"ih":936,"Äģb":937,"Cab":938,"Po":939,"du":940,"kro":941,"ons":942,"rez":943,"umb":944,"own":945,"dale":946,"ese":947,"ĠSpr":948,"tonio":949,"Å«r":950,"Av":951,"For":952,"Pe":953,"Vel":954,"arl":955,"arn":956,"una":957,"Lake":958,"Ã¢n":959,"Ġlos":960,"Mount":961,"if":962,"ite":963,"Os":964,"cia":965,"ales":966,"att":967,"rande":968,"At":969,"Cam":970,"Ãª":971,"Santiago":972,"Gra":973,"ima":974,"men":975,"ÅĻ":976,"Äģl":977,"En":978,"Ste":979,"ĠFrancisco":980,"ĠValley":981,"ĠVillage":982,"air":983,"ĠGu":984,"iver":985,"ĠMart":986,"uerto":987,"mont":988,"Les":989,"We":990,"zi":991,"Äģm":992,"Bou":993,"Har":994,"sch":995,"ingo":996,"Bla":997,"Kam":998,"Lang":999,"Pla":1000,"gn":1001,"pp":1002,"do":1003,"port":1004,"tla":1005,"uen":1006,"hausen":1007,"chi":1008,"ida":1009,"Ã±a":1010,"Fr":1011,"Mil":1012,"Mur":1013,"Wh":1014,"gi":1015,"ĠSal":1016,"Min":1017,"Tal":1018,"ĠAntonio":1019,"Ph":1020,"Sk":1021,"Ur":1022,"zano":1023,"ÄĻ":1024,"Ã¶r":1025,"Lu":1026,"ini":1027,"Santo":1028,"uevo":1029,"Gen":1030,"lu":1031,"ett":1032,"ĠVic":1033,"Castel":1034,"Em":1035,"Lo":1036,"ks":1037,"Ser":1038,"gen":1039,"Ġin":1040,"Gar":1041,"SÃ£o":1042,"ji":1043,"Alb":1044,"Ã¨res":1045,"Kras":1046,"ĠSprings":1047,"der":1048,"Å¾":1049,"Ge":1050,"Ko":1051,"Mad":1052,"ken":1053,"mar":1054,"Äĥr":1055,"oa":1056,"Ã©r":1057,"evo":1058,"ĠEst":1059,"Ci":1060,"Hol":1061,"ile":1062,"Mart":1063,"zhen":1064,"Ã¢r":1065,"Ac":1066,"Mas":1067,"Tar":1068,"des":1069,"ll":1070,"eno":1071,"ove":1072,"ĠEs":1073,"Bag":1074,"ee":1075,"uh":1076,"yr":1077,"illas":1078,"the":1079,"ido":1080,"po":1081,"anc":1082,"ĠMor":1083,"eda":1084,"Ter":1085,"tz":1086,"ĠCre":1087,"Com":1088,"Sam":1089,"ax":1090,"ston":1091,"Sankt":1092,"adal":1093,"aux":1094,"Bri":1095,"Sol":1096,"Äĩ":1097,"Ġel":1098,"eri":1099,"enn":1100,"ĠCamp":1101,"guan":1102,"Bon":1103,"ko":1104,"Ã´":1105,"ĠLe":1106,"Str":1107,"hi":1108,"kir":1109,"nad":1110,"nyy":1111,"ĠPoint":1112,"Bol":1113,"pol":1114,"ben":1115,"lÃ©":1116,"ÈĽ":1117,"Ã¨re":1118,"eth":1119,"ĠGrande":1120,"Ã¶n":1121,"á¸¨":1122,"Cu":1123,"Wil":1124,"Wood":1125,"tr":1126,"uri":1127,"ough":1128,"rove":1129,"Mel":1130,"Mac":1131,"ker":1132,"Bat":1133,"well":1134,"ary":1135,"ith":1136,"rim":1137,"Un":1138,"dt":1139,"lia":1140,"vi":1141,"ets":1142,"ĠBar":1143,"Don":1144,"Hor":1145,"Pol":1146,"don":1147,"iber":1148,"elo":1149,"ougou":1150,"Puerto":1151,"ral":1152,"yah":1153,"enter":1154,"Green":1155,"Ash":1156,"Ca":1157,"noye":1158,"uj":1159,"Ã¥":1160,"ise":1161,"akh":1162,"Kou":1163,"Sa":1164,"ler":1165,"Ã½":1166,"Ãĩ":1167,"lav":1168,"ange":1169,"roy":1170,"aba":1171,"ĠCreek":1172,"Pas":1173,"iam":1174,"uÃ¡":1175,"way":1176,"ÅĦ":1177,"reg":1178,"ango":1179,"anda":1180,"ĠKh":1181,"á¸©":1182,"iro":1183,"mb":1184,"yan":1185,"eral":1186,"itlÃ¡n":1187,"ueb":1188,"upe":1189,"Ts":1190,"Tur":1191,"ven":1192,"ines":1193,"ChÃ¢":1194,"engguan":1195,"Ang":1196,"Gor":1197,"Her":1198,"ban":1199,"ÄĽ":1200,"let":1201,"owice":1202,"ierra":1203,"Fort":1204,"Palm":1205,"war":1206,"worth":1207,"ario":1208,"ali":1209,"Ã©s":1210,"aca":1211,"ĠTr":1212,"Ay":1213,"Ã¯":1214,"anga":1215,"eto":1216,"aha":1217,"ĠChengguan":1218,"ĠChengguanzhen":1219,"Mid":1220,"Nav":1221,"nik":1222,"sville":1223,"Ã©d":1224,"ĠTh":1225,"Bra":1226,"Ham":1227,"Pont":1228,"wil":1229,"Ed":1230,"Wal":1231,"Ġim":1232,"cheng":1233,"ovice":1234,"Sainte":1235,"Pan":1236,"ros":1237,"enberg":1238,"reis":1239,"igny":1240,"awa":1241,"lÃ¨s":1242,"Äħ":1243,"ĠQ":1244,"orte":1245,"ĠSt":1246,"Gl":1247,"car":1248,"ĠRe":1249,"uss":1250,"ieu":1251,"eck":1252,"ersdorf":1253,"tsi":1254,"Bl":1255,"Sil":1256,"iana":1257,"yl":1258,"alo":1259,"asa":1260,"leu":1261,"ĠAnd":1262,"alls":1263,"GroÃŁ":1264,"Ly":1265,"Oak":1266,"amar":1267,"aga":1268,"Torre":1269,"adalupe":1270,"May":1271,"Su":1272,"sdorf":1273,"ĠCol":1274,"ĠGi":1275,"gua":1276,"zhou":1277,"Ta":1278,"Tre":1279,"van":1280,"amba":1281,"tag":1282,"Alt":1283,"Äĥl":1284,"Fair":1285,"Win":1286,"boro":1287,"ous":1288,"iao":1289,"agar":1290,"ĠGrove":1291,"kes":1292,"Ġnad":1293,"ares":1294,"apan":1295,"Ã¼r":1296,"Az":1297,"Fre":1298,"Nor":1299,"Sab":1300,"cos":1301,"hl":1302,"ati":1303,"Dr":1304,"Dob":1305,"Rom":1306,"gan":1307,"ph":1308,"ert":1309,"lay":1310,"atlÃ¡n":1311,"Ap":1312,"Dol":1313,"Mu":1314,"bar":1315,"bour":1316,"Åł":1317,"oni":1318,"osh":1319,"ouÃ©":1320,"Ã³r":1321,"Ä«yah":1322,"Grand":1323,"Bas":1324,"Il":1325,"bal":1326,"nica":1327,"tten":1328,"oren":1329,"ĠCon":1330,"unn":1331,"Ä«n":1332,"dal":1333,"yk":1334,"ĠEl":1335,"edo":1336,"ahu":1337,"Ã¶l":1338,"Pat":1339,"Red":1340,"mo":1341,"si":1342,"esa":1343,"cha":1344,"ĠCal":1345,"igli":1346,"ardo":1347,"BÃ©":1348,"Je":1349,"Nar":1350,"igu":1351,"aci":1352,"Äĥne":1353,"uÃ¡rez":1354,"Nied":1355,"bi":1356,"di":1357,"kou":1358,"ska":1359,"ĠRo":1360,"shan":1361,"cion":1362,"ĠWest":1363,"Ġlas":1364,"Del":1365,"Fu":1366,"Ha":1367,"Mol":1368,"Pin":1369,"Sta":1370,"Vil":1371,"cz":1372,"lio":1373,"uil":1374,"out":1375,"Ã©m":1376,"over":1377,"ĠVer":1378,"Villan":1379,"Lim":1380,"Mir":1381,"Spr":1382,"Will":1383,"lÄ±":1384,"ras":1385,"rah":1386,"rio":1387,"rich":1388,"illy":1389,"ull":1390,"Mah":1391,"Vic":1392,"nh":1393,"riv":1394,"Ã³s":1395,"aven":1396,"Ka":1397,"Ke":1398,"Ni":1399,"Tam":1400,"bei":1401,"ias":1402,"uis":1403,"view":1404,"ĠX":1405,"Sand":1406,"ĠSec":1407,"rig":1408,"ĠLuc":1409,"asso":1410,"Ass":1411,"Fran":1412,"Gal":1413,"Med":1414,"Sel":1415,"Sau":1416,"bon":1417,"kov":1418,"lingen":1419,"ty":1420,"yang":1421,"ison":1422,"ĠCast":1423,"red":1424,"ĠPla":1425,"etz":1426,"omas":1427,"ack":1428,"ega":1429,"ofen":1430,"Kor":1431,"Lou":1432,"Rad":1433,"Tab":1434,"Var":1435,"Vol":1436,"ÅĽ":1437,"anz":1438,"imo":1439,"Cher":1440,"Ã¤r":1441,"Dong":1442,"Kat":1443,"Ram":1444,"Tra":1445,"bu":1446,"tal":1447,"inas":1448,"ette":1449,"aco":1450,"ski":1451,"Ale":1452,"Bil":1453,"Bog":1454,"Dun":1455,"Go":1456,"Kur":1457,"ĠQu":1458,"ĠâĢĺ":1459,"ĠMonte":1460,"tein":1461,"icol":1462,"Char":1463,"ĠTe":1464,"ĠTor":1465,"idge":1466,"ĠIn":1467,"Bir":1468,"Kon":1469,"har":1470,"esh":1471,"Äĥu":1472,"Dar":1473,"Ho":1474,"Lin":1475,"Ville":1476,"uv":1477,"wang":1478,"enh":1479,"ayo":1480,"Ġda":1481,"ney":1482,"Å£a":1483,"Bang":1484,"Sun":1485,"fla":1486,"gio":1487,"tan":1488,"Å¼":1489,"ores":1490,"ili":1491,"tain":1492,"ĠCar":1493,"ills":1494,"ske":1495,"Sc":1496,"rou":1497,"val":1498,"Lag":1499,"ĠGard":1500,"Pa":1501,"Xin":1502,"eh":1503,"iers":1504,"ping":1505,"lad":1506,"olf":1507,"ĠCor":1508,"ava":1509,"ĠDom":1510,"uck":1511,"ignano":1512,"ÄģbÄģd":1513,"kirchen":1514,"Hal":1515,"Ir":1516,"Iz":1517,"Kol":1518,"Pad":1519,"Sm":1520,"Tem":1521,"Wa":1522,"ris":1523,"tel":1524,"wan":1525,"wick":1526,"Ġbei":1527,"enz":1528,"ates":1529,"oua":1530,"rie":1531,"idal":1532,"burn":1533,"ĠMare":1534,"Beau":1535,"toria":1536,"Dal":1537,"Roc":1538,"Rich":1539,"Tep":1540,"War":1541,"eÅŁti":1542,"ÄĲ":1543,"amo":1544,"ayan":1545,"ĠBlan":1546,"ĠRos":1547,"Alm":1548,"Ã¼n":1549,"Dam":1550,"Gran":1551,"Glen":1552,"Ost":1553,"Pueb":1554,"Ru":1555,"Riv":1556,"pin":1557,"ram":1558,"eland":1559,"ÃŃs":1560,"aki":1561,"ĠRÃŃo":1562,"ĠJuÃ¡rez":1563,"ĠFor":1564,"uca":1565,"iento":1566,"Spring":1567,"Ga":1568,"Ot":1569,"Sim":1570,"Sul":1571,"Vi":1572,"con":1573,"xi":1574,"insk":1575,"angan":1576,"rog":1577,"ĠNorth":1578,"Star":1579,"Bul":1580,"Ger":1581,"Ku":1582,"Ou":1583,"Pod":1584,"Pot":1585,"Sv":1586,"Sin":1587,"Sid":1588,"mp":1589,"ner":1590,"wal":1591,"lat":1592,"court":1593,"udad":1594,"Kings":1595,"Sto":1596,"Um":1597,"elos":1598,"rag":1599,"ĠPh":1600,"ĠPalm":1601,"unt":1602,"bert":1603,"ĠLoren":1604,"Ah":1605,"Bud":1606,"Mak":1607,"Nag":1608,"oj":1609,"win":1610,"ÄĮ":1611,"oud":1612,"agen":1613,"ĠFalls":1614,"uela":1615,"rÃ©s":1616,"Gh":1617,"Que":1618,"Sz":1619,"Sur":1620,"Som":1621,"bÃ©":1622,"alco":1623,"lev":1624,"ĠMon":1625,"etto":1626,"cep":1627,"Den":1628,"Lam":1629,"enbach":1630,"ori":1631,"ase":1632,"lem":1633,"Äģh":1634,"ĠSouth":1635,"aka":1636,"ĠHar":1637,"ipe":1638,"brook":1639,"Bh":1640,"Bell":1641,"Do":1642,"Kreis":1643,"Mos":1644,"Pon":1645,"lov":1646,"mond":1647,"ria":1648,"var":1649,"ÄĢ":1650,"anza":1651,"asco":1652,"ĠMa":1653,"ĠRosa":1654,"owo":1655,"ĠEast":1656,"Valle":1657,"borough":1658,"High":1659,"Ng":1660,"Pen":1661,"mi":1662,"pec":1663,"ru":1664,"encia":1665,"ouss":1666,"ĠCenter":1667,"Äģs":1668,"Ã¡z":1669,"tone":1670,"ĠTown":1671,"ĠRiver":1672,"oya":1673,"Krasn":1674,"Flor":1675,"Na":1676,"Sum":1677,"ĠÃģ":1678,"erd":1679,"erg":1680,"asti":1681,"oux":1682,"ĠCu":1683,"ray":1684,"rom":1685,"ĠAg":1686,"abo":1687,"thal":1688,"ott":1689,"Ä«r":1690,"Ä±n":1691,"ĠIsland":1692,"Ciudad":1693,"Maz":1694,"Sav":1695,"ft":1696,"wo":1697,"Äĵ":1698,"orsk":1699,"ĠAm":1700,"ĠAna":1701,"achi":1702,"idalgo":1703,"ĠLorenzo":1704,"Ball":1705,"Cat":1706,"Fl":1707,"Im":1708,"Ll":1709,"Luc":1710,"NÃ©":1711,"las":1712,"ves":1713,"Åģ":1714,"isch":1715,"age":1716,"agu":1717,"ului":1718,"elles":1719,"ĠNuevo":1720,"ogo":1721,"General":1722,"ĠVicente":1723,"Bour":1724,"Dom":1725,"Kil":1726,"Ny":1727,"Pu":1728,"Tom":1729,"Vall":1730,"Vale":1731,"its":1732,"rem":1733,"riba":1734,"ĠTer":1735,"owa":1736,"oca":1737,"zhuang":1738,"ĠShah":1739,"Cent":1740,"Da":1741,"Land":1742,"Mc":1743,"Ob":1744,"fa":1745,"ysh":1746,"uro":1747,"urst":1748,"amiento":1749,"oso":1750,"uma":1751,"ukh":1752,"Bab":1753,"Bak":1754,"Frac":1755,"Kom":1756,"Lan":1757,"Ra":1758,"Tan":1759,"Ven":1760,"jido":1761,"ky":1762,"ones":1763,"ĠMag":1764,"Ã±o":1765,"Ara":1766,"Bin":1767,"Kap":1768,"Nan":1769,"Pi":1770,"Park":1771,"Si":1772,"jiang":1773,"Ã²":1774,"Åĳ":1775,"Ġá¸¨":1776,"atu":1777,"rop":1778,"ĠSus":1779,"ĠRidge":1780,"cot":1781,"ters":1782,"ever":1783,"enda":1784,"eira":1785,"ountain":1786,"Eg":1787,"Kl":1788,"Mill":1789,"Pier":1790,"Rock":1791,"ael":1792,"ju":1793,"pen":1794,"sz":1795,"ĠSanta":1796,"eros":1797,"alla":1798,"ors":1799,"ats":1800,"oum":1801,"ando":1802,"ĠFel":1803,"Buen":1804,"cionamiento":1805,"Cos":1806,"LÃ©":1807,"Pom":1808,"Rio":1809,"RÃŃo":1810,"So":1811,"To":1812,"Tla":1813,"Uni":1814,"can":1815,"zen":1816,"arc":1817,"aran":1818,"idro":1819,"stein":1820,"ĠArriba":1821,"Fraccionamiento":1822,"Gol":1823,"Jal":1824,"Kan":1825,"She":1826,"Us":1827,"Vin":1828,"bridge":1829,"ger":1830,"oi":1831,"Å½":1832,"enne":1833,"iler":1834,"leton":1835,"adi":1836,"ĠMan":1837,"unc":1838,"aut":1839,"ongo":1840,"aver":1841,"ĠMaria":1842,"ĠMartÃŃn":1843,"cepciÃ³n":1844,"GÃ¼":1845,"It":1846,"Lar":1847,"PÃ©":1848,"The":1849,"more":1850,"rat":1851,"sburg":1852,"yi":1853,"ence":1854,"onn":1855,"onne":1856,"ĠMad":1857,"tea":1858,"Äģt":1859,"agn":1860,"ĠGre":1861,"ikro":1862,"ondo":1863,"Martin":1864,"Ala":1865,"Cur":1866,"Jin":1867,"Liv":1868,"Mass":1869,"Nuevo":1870,"Ok":1871,"com":1872,"eli":1873,"elen":1874,"ingham":1875,"ĠMe":1876,"illos":1877,"imb":1878,"acio":1879,"ĠOr":1880,"Guadalupe":1881,"ĠIsidro":1882,"Far":1883,"Han":1884,"Ry":1885,"kÃ¶":1886,"lar":1887,"lal":1888,"water":1889,"Ġ-":1890,"uru":1891,"iti":1892,"inga":1893,"rav":1894,"Äģj":1895,"Chang":1896,"uli":1897,"ĠVie":1898,"Neu":1899,"hua":1900,"Villanueva":1901,"Li":1902,"No":1903,"Tak":1904,"Ul":1905,"Zar":1906,"ym":1907,"zan":1908,"cher":1909,"aman":1910,"ĠCat":1911,"ree":1912,"oda":1913,"ĠVista":1914,"engo":1915,"unga":1916,"Castell":1917,"Kirch":1918,"Cro":1919,"Cav":1920,"Camb":1921,"Dan":1922,"Ind":1923,"Kot":1924,"Lip":1925,"Sor":1926,"Sou":1927,"SÃ©":1928,"Sem":1929,"Tel":1930,"pi":1931,"Ġ1":1932,"enburg":1933,"ĠSierra":1934,"ried":1935,"akro":1936,"ĠHidalgo":1937,"iec":1938,"Black":1939,"polis":1940,"Midd":1941,"ĠAndrÃ©s":1942,"Au":1943,"Dz":1944,"GÃ¶":1945,"Pil":1946,"Pres":1947,"Poz":1948,"fort":1949,"yy":1950,"Æ°":1951,"inh":1952,"ĠCan":1953,"une":1954,"Laur":1955,"ĠBart":1956,"avista":1957,"ĠNorte":1958,"ikh":1959,"Villar":1960,"ĠSecciÃ³n":1961,"Dub":1962,"Kok":1963,"MÃ©":1964,"Mau":1965,"Pri":1966,"Ped":1967,"Sok":1968,"Sint":1969,"Wang":1970,"Yang":1971,"cas":1972,"ea":1973,"hr":1974,"long":1975,"par":1976,"Åļ":1977,"Ġs":1978,"itas":1979,"Chi":1980,"ĠAir":1981,"ĠRom":1982,"ĠNicol":1983,"ques":1984,"enstein":1985,"ijk":1986,"garh":1987,"White":1988,"Georg":1989,"ÄĥneÅŁti":1990,"ĠDomingo":1991,"Bah":1992,"Du":1993,"Ejido":1994,"Mand":1995,"Sen":1996,"Wind":1997,"gem":1998,"jar":1999,"mes":2000,"nic":2001,"nice":2002,"ador":2003,"teau":2004,"ĠSeb":2005,"etta":2006,"iga":2007,"ablo":2008,"ĠOl":2009,"Brook":2010,"ĠEstate":2011,"Nieder":2012,"Valea":2013,"Dor":2014,"Ita":2015,"Jar":2016,"Jos":2017,"Pre":2018,"Ty":2019,"hol":2020,"jan":2021,"lis":2022,"ox":2023,"ota":2024,"rero":2025,"ster":2026,"unta":2027,"ĠRey":2028,"ĠNe":2029,"Campo":2030,"Verkh":2031,"Porto":2032,"Agu":2033,"By":2034,"Bos":2035,"Ix":2036,"Kle":2037,"Lub":2038,"Mit":2039,"Nam":2040,"Og":2041,"Op":2042,"Ple":2043,"Pit":2044,"Tu":2045,"Tro":2046,"jas":2047,"stadt":2048,"Ãĸ":2049,"eles":2050,"Äģpur":2051,"acu":2052,"Alf":2053,"ĠLuis":2054,"ivtsi":2055,"Marc":2056,"erson":2057,"Arg":2058,"á»ĭ":2059,"ancho":2060,"Bet":2061,"Buc":2062,"Est":2063,"Gb":2064,"Kos":2065,"MÃ¼":2066,"Mez":2067,"Sat":2068,"Tri":2069,"ning":2070,"aria":2071,"eras":2072,"inos":2073,"ĠCl":2074,"ĠCam":2075,"ĠCent":2076,"ĠMate":2077,"ĠPe":2078,"ĠEn":2079,"iya":2080,"Valde":2081,"ĠZap":2082,"Bob":2083,"Di":2084,"Ig":2085,"Ky":2086,"Novo":2087,"Nueva":2088,"Od":2089,"Up":2090,"Ve":2091,"nitz":2092,"ĠCo":2093,"Champ":2094,"aus":2095,"ĠHu":2096,"idad":2097,"Ã±as":2098,"atepec":2099,"Belle":2100,"erme":2101,"ĠValle":2102,"brunn":2103,"Gi":2104,"Mi":2105,"On":2106,"Water":2107,"Yan":2108,"cio":2109,"gos":2110,"hou":2111,"jia":2112,"ps":2113,"onz":2114,"orod":2115,"cht":2116,"amm":2117,"lez":2118,"ĠPol":2119,"ĠPablo":2120,"igo":2121,"illon":2122,"Chap":2123,"evka":2124,"ĠLakes":2125,"lands":2126,"stedt":2127,"áº¥":2128,"ĠSebasti":2129,"Cour":2130,"Day":2131,"Fal":2132,"Hil":2133,"Mang":2134,"Ponte":2135,"Tang":2136,"lob":2137,"lington":2138,"pu":2139,"sto":2140,"ars":2141,"aton":2142,"Sang":2143,"ichi":2144,"afael":2145,"Unter":2146,"Dj":2147,"Dur":2148,"Hoh":2149,"Horn":2150,"Lun":2151,"Piet":2152,"Tai":2153,"Top":2154,"dan":2155,"ganj":2156,"pel":2157,"iny":2158,"alan":2159,"asan":2160,"ovskiy":2161,"agan":2162,"ĠFlor":2163,"entes":2164,"Corn":2165,"Hay":2166,"Kas":2167,"Kab":2168,"Map":2169,"Pur":2170,"Pul":2171,"Rog":2172,"Rob":2173,"Rud":2174,"Ti":2175,"Tay":2176,"cy":2177,"Æ¡":2178,"ono":2179,"chio":2180,"leben":2181,"ĠCarl":2182,"raz":2183,"ĠMat":2184,"riz":2185,"ieux":2186,"ikon":2187,"azar":2188,"qui":2189,"Berg":2190,"Ãªn":2191,"Pierre":2192,"Bac":2193,"Font":2194,"Ker":2195,"Lind":2196,"Mou":2197,"Oc":2198,"Pine":2199,"Tol":2200,"Tim":2201,"Wald":2202,"bara":2203,"ef":2204,"eo":2205,"kin":2206,"sheim":2207,"vor":2208,"vel":2209,"Ġof":2210,"oria":2211,"ouo":2212,"isa":2213,"oven":2214,"ĠPin":2215,"sko":2216,"All":2217,"ĠDon":2218,"Ä±r":2219,"Nova":2220,"gnacio":2221,"Frank":2222,"ĠGardens":2223,"rogres":2224,"But":2225,"Bern":2226,"Dou":2227,"Germ":2228,"Hom":2229,"Kin":2230,"Kamp":2231,"Pop":2232,"Ren":2233,"Ten":2234,"bek":2235,"pat":2236,"illes":2237,"Chak":2238,"iego":2239,"Mark":2240,"egg":2241,"Stan":2242,"ciano":2243,"Amb":2244,"weiler":2245,"Stein":2246,"Pueblo":2247,"Ġsul":2248,"BÄĥ":2249,"Cop":2250,"Gard":2251,"Kaf":2252,"Lor":2253,"Lib":2254,"Litt":2255,"Pra":2256,"Rem":2257,"Sy":2258,"Wes":2259,"dar":2260,"ule":2261,"ĠSant":2262,"inskiy":2263,"onta":2264,"ory":2265,"lah":2266,"Ã©rÃ©":2267,"ret":2268,"ovan":2269,"iac":2270,"rak":2271,"unda":2272,"ĠAc":2273,"head":2274,"quil":2275,"huac":2276,"ibertad":2277,"Jean":2278,"Bug":2279,"Cla":2280,"Des":2281,"Dum":2282,"Ib":2283,"Ing":2284,"Kum":2285,"Mes":2286,"Mun":2287,"Pie":2288,"Pog":2289,"Rod":2290,"Sag":2291,"Sev":2292,"Sib":2293,"ech":2294,"gr":2295,"iÅŁ":2296,"Ä°":2297,"Ġy":2298,"ento":2299,"alu":2300,"adow":2301,"ĠPal":2302,"iller":2303,"ÃŃas":2304,"use":2305,"bajo":2306,"hem":2307,"eca":2308,"iki":2309,"shi":2310,"allo":2311,"Ä±k":2312,"zyce":2313,"Cerro":2314,"ĠVictoria":2315,"ĠMorelos":2316,"ĠGreen":2317,"ĠViejo":2318,"ĠCarlos":2319,"Aub":2320,"Bai":2321,"Kem":2322,"Tec":2323,"Yong":2324,"ZÃ¼":2325,"bin":2326,"iÃ¨re":2327,"mon":2328,"vale":2329,"yo":2330,"zÃ³w":2331,"Ã¬":2332,"orp":2333,"asi":2334,"chester":2335,"itu":2336,"rea":2337,"ĠMil":2338,"ĠMont":2339,"aud":2340,"ĠAbajo":2341,"ells":2342,"iva":2343,"ranca":2344,"str":2345,"ampton":2346,"Ä«d":2347,"quan":2348,"liano":2349,"entino":2350,"uelo":2351,"denas":2352,"ĠCrist":2353,"Old":2354,"Bois":2355,"agoza":2356,"ĠCampos":2357,"ĠTráº¥":2358,"Bed":2359,"Bod":2360,"Cz":2361,"Cand":2362,"Dh":2363,"Feng":2364,"Hel":2365,"Len":2366,"Lis":2367,"MÄĥ":2368,"Mich":2369,"Qing":2370,"Rib":2371,"Roch":2372,"Wat":2373,"vin":2374,"yat":2375,"Ãħ":2376,"ÅĮ":2377,"asca":2378,"asant":2379,"olom":2380,"Ã©e":2381,"ĠCarm":2382,"Ã¡t":2383,"ĠBr":2384,"ĠBur":2385,"agh":2386,"ĠTla":2387,"iem":2388,"ampa":2389,"ope":2390,"Thá»ĭ":2391,"ĠZar":2392,"beek":2393,"Sidi":2394,"ĠShahri":2395,"rogreso":2396,"ĠTráº¥n":2397,"Aur":2398,"Bun":2399,"Bain":2400,"Ken":2401,"Mab":2402,"Mog":2403,"Pap":2404,"River":2405,"Sap":2406,"Tin":2407,"Tap":2408,"Tong":2409,"Wo":2410,"cel":2411,"eu":2412,"eÈĻti":2413,"kÃ³w":2414,"lam":2415,"nÃŃ":2416,"sous":2417,"wer":2418,"ĠÄĲ":2419,"alle":2420,"esc":2421,"ĠCa":2422,"ĠCap":2423,"itla":2424,"Äģy":2425,"ĠSab":2426,"Chin":2427,"ĠAb":2428,"ĠAz":2429,"iras":2430,"tion":2431,"Ann":2432,"liff":2433,"Å«d":2434,"ambo":2435,"Ã¡rdenas":2436,"ĠUni":2437,"Whit":2438,"ĠEstates":2439,"ĠVerde":2440,"ĠFelipe":2441,"ZÃ¼rich":2442,"Bis":2443,"Fer":2444,"Fil":2445,"HÃ¶":2446,"Jam":2447,"Kis":2448,"My":2449,"Mot":2450,"Pro":2451,"Pac":2452,"Paul":2453,"Ton":2454,"Tag":2455,"Tour":2456,"Wall":2457,"dr":2458,"for":2459,"gin":2460,"kan":2461,"min":2462,"mark":2463,"niy":2464,"nagar":2465,"pet":2466,"qiao":2467,"yuan":2468,"Å¢":2469,"este":2470,"oln":2471,"tay":2472,"itos":2473,"aye":2474,"ĠSer":2475,"abr":2476,"irchen":2477,"ĠRafael":2478,"ulco":2479,"ĠGr":2480,"ahr":2481,"ĠVale":2482,"oko":2483,"aire":2484,"Ant":2485,"Ãºs":2486,"Esta":2487,"Great":2488,"incÃ³n":2489,"ChÃ¢teau":2490,"ĠAgust":2491,"Bi":2492,"Bass":2493,"Cre":2494,"Had":2495,"Kad":2496,"Lem":2497,"Lev":2498,"Men":2499,"Mul":2500,"Pang":2501,"Ron":2502,"Rancho":2503,"Tul":2504,"bat":2505,"kar":2506,"kino":2507,"mel":2508,"mouth":2509,"san":2510,"uzh":2511,"uovo":2512,"wald":2513,"tai":2514,"inge":2515,"ĠSte":2516,"ĠSul":2517,"Lac":2518,"ĠBer":2519,"ĠBen":2520,"ĠBel":2521,"ĠRock":2522,"Alde":2523,"elli":2524,"ĠOak":2525,"Barrio":2526,"Forest":2527,"ĠGuadalupe":2528,"CaÃ±":2529,"Little":2530,"Band":2531,"Ced":2532,"Der":2533,"Koz":2534,"Llan":2535,"Ping":2536,"Ross":2537,"Tav":2538,"Zap":2539,"jos":2540,"kel":2541,"kovo":2542,"nia":2543,"zon":2544,"ÅŃ":2545,"erÃ³n":2546,"enheim":2547,"ilo":2548,"aso":2549,"tav":2550,"itan":2551,"ĠPet":2552,"rod":2553,"ĠSur":2554,"Alc":2555,"ĠGuer":2556,"onga":2557,"uey":2558,"ĠJo":2559,"shausen":2560,"ourt":2561,"ĠChap":2562,"Å«n":2563,"ĠAlto":2564,"ashi":2565,"ÅĤaw":2566,"peranza":2567,"ĠCampo":2568,"NÃ©a":2569,"Buenavista":2570,"ĠMateo":2571,"BÃ¼":2572,"Ess":2573,"Gri":2574,"Nik":2575,"Pel":2576,"Pied":2577,"Rou":2578,"Ust":2579,"cer":2580,"feng":2581,"kal":2582,"nov":2583,"nau":2584,"ois":2585,"ery":2586,"ami":2587,"dem":2588,"lach":2589,"adas":2590,"rava":2591,"tem":2592,"ĠPiet":2593,"eton":2594,"ĠBon":2595,"Chal":2596,"odi":2597,"tier":2598,"Casal":2599,"Ã«r":2600,"Burg":2601,"Ã©nÃ©":2602,"Zhong":2603,"ĠBlanca":2604,"Ä±nar":2605,"Af":2606,"Big":2607,"Cot":2608,"Ev":2609,"Has":2610,"Mam":2611,"Ox":2612,"Reg":2613,"Sak":2614,"bel":2615,"bÃ¼":2616,"iÅ¡":2617,"iÄĩ":2618,"ric":2619,"stown":2620,"uÃ©":2621,"uth":2622,"vik":2623,"wich":2624,"Å»":2625,"ante":2626,"orado":2627,"esta":2628,"ouin":2629,"oukro":2630,"iso":2631,"rab":2632,"ĠPaz":2633,"row":2634,"etown":2635,"ĠBern":2636,"agua":2637,"Ã³polis":2638,"usa":2639,"ump":2640,"ersheim":2641,"Shuang":2642,"ĠMarcos":2643,"tepe":2644,"verde":2645,"bourne":2646,"dalena":2647,"ĠRosario":2648,"DÃ©":2649,"Gil":2650,"Gun":2651,"Kay":2652,"Kop":2653,"Linc":2654,"Pak":2655,"Plan":2656,"Ri":2657,"Ran":2658,"ht":2659,"hill":2660,"hurst":2661,"ved":2662,"wÄģ":2663,"Åı":2664,"arina":2665,"iliano":2666,"dep":2667,"lag":2668,"atz":2669,"isc":2670,"ĠCÃ¡rdenas":2671,"ovac":2672,"ovsk":2673,"Ã¡l":2674,"Che":2675,"ĠRam":2676,"ĠView":2677,"oyo":2678,"opol":2679,"Monter":2680,"see":2681,"osso":2682,"Borgo":2683,"ĠGiovan":2684,"Middle":2685,"ĠNicolÃ¡s":2686,"ĠSebastiÃ¡n":2687,"ĠGiovanni":2688,"Bus":2689,"Buch":2690,"Cass":2691,"Ex":2692,"Fres":2693,"Gn":2694,"Gur":2695,"Gou":2696,"Herm":2697,"Hart":2698,"Log":2699,"Mach":2700,"Nat":2701,"Now":2702,"Oz":2703,"Pav":2704,"Put":2705,"Say":2706,"Vit":2707,"Vila":2708,"Wei":2709,"Wolf":2710,"bad":2711,"bey":2712,"fen":2713,"gy":2714,"gon":2715,"hÄģ":2716,"Ġa":2717,"into":2718,"ely":2719,"iston":2720,"rach":2721,"ĠMol":2722,"tedt":2723,"uno":2724,"riel":2725,"igen":2726,"Cha":2727,"Ã³bal":2728,"Äĥd":2729,"Arc":2730,"ampo":2731,"ĠWiel":2732,"Colle":2733,"Villal":2734,"Huang":2735,"Seine":2736,"errato":2737,"áº¡":2738,"royo":2739,"ĠPietro":2740,"App":2741,"Cou":2742,"Gul":2743,"Hin":2744,"Kul":2745,"Loma":2746,"Met":2747,"Nd":2748,"Nong":2749,"Neg":2750,"Sir":2751,"Sus":2752,"Song":2753,"Tou":2754,"Tres":2755,"Yar":2756,"lang":2757,"nan":2758,"nÃ¡":2759,"rin":2760,"Ã¦":2761,"anka":2762,"eren":2763,"alpa":2764,"ork":2765,"ame":2766,"lea":2767,"atan":2768,"ĠCas":2769,"itsa":2770,"ĠPr":2771,"ĠPar":2772,"Äģnd":2773,"ĠSa":2774,"Ã³m":2775,"andi":2776,"aine":2777,"Äĥc":2778,"ots":2779,"tera":2780,"tern":2781,"ema":2782,"ache":2783,"uda":2784,"tsville":2785,"âĢĻ-":2786,"Carr":2787,"Ã§a":2788,"irie":2789,"ault":2790,"theim":2791,"stone":2792,"ÈĽa":2793,"Laguna":2794,"Ã¡zaro":2795,"Cad":2796,"Cra":2797,"Dem":2798,"Eng":2799,"Fel":2800,"Gorn":2801,"Harr":2802,"Ja":2803,"Lad":2804,"Ling":2805,"Mus":2806,"Om":2807,"Pos":2808,"Roy":2809,"Seg":2810,"Tir":2811,"Vr":2812,"Vig":2813,"Well":2814,"Xia":2815,"Ye":2816,"cs":2817,"ces":2818,"gre":2819,"iÃ¨res":2820,"lyn":2821,"pal":2822,"ws":2823,"á¹":2824,"Ġ2":2825,"ches":2826,"urn":2827,"tau":2828,"ĠCer":2829,"ici":2830,"ayl":2831,"ĠSe":2832,"ĠSol":2833,"Lab":2834,"omp":2835,"ĠAgua":2836,"skie":2837,"ĠTep":2838,"ĠTerme":2839,"ĠGe":2840,"ahan":2841,"iden":2842,"uez":2843,"obo":2844,"ĠDe":2845,"Arn":2846,"gues":2847,"awan":2848,"Ã§u":2849,"stetten":2850,"linton":2851,"giore":2852,"Loire":2853,"igliano":2854,"Nizh":2855,"Union":2856,"kÃ¶y":2857,"ĠBartolom":2858,"ĠZapata":2859,"Agua":2860,"Bes":2861,"Blan":2862,"Cres":2863,"Cant":2864,"Dav":2865,"Fe":2866,"Gab":2867,"Haw":2868,"Ik":2869,"Jac":2870,"Mb":2871,"Suk":2872,"Vo":2873,"Wol":2874,"fer":2875,"ges":2876,"pÃ©":2877,"pino":2878,"rÃŃ":2879,"sor":2880,"uÅŁ":2881,"vas":2882,"yt":2883,"zyn":2884,"anh":2885,"anes":2886,"aru":2887,"enton":2888,"alt":2889,"chia":2890,"urch":2891,"lac":2892,"ĠCab":2893,"ĠPor":2894,"Chic":2895,"Ã³p":2896,"ĠHaven":2897,"ĠGar":2898,"ive":2899,"Ã¼k":2900,"ĠDu":2901,"Arm":2902,"utla":2903,"assa":2904,"erno":2905,"ĠOb":2906,"Vald":2907,"Castle":2908,"Schw":2909,"Villam":2910,"ĠMartino":2911,"acienda":2912,"Bains":2913,"ĠGuerrero":2914,"Lincoln":2915,"Ach":2916,"Cle":2917,"God":2918,"Hat":2919,"Hau":2920,"Hong":2921,"Kun":2922,"Lat":2923,"Lug":2924,"Vir":2925,"Wan":2926,"hofen":2927,"wi":2928,"zin":2929,"Ġp":2930,"anu":2931,"erb":2932,"enza":2933,"ilia":2934,"ilton":2935,"isi":2936,"rey":2937,"Ã¡d":2938,"Lak":2939,"Lap":2940,"autla":2941,"ĠAy":2942,"avan":2943,"Äĥt":2944,"otte":2945,"okro":2946,"acho":2947,"quin":2948,"eva":2949,"ĠMarina":2950,"Ã±os":2951,"gaon":2952,"Å£i":2953,"Ã¸r":2954,"ĠHarbor":2955,"Aj":2956,"Ath":2957,"Aber":2958,"Ding":2959,"Ful":2960,"Hir":2961,"Jes":2962,"Joh":2963,"Kn":2964,"KÃ¶":2965,"Kob":2966,"Lum":2967,"Maj":2968,"Mira":2969,"Rh":2970,"Roh":2971,"Va":2972,"dad":2973,"fo":2974,"fu":2975,"gg":2976,"gal":2977,"mit":2978,"so":2979,"tte":2980,"zal":2981,"zel":2982,"inte":2983,"ony":2984,"orio":2985,"elt":2986,"Ã©g":2987,"Ã©gu":2988,"iten":2989,"ovskaya":2990,"rap":2991,"ĠMills":2992,"uni":2993,"ĠSeg":2994,"Lav":2995,"ĠBor":2996,"ĠAd":2997,"thor":2998,"ĠVen":2999,"ersville":3000,"oga":3001,"endale":3002,"asse":3003,"ipp":3004,"Prov":3005,"ĠShores":3006,"Bayt":3007,"eriore":3008,"Ã¯n":3009,"William":3010,"Kafr":3011,"ĠCristÃ³bal":3012,"ĠZaragoza":3013,"Kang":3014,"Kaz":3015,"Low":3016,"Lich":3017,"Nap":3018,"Pes":3019,"Pag":3020,"Pir":3021,"Seb":3022,"Vern":3023,"Wen":3024,"cord":3025,"hÃ©":3026,"ial":3027,"ios":3028,"ika":3029,"oto":3030,"side":3031,"tar":3032,"tas":3033,"tre":3034,"uco":3035,"witz":3036,"wijk":3037,"zana":3038,"Ġc":3039,"erne":3040,"alb":3041,"orge":3042,"ilco":3043,"aster":3044,"cho":3045,"chy":3046,"led":3047,"Ã©k":3048,"Ã©l":3049,"ĠMountain":3050,"ĠPa":3051,"ĠPort":3052,"ĠBa":3053,"abad":3054,"aint":3055,"ĠRio":3056,"ĠRiv":3057,"Mars":3058,"alli":3059,"ierz":3060,"enii":3061,"nies":3062,"inster":3063,"Maur":3064,"ConcepciÃ³n":3065,"ĠCarmen":3066,"ĠUniÃ³n":3067,"ĠAgustÃŃn":3068,"Ari":3069,"Boy":3070,"Blo":3071,"Cul":3072,"Clay":3073,"Dy":3074,"Die":3075,"Farm":3076,"Gan":3077,"Gang":3078,"Gir":3079,"Hou":3080,"Ju":3081,"Jab":3082,"Juan":3083,"Jiang":3084,"Kim":3085,"Nord":3086,"Ras":3087,"Sec":3088,"SÃ¢n":3089,"Vor":3090,"Xing":3091,"far":3092,"kowice":3093,"mÃ¼":3094,"xing":3095,"xtla":3096,"ÄĹ":3097,"inka":3098,"ils":3099,"dez":3100,"ouse":3101,"ĠPer":3102,"Äģz":3103,"ĠSch":3104,"eti":3105,"Cham":3106,"edes":3107,"ake":3108,"ape":3109,"tian":3110,"Maria":3111,"ÅŁa":3112,"ersh":3113,"ogorsk":3114,"azz":3115,"ĠDol":3116,"quer":3117,"ernando":3118,"ugh":3119,"Brad":3120,"Columb":3121,"ajo":3122,"tenberg":3123,"ashington":3124,"Novos":3125,"ignÃ©":3126,"Trin":3127,"ksand":3128,"ĠReal":3129,"Richmond":3130,"unction":3131,"Klein":3132,"Germain":3133,"EstaciÃ³n":3134,"erÃ³nimo":3135,"depend":3136,"'s":3137,"Bau":3138,"Bot":3139,"Francisco":3140,"Gy":3141,"Hem":3142,"Iv":3143,"Ivan":3144,"Jer":3145,"Ki":3146,"Kry":3147,"Let":3148,"Lob":3149,"Mis":3150,"Nieu":3151,"Pok":3152,"Punta":3153,"RÃ¶":3154,"RÄģm":3155,"Sut":3156,"Ya":3157,"ble":3158,"bank":3159,"cr":3160,"cin":3161,"ding":3162,"fr":3163,"fton":3164,"gra":3165,"gate":3166,"kam":3167,"lon":3168,"lie":3169,"low":3170,"ms":3171,"sberg":3172,"uta":3173,"uka":3174,"vat":3175,"zar":3176,"ĠÅŀ":3177,"ania":3178,"ance":3179,"atta":3180,"Ã©b":3181,"ads":3182,"ĠMo":3183,"ayy":3184,"Äģw":3185,"ĠBo":3186,"ĠBra":3187,"illÃ©":3188,"Chil":3189,"ako":3190,"Alp":3191,"ĠVega":3192,"usta":3193,"ĠJerÃ³nimo":3194,"ĠNov":3195,"ÅŁu":3196,"Ã¼ck":3197,"sha":3198,"sham":3199,"ĠDiego":3200,"stÃ¤":3201,"Ä«m":3202,"tsch":3203,"Ã¢nd":3204,"ndorf":3205,"ishi":3206,"zew":3207,"Brown":3208,"felden":3209,"Silver":3210,"ĠConcepciÃ³n":3211,"Bourg":3212,"ĠCatarina":3213,"JosÃ©":3214,"AÃ¯n":3215,"Bow":3216,"Boc":3217,"Bish":3218,"Cac":3219,"Cog":3220,"Coc":3221,"Center":3222,"King":3223,"Mod":3224,"Mend":3225,"Mih":3226,"Nog":3227,"Ov":3228,"Pau":3229,"Pian":3230,"Sed":3231,"Tis":3232,"Vas":3233,"Warr":3234,"Zag":3235,"bah":3236,"cor":3237,"dy":3238,"dz":3239,"fel":3240,"jin":3241,"kon":3242,"nam":3243,"pleu":3244,"uo":3245,"uve":3246,"yd":3247,"Ãľ":3248,"esville":3249,"osto":3250,"Ã©kro":3251,"Ġdei":3252,"ĠMal":3253,"ĠMich":3254,"ĠBal":3255,"ĠBro":3256,"omo":3257,"Chern":3258,"Chester":3259,"tham":3260,"ulo":3261,"ĠVe":3262,"ĠVall":3263,"ave":3264,"nez":3265,"owns":3266,"Ġdella":3267,"Shar":3268,"Sher":3269,"ĠII":3270,"ĠIl":3271,"iye":3272,"uga":3273,"ĠOc":3274,"ĠOro":3275,"SchÃ¶n":3276,"Quint":3277,"ĠAlb":3278,"Oliv":3279,"Tex":3280,"orgio":3281,"ÈĽi":3282,"Llano":3283,"Hohen":3284,"Cedar":3285,"Ast":3286,"Baz":3287,"Civ":3288,"Dorf":3289,"Eb":3290,"Fern":3291,"Gall":3292,"Jan":3293,"Kaw":3294,"Mai":3295,"Rab":3296,"Rot":3297,"Roz":3298,"Sie":3299,"Za":3300,"Zac":3301,"born":3302,"cun":3303,"kÃ©":3304,"los":3305,"pang":3306,"sbach":3307,"tin":3308,"tur":3309,"tto":3310,"xand":3311,"Ã®":3312,"Ãµ":3313,"Ãļ":3314,"Ġ[":3315,"anas":3316,"alia":3317,"recht":3318,"Äģna":3319,"ĠSar":3320,"ĠSau":3321,"Law":3322,"ĠBase":3323,"igan":3324,"Cheng":3325,"hein":3326,"okaha":3327,"iko":3328,"Shel":3329,"egu":3330,"Ard":3331,"estre":3332,"hui":3333,"ĠLag":3334,"ffen":3335,"ngeles":3336,"undo":3337,"á¸ĳ":3338,"ignan":3339,"Merc":3340,"aldo":3341,"ĠUn":3342,"Plou":3343,"Clar":3344,"Ã´ne":3345,"Paso":3346,"Ã¤rvi":3347,"Georges":3348,"Upper":3349,"Æ¡n":3350,"Aw":3351,"Bran":3352,"Card":3353,"Hy":3354,"Hen":3355,"Hum":3356,"Haz":3357,"Huan":3358,"Ignacio":3359,"Ji":3360,"Jo":3361,"Lud":3362,"Luk":3363,"Mountain":3364,"Py":3365,"Pay":3366,"PÄģ":3367,"Pob":3368,"Pamp":3369,"Rav":3370,"Rum":3371,"Rev":3372,"Son":3373,"Sing":3374,"Sig":3375,"Sey":3376,"Samb":3377,"Tet":3378,"Tot":3379,"Tub":3380,"Wy":3381,"Wester":3382,"bes":3383,"hai":3384,"mers":3385,"oe":3386,"rum":3387,"sar":3388,"vill":3389,"vern":3390,"weg":3391,"anos":3392,"anca":3393,"erville":3394,"elu":3395,"chan":3396,"chang":3397,"oula":3398,"olm":3399,"isto":3400,"itÃ¡n":3401,"ovci":3402,"teÅŁti":3403,"ĠProgreso":3404,"ĠBuen":3405,"ĠRa":3406,"ĠRita":3407,"ulu":3408,"bao":3409,"ĠLibertad":3410,"ĠNeg":3411,"ersburg":3412,"ogne":3413,"Ä«l":3414,"iche":3415,"Ã¢l":3416,"oura":3417,"Barra":3418,"GuÃ©":3419,"hao":3420,"Newport":3421,"ignac":3422,"Kirk":3423,"Bagn":3424,"ĠGiorgio":3425,"Victoria":3426,"Stock":3427,"ĠFlores":3428,"Franklin":3429,"ĠBravo":3430,"Buk":3431,"Bridge":3432,"Cau":3433,"CÄĥ":3434,"Cond":3435,"Dev":3436,"Ek":3437,"Guan":3438,"Hon":3439,"Hill":3440,"Hav":3441,"Herr":3442,"Hills":3443,"Ill":3444,"Kel":3445,"Kro":3446,"Lom":3447,"LÃ¼":3448,"Loc":3449,"Nu":3450,"Nak":3451,"Pem":3452,"Ray":3453,"Rac":3454,"Sos":3455,"Sad":3456,"Sob":3457,"Tian":3458,"Tanj":3459,"Ud":3460,"Vad":3461,"Wit":3462,"You":3463,"Zav":3464,"Zhu":3465,"bio":3466,"din":3467,"eville":3468,"fe":3469,"lano":3470,"mor":3471,"mad":3472,"net":3473,"pam":3474,"ple":3475,"rÃ¡":3476,"zz":3477,"Åº":3478,"Èĺ":3479,"enas":3480,"alÃ¡":3481,"ation":3482,"ose":3483,"ouan":3484,"Ã©lÃ©":3485,"isar":3486,"ĠMer":3487,"ĠPueb":3488,"uns":3489,"Äģri":3490,"Äģá¸©":3491,"righ":3492,"ĠBou":3493,"iglio":3494,"agna":3495,"agui":3496,"ĠAt":3497,"ĠAle":3498,"Ã³ri":3499,"abel":3500,"ĠRod":3501,"ĠGab":3502,"usz":3503,"ĠJoh":3504,"okh":3505,"ÅŁi":3506,"Shang":3507,"Shah":3508,"ards":3509,"Monta":3510,"burgh":3511,"Villas":3512,"ermosa":3513,"Ãºn":3514,"Esc":3515,"Casas":3516,"Sea":3517,"stead":3518,"borg":3519,"Benito":3520,"eneuve":3521,"Emiliano":3522,"Ã¶nig":3523,"Angelo":3524,"niki":3525,"tagne":3526,"iglione":3527,"ĠLucas":3528,"ackson":3529,"Rocca":3530,"walde":3531,"Central":3532,"Æ°á»":3533,"Aug":3534,"Bia":3535,"Bok":3536,"Boh":3537,"Boz":3538,"Beth":3539,"Cord":3540,"Hur":3541,"Hud":3542,"Hacienda":3543,"Jing":3544,"Kong":3545,"Main":3546,"Mant":3547,"Moh":3548,"Nau":3549,"Nicol":3550,"Our":3551,"Para":3552,"Rat":3553,"Rub":3554,"Sw":3555,"Sac":3556,"SÄĥ":3557,"Sung":3558,"Tamb":3559,"Van":3560,"Yun":3561,"cast":3562,"dong":3563,"fal":3564,"ku":3565,"mat":3566,"mere":3567,"pas":3568,"wis":3569,"yne":3570,"ÅĪ":3571,"Ġi":3572,"arra":3573,"enk":3574,"eny":3575,"enka":3576,"onda":3577,"elia":3578,"asc":3579,"amor":3580,"leur":3581,"leigh":3582,"oub":3583,"Ã©v":3584,"ĠCom":3585,"ĠCorn":3586,"ados":3587,"race":3588,"ĠPra":3589,"ĠPuerto":3590,"Äģla":3591,"ĠBran":3592,"agle":3593,"ome":3594,"Chich":3595,"ĠAgu":3596,"Ġdos":3597,"ĠTri":3598,"ĠHa":3599,"ĠRanch":3600,"Alber":3601,"avi":3602,"avese":3603,"ĠLar":3604,"Marina":3605,"ĠNa":3606,"ĠNou":3607,"ĠNueva":3608,"ĠFu":3609,"illac":3610,"shui":3611,"aza":3612,"Arroyo":3613,"Ä«s":3614,"quit":3615,"Neus":3616,"eke":3617,"Ã¢m":3618,"ungan":3619,"Brand":3620,"ize":3621,"aja":3622,"Thorn":3623,"Valley":3624,"Ã¤s":3625,"Villeneuve":3626,"Bella":3627,"Montic":3628,"Novi":3629,"Äįe":3630,"Ã©nou":3631,"áºĸ":3632,"istr":3633,"Roth":3634,"onso":3635,"Casteln":3636,"ĠEsperanza":3637,"warz":3638,"DrÄĥ":3639,"DolnÃŃ":3640,"Alexand":3641,"olfo":3642,"ÃŃso":3643,"ĠPalma":3644,"Highland":3645,"Att":3646,"Beni":3647,"Cub":3648,"Clinton":3649,"Fa":3650,"Fi":3651,"Fin":3652,"Fra":3653,"Kra":3654,"Kod":3655,"KÃ¼":3656,"Lov":3657,"Lie":3658,"Lamb":3659,"Meng":3660,"Pic":3661,"Ret":3662,"Rus":3663,"Rec":3664,"RÃ¼":3665,"RincÃ³n":3666,"Sop":3667,"Tok":3668,"Vy":3669,"Wer":3670,"Wai":3671,"bol":3672,"bia":3673,"beck":3674,"gor":3675,"gat":3676,"hn":3677,"lik":3678,"nio":3679,"pÄ±nar":3680,"say":3681,"teni":3682,"wu":3683,"zec":3684,"ince":3685,"enay":3686,"altepec":3687,"eley":3688,"ilar":3689,"dec":3690,"lau":3691,"lake":3692,"Ã©ri":3693,"tak":3694,"ĠCove":3695,"ovskoye":3696,"ayor":3697,"ĠSaint":3698,"tong":3699,"ime":3700,"iman":3701,"Chel":3702,"abal":3703,"ÃŃr":3704,"thur":3705,"ĠTom":3706,"ĠHund":3707,"Alten":3708,"ĠFe":3709,"ikha":3710,"Ã¶s":3711,"stal":3712,"udi":3713,"assi":3714,"ipa":3715,"ĠOne":3716,"bergen":3717,"ĠWood":3718,"Tha":3719,"Castro":3720,"ĠAlta":3721,"Mans":3722,"ija":3723,"ĠJose":3724,"Bald":3725,"nsdorf":3726,"cuaro":3727,"ÅĻÃŃ":3728,"ĠMartin":3729,"rose":3730,"ÄĥneÈĻti":3731,"ĠRoque":3732,"Fuente":3733,"ĠInf":3734,"ĠForce":3735,"ĠMadero":3736,"ĠClara":3737,"ĠCentro":3738,"ontaine":3739,"Pieve":3740,"ĠHundred":3741,"Cel":3742,"Cob":3743,"Dos":3744,"Did":3745,"Fri":3746,"Gand":3747,"Gem":3748,"Hun":3749,"Hard":3750,"Hunt":3751,"Jas":3752,"Jackson":3753,"Kah":3754,"Lal":3755,"Luz":3756,"Liber":3757,"Mut":3758,"Miss":3759,"Ole":3760,"RÄĥ":3761,"Sov":3762,"Ston":3763,"SÃ¼":3764,"Soc":3765,"Tah":3766,"Ug":3767,"Ung":3768,"Vis":3769,"Wel":3770,"Way":3771,"Yel":3772,"Yak":3773,"gel":3774,"gang":3775,"gau":3776,"hor":3777,"hall":3778,"iqu":3779,"non":3780,"nach":3781,"oo":3782,"por":3783,"qi":3784,"sy":3785,"sta":3786,"uit":3787,"vador":3788,"yev":3789,"aram":3790,"ende":3791,"als":3792,"alina":3793,"ild":3794,"ilh":3795,"esto":3796,"chin":3797,"lado":3798,"oster":3799,"tac":3800,"ĠCourt":3801,"iag":3802,"ĠPrim":3803,"Ã¡m":3804,"ĠSee":3805,"ĠBan":3806,"Charl":3807,"ace":3808,"tok":3809,"ĠTec":3810,"Alto":3811,"cott":3812,"ÅŁÄ±":3813,"Art":3814,"uci":3815,"Stra":3816,"ordo":3817,"iera":3818,"izz":3819,"Villaf":3820,"uelas":3821,"quez":3822,"uerta":3823,"Ã«vo":3824,"áºŃ":3825,"Petit":3826,"Clark":3827,"Ã´ng":3828,"ĠLeon":3829,"ĠLeft":3830,"ĠStef":3831,"Tanjung":3832,"Bard":3833,"Ce":3834,"Cov":3835,"Cir":3836,"Cum":3837,"Cran":3838,"Cort":3839,"Din":3840,"Dig":3841,"Dag":3842,"Fay":3843,"Foss":3844,"Gos":3845,"Gold":3846,"Id":3847,"Jul":3848,"Kut":3849,"Lit":3850,"Lok":3851,"Lut":3852,"LÃ¡zaro":3853,"Ning":3854,"Not":3855,"Ori":3856,"Poc":3857,"Prim":3858,"Res":3859,"Rap":3860,"Sub":3861,"Tat":3862,"Ves":3863,"Wor":3864,"Washington":3865,"iat":3866,"kaha":3867,"ote":3868,"oara":3869,"su":3870,"vet":3871,"vÃ¡r":3872,"wice":3873,"xco":3874,"zell":3875,"Ã¹":3876,"ĠÅļ":3877,"arh":3878,"onk":3879,"alam":3880,"ching":3881,"ouk":3882,"oles":3883,"olles":3884,"isk":3885,"ishan":3886,"ovi":3887,"ovec":3888,"rain":3889,"ĠMel":3890,"ĠMill":3891,"ĠPaul":3892,"Äģq":3893,"agno":3894,"Chat":3895,"Chev":3896,"ĠHor":3897,"apur":3898,"ĠGarc":3899,"hevo":3900,"otto":3901,"ĠJunction":3902,"Marie":3903,"Marne":3904,"azzo":3905,"opp":3906,"assou":3907,"ress":3908,"Ä±z":3909,"huaca":3910,"fferson":3911,"Quin":3912,"Å¡t":3913,"sea":3914,"ÅĤÃ³w":3915,"ucheng":3916,"Pros":3917,"Perv":3918,"Concord":3919,"ĠAnt":3920,"nster":3921,"Reich":3922,"oledad":3923,"Poiana":3924,"ÅĻice":3925,"luff":3926,"Kota":3927,"Villanova":3928,"Smith":3929,"ĠBlanco":3930,"Puebla":3931,"Kingston":3932,"Pleasant":3933,"ouinÃ©":3934,"Ã³mez":3935,"Cis":3936,"Dul":3937,"Dah":3938,"Eber":3939,"Fried":3940,"Hall":3941,"Hof":3942,"Jia":3943,"Kp":3944,"Kit":3945,"Kak":3946,"Lus":3947,"Lomas":3948,"Meg":3949,"Ner":3950,"Nes":3951,"Nab":3952,"Nev":3953,"Pou":3954,"Rand":3955,"Step":3956,"Tun":3957,"Tig":3958,"Tac":3959,"Tob":3960,"TrÃ©":3961,"Taf":3962,"Terr":3963,"Vid":3964,"bas":3965,"bos":3966,"fj":3967,"fran":3968,"gas":3969,"hen":3970,"hel":3971,"iÈĻ":3972,"jal":3973,"lv":3974,"lice":3975,"nano":3976,"rz":3977,"tu":3978,"tle":3979,"vre":3980,"xiang":3981,"Ä©":3982,"Åĵ":3983,"Ġe":3984,"ancia":3985,"enta":3986,"alk":3987,"eln":3988,"iles":3989,"chard":3990,"chuan":3991,"deÅŁti":3992,"ols":3993,"adia":3994,"ovoye":3995,"ĠMaz":3996,"icola":3997,"ĠPan":3998,"ĠPed":3999,"Äģra":4000,"rique":4001,"Lau":4002,"ĠBas":4003,"ĠBos":4004,"ĠBridge":4005,"Chip":4006,"ĠAs":4007,"Ã³d":4008,"Ã³ra":4009,"edale":4010,"akan":4011,"ĠGh":4012,"ĠGran":4013,"ĠVel":4014,"idi":4015,"ĠLu":4016,"ĠLig":4017,"tero":4018,"ĠJes":4019,"emb":4020,"ĠFer":4021,"ĠFernando":4022,"Ã¶y":4023,"Shi":4024,"sten":4025,"Ã¡ny":4026,"quÃŃn":4027,"opa":4028,"ĠEnd":4029,"ĠEste":4030,"ipur":4031,"ĠIx":4032,"cea":4033,"nya":4034,"Guar":4035,"eiro":4036,"ight":4037,"oche":4038,"Belmont":4039,"ĠAlm":4040,"Ã§Ã£o":4041,"uchi":4042,"Newton":4043,"arros":4044,"á»Ļ":4045,"áº£":4046,"áº§":4047,"ttel":4048,"PeÃ±":4049,"Langen":4050,"Krasnyy":4051,"Madison":4052,"ÄĥrÄĥ":4053,"venir":4054,"ĠTrin":4055,"ĠLucÃŃa":4056,"Charles":4057,"Umm":4058,"Denis":4059,"itsy":4060,"ĠChapelle":4061,"Nieuw":4062,"ĠGabriel":4063,"Bom":4064,"Bec":4065,"Boul":4066,"Bever":4067,"Cont":4068,"Dim":4069,"Dab":4070,"Gam":4071,"Gag":4072,"Gamb":4073,"Iss":4074,"Kav":4075,"Kib":4076,"Lyn":4077,"Miguel":4078,"MÃ©d":4079,"Nas":4080,"Nie":4081,"Oy":4082,"Oce":4083,"Ojo":4084,"Pf":4085,"Pia":4086,"Pun":4087,"RÄģj":4088,"Slob":4089,"Tek":4090,"Troy":4091,"Tierra":4092,"Uz":4093,"Vie":4094,"Wu":4095,"Wies":4096,"Xoch":4097,"Yen":4098,"York":4099,"col":4100,"fels":4101,"forte":4102,"kins":4103,"lou":4104,"rub":4105,"tang":4106,"vers":4107,"Ġ3":4108,"erton":4109,"inda":4110,"inskoye":4111,"onde":4112,"onville":4113,"alta":4114,"dea":4115,"atla":4116,"ĠMu":4117,"ĠMur":4118,"ĠMayo":4119,"ĠPot":4120,"rode":4121,"Äģf":4122,"Äģk":4123,"Chau":4124,"Ã³j":4125,"ther":4126,"akovo":4127,"ĠTra":4128,"ĠHall":4129,"ulan":4130,"ĠGor":4131,"ĠGÃ³r":4132,"ids":4133,"usco":4134,"avia":4135,"cote":4136,"ume":4137,"ĠLim":4138,"Ell":4139,"Elm":4140,"Äĥn":4141,"ĠJac":4142,"Marse":4143,"Markt":4144,"oki":4145,"ĠFarm":4146,"erst":4147,"rana":4148,"Sha":4149,"ego":4150,"storf":4151,"Ã¡nd":4152,"ucan":4153,"ĠKal":4154,"ensee":4155,"uki":4156,"uku":4157,"Mons":4158,"ffi":4159,"Ã¤n":4160,"asht":4161,"ĠCross":4162,"Olm":4163,"á»ĵ":4164,"Const":4165,"Broad":4166,"ushi":4167,"broek":4168,"gnano":4169,"Brigh":4170,"kirch":4171,"oughton":4172,"Fairview":4173,"ĠTorre":4174,"ĠTorres":4175,"Rocc":4176,"ĠCanavese":4177,"Laurent":4178,"ĠAires":4179,"Windsor":4180,"ĠAcres":4181,"ĠOaks":4182,"ĠJoÃ£o":4183,"Bloom":4184,"Bishop":4185,"Hudson":4186,"Bill":4187,"Bord":4188,"Cin":4189,"Cay":4190,"Cod":4191,"Caz":4192,"Cli":4193,"Cuc":4194,"Dia":4195,"Dra":4196,"Div":4197,"Diet":4198,"Eagle":4199,"Ferr":4200,"Gas":4201,"Gla":4202,"Hod":4203,"How":4204,"Jag":4205,"KÃ¡":4206,"Kai":4207,"Kara":4208,"Kost":4209,"KÃ¶nig":4210,"Leg":4211,"Mok":4212,"MÃ¶":4213,"Nur":4214,"Nang":4215,"Ned":4216,"Naz":4217,"Ow":4218,"Oss":4219,"Over":4220,"Paw":4221,"Pant":4222,"Pry":4223,"Pira":4224,"Rak":4225,"Rok":4226,"Rip":4227,"Riz":4228,"Sl":4229,"Sit":4230,"SÃ¶":4231,"Sud":4232,"Suc":4233,"Tau":4234,"TiÃ©":4235,"Wad":4236,"Xi":4237,"Ze":4238,"Zu":4239,"Zw":4240,"bre":4241,"cliff":4242,"ferrato":4243,"hal":4244,"hof":4245,"jÃ³n":4246,"kent":4247,"lÄħ":4248,"nell":4249,"rada":4250,"tos":4251,"ugu":4252,"zu":4253,"Ì±":4254,"Ġon":4255,"arg":4256,"inj":4257,"ennes":4258,"enango":4259,"aly":4260,"alto":4261,"alapa":4262,"chor":4263,"chel":4264,"urg":4265,"atÃ¡n":4266,"osta":4267,"Ã©t":4268,"Ã©li":4269,"ĠMir":4270,"ĠPas":4271,"angu":4272,"ayd":4273,"Äģv":4274,"Äģng":4275,"Ã¡k":4276,"ĠSam":4277,"ĠBÃ¡r":4278,"aggiore":4279,"abeth":4280,"abamba":4281,"tha":4282,"ĠTir":4283,"Ald":4284,"Alco":4285,"Alba":4286,"ĠVern":4287,"ushan":4288,"ieÈĻti":4289,"tip":4290,"ĠLuz":4291,"Äĥm":4292,"otitlÃ¡n":4293,"ranza":4294,"ShÄģh":4295,"ĠDowns":4296,"qua":4297,"tsia":4298,"ĠEm":4299,"ĠIgnacio":4300,"Ã¢mp":4301,"ugan":4302,"Ã±ez":4303,"ĠChico":4304,"ĠWan":4305,"ineÅŁti":4306,"antes":4307,"ezzo":4308,"Coll":4309,"eph":4310,"Amp":4311,"Villers":4312,"ocha":4313,"Princ":4314,"Coron":4315,"Esp":4316,"Mae":4317,"Adda":4318,"rontera":4319,"Cerv":4320,"Isle":4321,"Isola":4322,"Independ":4323,"Ã¡sz":4324,"ÄŁÄ±":4325,"ĠSpring":4326,"Oster":4327,"Serra":4328,"ĠQue":4329,"Blue":4330,"bourg":4331,"Willow":4332,"Louis":4333,"ĠInn":4334,"ĠGarden":4335,"Beaumont":4336,"ĠTeresa":4337,"ĠBartolo":4338,"Dayr":4339,"WeiÃŁ":4340,"ĠWielk":4341,"ĠBartolomÃ©":4342,"Castelnuovo":4343,"ĠStefano":4344,"Air":4345,"Bey":4346,"Bond":4347,"BÄĥl":4348,"Boca":4349,"Caj":4350,"CÄĥl":4351,"Dec":4352,"Ele":4353,"Fur":4354,"Gad":4355,"Hig":4356,"Hue":4357,"Hoch":4358,"Holl":4359,"Jun":4360,"Kand":4361,"Leng":4362,"Lamp":4363,"Lop":4364,"Lup":4365,"Ming":4366,"Mong":4367,"Mug":4368,"Paj":4369,"Sah":4370,"Serr":4371,"Stadt":4372,"Tuc":4373,"Tib":4374,"TÃ¢r":4375,"Vl":4376,"Wend":4377,"Xiang":4378,"Yam":4379,"bs":4380,"bell":4381,"dington":4382,"fug":4383,"fingen":4384,"hagen":4385,"iá»":4386,"jev":4387,"naya":4388,"oka":4389,"qing":4390,"ser":4391,"uto":4392,"vka":4393,"ward":4394,"Ã»":4395,"Ġna":4396,"Ġash":4397,"Ġthe":4398,"arta":4399,"eron":4400,"inz":4401,"inha":4402,"alda":4403,"elbach":4404,"ilan":4405,"ams":4406,"lak":4407,"leasant":4408,"atal":4409,"isy":4410,"ady":4411,"adero":4412,"adougou":4413,"reto":4414,"ĠPat":4415,"ĠPleasant":4416,"Äģg":4417,"Äģsh":4418,"ĠSÆ¡n":4419,"ĠBu":4420,"agne":4421,"omay":4422,"Chir":4423,"auht":4424,"ÃŃk":4425,"ĠTre":4426,"ĠHam":4427,"ĠRu":4428,"ĠGen":4429,"avier":4430,"cola":4431,"cotepec":4432,"baÅŁÄ±":4433,"umba":4434,"ĠLoma":4435,"ĠLlano":4436,"Äĥs":4437,"ÄĥÅ£":4438,"oyang":4439,"ĠNova":4440,"Ã¼l":4441,"acha":4442,"azi":4443,"alles":4444,"egem":4445,"Ä«t":4446,"udo":4447,"tsy":4448,"entin":4449,"ental":4450,"utt":4451,"ibo":4452,"ense":4453,"nyaya":4454,"Guay":4455,"ungen":4456,"fford":4457,"izabeth":4458,"ondon":4459,"tenbach":4460,"less":4461,"Gros":4462,"Orange":4463,"ÅĤa":4464,"Salem":4465,"rovka":4466,"issa":4467,"essa":4468,"elsheim":4469,"elsdorf":4470,"Bayan":4471,"Ãīti":4472,"Plain":4473,"Hamilton":4474,"Edge":4475,"Fuentes":4476,"rivka":4477,"ĠCastillo":4478,"Springfield":4479,"ĠMonferrato":4480,"Indian":4481,"Lunca":4482,"Ã¬nh":4483,"JesÃºs":4484,"felde":4485,"ĠLaguna":4486,"ĠPrairie":4487,"Notre":4488,"ĠGarcÃŃa":4489,"ĠLigure":4490,"Marseille":4491,"ĠBÃ¡rbara":4492,"Bov":4493,"Bei":4494,"Buck":4495,"Cim":4496,"Cern":4497,"Doug":4498,"Et":4499,"Four":4500,"Forn":4501,"Franc":4502,"Gav":4503,"Giv":4504,"Good":4505,"Hag":4506,"Just":4507,"Kw":4508,"LÃ¶":4509,"Lanc":4510,"Libertad":4511,"Mey":4512,"Pand":4513,"Pec":4514,"Ply":4515,"Pedro":4516,"Qar":4517,"Rov":4518,"Ric":4519,"Rim":4520,"Rey":4521,"Ried":4522,"Samp":4523,"Sek":4524,"Saw":4525,"Sierra":4526,"Vent":4527,"Vinc":4528,"Vega":4529,"Zo":4530,"Zab":4531,"aq":4532,"cillo":4533,"czy":4534,"cingo":4535,"fan":4536,"gom":4537,"haven":4538,"iÃ±o":4539,"jon":4540,"lant":4541,"litz":4542,"mas":4543,"rzy":4544,"tic":4545,"vis":4546,"yb":4547,"Ġob":4548,"anne":4549,"erk":4550,"along":4551,"orÃ©":4552,"iling":4553,"ureni":4554,"olt":4555,"olle":4556,"ĠCro":4557,"adio":4558,"ovÃ¡":4559,"ĠMain":4560,"ĠMesa":4561,"teÈĻti":4562,"ĠPlan":4563,"ĠPied":4564,"Äģli":4565,"ĠSil":4566,"ĠSup":4567,"riano":4568,"igi":4569,"omba":4570,"Chand":4571,"acÃ¡n":4572,"abe":4573,"skirchen":4574,"ĠTs":4575,"ult":4576,"ulla":4577,"ĠGreg":4578,"ĠVill":4579,"idencia":4580,"ĠLong":4581,"otz":4582,"ĠJoa":4583,"emont":4584,"March":4585,"ĠNor":4586,"Ã¶ren":4587,"Ã¼hl":4588,"Shim":4589,"ardi":4590,"ĠKn":4591,"ĠKhan":4592,"Neuk":4593,"iyang":4594,"upa":4595,"ensburg":4596,"Barb":4597,"Å«l":4598,"ozo":4599,"Castiglione":4600,"indi":4601,"olay":4602,"ĠSanto":4603,"Ã§ay":4604,"iente":4605,"Äįa":4606,"lende":4607,"Karl":4608,"Meadow":4609,"irim":4610,"Palo":4611,"Zhang":4612,"Rose":4613,"ittel":4614,"Cruz":4615,"Magdalena":4616,"Ãªt":4617,"yanka":4618,"Fairfield":4619,"moor":4620,"Jefferson":4621,"aciÃ³n":4622,"Sauve":4623,"ĠPlains":4624,"Aleksand":4625,"ĠCarranza":4626,"ĠForest":4627,"ĠÃģngeles":4628,"ĠMeadow":4629,"ĠReyes":4630,"MÃ¼hl":4631,"James":4632,"ĠBenito":4633,"bÃ¼ttel":4634,"Rohr":4635,"ĠBrook":4636,"Monticello":4637,"ĠÅļlÄħ":4638,"fugio":4639,"Ax":4640,"Are":4641,"Ahu":4642,"Ayn":4643,"Bit":4644,"Bark":4645,"Buz":4646,"Bamb":4647,"Cs":4648,"Cong":4649,"Cow":4650,"Coch":4651,"Dover":4652,"Drag":4653,"Eas":4654,"Eden":4655,"Gel":4656,"Gat":4657,"Gib":4658,"Gura":4659,"Heng":4660,"Hop":4661,"Kla":4662,"Kast":4663,"Kall":4664,"Lig":4665,"Lian":4666,"Moz":4667,"Ris":4668,"Raj":4669,"Russ":4670,"Sas":4671,"Sot":4672,"Saf":4673,"Tod":4674,"Tran":4675,"Tall":4676,"Tlal":4677,"Ula":4678,"Vik":4679,"Vien":4680,"Wah":4681,"Zam":4682,"Zell":4683,"bÃ¡":4684,"cro":4685,"gow":4686,"gli":4687,"hum":4688,"jÃ¤rvi":4689,"kreis":4690,"mu":4691,"med":4692,"minster":4693,"nac":4694,"rs":4695,"sel":4696,"ute":4697,"wah":4698,"wala":4699,"willer":4700,"xton":4701,"xington":4702,"zio":4703,"zza":4704,"zzo":4705,"Äĳ":4706,"anÃ³w":4707,"aral":4708,"arÃ©":4709,"arre":4710,"arro":4711,"inen":4712,"ilio":4713,"chÅį":4714,"ames":4715,"ouy":4716,"ound":4717,"Ã©z":4718,"ĠCarr":4719,"adilla":4720,"ital":4721,"ĠMes":4722,"ĠMic":4723,"ican":4724,"ĠPia":4725,"ayn":4726,"ayr":4727,"ungu":4728,"Ã¡za":4729,"ĠSp":4730,"ries":4731,"etla":4732,"ĠBend":4733,"ĠBuri":4734,"ignies":4735,"tona":4736,"aglia":4737,"imas":4738,"Chor":4739,"Chim":4740,"Ġdu":4741,"tog":4742,"top":4743,"ĠTa":4744,"ĠHol":4745,"ĠRap":4746,"Alg":4747,"ĠVod":4748,"ĠVito":4749,"idd":4750,"idel":4751,"usti":4752,"cob":4753,"Elizabeth":4754,"heide":4755,"ivers":4756,"Marsh":4757,"ĠNar":4758,"ĠNeck":4759,"ikou":4760,"ĠDÃŃ":4761,"Ä«sh":4762,"quar":4763,"quilla":4764,"quera":4765,"tsya":4766,"Stary":4767,"ĠIr":4768,"ĠOber":4769,"enstadt":4770,"ĠChar":4771,"Carmen":4772,"ezi":4773,"Cold":4774,"erode":4775,"ermo":4776,"erman":4777,"pura":4778,"ashen":4779,"arita":4780,"ossa":4781,"Novyy":4782,"uyo":4783,"Mex":4784,"ountry":4785,"ĠIsabel":4786,"Milton":4787,"Milford":4788,"ĠSalvador":4789,"Phil":4790,"ÄĻb":4791,"ĠEsc":4792,"Brie":4793,"etsu":4794,"ChÃ¢t":4795,"ĠRefugio":4796,"Winter":4797,"Ã©moc":4798,"Dame":4799,"Puente":4800,"Golden":4801,"ĠManor":4802,"agnano":4803,"ĠRomano":4804,"Georgetown":4805,"onzÃ¡":4806,"stock":4807,"HornÃŃ":4808,"Æ¡ng":4809,"Weston":4810,"Poggio":4811,"ĠPorvenir":4812,"Ã³pez":4813,"ĠDuero":4814,"thorpe":4815,"Ã¢ndia":4816,"ĠAlegre":4817,"áºŃn":4818,"Ocean":4819,"ĠVernon":4820,"auhtÃ©moc":4821,"Sauveur":4822,"AÅŁ":4823,"Aran":4824,"Abr":4825,"Akh":4826,"Baj":4827,"Bij":4828,"Call":4829,"Cerr":4830,"Dre":4831,"Dod":4832,"Deb":4833,"Ep":4834,"Eis":4835,"Gong":4836,"Gaz":4837,"Goh":4838,"Hend":4839,"Heb":4840,"Hampton":4841,"Ish":4842,"Jon":4843,"Kes":4844,"Kre":4845,"Kush":4846,"Lj":4847,"Lys":4848,"Mik":4849,"Mud":4850,"Morn":4851,"Mund":4852,"Mata":4853,"Och":4854,"Off":4855,"Pis":4856,"Penn":4857,"Rath":4858,"Sass":4859,"Slav":4860,"Til":4861,"Ying":4862,"Yurt":4863,"Zor":4864,"Zou":4865,"Zelen":4866,"cl":4867,"dere":4868,"furt":4869,"fors":4870,"her":4871,"lic":4872,"lÃ¡":4873,"nÃ©":4874,"rb":4875,"rug":4876,"rillo":4877,"wen":4878,"yp":4879,"yar":4880,"zes":4881,"zcz":4882,"Ã°":4883,"anan":4884,"anilla":4885,"aras":4886,"arolo":4887,"enal":4888,"enau":4889,"ensk":4890,"onan":4891,"alang":4892,"alpan":4893,"oru":4894,"elaria":4895,"ily":4896,"lewood":4897,"oshi":4898,"ister":4899,"isbury":4900,"ĠChe":4901,"ĠCerr":4902,"rews":4903,"teg":4904,"ĠPod":4905,"ĠPob":4906,"ĠPara":4907,"rot":4908,"Äģgh":4909,"ĠSu":4910,"ĠSim":4911,"ĠBat":4912,"agi":4913,"ombo":4914,"Chav":4915,"Chamb":4916,"ĠAv":4917,"Ġdas":4918,"abro":4919,"iros":4920,"ĠTur":4921,"ĠRincÃ³n":4922,"ulin":4923,"ĠGal":4924,"ĠVit":4925,"tik":4926,"cop":4927,"kaz":4928,"kawa":4929,"berry":4930,"ĠLo":4931,"Elk":4932,"otla":4933,"ĠJu":4934,"ĠJad":4935,"eme":4936,"Marg":4937,"ĠNu":4938,"ĠFort":4939,"ersbach":4940,"ogor":4941,"ike":4942,"enga":4943,"obod":4944,"Shen":4945,"Arb":4946,"Arz":4947,"arda":4948,"estr":4949,"eve":4950,"alejo":4951,"zhi":4952,"ĠInd":4953,"Ã¢u":4954,"ugg":4955,"Å«s":4956,"Carbon":4957,"ÈĻi":4958,"Quar":4959,"Quer":4960,"yntsi":4961,"ermont":4962,"intla":4963,"Salv":4964,"Morris":4965,"Huai":4966,"Cald":4967,"Buena":4968,"ignon":4969,"beu":4970,"sonville":4971,"Max":4972,"Trz":4973,"Abb":4974,"ixtla":4975,"Coal":4976,"Deer":4977,"Heil":4978,"ankro":4979,"Petrov":4980,"Cross":4981,"AndrÃ©":4982,"Ãīv":4983,"Point":4984,"Camar":4985,"Grab":4986,"Enc":4987,"Mines":4988,"akhon":4989,"ChÃ¢tel":4990,"ĠStation":4991,"ĠColorado":4992,"Tepe":4993,"Sulz":4994,"DoÄŁ":4995,"ĠTerrace":4996,"ĠMagdalena":4997,"Costa":4998,"UniÃ³n":4999,"Æ°Æ¡ng":5000,"Sokol":5001,"holm":5002,"Verkhniy":5003,"Hilaire":5004,"Taylor":5005,"ĠDonau":5006,"Kampung":5007,"huacÃ¡n":5008,"Bedford":5009,"ĠCaÃ±":5010,"CaÃ±ada":5011,"Harris":5012,"Royal":5013,"Nizhniy":5014,"ĠObreg":5015,"Sutton":5016,"ĠOcampo":5017,"Sungai":5018,"castle":5019,"Ä±zÄ±":5020,"Pervomay":5021,"ĠEsteban":5022,"Ãītienne":5023,"ĠSuperiore":5024,"ĠGregorio":5025,"ĠDÃŃaz":5026,"onzÃ¡lez":5027,"Ata":5028,"Aqu":5029,"AÅ£":5030,"Bj":5031,"BÃ¶":5032,"Born":5033,"Batt":5034,"BlÃ©":5035,"Ces":5036,"Cut":5037,"DÃ¼":5038,"Daw":5039,"Eure":5040,"Fou":5041,"Fol":5042,"Fig":5043,"Fir":5044,"Gom":5045,"Gond":5046,"Him":5047,"Hab":5048,"Haj":5049,"Ip":5050,"Kri":5051,"Kens":5052,"Koh":5053,"Kond":5054,"Lay":5055,"Moy":5056,"MÃ¼n":5057,"Nou":5058,"Nem":5059,"Noy":5060,"Oula":5061,"Ott":5062,"PrÃ©":5063,"Progreso":5064,"Rau":5065,"Rid":5066,"Ster":5067,"Sai":5068,"Sep":5069,"Such":5070,"Saul":5071,"Syl":5072,"Tie":5073,"Tum":5074,"Tip":5075,"Tup":5076,"Tung":5077,"Ved":5078,"Viv":5079,"Vend":5080,"Vista":5081,"Vys":5082,"Zal":5083,"bec":5084,"cen":5085,"cat":5086,"czyce":5087,"dam":5088,"dingen":5089,"gol":5090,"hon":5091,"hout":5092,"iÃ¡":5093,"iÄį":5094,"jÃ¶":5095,"kow":5096,"kivtsi":5097,"log":5098,"lÃ¼":5099,"nay":5100,"rel":5101,"rington":5102,"tes":5103,"tou":5104,"titlÃ¡n":5105,"vy":5106,"wies":5107,"zac":5108,"anta":5109,"arÃ¡":5110,"inville":5111,"inci":5112,"inovo":5113,"inho":5114,"champ":5115,"chez":5116,"uren":5117,"amon":5118,"dek":5119,"deo":5120,"lava":5121,"lee":5122,"atrava":5123,"olÃŃ":5124,"Ã©ny":5125,"tach":5126,"adz":5127,"iton":5128,"itang":5129,"reville":5130,"ĠMas":5131,"ĠMac":5132,"icu":5133,"ĠPu":5134,"ĠProv":5135,"unk":5136,"Ã¡ri":5137,"ĠSc":5138,"ĠSel":5139,"ĠSic":5140,"ĠSop":5141,"Lago":5142,"ĠBre":5143,"igno":5144,"agli":5145,"imp":5146,"skÃ¡":5147,"ĠHel":5148,"ĠHad":5149,"ĠHerr":5150,"ĠRem":5151,"apest":5152,"ieÅĦ":5153,"ĠLod":5154,"ÄĥÅŁ":5155,"oten":5156,"otlÃ¡n":5157,"ivan":5158,"Mary":5159,"Marion":5160,"ĠFre":5161,"ĠFrontera":5162,"shofen":5163,"Shu":5164,"azh":5165,"lier":5166,"entre":5167,"icheng":5168,"gui":5169,"zha":5170,"Neuf":5171,"Leon":5172,"Lexington":5173,"ugo":5174,"ourg":5175,"ĠOs":5176,"ensch":5177,"Ã±Ã³n":5178,"ĠChai":5179,"Barn":5180,"nita":5181,"ondale":5182,"eix":5183,"tenco":5184,"tenango":5185,"loch":5186,"SchÃ¶":5187,"Schwarz":5188,"ochÃ³ri":5189,"Bellev":5190,"Montes":5191,"Manchester":5192,"ÄģnÄ«":5193,"Salt":5194,"Salisbury":5195,"Novop":5196,"insville":5197,"Khar":5198,"Ã«l":5199,"á»ĳ":5200,"Perry":5201,"ĠYa":5202,"ather":5203,"áºķ":5204,"anyon":5205,"Ãłnh":5206,"orgen":5207,"calo":5208,"calÃ¡":5209,"Vely":5210,"gios":5211,"Emp":5212,"ĠLeÃ³n":5213,"Wild":5214,"kerke":5215,"Greenville":5216,"iami":5217,"ChÃ¢tea":5218,"amarca":5219,"Freder":5220,"Dolores":5221,"iguera":5222,"Victor":5223,"Medina":5224,"Kuala":5225,"Budapest":5226,"Somers":5227,"ĠHarbour":5228,"Buenos":5229,"ĠNew":5230,"Aubin":5231,"drÃ³j":5232,"Åın":5233,"Åıng":5234,"Ġpri":5235,"Lower":5236,"stÃ¤dt":5237,"Æ°á»Ŀ":5238,"Neustadt":5239,"Liberty":5240,"ĠTrinidad":5241,"ĠObregÃ³n":5242,"Ato":5243,"Aud":5244,"Aff":5245,"Bach":5246,"Bek":5247,"Bib":5248,"Bung":5249,"Brid":5250,"Buss":5251,"Cen":5252,"Coy":5253,"Cib":5254,"Cep":5255,"CrÃ©":5256,"Dau":5257,"Dian":5258,"Diam":5259,"Ech":5260,"Eich":5261,"Ever":5262,"Gw":5263,"Ged":5264,"Gum":5265,"Gud":5266,"Gour":5267,"Grim":5268,"Hul":5269,"Hob":5270,"HÃ¤":5271,"Jim":5272,"Jard":5273,"Jian":5274,"Jones":5275,"Kill":5276,"Kau":5277,"Lon":5278,"Lic":5279,"Led":5280,"Lod":5281,"Loz":5282,"Loch":5283,"Liang":5284,"Lans":5285,"Mec":5286,"Miy":5287,"MÄĥr":5288,"Myr":5289,"Nad":5290,"Oran":5291,"Oud":5292,"Oost":5293,"Opp":5294,"Past":5295,"Pass":5296,"RÃ©":5297,"Ria":5298,"RÄģ":5299,"Rie":5300,"Rong":5301,"Rep":5302,"RÃ©m":5303,"Soy":5304,"Sug":5305,"Sup":5306,"Sever":5307,"Tic":5308,"TÃ¡":5309,"Toc":5310,"Tarn":5311,"Vlad":5312,"Was":5313,"Wag":5314,"Yu":5315,"Zak":5316,"Zah":5317,"bri":5318,"bau":5319,"bak":5320,"ds":5321,"dorp":5322,"gl":5323,"guez":5324,"jak":5325,"kot":5326,"kern":5327,"lje":5328,"mal":5329,"nou":5330,"nis":5331,"oco":5332,"rer":5333,"vey":5334,"wy":5335,"wig":5336,"ych":5337,"yye":5338,"Ì§":5339,"Ġ0":5340,"Ġas":5341,"Ġker":5342,"anto":5343,"anica":5344,"anova":5345,"arde":5346,"inese":5347,"oral":5348,"ilin":5349,"urs":5350,"deg":5351,"leb":5352,"lein":5353,"leÅŁti":5354,"Santi":5355,"oltepec":5356,"Ã©a":5357,"ispo":5358,"tah":5359,"reÅŁti":5360,"raj":5361,"rau":5362,"ĠMed":5363,"tetten":5364,"ĠPier":5365,"unas":5366,"roe":5367,"Ã¡c":5368,"ĠSi":5369,"riÃ¨res":5370,"ĠBarr":5371,"ĠBluff":5372,"igne":5373,"Chac":5374,"Chris":5375,"auli":5376,"acan":5377,"acion":5378,"irano":5379,"andu":5380,"edon":5381,"then":5382,"odsk":5383,"ĠHab":5384,"ĠHermosa":5385,"ĠRoc":5386,"ĠRich":5387,"ĠGall":5388,"idian":5389,"iech":5390,"avent":5391,"berton":5392,"Eld":5393,"hev":5394,"ellen":5395,"ÄĥÈĻ":5396,"ivo":5397,"ĠJal":5398,"ecchio":5399,"oyan":5400,"Marm":5401,"ĠFi":5402,"ogna":5403,"Ã¼let":5404,"shahr":5405,"octor":5406,"azu":5407,"ĠDa":5408,"ĠDam":5409,"egas":5410,"ampur":5411,"Antonio":5412,"lip":5413,"endo":5414,"enden":5415,"endon":5416,"ĠKa":5417,"Stara":5418,"guÃ©":5419,"zhausen":5420,"upo":5421,"ieri":5422,"ĠOz":5423,"Ä±ÅŁ":5424,"antla":5425,"ezzano":5426,"ÈĻu":5427,"niÃ¨res":5428,"orno":5429,"Valverde":5430,"Orta":5431,"Å¡ov":5432,"Å¡ice":5433,"Å¡Äĩ":5434,"Przy":5435,"Novaya":5436,"ĠVald":5437,"brada":5438,"Corral":5439,"Casa":5440,"See":5441,"ĠHead":5442,"ĠHeath":5443,"AbÅ«":5444,"istol":5445,"anje":5446,"incon":5447,"ĠUno":5448,"ustin":5449,"kty":5450,"hoe":5451,"rence":5452,"ForÃªt":5453,"Acqu":5454,"Strat":5455,"ibera":5456,"Ã¥s":5457,"Bray":5458,"Sabana":5459,"Roman":5460,"ĠElena":5461,"Cherry":5462,"Rams":5463,"Rivers":5464,"Queens":5465,"Cambridge":5466,"Auburn":5467,"Åļw":5468,"house":5469,"Fontan":5470,"beke":5471,"Garden":5472,"Michel":5473,"Aurora":5474,"ĠAzul":5475,"forma":5476,"ĠGrand":5477,"Bandar":5478,"ĠBernardo":5479,"Clear":5480,"Ġcity":5481,"Villafranca":5482,"Clifton":5483,"KÃ¡to":5484,"ChÃ¢tillon":5485,"ĠkerÃ¼let":5486,"Ain":5487,"Ask":5488,"Bam":5489,"Bic":5490,"Bid":5491,"Bast":5492,"Bara":5493,"Bath":5494,"Banj":5495,"BÃ¢r":5496,"Bisch":5497,"Cit":5498,"Cic":5499,"CÃ¡":5500,"Cue":5501,"Cai":5502,"Clev":5503,"Ded":5504,"Dib":5505,"Ey":5506,"Fo":5507,"Fall":5508,"Fuen":5509,"Fox":5510,"Fleur":5511,"Gus":5512,"Gord":5513,"Hain":5514,"Hus":5515,"HÃ¼":5516,"Hope":5517,"Iw":5518,"Koch":5519,"Kash":5520,"Mano":5521,"Mem":5522,"Mala":5523,"Mind":5524,"Moss":5525,"Math":5526,"Mess":5527,"Mikh":5528,"Noc":5529,"Ore":5530,"Ond":5531,"Pio":5532,"Pall":5533,"Puch":5534,"Puy":5535,"Priv":5536,"Pfa":5537,"Qal":5538,"Ring":5539,"Rain":5540,"Sn":5541,"Sik":5542,"Sard":5543,"Sour":5544,"Sala":5545,"Sind":5546,"Sund":5547,"Swan":5548,"Tz":5549,"Ting":5550,"Tern":5551,"TÃ¢n":5552,"Vos":5553,"Vau":5554,"Vieux":5555,"Wau":5556,"Wed":5557,"Wul":5558,"Wass":5559,"Yal":5560,"Yur":5561,"aÅŁ":5562,"bl":5563,"bang":5564,"bod":5565,"bello":5566,"cÃ©":5567,"cov":5568,"cell":5569,"ceni":5570,"hat":5571,"hlen":5572,"hren":5573,"hoven":5574,"ieni":5575,"jing":5576,"kur":5577,"kop":5578,"kala":5579,"loh":5580,"lovka":5581,"mun":5582,"mah":5583,"nie":5584,"nÃ¤s":5585,"poli":5586,"rus":5587,"rup":5588,"rovo":5589,"tam":5590,"tta":5591,"ude":5592,"von":5593,"veld":5594,"wol":5595,"yon":5596,"zent":5597,"Å¥":5598,"anco":5599,"arna":5600,"inn":5601,"enc":5602,"enica":5603,"enskoye":5604,"alc":5605,"alat":5606,"elin":5607,"asu":5608,"esi":5609,"eso":5610,"esburg":5611,"chau":5612,"church":5613,"uran":5614,"def":5615,"olla":5616,"olina":5617,"isse":5618,"tage":5619,"ĠCad":5620,"adr":5621,"itou":5622,"ĠMay":5623,"tek":5624,"icino":5625,"ĠPic":5626,"ungo":5627,"ĠSac":5628,"ĠStr":5629,"ĠSelo":5630,"rik":5631,"Laf":5632,"ĠBri":5633,"ige":5634,"aglio":5635,"imi":5636,"imar":5637,"Chong":5638,"Church":5639,"ĠAng":5640,"abl":5641,"abu":5642,"ÃŃz":5643,"ĠTin":5644,"AlÄ«":5645,"apo":5646,"apleu":5647,"ĠGlen":5648,"ĠGÃ³mez":5649,"ĠGonzÃ¡lez":5650,"idan":5651,"usi":5652,"ongan":5653,"bai":5654,"kaw":5655,"berto":5656,"berland":5657,"ueÃ±a":5658,"umi":5659,"ĠLÃ³pez":5660,"ĠJavier":5661,"Mari":5662,"ĠNat":5663,"ĠNoi":5664,"oke":5665,"ĠFr":5666,"ersch":5667,"sheng":5668,"Shir":5669,"ĠDel":5670,"egh":5671,"Ars":5672,"quÃŃ":5673,"quillo":5674,"evskaya":5675,"tsa":5676,"ichy":5677,"Stor":5678,"Stre":5679,"zhai":5680,"uban":5681,"orda":5682,"Neuh":5683,"ĠIon":5684,"Ã¨ne":5685,"awr":5686,"cade":5687,"upon":5688,"enstedt":5689,"Mond":5690,"Brus":5691,"huang":5692,"huet":5693,"Colomb":5694,"ffa":5695,"niÅ£a":5696,"izen":5697,"aji":5698,"ozia":5699,"Three":5700,"Valencia":5701,"uelos":5702,"ynivka":5703,"Belm":5704,"ĠAllende":5705,"Ã³wka":5706,"ÅĤo":5707,"Ã§o":5708,"Newtown":5709,"bronn":5710,"Calv":5711,"ingston":5712,"Esperanza":5713,"ignes":5714,"Ã«z":5715,"Torres":5716,"isht":5717,"Adel":5718,"Adam":5719,"ÈĻtii":5720,"áº¯":5721,"esso":5722,"cheid":5723,"Ã¡ramo":5724,"ĠShar":5725,"Ãģgios":5726,"Cabez":5727,"Avon":5728,"Camden":5729,"Albany":5730,"Holly":5731,"Strath":5732,"Univers":5733,"Greenfield":5734,"Greenwood":5735,"Ashland":5736,"Åłt":5737,"ĠCalatrava":5738,"Fuent":5739,"Stav":5740,"Sandy":5741,"ĠLucia":5742,"ĠTorinese":5743,"RiviÃ¨re":5744,"ĠPalmas":5745,"atuba":5746,"autista":5747,"combe":5748,"Kirchberg":5749,"GÃ¶k":5750,"uneuf":5751,"Laurel":5752,"ÅŃp":5753,"Oxford":5754,"rÃŃguez":5755,"Warren":5756,"ĠMichele":5757,"Lawrence":5758,"ĠPueblo":5759,"ĠInferiore":5760,"Julien":5761,"lvaro":5762,"Ä©nh":5763,"Brighton":5764,"Vincent":5765,"ĠRapids":5766,"ĠVodÄĥ":5767,"ĠSopra":5768,"Bellevue":5769,"ChÃ¢teauneuf":5770,"Bav":5771,"Beg":5772,"Bres":5773,"Bens":5774,"Biel":5775,"Cala":5776,"Cry":5777,"Comb":5778,"Dad":5779,"Dro":5780,"DiÃ©":5781,"Fon":5782,"Fun":5783,"Fuk":5784,"Fren":5785,"FÃ¼r":5786,"Fontaine":5787,"Gon":5788,"Gob":5789,"Grande":5790,"GÃ¶l":5791,"Hos":5792,"Hov":5793,"Hey":5794,"Jh":5795,"Kov":5796,"Kud":5797,"Kend":5798,"Key":5799,"Kup":5800,"Keb":5801,"Lur":5802,"Loh":5803,"MÄģ":5804,"Mell":5805,"Moc":5806,"Maf":5807,"Mouss":5808,"Nel":5809,"Net":5810,"Nand":5811,"Nob":5812,"Pam":5813,"Pow":5814,"Pey":5815,"Pola":5816,"Post":5817,"Poll":5818,"Run":5819,"Raw":5820,"Sis":5821,"Scot":5822,"TÃ¶":5823,"Tort":5824,"Tux":5825,"Uk":5826,"VÃ©":5827,"Vand":5828,"Wi":5829,"Wak":5830,"Whe":5831,"Wins":5832,"Wick":5833,"Xian":5834,"Yuan":5835,"Zha":5836,"cza":5837,"ej":5838,"fax":5839,"grad":5840,"hue":5841,"jah":5842,"kol":5843,"kÃ¡":5844,"kiv":5845,"kowo":5846,"livka":5847,"mur":5848,"ming":5849,"mÃ¡n":5850,"mart":5851,"nar":5852,"nin":5853,"nel":5854,"pio":5855,"ring":5856,"sp":5857,"set":5858,"uÅ¡":5859,"vens":5860,"wel":5861,"wall":5862,"xia":5863,"yg":5864,"yÄģ":5865,"yana":5866,"yevo":5867,"zheim":5868,"zada":5869,"zowice":5870,"ĠÃ":5871,"eres":5872,"inet":5873,"enci":5874,"enfeld":5875,"onna":5876,"alay":5877,"alac":5878,"elez":5879,"chnyy":5880,"deen":5881,"lain":5882,"ator":5883,"atÃ¡":5884,"atitlÃ¡n":5885,"oslav":5886,"oukou":5887,"oufla":5888,"olino":5889,"ollo":5890,"tab":5891,"itch":5892,"reu":5893,"redo":5894,"Ġdegli":5895,"iai":5896,"ĠManz":5897,"ĠMinas":5898,"ĠPines":5899,"angel":5900,"unfo":5901,"Ã¡ki":5902,"ĠSoledad":5903,"ĠScalo":5904,"riÅŁ":5905,"etsk":5906,"Laz":5907,"Lakes":5908,"oman":5909,"Chr":5910,"Chu":5911,"ĠAp":5912,"akaha":5913,"ĠTam":5914,"ĠTlal":5915,"ĠHigh":5916,"ules":5917,"ĠGia":5918,"ĠVes":5919,"iek":5920,"ĠLas":5921,"ĠLomas":5922,"ellina":5923,"Marl":5924,"ĠNav":5925,"ĠNine":5926,"ĠNiÃ±o":5927,"owie":5928,"ĠFar":5929,"ÅŁani":5930,"ÅŁeh":5931,"enge":5932,"Shal":5933,"Shil":5934,"azzano":5935,"allas":5936,"ĠDos":5937,"ĠDun":5938,"stra":5939,"Arch":5940,"ardino":5941,"quia":5942,"quim":5943,"Anne":5944,"Neuen":5945,"ĠEr":5946,"ĠIm":5947,"Ã¨ze":5948,"Monaster":5949,"ĠChim":5950,"iani":5951,"Å«b":5952,"ĠWal":5953,"Guang":5954,"BrÄĥ":5955,"ezz":5956,"ĠLab":5957,"ĠLago":5958,"aju":5959,"Thor":5960,"Thur":5961,"Village":5962,"Castelle":5963,"loo":5964,"epp":5965,"hama":5966,"QuáºŃn":5967,"erma":5968,"Berez":5969,"Beaver":5970,"Prad":5971,"Malab":5972,"Huay":5973,"Buff":5974,"Burn":5975,"Parad":5976,"ulag":5977,"ĠYar":5978,"Karak":5979,"Cons":5980,"zewo":5981,"Deh":5982,"ÄģrÄ«":5983,"Brod":5984,"Asp":5985,"Asti":5986,"Canton":5987,"oulÃ©":5988,"ureba":5989,"orges":5990,"Weil":5991,"zione":5992,"Kamen":5993,"Plage":5994,"PhÃº":5995,"Ã¶rth":5996,"Donji":5997,"SaÃ´ne":5998,"regal":5999,"mbre":6000,"Oakland":6001,"Altam":6002,"Muara":6003,"igues":6004,"outou":6005,"NyÃŃr":6006,"Presid":6007,"Pitts":6008,"ĠCameros":6009,"Belleville":6010,"Maple":6011,"Roche":6012,"ĠPeter":6013,"Logan":6014,"Villalba":6015,"YeÅŁ":6016,"ĠGeorge":6017,"Ġpod":6018,"Johns":6019,"Clayton":6020,"Columbus":6021,"Ãµes":6022,"NicolÃ¡s":6023,"ĠBranch":6024,"Alexandria":6025,"ĠWoods":6026,"Fayette":6027,"á»Ļc":6028,"ĠJacinto":6029,"Coronel":6030,"ĠMeadows":6031,"Æ°á»Ŀng":6032,"ktyabr":6033,"Aig":6034,"Agh":6035,"Bub":6036,"Bier":6037,"Bian":6038,"Bez":6039,"BÄģn":6040,"Bess":6041,"Cio":6042,"City":6043,"Country":6044,"Das":6045,"Dat":6046,"Dach":6047,"Dud":6048,"Dax":6049,"DÃ¼r":6050,"Doctor":6051,"End":6052,"Epp":6053,"Fla":6054,"Fav":6055,"Gin":6056,"Gau":6057,"Gund":6058,"GÃ¢r":6059,"Hes":6060,"HÃ©":6061,"Hai":6062,"II":6063,"Jor":6064,"Jur":6065,"Jat":6066,"Jaw":6067,"Koc":6068,"Kass":6069,"Kuk":6070,"Kuz":6071,"Kuy":6072,"Kenn":6073,"Kfar":6074,"Lour":6075,"Lock":6076,"Muk":6077,"Malm":6078,"Muang":6079,"Myk":6080,"Nic":6081,"NÄģ":6082,"Namb":6083,"Oro":6084,"One":6085,"Ong":6086,"Pim":6087,"Pai":6088,"Pend":6089,"Piano":6090,"Qian":6091,"Rang":6092,"Rag":6093,"Raz":6094,"Ridge":6095,"Sla":6096,"Soh":6097,"SÅĤ":6098,"Stone":6099,"Tch":6100,"Tos":6101,"Tamp":6102,"Tuz":6103,"Torn":6104,"Ub":6105,"Ut":6106,"Vog":6107,"Viz":6108,"Voz":6109,"VÃ¢n":6110,"Watt":6111,"Waver":6112,"Yi":6113,"Yas":6114,"Zim":6115,"Zem":6116,"ZdrÃ³j":6117,"ade":6118,"bing":6119,"cone":6120,"cedo":6121,"ex":6122,"ete":6123,"eir":6124,"fil":6125,"fing":6126,"fang":6127,"fonte":6128,"grove":6129,"hin":6130,"has":6131,"horn":6132,"ii":6133,"jen":6134,"kivka":6135,"kovice":6136,"lj":6137,"lod":6138,"mern":6139,"noy":6140,"nut":6141,"pt":6142,"pac":6143,"ped":6144,"pice":6145,"rano":6146,"rÄ«":6147,"rest":6148,"stad":6149,"tÃ©":6150,"vie":6151,"won":6152,"west":6153,"xian":6154,"yam":6155,"yÃ¼k":6156,"zÃ©":6157,"zÃ¼":6158,"zeg":6159,"ÃĦ":6160,"Äª":6161,"Å¯":6162,"ĠÅ¢":6163,"Ġupon":6164,"anb":6165,"arak":6166,"arai":6167,"arele":6168,"erv":6169,"erberg":6170,"inan":6171,"enhausen":6172,"enthal":6173,"alÃ©":6174,"alÄ±":6175,"orst":6176,"orada":6177,"elec":6178,"ilor":6179,"asta":6180,"esheim":6181,"amin":6182,"det":6183,"dey":6184,"lair":6185,"lawn":6186,"aty":6187,"atur":6188,"atti":6189,"atico":6190,"osi":6191,"oski":6192,"iste":6193,"isheim":6194,"issen":6195,"adan":6196,"ading":6197,"itÃ©":6198,"reÈĻti":6199,"reuth":6200,"oville":6201,"ovica":6202,"ingdale":6203,"rai":6204,"ĠMun":6205,"ĠMai":6206,"tez":6207,"icz":6208,"ĠPad":6209,"ĠPass":6210,"Ã¡ch":6211,"rigo":6212,"eter":6213,"ĠBah":6214,"ĠBren":6215,"ĠBureba":6216,"igui":6217,"ombe":6218,"imba":6219,"Chit":6220,"Ã³l":6221,"tola":6222,"iria":6223,"andra":6224,"andro":6225,"akou":6226,"ĠTen":6227,"ĠTop":6228,"odoro":6229,"ĠHouse":6230,"ĠReg":6231,"ĠRibera":6232,"Alam":6233,"api":6234,"ĠGhar":6235,"ĠVol":6236,"usto":6237,"iola":6238,"avilla":6239,"tiv":6240,"coy":6241,"baj":6242,"berts":6243,"ĠLam":6244,"ĠLom":6245,"ĠLomb":6246,"ĠLima":6247,"Äĥra":6248,"ÄĥÈĽ":6249,"ĠJar":6250,"ĠJul":6251,"ĠJoya":6252,"Mare":6253,"Mariano":6254,"ĠNord":6255,"astro":6256,"owiec":6257,"Ġdelle":6258,"Shan":6259,"Shib":6260,"Arlington":6261,"arden":6262,"quis":6263,"quip":6264,"Anna":6265,"eview":6266,"aley":6267,"gut":6268,"zhan":6269,"zhong":6270,"utu":6271,"ĠEd":6272,"Ã¨ve":6273,"Leban":6274,"Lewis":6275,"Ã¢ne":6276,"ierre":6277,"ĠOcot":6278,"Montag":6279,"ĠChÃ¢u":6280,"Barg":6281,"Å«m":6282,"Bras":6283,"Brou":6284,"Brent":6285,"ryn":6286,"Thal":6287,"Castello":6288,"epec":6289,"Quinc":6290,"Ã¤ng":6291,"indo":6292,"Gram":6293,"ocheng":6294,"Ort":6295,"ashan":6296,"ĠSang":6297,"Newcastle":6298,"cken":6299,"prÃ¼":6300,"undu":6301,"inson":6302,"brÃ¼ck":6303,"itage":6304,"Esch":6305,"Burton":6306,"Boj":6307,"Box":6308,"Paris":6309,"sted":6310,"ÃŁen":6311,"Borg":6312,"arejo":6313,"Montec":6314,"Reh":6315,"Moos":6316,"Roi":6317,"iesa":6318,"Breiten":6319,"Bretagne":6320,"Isla":6321,"Kalin":6322,"Rosario":6323,"Cros":6324,"racia":6325,"hoo":6326,"Plum":6327,"oledo":6328,"Ã¸d":6329,"Form":6330,"Velika":6331,"VelkÃ©":6332,"Ãªs":6333,"Gray":6334,"Playa":6335,"ettingen":6336,"Comp":6337,"Ãĩay":6338,"Midway":6339,"nikovo":6340,"ĠThong":6341,"Äħb":6342,"Torrec":6343,"MuÃ±":6344,"Vicente":6345,"ĠCastle":6346,"ĠCastello":6347,"ĠPlace":6348,"ĠTej":6349,"Hoog":6350,"Sunny":6351,"valle":6352,"rieux":6353,"ÃŃsima":6354,"ĠPalmar":6355,"Bally":6356,"ĠMaggiore":6357,"Egg":6358,"Pomp":6359,"ĠManuel":6360,"como":6361,"lalpan":6362,"Neuville":6363,"Noord":6364,"Pozo":6365,"Brooklyn":6366,"Mitter":6367,"ĠCentral":6368,"Linden":6369,"ĠMontes":6370,"vedere":6371,"wÄģra":6372,"Fresno":6373,"ĠWielka":6374,"Carroll":6375,"Aberdeen":6376,"Ġcentre":6377,"Maurice":6378,"ÄģzÄģr":6379,"Columbia":6380,"crest":6381,"Tisz":6382,"Ekiti":6383,"right":6384,"ĠRodrÃŃguez":6385,"ĠJohn":6386,"ĠPrimero":6387,"uciÃ³n":6388,"Rizal":6389,"Princeton":6390,"ĠWielkie":6391,"ustiano":6392,"ĠParaÃŃso":6393,"Kensington":6394,"aventura":6395,"University":6396,"ÅŁehir":6397,"Lebanon":6398,"Aul":6399,"Ble":6400,"Bong":6401,"Bent":6402,"Bany":6403,"Boll":6404,"Cet":6405,"Cost":6406,"Dang":6407,"Dak":6408,"Dap":6409,"DÃ¶":6410,"Damp":6411,"Dund":6412,"Earl":6413,"Eaton":6414,"Feld":6415,"Fate":6416,"Fish":6417,"Fuj":6418,"Ges":6419,"GÄĥ":6420,"Gut":6421,"Hot":6422,"Hoy":6423,"Ich":6424,"Ket":6425,"Kag":6426,"Kus":6427,"Kell":6428,"Kent":6429,"Kip":6430,"Kham":6431,"Khan":6432,"KÄģl":6433,"KÄ±zÄ±":6434,"Ley":6435,"Liu":6436,"Lumb":6437,"Mav":6438,"Maw":6439,"Mamb":6440,"Moul":6441,"Momb":6442,"MÃ¶n":6443,"Nk":6444,"Non":6445,"Naw":6446,"Ooster":6447,"Paz":6448,"Pala":6449,"RÃ¡":6450,"Rah":6451,"Rut":6452,"Reb":6453,"Raf":6454,"Siv":6455,"Sale":6456,"Suz":6457,"Salm":6458,"Stad":6459,"SÄĥl":6460,"Toy":6461,"Teg":6462,"Uch":6463,"Vet":6464,"Vac":6465,"Vey":6466,"VÃ¢r":6467,"Wand":6468,"Wij":6469,"Warm":6470,"Wiel":6471,"Witt":6472,"Yuzh":6473,"Zel":6474,"bou":6475,"bay":6476,"bog":6477,"buch":6478,"cle":6479,"cina":6480,"cani":6481,"cester":6482,"celles":6483,"dol":6484,"dia":6485,"ein":6486,"eta":6487,"gur":6488,"gou":6489,"hard":6490,"hÃ¡za":6491,"iba":6492,"kl":6493,"ket":6494,"kul":6495,"kamp":6496,"lig":6497,"lÃ³":6498,"lovo":6499,"lock":6500,"mos":6501,"mac":6502,"ment":6503,"mero":6504,"nit":6505,"nÄģ":6506,"oÃº":6507,"py":6508,"pina":6509,"qq":6510,"rg":6511,"rÄģ":6512,"rand":6513,"rÃ³n":6514,"rÃ³w":6515,"schen":6516,"tlÃ¡n":6517,"uÃŃ":6518,"via":6519,"veni":6520,"wat":6521,"wyn":6522,"xc":6523,"Ġen":6524,"Ġle":6525,"ande":6526,"anueva":6527,"eru":6528,"erup":6529,"erÃŃa":6530,"inco":6531,"eneg":6532,"eston":6533,"chit":6534,"urd":6535,"dev":6536,"degem":6537,"atro":6538,"olu":6539,"olco":6540,"taj":6541,"tao":6542,"ĠCac":6543,"ĠCec":6544,"ĠClem":6545,"ĠCerrato":6546,"ĠCÃ¢mp":6547,"adh":6548,"rade":6549,"ĠMin":6550,"ĠMata":6551,"ĠMÃ¼hl":6552,"ted":6553,"ĠPen":6554,"ĠPom":6555,"ĠPino":6556,"ĠPres":6557,"ĠPÃ¡ramo":6558,"angen":6559,"uny":6560,"unciÃ³n":6561,"roc":6562,"ĠSin":6563,"ĠSum":6564,"ĠSoc":6565,"ĠSotto":6566,"rij":6567,"rier":6568,"riana":6569,"etu":6570,"ĠBÃ¬nh":6571,"ĠBautista":6572,"iglia":6573,"ague":6574,"agny":6575,"omi":6576,"imin":6577,"imil":6578,"Chen":6579,"Ches":6580,"Chia":6581,"Chum":6582,"Chem":6583,"Choc":6584,"ĠAug":6585,"ĠAtz":6586,"aban":6587,"abia":6588,"iran":6589,"ires":6590,"ĠTan":6591,"ĠTem":6592,"odz":6593,"ĠHan":6594,"ĠHope":6595,"ĠRhein":6596,"Albe":6597,"AlcalÃ¡":6598,"apu":6599,"ĠGuz":6600,"ahua":6601,"ĠVar":6602,"iot":6603,"iez":6604,"illet":6605,"nec":6606,"nee":6607,"neu":6608,"umo":6609,"umen":6610,"ĠLang":6611,"ĠLÃ¡zaro":6612,"tersdorf":6613,"oyar":6614,"ĠNÃº":6615,"ĠFran":6616,"ĠFres":6617,"ĠFranc":6618,"ogan":6619,"ograd":6620,"Ã¶v":6621,"engen":6622,"achÅį":6623,"Sham":6624,"Shaw":6625,"ĠDar":6626,"ĠDes":6627,"ĠDorf":6628,"storp":6629,"Ä«b":6630,"quet":6631,"Anj":6632,"Ans":6633,"opan":6634,"ĠMaritt":6635,"endi":6636,"ĠKar":6637,"ĠKha":6638,"eya":6639,"ubi":6640,"utz":6641,"assÃ©":6642,"assikro":6643,"Lew":6644,"upp":6645,"gola":6646,"Monti":6647,"ĠChic":6648,"ĠWat":6649,"Carl":6650,"Carm":6651,"oho":6652,"ohrad":6653,"onder":6654,"Thomas":6655,"nox":6656,"Santana":6657,"BelÃ©n":6658,"ĠAlf":6659,"Montel":6660,"Å¡ka":6661,"Manzan":6662,"ÅĤowice":6663,"Äģnpur":6664,"Prat":6665,"Prince":6666,"uerte":6667,"ossou":6668,"brÄĥ":6669,"Äįany":6670,"Krum":6671,"arral":6672,"arrub":6673,"Khor":6674,"veen":6675,"ĠHeads":6676,"Burlington":6677,"mann":6678,"manns":6679,"uyan":6680,"áº¿":6681,"anjang":6682,"Karang":6683,"issy":6684,"Meer":6685,"borne":6686,"Rein":6687,"Spen":6688,"Rox":6689,"ĠShore":6690,"AgÃŃa":6691,"ÄģdÄ«":6692,"lores":6693,"yeh":6694,"yeong":6695,"Petr":6696,"olds":6697,"Cris":6698,"Crest":6699,"Andrea":6700,"ĠGuay":6701,"Blag":6702,"doba":6703,"Talis":6704,"Urb":6705,"ÄĻd":6706,"Luis":6707,"Emm":6708,"Geis":6709,"Äĥreni":6710,"Äĩi":6711,"Bonne":6712,"Unidad":6713,"ÅĦsk":6714,"Nava":6715,"Naval":6716,"Ã©dougou":6717,"Walnut":6718,"ĠStre":6719,"Glas":6720,"Glendale":6721,"ĠColle":6722,"Winchester":6723,"ĠSeca":6724,"ĠCastro":6725,"ÅĽci":6726,"Izvo":6727,"Temple":6728,"Tepet":6729,"Otter":6730,"Staraya":6731,"Svet":6732,"Sveti":6733,"Szcz":6734,"Krasnaya":6735,"Florence":6736,"ÅģÄĻ":6737,"Ã²a":6738,"Zaragoza":6739,"ĠCatalina":6740,"Pilar":6741,"Preston":6742,"Ixta":6743,"Waterloo":6744,"stow":6745,"Kampong":6746,"Seven":6747,"Candelaria":6748,"Rochester":6749,"Motta":6750,"Evans":6751,"iÄĩi":6752,"Harrison":6753,"Wellington":6754,"thorne":6755,"Centerville":6756,"ĠBuenavista":6757,"Bridgeport":6758,"Sosn":6759,"Young":6760,"amoros":6761,"ĠLargo":6762,"ĠTomÃ¡s":6763,"Mansfield":6764,"Mission":6765,"Sovet":6766,"Concordia":6767,"ĠFerry":6768,"Slobozia":6769,"á»ĵng":6770,"cliffe":6771,"iá»ĩ":6772,"Douglas":6773,"Lancaster":6774,"Plymouth":6775,"gomery":6776,"Neukirchen":6777,"ĠCaÃ±ada":6778,"ĠPuente":6779,"Crystal":6780,"ĠGiacomo":6781,"Ait":6782,"Aro":6783,"Beng":6784,"Bli":6785,"Balm":6786,"Boss":6787,"Cah":6788,"Cus":6789,"Cip":6790,"Coz":6791,"Cly":6792,"CÃ¢r":6793,"Det":6794,"Dok":6795,"Dik":6796,"Dash":6797,"Fara":6798,"Ford":6799,"Fry":6800,"Gai":6801,"GouÃ©":6802,"Hac":6803,"Hino":6804,"Hut":6805,"Hern":6806,"HÃ¶r":6807,"Hidalgo":6808,"Huey":6809,"Igu":6810,"Jol":6811,"Jay":6812,"Jed":6813,"Jak":6814,"Jem":6815,"Jud":6816,"KÄģ":6817,"Ked":6818,"Kard":6819,"Kind":6820,"Kha":6821,"KÅį":6822,"Lent":6823,"Lek":6824,"Mp":6825,"Mia":6826,"Mom":6827,"Mort":6828,"Mei":6829,"Moch":6830,"Metz":6831,"Nal":6832,"Nil":6833,"Nia":6834,"Ngu":6835,"Nash":6836,"Osh":6837,"Out":6838,"Pov":6839,"Pell":6840,"RÃ¢":6841,"Rug":6842,"Rij":6843,"Rhein":6844,"Ses":6845,"Sell":6846,"Sach":6847,"Sukh":6848,"Tw":6849,"TÃ©":6850,"Tad":6851,"Tug":6852,"Tez":6853,"Tiz":6854,"Tomb":6855,"Tann":6856,"Vou":6857,"Vers":6858,"Vysh":6859,"Wey":6860,"Web":6861,"Wola":6862,"Wake":6863,"Yer":6864,"YÃªn":6865,"Zi":6866,"Zan":6867,"beni":6868,"cou":6869,"cul":6870,"cÃ¡n":6871,"ders":6872,"dens":6873,"dougou":6874,"fle":6875,"fontaine":6876,"gia":6877,"horod":6878,"jerg":6879,"kap":6880,"kum":6881,"kaya":6882,"luk":6883,"lÄĥu":6884,"mour":6885,"mada":6886,"mund":6887,"nor":6888,"nah":6889,"nock":6890,"sb":6891,"sby":6892,"uya":6893,"vil":6894,"vou":6895,"vila":6896,"wei":6897,"yra":6898,"yany":6899,"Ãİ":6900,"Ġ4":6901,"anna":6902,"arp":6903,"arne":6904,"arpur":6905,"argues":6906,"eria":6907,"erra":6908,"inec":6909,"inskaya":6910,"alar":6911,"alak":6912,"alba":6913,"orro":6914,"orne":6915,"elas":6916,"ilu":6917,"ilas":6918,"esch":6919,"chu":6920,"uray":6921,"amang":6922,"atem":6923,"olz":6924,"olsheim":6925,"isan":6926,"isio":6927,"tap":6928,"ĠCos":6929,"ĠCort":6930,"ĠCald":6931,"itella":6932,"rei":6933,"ovy":6934,"ingh":6935,"tega":6936,"iceni":6937,"ĠPur":6938,"ĠPri":6939,"ĠPiano":6940,"anger":6941,"roz":6942,"ÄģÅŁ":6943,"Äģni":6944,"Ã¡la":6945,"ĠSta":6946,"ĠSav":6947,"ĠSai":6948,"rib":6949,"etti":6950,"Laval":6951,"ĠBy":6952,"igÃ¼":6953,"igua":6954,"agro":6955,"omar":6956,"illi":6957,"Chan":6958,"Chur":6959,"Chun":6960,"Chik":6961,"Chep":6962,"Ã³t":6963,"acas":6964,"Ġdes":6965,"tow":6966,"abas":6967,"andy":6968,"andale":6969,"ÃŃm":6970,"ÃŃos":6971,"sky":6972,"ĠTau":6973,"ĠTul":6974,"ĠHo":6975,"ĠHÃł":6976,"ĠRi":6977,"ĠRay":6978,"ĠRun":6979,"ĠRob":6980,"apia":6981,"usan":6982,"usen":6983,"ieÅĽ":6984,"aville":6985,"coe":6986,"bera":6987,"bern":6988,"uea":6989,"ueil":6990,"ueira":6991,"uman":6992,"ĠLou":6993,"ĠLand":6994,"ĠLlan":6995,"otton":6996,"ivia":6997,"teros":6998,"ecchia":6999,"Mara":7000,"ĠNo":7001,"ogu":7002,"shu":7003,"ship":7004,"acht":7005,"ĠDub":7006,"stant":7007,"Ã¡ndez":7008,"Ã¡nchez":7009,"Armen":7010,"Ä«k":7011,"Anton":7012,"even":7013,"evskoye":7014,"opold":7015,"ĠMargar":7016,"tstadt":7017,"aleana":7018,"ĠKo":7019,"ĠKham":7020,"ĠKunda":7021,"icha":7022,"Stol":7023,"Stro":7024,"Stari":7025,"eyville":7026,"eldon":7027,"Neuv":7028,"Ã¢ng":7029,"ourou":7030,"iero":7031,"ensdorf":7032,"Barre":7033,"Å«q":7034,"Guin":7035,"Guad":7036,"Guard":7037,"Carn":7038,"Brat":7039,"Bristol":7040,"ambi":7041,"izo":7042,"ondi":7043,"Thung":7044,"tenheim":7045,"Vals":7046,"Villag":7047,"Amand":7048,"lane":7049,"Bela":7050,"Montre":7051,"Montgomery":7052,"Ãºj":7053,"Ãºcar":7054,"Ord":7055,"Salinas":7056,"Morav":7057,"bruck":7058,"Äįice":7059,"itacion":7060,"tepa":7061,"Krzy":7062,"Khal":7063,"Caste":7064,"Torri":7065,"Burns":7066,"Burgos":7067,"rovskoye":7068,"ulak":7069,"mans":7070,"mannsdorf":7071,"Adj":7072,"á»©":7073,"á»¹":7074,"ĠYai":7075,"ĠYuen":7076,"istric":7077,"essel":7078,"uxi":7079,"Meh":7080,"ixi":7081,"Campos":7082,"zyl":7083,"Brock":7084,"Spas":7085,"Sarthe":7086,"Brez":7087,"Heath":7088,"Agata":7089,"Int":7090,"Inver":7091,"Verd":7092,"Cape":7093,"Mats":7094,"linge":7095,"Lakewood":7096,"attan":7097,"ĠMartÃŃ":7098,"Bouss":7099,"Fras":7100,"Front":7101,"Fruit":7102,"ĠEstancia":7103,"Holt":7104,"uhÃ©":7105,"ancy":7106,"Ã´n":7107,"kirk":7108,"ether":7109,"Horod":7110,"Ã¥r":7111,"Ã©dÃ©":7112,"Mayfield":7113,"Taur":7114,"Treb":7115,"Dobr":7116,"Ã³rdoba":7117,"ĠCalera":7118,"acios":7119,"ĠRoad":7120,"Miranda":7121,"ĠPlata":7122,"Xincheng":7123,"Padang":7124,"Granite":7125,"ĠPhra":7126,"Buda":7127,"ÄĮes":7128,"Quebrada":7129,"atsu":7130,"LÃ©ger":7131,"holz":7132,"Mitch":7133,"Troit":7134,"Äģpuram":7135,"ĠPeÃ±a":7136,"Kyzyl":7137,"Dayton":7138,"iÅŁoara":7139,"Helena":7140,"ginia":7141,"Piedra":7142,"tepeque":7143,"Middletown":7144,"Nowe":7145,"Negr":7146,"Ã¦r":7147,"ĠSeco":7148,"John":7149,"Ã©guhÃ©":7150,"ĠSegundo":7151,"Farmington":7152,"Trinidad":7153,"Friedrich":7154,"fjord":7155,"ĠJesÃºs":7156,"áº§u":7157,"Piazza":7158,"KÃ¶nigs":7159,"ĠJoaquÃŃn":7160,"Jamestown":7161,"Russell":7162,"ĠPiave":7163,"Hebron":7164,"Vysok":7165,"wiesen":7166,"inconada":7167,"Riverside":7168,"Pfaff":7169,"ĠCadore":7170,"Belmonte":7171,"French":7172,"Castelletto":7173,"Spencer":7174,"istrict":7175,"Aut":7176,"Bant":7177,"Boch":7178,"Bien":7179,"Bist":7180,"Bust":7181,"BÅĻ":7182,"Bull":7183,"CÃ©":7184,"Cun":7185,"Cell":7186,"Cup":7187,"Coss":7188,"Coul":7189,"Cyr":7190,"Dri":7191,"Dow":7192,"Deg":7193,"Dale":7194,"Dip":7195,"Dry":7196,"Dep":7197,"Dick":7198,"Ec":7199,"Ez":7200,"Eff":7201,"Fro":7202,"Fab":7203,"Fund":7204,"Fonte":7205,"FÃ¢n":7206,"Gia":7207,"Gim":7208,"Gub":7209,"Gala":7210,"Gao":7211,"Glad":7212,"GbÃ©":7213,"Gonz":7214,"Hv":7215,"Het":7216,"Hand":7217,"Hed":7218,"Hap":7219,"Hamp":7220,"Hass":7221,"Hip":7222,"Hick":7223,"Haut":7224,"Haus":7225,"Ile":7226,"Kow":7227,"Koul":7228,"Ler":7229,"Lot":7230,"Lond":7231,"Mers":7232,"Mall":7233,"Mian":7234,"Mish":7235,"Most":7236,"Moll":7237,"MÃ¶r":7238,"Muss":7239,"Miami":7240,"Nac":7241,"Niam":7242,"Nazar":7243,"Oj":7244,"Ora":7245,"Oise":7246,"Oktyabr":7247,"Ps":7248,"Pid":7249,"Pach":7250,"Peg":7251,"Pud":7252,"Puc":7253,"Phu":7254,"Plo":7255,"Part":7256,"Pins":7257,"Pula":7258,"Pho":7259,"Row":7260,"Rush":7261,"Ranch":7262,"Sle":7263,"Sia":7264,"Sod":7265,"Sip":7266,"Sart":7267,"Sien":7268,"Six":7269,"SÃ¡r":7270,"Sett":7271,"Tes":7272,"Tit":7273,"Till":7274,"Tow":7275,"Taz":7276,"Tud":7277,"Tut":7278,"Twin":7279,"Uj":7280,"Vul":7281,"Vran":7282,"Vest":7283,"Verm":7284,"VÄĥl":7285,"VÄ©nh":7286,"Won":7287,"Wing":7288,"Xal":7289,"Yin":7290,"Yon":7291,"ZÃ©":7292,"Zang":7293,"Zaw":7294,"bir":7295,"bli":7296,"bamba":7297,"cur":7298,"cap":7299,"cara":7300,"cles":7301,"cello":7302,"ceda":7303,"del":7304,"dra":7305,"forth":7306,"gad":7307,"gne":7308,"gorn":7309,"hain":7310,"hara":7311,"herst":7312,"iff":7313,"jÄģn":7314,"jÅį":7315,"jÃ¸":7316,"joki":7317,"kor":7318,"kun":7319,"kom":7320,"kau":7321,"kove":7322,"kÃ½":7323,"lim":7324,"line":7325,"mil":7326,"mington":7327,"mount":7328,"nas":7329,"nat":7330,"nos":7331,"ned":7332,"nich":7333,"nogorsk":7334,"ode":7335,"oth":7336,"pay":7337,"para":7338,"rino":7339,"sun":7340,"som":7341,"sac":7342,"sley":7343,"vera":7344,"xter":7345,"xcal":7346,"yevka":7347,"zÃ³n":7348,"zate":7349,"Ãĺ":7350,"Ġ6":7351,"ĠÅ½":7352,"anÃ¡":7353,"arÃŃ":7354,"arts":7355,"erh":7356,"erie":7357,"erbach":7358,"eruela":7359,"onal":7360,"alag":7361,"alpur":7362,"elton":7363,"iltepec":7364,"asz":7365,"chat":7366,"china":7367,"amal":7368,"amas":7369,"deÈĻti":7370,"lao":7371,"lade":7372,"atar":7373,"atra":7374,"atte":7375,"atay":7376,"osse":7377,"oshan":7378,"olas":7379,"Ã©rez":7380,"isano":7381,"isdorf":7382,"ĠCi":7383,"ĠCur":7384,"ĠCay":7385,"ĠCod":7386,"ĠCue":7387,"ĠCop":7388,"ĠCanyon":7389,"itra":7390,"ituciÃ³n":7391,"ĠMÃ©":7392,"ĠMak":7393,"ical":7394,"ices":7395,"ĠPel":7396,"ĠPes":7397,"ayal":7398,"aykh":7399,"unan":7400,"roth":7401,"Ã¡p":7402,"Ã¡da":7403,"Ã¡ly":7404,"ĠSay":7405,"ĠSqu":7406,"ĠSerd":7407,"Lakh":7408,"ĠBi":7409,"ĠBÄģzÄģr":7410,"igg":7411,"ompa":7412,"imer":7413,"imÃ©":7414,"Chis":7415,"Chad":7416,"Chab":7417,"Chai":7418,"Chant":7419,"Chorn":7420,"ĠAsh":7421,"Ã³k":7422,"acÃ¡":7423,"Ġdell":7424,"toy":7425,"iry":7426,"andougou":7427,"ÃŃt":7428,"ÃŃba":7429,"thon":7430,"ĠTomas":7431,"ĠTree":7432,"ĠTajo":7433,"odar":7434,"oden":7435,"odol":7436,"ĠHen":7437,"ĠHue":7438,"ĠHondo":7439,"ĠRes":7440,"ĠRet":7441,"ĠRoche":7442,"Alla":7443,"apat":7444,"apÃ¡n":7445,"ulce":7446,"ĠGil":7447,"ĠGri":7448,"ĠGrad":7449,"ĠGordo":7450,"ahd":7451,"ahe":7452,"ahn":7453,"ĠVi":7454,"idu":7455,"ides":7456,"idougou":7457,"nea":7458,"nem":7459,"nech":7460,"bernad":7461,"ueang":7462,"ums":7463,"ĠLor":7464,"ĠLuang":7465,"Els":7466,"ellan":7467,"terthur":7468,"emp":7469,"ĠNuovo":7470,"ĠNicola":7471,"ÅŁeni":7472,"erstown":7473,"ogno":7474,"Ã¶m":7475,"shagen":7476,"ocin":7477,"obe":7478,"oban":7479,"aix":7480,"aira":7481,"Shin":7482,"Shell":7483,"Ship":7484,"Shij":7485,"Shahr":7486,"azo":7487,"azÄ±":7488,"egno":7489,"eggio":7490,"quite":7491,"Ank":7492,"Anth":7493,"Anse":7494,"burton":7495,"evskiy":7496,"ĠMarco":7497,"tsevo":7498,"geÅŁti":7499,"entina":7500,"ĠKr":7501,"ĠKey":7502,"Stud":7503,"zhd":7504,"ordan":7505,"Neum":7506,"ekh":7507,"ĠEjido":7508,"iyat":7509,"Leh":7510,"Leu":7511,"cei":7512,"ciu":7513,"ouro":7514,"kee":7515,"ibe":7516,"ibu":7517,"ĠOj":7518,"Monroe":7519,"nye":7520,"ĠWells":7521,"BrÃ©":7522,"Bris":7523,"Brun":7524,"uzzo":7525,"ĠLaur":7526,"ffel":7527,"izzano":7528,"aje":7529,"onds":7530,"Thanh":7531,"Castil":7532,"ighton":7533,"eppe":7534,"hamn":7535,"Sche":7536,"Scho":7537,"Villiers":7538,"Belo":7539,"Belvedere":7540,"Montal":7541,"Montrose":7542,"Orm":7543,"Å¡Å¥":7544,"alma":7545,"aroo":7546,"gher":7547,"Manuel":7548,"ÅĤy":7549,"afla":7550,"Ã§on":7551,"Bergen":7552,"Beach":7553,"ijo":7554,"undi":7555,"under":7556,"Huar":7557,"Huitz":7558,"Escal":7559,"Casale":7560,"ĠCruc":7561,"Add":7562,"ĠArroyo":7563,"isso":7564,"essou":7565,"Bais":7566,"ilao":7567,"Cook":7568,"Campbell":7569,"Palos":7570,"Rech":7571,"Spe":7572,"SarÄ±":7573,"BanÄ«":7574,"Roque":7575,"tori":7576,"Breit":7577,"ireÅŁti":7578,"Portland":7579,"oult":7580,"iewo":7581,"Obern":7582,"Crist":7583,"Plop":7584,"broke":7585,"Åŀte":7586,"Ãģlvaro":7587,"annon":7588,"Ports":7589,"ancha":7590,"ancheng":7591,"Velyk":7592,"Plat":7593,"Plaine":7594,"ĠSalz":7595,"Albion":7596,"ĠEspino":7597,"pool":7598,"point":7599,"ĠMoreno":7600,"Ã´nio":7601,"Wilson":7602,"Wilhel":7603,"Woodville":7604,"mbaro":7605,"Palma":7606,"Palmar":7607,"Midland":7608,"ĠThÃłnh":7609,"ylivka":7610,"Lyon":7611,"Lyub":7612,"Norton":7613,"Dobro":7614,"Romain":7615,"Ã³ria":7616,"Molino":7617,"czyn":7618,"rigg":7619,"ĠPlain":7620,"Loup":7621,"Aleks":7622,"Gobernad":7623,"ĠIndepend":7624,"enhofen":7625,"Å¼y":7626,"Lagun":7627,"ĠGarda":7628,"ĠFork":7629,"Sulpice":7630,"Stoke":7631,"ĠPhÃº":7632,"Moselle":7633,"pect":7634,"Sumber":7635,"Summer":7636,"ĠCuauhtÃ©moc":7637,"Imeni":7638,"Centen":7639,"LÃ©on":7640,"Massa":7641,"Hanover":7642,"Ryb":7643,"ĠNicolas":7644,"ĠOliv":7645,"Joseph":7646,"Aguas":7647,"Byst":7648,"Marcel":7649,"ĠClub":7650,"ĠHuitz":7651,"Pietra":7652,"Mound":7653,"Prairie":7654,"quilpan":7655,"strup":7656,"ĠUnion":7657,"ĠRocks":7658,"Nikol":7659,"Gunung":7660,"Hartford":7661,"Gornji":7662,"ĠCerro":7663,"ĠTepet":7664,"ĠGeorgen":7665,"ĠCaball":7666,"Virginia":7667,"wiÄĻ":7668,"ĠAyala":7669,"RhÃ´ne":7670,"galant":7671,"ĠPaolo":7672,"ĠVallÃ¨s":7673,"Quintana":7674,"Shelby":7675,"Hazel":7676,"Poblado":7677,"villiers":7678,"unswick":7679,"Bethel":7680,"Nicolas":7681,"ĠCorner":7682,"ĠCorners":7683,"ĠTriunfo":7684,"Huntington":7685,"Stony":7686,"ĠAntÃ´nio":7687,"ffield":7688,"ĠPiedra":7689,"bÃ¡Ã±ez":7690,"croft":7691,"Marshall":7692,"ĠNuova":7693,"Oulad":7694,"Lagoa":7695,"Velyka":7696,"ĠHabitacion":7697,"Stratford":7698,"Cuevas":7699,"ĠBrianza":7700,"GÃ¶kÃ§":7701,"Buffalo":7702,"Fateh":7703,"ĠClemente":7704,"ĠMÃ¼hlkreis":7705,"ĠGuzmÃ¡n":7706,"ĠSerdÃ¡n":7707,"Aq":7708,"Aal":7709,"Aco":7710,"Aba":7711,"Aka":7712,"Ahuac":7713,"Bie":7714,"Bev":7715,"Baf":7716,"Bund":7717,"Bato":7718,"Bush":7719,"Bott":7720,"Cag":7721,"Cec":7722,"Cof":7723,"Cock":7724,"Dio":7725,"Dog":7726,"Daz":7727,"Daj":7728,"Domb":7729,"Dumb":7730,"DÄĻb":7731,"Ej":7732,"Fen":7733,"Fle":7734,"Fang":7735,"FÄĥ":7736,"Fron":7737,"Fush":7738,"Fisch":7739,"Gill":7740,"Gain":7741,"Ghe":7742,"Gres":7743,"Gry":7744,"Geb":7745,"GÅĤ":7746,"GÃ¶r":7747,"Hr":7748,"Hid":7749,"Hell":7750,"Hers":7751,"Hind":7752,"HÃ©r":7753,"Higuera":7754,"Ist":7755,"Ins":7756,"Jil":7757,"Jind":7758,"Jama":7759,"Kain":7760,"Kran":7761,"Kamb":7762,"Kof":7763,"Kita":7764,"Kish":7765,"Kula":7766,"Krem":7767,"KÄ±r":7768,"Lil":7769,"LÄĥ":7770,"Lark":7771,"LÃ¸":7772,"Luna":7773,"Lido":7774,"Mic":7775,"Mim":7776,"Mour":7777,"Miz":7778,"Mire":7779,"Mold":7780,"Muh":7781,"MÄĽ":7782,"Menz":7783,"Munt":7784,"Nz":7785,"Nin":7786,"Nich":7787,"Nass":7788,"Nine":7789,"Neck":7790,"Ola":7791,"Oco":7792,"Oke":7793,"Ouen":7794,"Pah":7795,"Pich":7796,"Pek":7797,"Pern":7798,"Poh":7799,"Poch":7800,"Phan":7801,"Path":7802,"PÃ©r":7803,"Qi":7804,"Rz":7805,"Rol":7806,"Sall":7807,"Sern":7808,"Sier":7809,"Saj":7810,"SÃ¤":7811,"Sole":7812,"Scar":7813,"Soledad":7814,"Tand":7815,"Tina":7816,"Tsur":7817,"Toul":7818,"Tumb":7819,"Tax":7820,"TÃ¼r":7821,"Triv":7822,"TÄĥt":7823,"Toledo":7824,"Vez":7825,"Wur":7826,"Wet":7827,"Wern":7828,"Wys":7829,"Wierz":7830,"Yay":7831,"Yav":7832,"Zer":7833,"Znam":7834,"aur":7835,"aia":7836,"bil":7837,"bano":7838,"cab":7839,"cino":7840,"cana":7841,"cke":7842,"cala":7843,"cera":7844,"dre":7845,"fur":7846,"fra":7847,"fino":7848,"gÃ©":7849,"gun":7850,"gir":7851,"gado":7852,"gueva":7853,"hills":7854,"hermosa":7855,"iÅ£a":7856,"jara":7857,"jiao":7858,"kat":7859,"kay":7860,"kah":7861,"kale":7862,"khan":7863,"kendorf":7864,"lla":7865,"lit":7866,"loc":7867,"lino":7868,"my":7869,"mak":7870,"mÃ¤":7871,"mida":7872,"mith":7873,"nu":7874,"nal":7875,"nil":7876,"oba":7877,"pl":7878,"pata":7879,"rice":7880,"rÃŃa":7881,"rone":7882,"rick":7883,"rella":7884,"rado":7885,"rales":7886,"sc":7887,"sum":7888,"saw":7889,"sworth":7890,"tara":7891,"tÃ¢n":7892,"uin":7893,"uÈĻ":7894,"vres":7895,"vington":7896,"wed":7897,"wai":7898,"wara":7899,"wÄģn":7900,"wart":7901,"wold":7902,"xin":7903,"zig":7904,"zem":7905,"zno":7906,"Ãĵ":7907,"Ġ7":7908,"Ġu":7909,"ĠÄĢ":7910,"ĠÃļ":7911,"anton":7912,"anovo":7913,"anya":7914,"arana":7915,"inal":7916,"inta":7917,"inca":7918,"enj":7919,"enice":7920,"onay":7921,"alp":7922,"alai":7923,"iliÃ©":7924,"asin":7925,"esia":7926,"char":7927,"chil":7928,"chos":7929,"amu":7930,"amos":7931,"amay":7932,"amac":7933,"dee":7934,"lab":7935,"leby":7936,"leÈĻti":7937,"atec":7938,"ouville":7939,"ouna":7940,"olia":7941,"Ã©bo":7942,"Ã©jar":7943,"iska":7944,"isai":7945,"islav":7946,"iswil":7947,"tava":7948,"ĠCav":7949,"ĠCont":7950,"adel":7951,"ades":7952,"itar":7953,"rech":7954,"reira":7955,"ovÃ«":7956,"ingan":7957,"ingdon":7958,"iagu":7959,"ĠMix":7960,"teca":7961,"icia":7962,"icourt":7963,"ĠPi":7964,"ĠPau":7965,"ĠPir":7966,"ĠPug":7967,"ĠPilar":7968,"ayevo":7969,"ayette":7970,"rock":7971,"Äģda":7972,"Äģrah":7973,"Äģgarh":7974,"Ã¡v":7975,"Ã¡polis":7976,"ĠSor":7977,"ĠSad":7978,"ĠSha":7979,"rios":7980,"ety":7981,"etano":7982,"Lai":7983,"ĠBil":7984,"ĠBol":7985,"ĠBia":7986,"ĠBang":7987,"ĠBell":7988,"ĠBank":7989,"ĠBerg":7990,"igheim":7991,"agra":7992,"oming":7993,"illan":7994,"illing":7995,"illia":7996,"illip":7997,"Chet":7998,"Chup":7999,"Chiang":8000,"ĠAur":8001,"ĠAbr":8002,"ĠAmar":8003,"acal":8004,"acÄ±k":8005,"abar":8006,"abat":8007,"aberg":8008,"irÃ©":8009,"ander":8010,"ÃŃna":8011,"ÃŃni":8012,"thage":8013,"aklÄ±":8014,"aina":8015,"ĠTl":8016,"ĠTo":8017,"ĠTol":8018,"ĠTig":8019,"ĠTot":8020,"odo":8021,"odu":8022,"odougou":8023,"ĠHom":8024,"ĠHau":8025,"ĠHerm":8026,"ĠHuer":8027,"Alh":8028,"Alv":8029,"Alle":8030,"Alta":8031,"Alma":8032,"Alder":8033,"Albert":8034,"ulia":8035,"ĠGate":8036,"ĠGÃ³ra":8037,"aho":8038,"idz":8039,"idos":8040,"iday":8041,"idence":8042,"usch":8043,"iembre":8044,"avou":8045,"tiz":8046,"tiers":8047,"neÅŁti":8048,"neux":8049,"anowice":8050,"berge":8051,"bersdorf":8052,"ĠLos":8053,"ĠLamb":8054,"ĠLuna":8055,"oty":8056,"otes":8057,"Marano":8058,"ĠFil":8059,"ĠFri":8060,"ĠFlat":8061,"ersberg":8062,"ersleben":8063,"rane":8064,"rans":8065,"ikÃ³":8066,"Ã¼nd":8067,"shÃ¶":8068,"azza":8069,"ĠDorado":8070,"Ä«rah":8071,"Ä«yeh":8072,"Anto":8073,"anao":8074,"evac":8075,"opo":8076,"liu":8077,"lich":8078,"entos":8079,"inao":8080,"ĠKil":8081,"ĠKur":8082,"ĠKam":8083,"ĠKou":8084,"ĠKra":8085,"ĠKok":8086,"icho":8087,"iches":8088,"zhu":8089,"eys":8090,"ube":8091,"eldorf":8092,"Nek":8093,"Neun":8094,"ĠEul":8095,"ĠEbro":8096,"ipi":8097,"ipan":8098,"ĠIz":8099,"Leb":8100,"Ã¢mb":8101,"ceÅŁti":8102,"ciana":8103,"uping":8104,"ĠOst":8105,"ensen":8106,"Monc":8107,"Monto":8108,"ĠChiqu":8109,"Ä±m":8110,"Å«t":8111,"ĠWin":8112,"ĠWind":8113,"ĠWater":8114,"Guil":8115,"Brz":8116,"Bram":8117,"uze":8118,"ndon":8119,"ngel":8120,"izer":8121,"ozy":8122,"Thir":8123,"tenau":8124,"Castrillo":8125,"Schwe":8126,"vais":8127,"inden":8128,"GrÃ¼n":8129,"Montf":8130,"Monts":8131,"Montigny":8132,"Ãºa":8133,"Orb":8134,"Org":8135,"Orge":8136,"Å¡k":8137,"almouth":8138,"ghetto":8139,"ĠSannio":8140,"Berkel":8141,"uche":8142,"Prato":8143,"cker":8144,"lya":8145,"lyk":8146,"prÃ¨s":8147,"NovÃ©":8148,"Novom":8149,"Mali":8150,"Malu":8151,"Malvern":8152,"Morgan":8153,"Morelos":8154,"Huam":8155,"Northfield":8156,"Äįina":8157,"Äįki":8158,"arrat":8159,"Corte":8160,"Espin":8161,"uiÃ©":8162,"Ã«n":8163,"errero":8164,"ishche":8165,"rovsk":8166,"Trenton":8167,"lenbach":8168,"á»§":8169,"á»³":8170,"Abas":8171,"uyu":8172,"uyang":8173,"ĠYÃªn":8174,"Conf":8175,"Concei":8176,"verton":8177,"BaÅŁ":8178,"Cole":8179,"Cool":8180,"Coop":8181,"cheon":8182,"Moor":8183,"torp":8184,"Agn":8185,"ollar":8186,"Zhelez":8187,"Benton":8188,"Tej":8189,"Cruc":8190,"ÄŁa":8191,"calco":8192,"Clermont":8193,"Caba":8194,"Caban":8195,"PeÃ±a":8196,"arlÄ±":8197,"arlington":8198,"ife":8199,"ift":8200,"iforn":8201,"ÅĻeb":8202,"Milan":8203,"Mineral":8204,"Phra":8205,"Geneva":8206,"ĠVicentino":8207,"George":8208,"oaia":8209,"Holz":8210,"Mason":8211,"llar":8212,"ĠEscob":8213,"ĠEsgueva":8214,"Ã´me":8215,"Melrose":8216,"ralba":8217,"Ã¥g":8218,"royos":8219,"Pase":8220,"Herz":8221,"lette":8222,"Navas":8223,"ĠReina":8224,"ĠReforma":8225,"ylÃ¤":8226,"Torrem":8227,"ĠColonia":8228,"TaÅŁ":8229,"Norwood":8230,"Sabang":8231,"Druzh":8232,"Äĥneasa":8233,"czÃ³w":8234,"rigny":8235,"Franken":8236,"Radom":8237,"Konstant":8238,"wangen":8239,"Å¼e":8240,"Half":8241,"Oued":8242,"Potrer":8243,"Ã¡zar":8244,"ĠÃģl":8245,"Äĵl":8246,"Llang":8247,"amanca":8248,"Croix":8249,"Danville":8250,"Pozz":8251,"inhos":8252,"Itap":8253,"Verkhnyaya":8254,"ĠPeÃ±":8255,"Waterford":8256,"ĠPolyana":8257,"Chapel":8258,"ĠMatamoros":8259,"rizal":8260,"Fontenay":8261,"ĠPinar":8262,"Westh":8263,"quiles":8264,"Clair":8265,"DumbrÄĥ":8266,"Ribeira":8267,"Wool":8268,"ĠSerra":8269,"Ronco":8270,"Tavern":8271,"Piedras":8272,"Cotton":8273,"umpang":8274,"ĠRamÃ³n":8275,"opolis":8276,"opolski":8277,"Ã¦k":8278,"Craig":8279,"Vrb":8280,"ĠBartolomeo":8281,"Lakeland":8282,"Lakeview":8283,"Athens":8284,"Williams":8285,"Novosel":8286,"Trinity":8287,"ĠVechi":8288,"Dorfkern":8289,"ĠUnter":8290,"ĠMerc":8291,"Æ°á»Ľ":8292,"ĠBranco":8293,"ĠLarga":8294,"Thornton":8295,"Baldwin":8296,"Oleksand":8297,"Charlotte":8298,"Cumberland":8299,"Prospect":8300,"Lauter":8301,"MÃ©doc":8302,"ĠMuÃ±":8303,"ĠPotrero":8304,"ĠFarms":8305,"Neder":8306,"Ã©lix":8307,"Independence":8308,"Decatur":8309,"TÃ¢rgu":8310,"ĠGeneral":8311,"lessis":8312,"ĠCroce":8313,"Vienne":8314,"ĠNaranj":8315,"ĠCharles":8316,"ĠEscond":8317,"Henderson":8318,"Salvacion":8319,"Eureka":8320,"champs":8321,"ĠLodge":8322,"Somerset":8323,"RÃ©my":8324,"Cleveland":8325,"ĠSharq":8326,"ĠHighlands":8327,"ĠLabem":8328,"fontein":8329,"ĠGharb":8330,"Torrecilla":8331,"ĠWaters":8332,"Izvoarele":8333,"ĠSquare":8334,"ĠIndependencia":8335,"ĠHabitacional":8336,"ConceiÃ§Ã£o":8337,"Ai":8338,"Bing":8339,"Bend":8340,"BÃ¢":8341,"Bala":8342,"Biss":8343,"BÄģr":8344,"Beck":8345,"Cang":8346,"Ceb":8347,"Cair":8348,"Cull":8349,"CÃ¢mp":8350,"Dov":8351,"Deng":8352,"Duc":8353,"Dug":8354,"Duk":8355,"Doh":8356,"Dorn":8357,"Dix":8358,"DÄģr":8359,"DÄħ":8360,"Ein":8361,"Esk":8362,"Ens":8363,"Fan":8364,"Fam":8365,"FÃ©":8366,"Fed":8367,"Farr":8368,"Farn":8369,"Gj":8370,"Gov":8371,"Gay":8372,"Gog":8373,"Goss":8374,"Gost":8375,"Hak":8376,"Hast":8377,"Hok":8378,"Hont":8379,"Heg":8380,"Hek":8381,"Haf":8382,"Hato":8383,"Hann":8384,"Hack":8385,"Hagen":8386,"Hugh":8387,"If":8388,"Jen":8389,"Jau":8390,"Jast":8391,"Job":8392,"Jug":8393,"Jiu":8394,"JÃ¤r":8395,"JÃ¡sz":8396,"KÃ©":8397,"Koy":8398,"Kog":8399,"Kant":8400,"KÄģn":8401,"Kuch":8402,"Kann":8403,"Lec":8404,"Loy":8405,"Lens":8406,"Lant":8407,"Lland":8408,"Luch":8409,"Lomb":8410,"Mw":8411,"Muz":8412,"Moro":8413,"MÃ©n":8414,"Mix":8415,"Nom":8416,"Nah":8417,"Num":8418,"Ney":8419,"Nish":8420,"Nicola":8421,"Oly":8422,"Poy":8423,"PÃ¶":8424,"Peng":8425,"Pino":8426,"Pard":8427,"Pug":8428,"Ples":8429,"PÅĻ":8430,"Prig":8431,"Prav":8432,"Pesc":8433,"Qin":8434,"Qir":8435,"Rhe":8436,"Rup":8437,"Rafael":8438,"Sog":8439,"Seng":8440,"Sull":8441,"Satu":8442,"Sunga":8443,"Sesto":8444,"Tl":8445,"Tas":8446,"Tia":8447,"Taw":8448,"Try":8449,"Taj":8450,"Tula":8451,"Tuf":8452,"Town":8453,"Tamar":8454,"Uc":8455,"Uy":8456,"Uri":8457,"Ush":8458,"Und":8459,"Utt":8460,"Ull":8461,"Vim":8462,"VÃ¤":8463,"Wim":8464,"WÃ¤":8465,"Wiang":8466,"Warn":8467,"Wetz":8468,"Woj":8469,"Yap":8470,"Yeni":8471,"Zand":8472,"ZÄĥ":8473,"Zub":8474,"Zamb":8475,"ZÅĤ":8476,"Zare":8477,"Zacu":8478,"bun":8479,"bong":8480,"bok":8481,"bella":8482,"bouÃ©":8483,"bbs":8484,"cq":8485,"cam":8486,"cano":8487,"cÃ³n":8488,"cent":8489,"cut":8490,"dor":8491,"eiras":8492,"fl":8493,"fin":8494,"fre":8495,"flores":8496,"gul":8497,"gÄĥ":8498,"hy":8499,"hle":8500,"had":8501,"hit":8502,"hra":8503,"hun":8504,"hau":8505,"hir":8506,"hav":8507,"hisar":8508,"jun":8509,"jie":8510,"jÃ¡n":8511,"kas":8512,"kav":8513,"koye":8514,"kha":8515,"liv":8516,"lÃ¸":8517,"mÃ©":8518,"met":8519,"mir":8520,"mach":8521,"nen":8522,"nak":8523,"num":8524,"nje":8525,"nÄĽ":8526,"oor":8527,"oÅ¡":8528,"oÄŁ":8529,"pon":8530,"pÃ¡n":8531,"qin":8532,"rang":8533,"rera":8534,"rÃ³d":8535,"sin":8536,"sang":8537,"she":8538,"sey":8539,"ting":8540,"tun":8541,"tim":8542,"tÃ³":8543,"uba":8544,"utsch":8545,"vad":8546,"vier":8547,"vÃ¡s":8548,"will":8549,"wey":8550,"wane":8551,"xheim":8552,"yu":8553,"yin":8554,"yre":8555,"yville":8556,"zor":8557,"zah":8558,"zkÃ³w":8559,"ÌĦ":8560,"ÑĢ":8561,"Ġ5":8562,"ĠSantiago":8563,"ĠÅł":8564,"anov":8565,"arat":8566,"arang":8567,"arth":8568,"arah":8569,"erle":8570,"ering":8571,"erano":8572,"erna":8573,"erdale":8574,"inari":8575,"innes":8576,"inje":8577,"enham":8578,"enzo":8579,"alem":8580,"elheim":8581,"elfingen":8582,"ilah":8583,"asen":8584,"esar":8585,"esboro":8586,"chino":8587,"chich":8588,"chÃ©n":8589,"chetta":8590,"chÃ³ri":8591,"ury":8592,"uras":8593,"ures":8594,"urai":8595,"deb":8596,"deville":8597,"dega":8598,"lei":8599,"atinga":8600,"Sanch":8601,"osz":8602,"ouda":8603,"olk":8604,"oly":8605,"olan":8606,"olot":8607,"olok":8608,"isu":8609,"isson":8610,"tawa":8611,"ĠCond":8612,"adena":8613,"adura":8614,"itepec":8615,"reek":8616,"oveni":8617,"raga":8618,"ĠMah":8619,"ĠMond":8620,"ĠMora":8621,"ĠMure":8622,"ĠMayor":8623,"icas":8624,"icay":8625,"ĠPis":8626,"ĠPha":8627,"ĠPaso":8628,"angar":8629,"Äģi":8630,"Äģp":8631,"Äģth":8632,"ÄģÅ£":8633,"Äģkh":8634,"Ã¡pam":8635,"ĠShe":8636,"ĠSung":8637,"ĠSham":8638,"ĠSuÃ¡rez":8639,"rian":8640,"rign":8641,"riÃ¨re":8642,"Laj":8643,"Laud":8644,"ĠBut":8645,"ĠBaj":8646,"ĠBrad":8647,"ĠBene":8648,"ĠBajo":8649,"igas":8650,"igna":8651,"igiano":8652,"toni":8653,"agÃ¼":8654,"agung":8655,"agiri":8656,"imachi":8657,"Cho":8658,"ChÃ©":8659,"Chill":8660,"Cheb":8661,"Charm":8662,"auan":8663,"ĠAra":8664,"ĠArag":8665,"ĠAngeles":8666,"Ã³v":8667,"acon":8668,"acay":8669,"acker":8670,"aby":8671,"aburi":8672,"ÃŃc":8673,"ÃŃcuaro":8674,"edin":8675,"eden":8676,"akar":8677,"ĠTro":8678,"ĠTak":8679,"ĠTav":8680,"ĠToro":8681,"ĠTron":8682,"ĠHoll":8683,"ĠRat":8684,"ĠRad":8685,"ĠRed":8686,"ĠRub":8687,"ĠRica":8688,"ĠRÃŃos":8689,"Als":8690,"Allen":8691,"AlÄģq":8692,"aph":8693,"apÃ©":8694,"ulong":8695,"ĠGer":8696,"ĠGerm":8697,"ĠGora":8698,"ĠGraz":8699,"ĠVir":8700,"ĠVid":8701,"ĠVera":8702,"iding":8703,"idio":8704,"uso":8705,"ieta":8706,"aviva":8707,"tif":8708,"tiÃ©r":8709,"neville":8710,"nega":8711,"anoa":8712,"ĠLev":8713,"ĠLub":8714,"ĠLondon":8715,"ĠLá»Ļc":8716,"otou":8717,"otta":8718,"ĠJam":8719,"ĠJuli":8720,"emia":8721,"Marqu":8722,"ĠNam":8723,"owe":8724,"ĠFa":8725,"ĠFl":8726,"ĠFont":8727,"ÅŁeÅŁti":8728,"ershausen":8729,"oge":8730,"ogn":8731,"Ã¶hr":8732,"Ã¼tz":8733,"achen":8734,"aide":8735,"Shun":8736,"Shore":8737,"Shira":8738,"Shakh":8739,"azÃ¡n":8740,"ĠDo":8741,"Aren":8742,"Arcos":8743,"Ä«pur":8744,"quir":8745,"quila":8746,"estina":8747,"ĠMarta":8748,"ĠMarys":8749,"tstown":8750,"Stal":8751,"Stam":8752,"arkt":8753,"guhÃ©":8754,"ubb":8755,"Nef":8756,"Neud":8757,"utan":8758,"eki":8759,"ernÃ¡ndez":8760,"iyya":8761,"Ã¨vre":8762,"awk":8763,"cial":8764,"ugn":8765,"upu":8766,"iermark":8767,"ĠOn":8768,"ensac":8769,"Ã±gan":8770,"Montagne":8771,"ĠChang":8772,"Barton":8773,"nyye":8774,"nytsia":8775,"Å«Å£":8776,"ĠWo":8777,"ĠWill":8778,"Guat":8779,"ineÈĻti":8780,"Carp":8781,"Brum":8782,"Bruck":8783,"Brunswick":8784,"huela":8785,"huizen":8786,"ezd":8787,"ĠLach":8788,"ffe":8789,"landa":8790,"ÈĻani":8791,"ÈĻeÈĻti":8792,"ambe":8793,"nga":8794,"ayao":8795,"izu":8796,"ozi":8797,"ozal":8798,"Thom":8799,"ebro":8800,"ebir":8801,"eroa":8802,"Villaverde":8803,"epe":8804,"eport":8805,"Schle":8806,"Aman":8807,"ynohrad":8808,"Grad":8809,"Grov":8810,"ĠAld":8811,"ĠAlba":8812,"ĠAltos":8813,"Ã³wek":8814,"Montm":8815,"ounou":8816,"Ors":8817,"Orne":8818,"Å¡te":8819,"voir":8820,"olotepec":8821,"Manh":8822,"ĠSand":8823,"Ã§i":8824,"Ã§an":8825,"Berk":8826,"Berri":8827,"Berlin":8828,"ucho":8829,"hany":8830,"cki":8831,"ueras":8832,"ienica":8833,"NovÃ¡":8834,"Novob":8835,"Malp":8836,"Mora":8837,"ĠValt":8838,"Hua":8839,"Huach":8840,"Äįov":8841,"ÄįÃŃ":8842,"Äįka":8843,"Bula":8844,"ĠZac":8845,"á¸Ĳ":8846,"Khlong":8847,"uix":8848,"Casta":8849,"Seaf":8850,"Ã«m":8851,"Ã«s":8852,"ĠCristo":8853,"bee":8854,"Tras":8855,"Adolfo":8856,"iedl":8857,"ĠYork":8858,"chensk":8859,"rancas":8860,"Concep":8861,"BaÃ±os":8862,"Meridian":8863,"irio":8864,"zyna":8865,"Montem":8866,"Real":8867,"nesville":8868,"Spin":8869,"Sparta":8870,"Roberts":8871,"Ãłs":8872,"pert":8873,"elsbach":8874,"ĠIsla":8875,"Aksu":8876,"Erb":8877,"Ceres":8878,"Cerreto":8879,"Island":8880,"ysville":8881,"ĠPole":8882,"Inn":8883,"Verg":8884,"Capp":8885,"Capit":8886,"Zhou":8887,"Peter":8888,"garten":8889,"weil":8890,"Benn":8891,"merald":8892,"Clover":8893,"Poien":8894,"Pointe":8895,"Pech":8896,"Atz":8897,"Ãªque":8898,"ÄģlÄ«":8899,"Äģlpur":8900,"ĠGuad":8901,"Weis":8902,"Weit":8903,"schau":8904,"ĠSalinas":8905,"Emb":8906,"genland":8907,"Garb":8908,"Krasno":8909,"Å¾ice":8910,"uhl":8911,"Terre":8912,"Terra":8913,"Äĩe":8914,"Bonny":8915,"Stras":8916,"ethen":8917,"Woodstock":8918,"tram":8919,"Donja":8920,"Kouadio":8921,"roydon":8922,"ÅĦski":8923,"Tsaga":8924,"Palmas":8925,"Ayd":8926,"Ã¯t":8927,"Hamburg":8928,"Walton":8929,"Blang":8930,"Norman":8931,"Drum":8932,"Naranj":8933,"Miramar":8934,"KaÅ¡":8935,"Tamaz":8936,"ĠXian":8937,"Selva":8938,"kovskiy":8939,"ĠQuir":8940,"ĠTormes":8941,"Birken":8942,"Villefran":8943,"Scor":8944,"Rocchetta":8945,"Ã¼nde":8946,"Ostrov":8947,"Nagy":8948,"Lambert":8949,"ĠMauro":8950,"Florida":8951,"ĠÃģvila":8952,"ĠCuesta":8953,"ĠShahr":8954,"Centro":8955,"Komar":8956,"Rade":8957,"Venustiano":8958,"Kloten":8959,"Rocky":8960,"szent":8961,"ĠFelice":8962,"GÃ¼mÃ¼":8963,"Livingston":8964,"kÃ¶ping":8965,"Kirchheim":8966,"rieden":8967,"Pedra":8968,"BahÃŃa":8969,"Jargalant":8970,"holt":8971,"Aguilar":8972,"MÃ¼nster":8973,"MezÅĳ":8974,"ĠCentre":8975,"Falken":8976,"Topol":8977,"Fontana":8978,"Frankfort":8979,"Butler":8980,"Market":8981,"Loreto":8982,"ĠSantos":8983,"Ingen":8984,"Severn":8985,"ĠMilan":8986,"Ä«dah":8987,"ĠCristina":8988,"MÄĥg":8989,"Ribeir":8990,"ĠBurgenland":8991,"ĠCapo":8992,"ĠSabino":8993,"Chinch":8994,"markt":8995,"ĠAgustin":8996,"Aldeanueva":8997,"ĠJoan":8998,"ÅĤawice":8999,"BÃ¼yÃ¼k":9000,"tempan":9001,"iÅ¡te":9002,"ĠBernardino":9003,"Nowy":9004,"College":9005,"Hinter":9006,"Felipe":9007,"á¹Ń":9008,"Blanken":9009,"ĠBaÃ±os":9010,"ĠRivers":9011,"stÃ¤tten":9012,"MihÄĥ":9013,"Nogent":9014,"ĠIldef":9015,"Quintanilla":9016,"Civitella":9017,"Hyde":9018,"villers":9019,"ĠBuenaventura":9020,"Stockton":9021,"Herrera":9022,"Hillsboro":9023,"Pembroke":9024,"Vadu":9025,"Augusta":9026,"BiaÅĤ":9027,"Chelsea":9028,"ĠPaulista":9029,"Å¡tÄĽ":9030,"Beverly":9031,"ĠLimÃ³n":9032,"Constant":9033,"Bloomfield":9034,"Howard":9035,"ĠTirol":9036,"Edgewood":9037,"otzingo":9038,"Easton":9039,"ĠPobla":9040,"ĠSimÃ³n":9041,"Trzeb":9042,"MÃ¼nch":9043,"Ridg":9044,"Sylvan":9045,"ĠProvidencia":9046,"ĠHelena":9047,"atherine":9048,"Frederick":9049,"Bridg":9050,"SantibÃ¡Ã±ez":9051,"Gordon":9052,"aÅŁr":9053,"Presidente":9054,"VÃ¢nÄĥ":9055,"Brentwood":9056,"Carrollton":9057,"ĠNÃºmero":9058,"Talisay":9059,"Wakefield":9060,"á»©c":9061,"Johnson":9062,"FÃ¢ntÃ¢n":9063,"ahdÄģrÄ«":9064,"Gobernador":9065,"ĠPuglia":9066,"Berkeley":9067,"ifornia":9068,"ĠEscobedo":9069,"Æ°á»Ľc":9070,"AlÄģqahdÄģrÄ«":9071,"tiÃ©rrez":9072,"GÃ¼mÃ¼ÅŁ":9073,"ĠIldefonso":9074,"FÃ¢ntÃ¢nele":9075,"AÃ±":9076,"Ada":9077,"Aquiles":9078,"BÃ¡":9079,"Biv":9080,"Bies":9081,"Bih":9082,"BÃ¼r":9083,"Cach":9084,"Cud":9085,"Cien":9086,"Cao":9087,"Curt":9088,"Cax":9089,"Crem":9090,"Cyp":9091,"Dn":9092,"Dil":9093,"Dzh":9094,"Dung":9095,"Diang":9096,"Dhar":9097,"Dallas":9098,"Eben":9099,"Fos":9100,"Fag":9101,"Fell":9102,"FrÃ©":9103,"Fitz":9104,"FÄĥr":9105,"Gle":9106,"Glan":9107,"GÃ©n":9108,"Goul":9109,"Gott":9110,"Hj":9111,"Hep":9112,"Hund":9113,"Host":9114,"Hank":9115,"Humb":9116,"Henn":9117,"Haver":9118,"Houghton":9119,"Iron":9120,"Jou":9121,"Jand":9122,"Jah":9123,"Jav":9124,"Joa":9125,"Jagu":9126,"Junction":9127,"Kv":9128,"Kid":9129,"Kik":9130,"Kung":9131,"Kep":9132,"Koro":9133,"KÅĤ":9134,"Kani":9135,"Kank":9136,"Khao":9137,"Lel":9138,"Lla":9139,"Mt":9140,"Muc":9141,"Mek":9142,"Mier":9143,"Mittel":9144,"Nt":9145,"Nis":9146,"Nant":9147,"Niz":9148,"Naj":9149,"Naf":9150,"Nowa":9151,"Nakhon":9152,"Oberg":9153,"Oles":9154,"Obr":9155,"PÃ³":9156,"PÄĥ":9157,"Pik":9158,"Pip":9159,"Poul":9160,"Push":9161,"Panc":9162,"Puj":9163,"Qor":9164,"Qia":9165,"Ramb":9166,"Roll":9167,"Riet":9168,"Rank":9169,"Raven":9170,"Rouss":9171,"Sr":9172,"Sic":9173,"Sne":9174,"Sara":9175,"Sof":9176,"Sira":9177,"Soul":9178,"SÄĥr":9179,"Sax":9180,"Senn":9181,"Sonn":9182,"Scott":9183,"Tus":9184,"Tara":9185,"Tord":9186,"Tind":9187,"Tash":9188,"Tuch":9189,"Tess":9190,"Tix":9191,"Tiel":9192,"Tyr":9193,"Uss":9194,"Vu":9195,"Vla":9196,"Vod":9197,"Veg":9198,"Vier":9199,"Vine":9200,"Vaux":9201,"Vynohrad":9202,"Ward":9203,"Worth":9204,"Wyn":9205,"WÅĤ":9206,"Woll":9207,"Wells":9208,"Yat":9209,"Yau":9210,"Yue":9211,"Yem":9212,"Yok":9213,"Zv":9214,"Zin":9215,"Zay":9216,"Zaf":9217,"Zales":9218,"Zsch":9219,"Zlat":9220,"band":9221,"bow":9222,"blan":9223,"bona":9224,"bjerg":9225,"cav":9226,"cÄ±":9227,"cito":9228,"dah":9229,"fia":9230,"fred":9231,"gam":9232,"glen":9233,"hos":9234,"hio":9235,"hrad":9236,"iq":9237,"jd":9238,"kr":9239,"kos":9240,"kra":9241,"key":9242,"kup":9243,"lg":9244,"lum":9245,"leng":9246,"lberg":9247,"lovice":9248,"lÃ¶v":9249,"mam":9250,"mau":9251,"mano":9252,"mÄģn":9253,"mita":9254,"nang":9255,"nbach":9256,"ohe":9257,"oire":9258,"pf":9259,"ppe":9260,"qa":9261,"rn":9262,"rar":9263,"ril":9264,"rina":9265,"rosa":9266,"sas":9267,"ses":9268,"sden":9269,"sboro":9270,"tra":9271,"tana":9272,"tingen":9273,"uar":9274,"ual":9275,"vino":9276,"vigny":9277,"vestre":9278,"wm":9279,"wand":9280,"wagan":9281,"xe":9282,"xley":9283,"xico":9284,"ying":9285,"yant":9286,"zat":9287,"zra":9288,"zÄĻ":9289,"Ä¾":9290,"Å©":9291,"Åª":9292,"Åĺ":9293,"Ġv":9294,"Ġand":9295,"anon":9296,"anou":9297,"anzo":9298,"anico":9299,"arf":9300,"aren":9301,"arch":9302,"arap":9303,"arka":9304,"arino":9305,"erde":9306,"erau":9307,"inch":9308,"inde":9309,"inburg":9310,"onos":9311,"onet":9312,"onac":9313,"alen":9314,"alas":9315,"alÃŃa":9316,"albo":9317,"alÅ«r":9318,"orskiy":9319,"elice":9320,"iley":9321,"esz":9322,"esen":9323,"esse":9324,"chiv":9325,"chowice":9326,"uria":9327,"amÃ©":9328,"amento":9329,"degg":9330,"detto":9331,"lap":9332,"laya":9333,"latt":9334,"ledo":9335,"atina":9336,"osc":9337,"oude":9338,"ouakro":9339,"olÃ©":9340,"olong":9341,"olzh":9342,"Ã©la":9343,"Ã©fla":9344,"isti":9345,"tada":9346,"ĠCand":9347,"ĠCob":9348,"ĠCaj":9349,"ĠColl":9350,"ĠCosta":9351,"adar":9352,"adji":9353,"iter":9354,"itre":9355,"itÃ¡":9356,"itland":9357,"ovia":9358,"ovets":9359,"inger":9360,"inghem":9361,"iapa":9362,"raw":9363,"ĠMen":9364,"ĠMang":9365,"ĠMass":9366,"ĠMaj":9367,"tec":9368,"teuil":9369,"icÃ³":9370,"ĠPon":9371,"ĠPav":9372,"ĠPont":9373,"ĠPozo":9374,"ĠPÃ©rez":9375,"ays":9376,"ayu":9377,"ayong":9378,"unay":9379,"roda":9380,"robo":9381,"Äģwar":9382,"Ã¡rio":9383,"ĠSo":9384,"ĠSon":9385,"ĠSom":9386,"ĠSev":9387,"ĠSÃ£o":9388,"ĠSide":9389,"ĠSoto":9390,"ĠSÃ¡nchez":9391,"riy":9392,"riÃ¡n":9393,"rida":9394,"ĠBad":9395,"ĠBag":9396,"ĠBall":9397,"ĠBuk":9398,"ĠBuz":9399,"ĠBlas":9400,"ĠBranca":9401,"iger":9402,"iguan":9403,"tonilco":9404,"agon":9405,"agawa":9406,"omiya":9407,"ims":9408,"imon":9409,"imont":9410,"Chh":9411,"Chiv":9412,"Chann":9413,"ĠAk":9414,"ĠAnita":9415,"acco":9416,"acalco":9417,"tobe":9418,"abb":9419,"abi":9420,"abÃ©":9421,"abah":9422,"abana":9423,"abli":9424,"abela":9425,"irs":9426,"ÃŃng":9427,"ÃŃrez":9428,"ÃŃlia":9429,"edd":9430,"eds":9431,"edonia":9432,"thi":9433,"skÃ©":9434,"ĠTal":9435,"ĠTab":9436,"ĠTour":9437,"ĠTung":9438,"ĠTÃ¢n":9439,"ĠHat":9440,"ĠHang":9441,"ĠHum":9442,"ĠHÃ²a":9443,"ĠRoy":9444,"ĠRaw":9445,"ĠRib":9446,"ĠRico":9447,"ĠRoca":9448,"ĠRancho":9449,"Alice":9450,"apol":9451,"ulas":9452,"ĠGra":9453,"ĠGrou":9454,"ĠGorda":9455,"ĠGaleana":9456,"ĠVl":9457,"uster":9458,"useppe":9459,"iej":9460,"avera":9461,"avillas":9462,"nek":9463,"coa":9464,"cole":9465,"bais":9466,"kai":9467,"kaj":9468,"ĠLung":9469,"ĠLind":9470,"ĠLiber":9471,"ĠLlob":9472,"heiro":9473,"otin":9474,"otal":9475,"otillo":9476,"ivar":9477,"teren":9478,"Marin":9479,"Marco":9480,"astel":9481,"okou":9482,"ÅŁtea":9483,"erstadt":9484,"ersee":9485,"ogon":9486,"ogue":9487,"iken":9488,"Ã¶d":9489,"Ã¶ck":9490,"Ã¼t":9491,"sho":9492,"Sho":9493,"Shch":9494,"Shat":9495,"Shik":9496,"aze":9497,"azan":9498,"ĠDra":9499,"ĠDef":9500,"ĠDistrict":9501,"eghe":9502,"Arr":9503,"Aram":9504,"Argen":9505,"Arenas":9506,"Ä«f":9507,"quÃ©":9508,"Ants":9509,"Angu":9510,"evi":9511,"evsk":9512,"opal":9513,"oping":9514,"opleu":9515,"ĠMary":9516,"tsu":9517,"lion":9518,"aleja":9519,"endam":9520,"endingen":9521,"ichen":9522,"ichang":9523,"ichÅį":9524,"Stur":9525,"guer":9526,"guas":9527,"guila":9528,"eyevo":9529,"ubo":9530,"elden":9531,"orden":9532,"Nep":9533,"Neer":9534,"Neub":9535,"uty":9536,"utton":9537,"assin":9538,"assing":9539,"ĠEx":9540,"iyuan":9541,"iyivka":9542,"Lee":9543,"Lei":9544,"Lez":9545,"Leis":9546,"Leopold":9547,"ceville":9548,"ceÈĻti":9549,"ugnano":9550,"ouri":9551,"ĠOeste":9552,"ensville":9553,"Ã±ar":9554,"ukan":9555,"enix":9556,"ĠChich":9557,"ĠChuen":9558,"iane":9559,"iany":9560,"Bart":9561,"Barcel":9562,"nyk":9563,"Å«f":9564,"Å«k":9565,"ĠWy":9566,"ĠWai":9567,"ĠWashington":9568,"ĠWieÅĽ":9569,"Gua":9570,"Gual":9571,"Carri":9572,"Carter":9573,"Carras":9574,"Carlis":9575,"Carlos":9576,"Carthage":9577,"BrÃ¼":9578,"Brunn":9579,"huatlÃ¡n":9580,"eze":9581,"ndale":9582,"ohar":9583,"ÈĻeni":9584,"ambra":9585,"niÈĽa":9586,"ryville":9587,"ebo":9588,"ebad":9589,"Villav":9590,"Castille":9591,"Castillo":9592,"Schm":9593,"Schli":9594,"Quil":9595,"Quart":9596,"Quentin":9597,"Amer":9598,"ssa":9599,"lans":9600,"ynÄĽ":9601,"Gren":9602,"Gron":9603,"Grat":9604,"GrÄĥ":9605,"GrÃ¤":9606,"Gross":9607,"Belaya":9608,"Bellav":9609,"ĠAlam":9610,"ĠAlban":9611,"Ãºr":9612,"Ãºna":9613,"oneta":9614,"queira":9615,"Orchard":9616,"Å¡iÄĩ":9617,"almi":9618,"almimil":9619,"vois":9620,"orejo":9621,"Westwood":9622,"Manj":9623,"Manor":9624,"Salz":9625,"Berl":9626,"Beech":9627,"Ã£es":9628,"ije":9629,"ijiang":9630,"Newark":9631,"denburg":9632,"Prud":9633,"Novok":9634,"Morr":9635,"Morro":9636,"Morales":9637,"ĠValde":9638,"bron":9639,"Äįin":9640,"Äįko":9641,"irah":9642,"Kron":9643,"arras":9644,"Kholm":9645,"Espar":9646,"ignana":9647,"Casar":9648,"Casti":9649,"beau":9650,"sons":9651,"Olsz":9652,"Torr":9653,"Torralba":9654,"Maas":9655,"á»į":9656,"Abu":9657,"iedo":9658,"Pert":9659,"uyama":9660,"ÃŁnitz":9661,"Karab":9662,"ĠArg":9663,"ĠArroyos":9664,"paÅŁa":9665,"Meuse":9666,"Mechan":9667,"Baia":9668,"BaÄŁ":9669,"Cox":9670,"Campillo":9671,"Baden":9672,"Deal":9673,"Deutsch":9674,"ansville":9675,"chee":9676,"Palacios":9677,"ttes":9678,"Asc":9679,"Sarat":9680,"Banks":9681,"Rode":9682,"mead":9683,"Ãłng":9684,"armey":9685,"ĠUr":9686,"ĠUrb":9687,"Äģdi":9688,"ĠPointe":9689,"Invern":9690,"Cann":9691,"Zhen":9692,"oldo":9693,"ombre":9694,"Obersch":9695,"Magn":9696,"Magliano":9697,"iÃ©nega":9698,"Ãīc":9699,"Ãīp":9700,"radÃŃa":9701,"ufemia":9702,"enex":9703,"ific":9704,"Osiek":9705,"Osped":9706,"Atlant":9707,"Grafen":9708,"Enfield":9709,"Stevens":9710,"Blair":9711,"Fram":9712,"Whitt":9713,"ĠSalvat":9714,"Minas":9715,"Minam":9716,"Uru":9717,"Urz":9718,"ettes":9719,"Loir":9720,"Alban":9721,"Ã©ria":9722,"Cior":9723,"ĠEspin":9724,"ancingo":9725,"Cuau":9726,"CuauhtÃ©moc":9727,"Wilton":9728,"Woodbury":9729,"Melchor":9730,"Batu":9731,"ĠBaru":9732,"ujillo":9733,"Ã¥ng":9734,"Ãĩam":9735,"ÅĦska":9736,"ÅĦskie":9737,"Herb":9738,"Walker":9739,"ĠQal":9740,"ĠStan":9741,"Lyman":9742,"Oakwood":9743,"ĠColorada":9744,"ĠGiuseppe":9745,"Frei":9746,"ertÃ©":9747,"baru":9748,"barra":9749,"ĠConcord":9750,"Redwood":9751,"ĠCaliente":9752,"ĠCalabro":9753,"Stazione":9754,"Kew":9755,"bonne":9756,"ĠCastell":9757,"Varennes":9758,"ÅĽl":9759,"Traian":9760,"ĠQuint":9761,"Birch":9762,"ÄĥuÈĽi":9763,"Bangor":9764,"Sunset":9765,"ĠDoming":9766,"ĠDomÃŃng":9767,"Halle":9768,"Smol":9769,"Temp":9770,"Waim":9771,"Beaufort":9772,"Richland":9773,"Almol":9774,"Granville":9775,"Granada":9776,"Springdale":9777,"Simpang":9778,"Gervais":9779,"mpton":9780,"ÄĮern":9781,"Quezon":9782,"Szent":9783,"lovskaya":9784,"Krasnok":9785,"Krasnog":9786,"Savigny":9787,"Flore":9788,"Imper":9789,"Ġá¸¨am":9790,"Soto":9791,"Toto":9792,"Uster":9793,"Itu":9794,"ĠOrd":9795,"ĠVieja":9796,"Castellar":9797,"Ġ10":9798,"Middel":9799,"Pozuelo":9800,"ĠNicolÃ²":9801,"liswil":9802,"Lubuk":9803,"Alfredo":9804,"Mezz":9805,"ĠCamino":9806,"orodok":9807,"Moulay":9808,"Tenango":9809,"patti":9810,"Ġsulla":9811,"uleÈĻti":9812,"Czer":9813,"Czern":9814,"iemonte":9815,"Mabini":9816,"ĠSabina":9817,"market":9818,"ĠSerena":9819,"Basse":9820,"Gries":9821,"ĠBonita":9822,"atzingo":9823,"Cheong":9824,"beyli":9825,"Ġaan":9826,"Äĥdeni":9827,"áº¡nh":9828,"ÄĥcÄĥ":9829,"Äĥceni":9830,"Gornja":9831,"Nizhne":9832,"Valdel":9833,"Fulton":9834,"Hirsch":9835,"rappa":9836,"Williamstown":9837,"ĠRioja":9838,"mÃ¼nster":9839,"ustavo":9840,"ĠNoviembre":9841,"Brownsville":9842,"ĠVeche":9843,"Sharon":9844,"Oliveira":9845,"ĠSauces":9846,"Mercedes":9847,"Ravens":9848,"Seymour":9849,"ĠRaab":9850,"CondÃ©":9851,"ĠJohns":9852,"ParaÃŃso":9853,"ĠNouÄĥ":9854,"istrica":9855,"DrÄĥg":9856,"Fium":9857,"Jasper":9858,"Ungureni":9859,"Wayne":9860,"yevsk":9861,"ilhac":9862,"Chatham":9863,"apuram":9864,"Taft":9865,"bosch":9866,"ĠPedregal":9867,"ĠJesus":9868,"áº£ng":9869,"áº§n":9870,"Charlestown":9871,"Yenice":9872,"ĠGÃ³rne":9873,"Zuid":9874,"ĠEmiliano":9875,"Cervera":9876,"Reyn":9877,"Rohrbach":9878,"ĠÅļlÄħskie":9879,"ĠCarrillo":9880,"ĠMicÄĥ":9881,"ĠNeckar":9882,"Philip":9883,"Ã°ur":9884,"abrook":9885,"ÃīvÃªque":9886,"Pervomayskoye":9887,"Vladim":9888,"Bischof":9889,"Lafayette":9890,"martin":9891,"Paradise":9892,"SÅĤup":9893,"Voznes":9894,"Waverly":9895,"Quincy":9896,"KÄ±zÄ±l":9897,"ĠCÃ¢mpie":9898,"AlbeÅŁti":9899,"ĠFresno":9900,"ĠMarittima":9901,"Lewiston":9902,"ĠStreet":9903,"Clyde":9904,"denswil":9905,"Ãİle":9906,"CastejÃ³n":9907,"Mitchell":9908,"BÅĻez":9909,"Aleksey":9910,"LÃ©onard":9911,"ĠCaballeros":9912,"FushÃ«":9913,"ĠMixtepec":9914,"ĠBiagio":9915,"Hastings":9916,"Qiryat":9917,"WÃ¤denswil":9918,"ĠAragÃ³n":9919,"ĠAldama":9920,"Concepcion":9921,"Villefranche":9922,"Carlisle":9923,"Bellavista":9924,"Mechanic":9925,"Ospedal":9926,"ĠDomÃŃnguez":9927,"Ais":9928,"Aca":9929,"Auz":9930,"Auch":9931,"Aix":9932,"AÄŁ":9933,"Apol":9934,"Bem":9935,"Baw":9936,"Bock":9937,"Brac":9938,"Bett":9939,"Biber":9940,"BÃ©d":9941,"Cri":9942,"Cale":9943,"Caw":9944,"Cuy":9945,"Cess":9946,"Celle":9947,"Cumb":9948,"Caux":9949,"Croydon":9950,"Dis":9951,"Dic":9952,"Damb":9953,"Dani":9954,"Down":9955,"DÃ¶r":9956,"Dmit":9957,"Eck":9958,"Ett":9959,"Fus":9960,"Fog":9961,"Fli":9962,"Fier":9963,"Foug":9964,"Flat":9965,"Falmouth":9966,"GÃ©":9967,"Gio":9968,"Gow":9969,"Gers":9970,"Gamp":9971,"Gop":9972,"Goz":9973,"Garr":9974,"Gole":9975,"Gosh":9976,"Goud":9977,"Hing":9978,"Hang":9979,"Hei":9980,"Hock":9981,"Hurst":9982,"Huerta":9983,"Ira":9984,"Ibr":9985,"Jel":9986,"Jad":9987,"Jang":9988,"Jeb":9989,"JÃ¤":9990,"Kie":9991,"Kach":9992,"Kale":9993,"Kub":9994,"Kort":9995,"KÄ±":9996,"Kala":9997,"Kaj":9998,"Kart":9999,"Kly":10000,"Kund":10001,"Kels":10002,"KÃ¶r":10003,"Kyr":10004,"Kosh":10005,"Kimb":10006,"Knox":10007,"Lille":10008,"Lik":10009,"Lier":10010,"Luan":10011,"Lung":10012,"Lone":10013,"Liss":10014,"Lima":10015,"London":10016,"Mov":10017,"Mob":10018,"Mana":10019,"Mine":10020,"Mate":10021,"Mash":10022,"Mula":10023,"Mist":10024,"Maul":10025,"Mys":10026,"Mets":10027,"MÆ°á»Ŀng":10028,"NÃ¡":10029,"Nig":10030,"Niv":10031,"Nij":10032,"Nanj":10033,"Nanch":10034,"NÄģá¸©":10035,"Oul":10036,"Ocot":10037,"PÃ¡":10038,"Pab":10039,"Pers":10040,"Puk":10041,"Pind":10042,"Poli":10043,"Pater":10044,"Pax":10045,"Pith":10046,"Pred":10047,"Pampa":10048,"QaÅŁr":10049,"Ries":10050,"RÃ¸":10051,"Ruh":10052,"Rover":10053,"Retz":10054,"Set":10055,"Send":10056,"Sond":10057,"Sakh":10058,"Sred":10059,"Siem":10060,"Tov":10061,"Tain":10062,"Tiv":10063,"Tog":10064,"Tik":10065,"Tier":10066,"Tala":10067,"Term":10068,"Toro":10069,"Twe":10070,"TÅį":10071,"Trim":10072,"Tambo":10073,"Uit":10074,"Vat":10075,"Vre":10076,"Vell":10077,"Vec":10078,"Voy":10079,"Vai":10080,"Vij":10081,"Vign":10082,"VÃ¡r":10083,"Viana":10084,"VÃ¶l":10085,"Vosto":10086,"VÃ¢l":10087,"Wis":10088,"Wie":10089,"Wav":10090,"Went":10091,"Wash":10092,"Wart":10093,"Wied":10094,"WÄĻ":10095,"WÃ¼l":10096,"Xind":10097,"Xiao":10098,"YÃ©":10099,"Yom":10100,"Yanj":10101,"Zb":10102,"Zd":10103,"Zy":10104,"Zhan":10105,"Zgorn":10106,"aff":10107,"aÅ£":10108,"bra":10109,"bet":10110,"boy":10111,"bala":10112,"bly":10113,"cil":10114,"cid":10115,"cie":10116,"czew":10117,"cabamba":10118,"dd":10119,"das":10120,"dow":10121,"dieu":10122,"dijk":10123,"eur":10124,"ede":10125,"eza":10126,"fast":10127,"four":10128,"foss":10129,"fling":10130,"falu":10131,"gue":10132,"gum":10133,"gell":10134,"gna":10135,"gles":10136,"hong":10137,"hÃ¶":10138,"hÄģr":10139,"hope":10140,"jer":10141,"jÃ©":10142,"jay":10143,"jani":10144,"jevo":10145,"kil":10146,"kre":10147,"kie":10148,"kenstein":10149,"ld":10150,"lle":10151,"lass":10152,"lÃ³s":10153,"mou":10154,"main":10155,"maz":10156,"mana":10157,"mberg":10158,"mingen":10159,"nog":10160,"nant":10161,"oq":10162,"oia":10163,"pes":10164,"pad":10165,"park":10166,"rong":10167,"rilla":10168,"rud":10169,"rÃ¨":10170,"rate":10171,"sv":10172,"sal":10173,"scheid":10174,"tom":10175,"tÃŃ":10176,"ueng":10177,"uÃ¢n":10178,"uÃ±a":10179,"vÃ©":10180,"vig":10181,"vent":10182,"wau":10183,"wij":10184,"wÄģr":10185,"xo":10186,"yÃ©":10187,"yst":10188,"yna":10189,"zer":10190,"zos":10191,"zone":10192,"zele":10193,"Ãį":10194,"ÃĲ":10195,"Ä¼":10196,"Èļ":10197,"Ðµ":10198,"Ð¾":10199,"Ġnel":10200,"anay":10201,"anche":10202,"ancu":10203,"ancourt":10204,"arton":10205,"arag":10206,"arovo":10207,"arno":10208,"arivka":10209,"arese":10210,"ink":10211,"incourt":10212,"inÃ³polis":10213,"enque":10214,"enÃ§":10215,"enzano":10216,"enfels":10217,"onj":10218,"onou":10219,"onik":10220,"onese":10221,"alin":10222,"aling":10223,"alah":10224,"aloya":10225,"orm":10226,"orde":10227,"orre":10228,"orama":10229,"elv":10230,"elde":10231,"ilt":10232,"ilam":10233,"ilsk":10234,"ilovo":10235,"ilhan":10236,"ilapan":10237,"ilento":10238,"asio":10239,"aspar":10240,"esco":10241,"esca":10242,"esbury":10243,"chÃ©":10244,"chÃ³w":10245,"chevo":10246,"urra":10247,"urga":10248,"amel":10249,"amora":10250,"amÃ©kro":10251,"law":10252,"leto":10253,"leda":10254,"lehem":10255,"aten":10256,"atÃŃ":10257,"atka":10258,"atino":10259,"Sanc":10260,"oung":10261,"olpan":10262,"Ã©kou":10263,"taf":10264,"ĠCid":10265,"ĠCons":10266,"ĠClair":10267,"ĠCilento":10268,"ader":10269,"adon":10270,"adian":10271,"itsch":10272,"rec":10273,"reh":10274,"real":10275,"reich":10276,"ovit":10277,"ovce":10278,"ovichi":10279,"ingue":10280,"iawa":10281,"iakro":10282,"raque":10283,"rave":10284,"ĠMam":10285,"ĠMet":10286,"ĠMog":10287,"ĠMach":10288,"ĠMina":10289,"ĠMez":10290,"ĠMoh":10291,"ĠMira":10292,"ĠMile":10293,"ĠMÄĽ":10294,"ĠMias":10295,"ĠMá»¹":10296,"tei":10297,"teaux":10298,"icy":10299,"icar":10300,"icun":10301,"icio":10302,"ĠPos":10303,"ĠPro":10304,"ĠPong":10305,"ĠPine":10306,"ĠPhan":10307,"ĠPrad":10308,"ĠPlay":10309,"ĠPardo":10310,"ĠParan":10311,"ĠPlessis":10312,"ĠPiemonte":10313,"anges":10314,"angun":10315,"angarh":10316,"ayuca":10317,"ayevka":10318,"rob":10319,"roit":10320,"Ã¡li":10321,"ĠSv":10322,"ĠSun":10323,"ĠSap":10324,"ĠSah":10325,"ĠSib":10326,"ĠSep":10327,"ĠSola":10328,"ĠShan":10329,"rip":10330,"Laus":10331,"Lauf":10332,"ĠBab":10333,"ĠBaz":10334,"ĠBolÃŃ":10335,"tongo":10336,"agy":10337,"ager":10338,"omor":10339,"omulco":10340,"omaggiore":10341,"imen":10342,"Chag":10343,"Chul":10344,"Chian":10345,"auga":10346,"ĠAh":10347,"ĠAla":10348,"ĠAth":10349,"acons":10350,"toc":10351,"tot":10352,"toke":10353,"aber":10354,"abac":10355,"ablan":10356,"ably":10357,"ird":10358,"iru":10359,"andan":10360,"anden":10361,"edi":10362,"edorf":10363,"edios":10364,"akam":10365,"akent":10366,"ĠTet":10367,"ĠTai":10368,"ĠTera":10369,"ĠTicino":10370,"ody":10371,"ĠHig":10372,"ĠHoch":10373,"ĠHora":10374,"ĠHacienda":10375,"ĠRou":10376,"ĠRov":10377,"ĠRain":10378,"ĠRoch":10379,"ĠRinconada":10380,"Ali":10381,"Alia":10382,"Aless":10383,"Algar":10384,"Almen":10385,"Alcon":10386,"apÃ¡":10387,"ulam":10388,"uleni":10389,"ullo":10390,"ulles":10391,"ulÃŃn":10392,"ĠGon":10393,"ĠGul":10394,"ĠGÃ¡l":10395,"ĠGrappa":10396,"ĠVas":10397,"ĠVille":10398,"idong":10399,"idueÃ±a":10400,"usha":10401,"iog":10402,"ieÅŁti":10403,"ieve":10404,"iemi":10405,"avka":10406,"nei":10407,"neuk":10408,"berk":10409,"berley":10410,"ueÃ±as":10411,"ĠLi":10412,"ĠLy":10413,"ĠLec":10414,"ĠLeg":10415,"ĠLour":10416,"Elwood":10417,"Elkh":10418,"Elgin":10419,"otl":10420,"ĠJer":10421,"ĠJorge":10422,"ĠJames":10423,"ecik":10424,"emer":10425,"embe":10426,"oyuan":10427,"MarÃŃa":10428,"Marien":10429,"Markaz":10430,"ĠNang":10431,"ĠNap":10432,"ĠNaran":10433,"owy":10434,"okee":10435,"ĠFal":10436,"ĠFÃ©lix":10437,"ĠFertÃ©":10438,"ÅŁar":10439,"Ã¶ll":10440,"shire":10441,"obos":10442,"Ġdels":10443,"Shum":10444,"ĠDur":10445,"ĠDav":10446,"ĠDob":10447,"ĠDulce":10448,"egna":10449,"stre":10450,"Ã¡nh":10451,"Arqu":10452,"Arkh":10453,"Arbo":10454,"Arthur":10455,"Arenal":10456,"amps":10457,"ampleu":10458,"Ã³na":10459,"quel":10460,"quillas":10461,"Anta":10462,"udu":10463,"ĠMarsh":10464,"ĠMariano":10465,"ĠMarket":10466,"lib":10467,"liet":10468,"alea":10469,"enty":10470,"uce":10471,"ucu":10472,"uccio":10473,"ender":10474,"ĠKings":10475,"ĠKrem":10476,"Stall":10477,"Stare":10478,"zhao":10479,"uben":10480,"elda":10481,"ordino":10482,"assel":10483,"eker":10484,"ĠEtla":10485,"ernheim":10486,"ĠIxtla":10487,"iyn":10488,"Ã¨che":10489,"awl":10490,"away":10491,"upi":10492,"ibor":10493,"ĠOd":10494,"ĠOt":10495,"ĠOx":10496,"ĠOri":10497,"ĠChi":10498,"ĠChan":10499,"ianello":10500,"Barro":10501,"Barran":10502,"Å«rah":10503,"ĠWil":10504,"Guis":10505,"Guing":10506,"Carb":10507,"Carde":10508,"Carpin":10509,"Carmel":10510,"Bron":10511,"Brice":10512,"Bryn":10513,"dao":10514,"daÄŁ":10515,"huapan":10516,"antas":10517,"antang":10518,"antina":10519,"ezo":10520,"ColÃ³n":10521,"oha":10522,"ÈĻa":10523,"ÈĻca":10524,"ÈĻteni":10525,"ajac":10526,"ondÃ³n":10527,"Thou":10528,"ThÃ©":10529,"Thomp":10530,"eiba":10531,"tenburg":10532,"tenham":10533,"Valla":10534,"Valder":10535,"Valence":10536,"ebe":10537,"nole":10538,"Castrov":10539,"Castels":10540,"lof":10541,"hammad":10542,"Schwar":10543,"Ã¤Ã¤":10544,"Amherst":10545,"sso":10546,"ssel":10547,"inder":10548,"indale":10549,"Villarejo":10550,"ynske":10551,"Gru":10552,"ochi":10553,"Belin":10554,"ĠAll":10555,"Montalb":10556,"Ãºt":10557,"fields":10558,"aroen":10559,"Westminster":10560,"ghÄ©":10561,"Mank":10562,"ĠSannita":10563,"ÅĤd":10564,"Äģnah":10565,"Äģnagar":10566,"Salit":10567,"ucha":10568,"Bech":10569,"Beaul":10570,"iji":10571,"ijon":10572,"ijÃ¤rvi":10573,"Prest":10574,"Prata":10575,"Prado":10576,"Novod":10577,"Novyye":10578,"Malin":10579,"Huy":10580,"Huac":10581,"Huix":10582,"insheim":10583,"Å£eÅŁti":10584,"Calzada":10585,"California":10586,"Balaton":10587,"Äįani":10588,"Äįevo":10589,"ingside":10590,"irac":10591,"Buh":10592,"arren":10593,"arram":10594,"itzsch":10595,"Esper":10596,"Caselle":10597,"Cascade":10598,"Sef":10599,"ĠCrest":10600,"bej":10601,"boa":10602,"Mais":10603,"Param":10604,"Tron":10605,"TrÃªs":10606,"á»£":10607,"Perth":10608,"uyÃªn":10609,"ĠYbbs":10610,"istor":10611,"ĠArenal":10612,"ĠAnn":10613,"Mein":10614,"Mech":10615,"Bail":10616,"Baie":10617,"eleone":10618,"Palai":10619,"ÄģrÄģ":10620,"areo":10621,"Montebello":10622,"Rejon":10623,"Moj":10624,"Sper":10625,"Saran":10626,"Saray":10627,"Ãłn":10628,"Ã¡rt":10629,"Brew":10630,"aneta":10631,"Heus":10632,"elsberg":10633,"olls":10634,"armouth":10635,"ĠIsle":10636,"ĠUl":10637,"Äģdh":10638,"Vert":10639,"Verona":10640,"Canale":10641,"Kalam":10642,"Roseb":10643,"Rosedale":10644,"ietta":10645,"Petite":10646,"Petrop":10647,"ushima":10648,"iewice":10649,"Oberndorf":10650,"rento":10651,"Andover":10652,"iÃ©kro":10653,"browa":10654,"meralda":10655,"Portage":10656,"Ã¸bing":10657,"ClÃ©":10658,"eneÅŁti":10659,"ihr":10660,"Aven":10661,"Avondale":10662,"Velik":10663,"Veliko":10664,"ifla":10665,"Cameron":10666,"Grav":10667,"Grafton":10668,"Ent":10669,"Steen":10670,"ziers":10671,"ziÃ¨res":10672,"Äģmpur":10673,"ppo":10674,"tlahuaca":10675,"ĠSalto":10676,"Miner":10677,"Phillip":10678,"Garg":10679,"Holland":10680,"Holiday":10681,"ileÅŁti":10682,"Acton":10683,"Comte":10684,"Commer":10685,"Solnech":10686,"erior":10687,"ennis":10688,"Strzel":10689,"ÈĽeÈĻti":10690,"Woodland":10691,"Woodlawn":10692,"Batang":10693,"ĠBarra":10694,"Horad":10695,"ujia":10696,"regat":10697,"ĠKhÄĵl":10698,"yansk":10699,"Heritage":10700,"ÄĽÅĻice":10701,"Palmira":10702,"Palmillas":10703,"Palmyra":10704,"angaon":10705,"Braun":10706,"Edg":10707,"Walla":10708,"roso":10709,"Äħs":10710,"ussac":10711,"Silv":10712,"ĠAndrews":10713,"Lynd":10714,"Lyons":10715,"Oakdale":10716,"AltÄ±n":10717,"Fairfax":10718,"Winfield":10719,"Saban":10720,"Dobra":10721,"Rome":10722,"phur":10723,"ĠConst":10724,"ykovo":10725,"ahualco":10726,"Niedern":10727,"biate":10728,"Stafford":10729,"ĠVercell":10730,"rigal":10731,"Galle":10732,"kovac":10733,"Cherem":10734,"Bogd":10735,"Bogorod":10736,"Hook":10737,"enhagen":10738,"Izvor":10739,"Waik":10740,"Warsaw":10741,"ÄĲáº¡":10742,"Ã¼nz":10743,"Dames":10744,"Grant":10745,"Glenwood":10746,"OstrÃ³w":10747,"Riva":10748,"Sultan":10749,"ViÅ¡":10750,"Podg":10751,"Ahue":10752,"Queen":10753,"Ponta":10754,"lovsk":10755,"vardey":10756,"ÄĢs":10757,"ĠMaÅĤ":10758,"ĠMaá¸©":10759,"Ã¡zquez":10760,"ĠTownship":10761,"Summit":10762,"ĠÃģguila":10763,"ĠCuau":10764,"aguas":10765,"DaÄŁ":10766,"Landes":10767,"Komsom":10768,"Venta":10769,"ĠMagÃ³n":10770,"Arap":10771,"endaal":10772,"orstadt":10773,"Shev":10774,"Sheffield":10775,"Neuilly":10776,"Zarz":10777,"Kirchdorf":10778,"Cave":10779,"Cavall":10780,"Teluk":10781,"Middleton":10782,"Æ°ng":10783,"ĠCanton":10784,"Dublin":10785,"ĠRomero":10786,"Mandal":10787,"ĠOlona":10788,"Boston":10789,"Bosco":10790,"Opat":10791,"Buci":10792,"Saturn":10793,"ĠMateos":10794,"ĠEnrique":10795,"Dioul":10796,"Champs":10797,"MiÄĻd":10798,"Watertown":10799,"ĠPolje":10800,"Court":10801,"Taiping":10802,"ĠFlorida":10803,"PurÃŃsima":10804,"azarÄ±":10805,"velines":10806,"Homer":10807,"Stanley":10808,"iÅŁtea":10809,"Lisbon":10810,"Micha":10811,"ĠCarmel":10812,"Riverdale":10813,"lamos":10814,"nÃŃk":10815,"Filip":10816,"HÃ¶ch":10817,"Aldea":10818,"Llanf":10819,"ĠRamos":10820,"ĠRamÃŃrez":10821,"ĠMolino":10822,"Arcadia":10823,"Gulf":10824,"ĠPrado":10825,"Demir":10826,"Englewood":10827,"Arnold":10828,"Nizhnyaya":10829,"Cantal":10830,"ĠPorto":10831,"ĠObispo":10832,"Villamayor":10833,"Haute":10834,"isiÃ³n":10835,"ĠSegura":10836,"ĠVeneto":10837,"Providencia":10838,"Williamsburg":10839,"Vernon":10840,"ĠRiviÃ¨re":10841,"JabÅĤ":10842,"Sector":10843,"ĠSchwarz":10844,"azzolo":10845,"Bradford":10846,"front":10847,"grave":10848,"Mihai":10849,"Vasil":10850,"Chesterfield":10851,"Texcal":10852,"Ferndale":10853,"Sieg":10854,"Ã®t":10855,"ĠSarabia":10856,"Bagnolo":10857,"Hillcrest":10858,"Hillsborough":10859,"Raymond":10860,"ĠPuebla":10861,"righton":10862,"Bethlehem":10863,"ĠFuente":10864,"Brandon":10865,"Ã©noufla":10866,"istritz":10867,"DrÄĥgu":10868,"Frauen":10869,"saysay":10870,"Jacksonville":10871,"horst":10872,"syth":10873,"Covington":10874,"Cortes":10875,"Primero":10876,"franco":10877,"ĠAsunciÃ³n":10878,"áº£i":10879,"Charleston":10880,"ĠGÃ³rna":10881,"ĠCrossing":10882,"Dietikon":10883,"ĠMirador":10884,"ShÄģhpur":10885,"Collinsville":10886,"Independencia":10887,"Serravalle":10888,"Louisville":10889,"ĠWielkopolski":10890,"Higash":10891,"jevac":10892,"ĠBuena":10893,"ĠRuiz":10894,"Francavilla":10895,"Ricardo":10896,"Dragom":10897,"Staryy":10898,"ĠIrpino":10899,"ĠPodlas":10900,"ĠJadÄ«dah":10901,"ogorskiy":10902,"Abbots":10903,"Heilig":10904,"Hajd":10905,"Sterling":10906,"ĠSelva":10907,"ĠSicilia":10908,"ĠHerrera":10909,"Myrtle":10910,"ĠDaeng":10911,"OrtakÃ¶y":10912,"Citrus":10913,"Fleury":10914,"Vosk":10915,"ĠNativ":10916,"Neuhaus":10917,"ĠIonio":10918,"áº¯k":10919,"ÅłtÄĽ":10920,"Nelson":10921,"ĠManzana":10922,"Lakeside":10923,"Fayetteville":10924,"Cioc":10925,"Å¯v":10926,"ĠLomellina":10927,"ĠLombardo":10928,"MÃ¶nch":10929,"ĠSocial":10930,"Hinoj":10931,"Khair":10932,"Nashville":10933,"Webster":10934,"VÄĥleni":10935,"ĠMÃ©xico":10936,"ĠHenares":10937,"gherita":10938,"CofradÃŃa":10939,"Dumbrava":10940,"Neckar":10941,"ĠAurora":10942,"ĠTlalmimil":10943,"ĠTigre":10944,"ĠFriuli":10945,"ĠEulalia":10946,"ÄŁaÃ§":10947,"CabaÃ±as":10948,"Paseos":10949,"Cottonwood":10950,"Oleksandrivka":10951,"Nicolae":10952,"lÃ¸se":10953,"ĠBenedetto":10954,"ĠHollow":10955,"ebirge":10956,"KaÅ¡tel":10957,"ĠMilanese":10958,"RibeirÃ£o":10959,"VÃ¢nÄĥtori":10960,"ĠGround":10961,"ĠLlobregat":10962,"ĠAlbanese":10963,"Inverness":10964,"ĠBolÃŃvar":10965,"neukirchen":10966,"ĠNaranjo":10967,"ghÄ©a":10968,"Petropav":10969,"ĠVercellese":10970,"MiÄĻdzy":10971,"ĠTlalmimilolpan":10972,"Aou":10973,"Apr":10974,"Ave":10975,"Apa":10976,"Aux":10977,"Acu":10978,"BÄģ":10979,"BÃŃ":10980,"BÅ«":10981,"BÃ¤":10982,"Bola":10983,"Boun":10984,"Bani":10985,"Bly":10986,"Bata":10987,"Bick":10988,"BÃ¡r":10989,"Bold":10990,"BÄģl":10991,"BÄĥr":10992,"Bakh":10993,"Biga":10994,"Bluff":10995,"BÃ¬nh":10996,"Cig":10997,"Cano":10998,"Cik":10999,"Cara":11000,"Cey":11001,"Clo":11002,"Cola":11003,"Cint":11004,"Coro":11005,"Caul":11006,"Citt":11007,"Cuen":11008,"Cliff":11009,"Canyon":11010,"CÃ³rdoba":11011,"Dell":11012,"Dour":11013,"Dalm":11014,"Dies":11015,"Dren":11016,"DouÃ©":11017,"Darlington":11018,"Dijon":11019,"Emerald":11020,"Fow":11021,"Find":11022,"Faul":11023,"Fountain":11024,"Forges":11025,"Get":11026,"Gap":11027,"Gie":11028,"Got":11029,"Gach":11030,"Gent":11031,"Gaw":11032,"Glo":11033,"Gorg":11034,"Garn":11035,"Gban":11036,"GÃ³r":11037,"Gunn":11038,"Gilles":11039,"GÃ³mez":11040,"Hl":11041,"Hale":11042,"Hausen":11043,"Hels":11044,"HÃ¸":11045,"Hatt":11046,"HÃ¢r":11047,"Halls":11048,"Ili":11049,"Igar":11050,"JÃ³":11051,"Jir":11052,"Jod":11053,"Jap":11054,"Jum":11055,"JÃ¼":11056,"Jamb":11057,"Jouy":11058,"Kour":11059,"Khu":11060,"Kiz":11061,"Kari":11062,"Koll":11063,"Korg":11064,"KÄĻ":11065,"Ksi":11066,"Kriv":11067,"Khem":11068,"Lia":11069,"Lid":11070,"Lend":11071,"Lass":11072,"Lint":11073,"Lath":11074,"Less":11075,"Lux":11076,"Lies":11077,"Luf":11078,"Lith":11079,"Lamar":11080,"Lodi":11081,"MÄ«":11082,"Mung":11083,"Merr":11084,"Mied":11085,"Melle":11086,"Mies":11087,"Mago":11088,"MÃ¢n":11089,"Mett":11090,"Migli":11091,"Mull":11092,"MÄ«r":11093,"Mukh":11094,"Nay":11095,"Nun":11096,"Nim":11097,"Nell":11098,"Nok":11099,"Nai":11100,"Nib":11101,"Nany":11102,"NÅ«r":11103,"Nyk":11104,"Nancy":11105,"Ode":11106,"Ota":11107,"Oth":11108,"Osk":11109,"OÄŁ":11110,"Orop":11111,"Pain":11112,"PÃ¡n":11113,"Pana":11114,"Pez":11115,"Polo":11116,"Panj":11117,"Pion":11118,"PiÃ©":11119,"Pole":11120,"PÄģl":11121,"Pyr":11122,"Pias":11123,"Pyat":11124,"PÄĥd":11125,"Pizz":11126,"Quan":11127,"Qary":11128,"Rop":11129,"RÄģn":11130,"Rish":11131,"Rick":11132,"Rans":11133,"Rost":11134,"Rust":11135,"Rott":11136,"Sina":11137,"Sola":11138,"SÄģn":11139,"Sui":11140,"Sied":11141,"Swe":11142,"Sold":11143,"SÅį":11144,"SÄĻ":11145,"Slat":11146,"SÆ¡n":11147,"Tv":11148,"Tid":11149,"Teng":11150,"Thu":11151,"Teb":11152,"Tlan":11153,"Tof":11154,"Tiang":11155,"Trac":11156,"Trez":11157,"Timb":11158,"Ulan":11159,"Vag":11160,"Voh":11161,"Vire":11162,"VÄĥr":11163,"Vignes":11164,"Wr":11165,"Wam":11166,"Wain":11167,"Wem":11168,"Weg":11169,"Wud":11170,"Wuy":11171,"WÃ¶r":11172,"With":11173,"WÃ¶rth":11174,"Wright":11175,"WÄģdÄ«":11176,"Xun":11177,"Yag":11178,"Yaz":11179,"Yerm":11180,"Yash":11181,"Yax":11182,"Yagu":11183,"Yvelines":11184,"Zur":11185,"Zir":11186,"Zeg":11187,"Zug":11188,"Zeb":11189,"Zump":11190,"Zhao":11191,"aá¸©":11192,"ailles":11193,"bis":11194,"bic":11195,"bag":11196,"bus":11197,"bitz":11198,"biano":11199,"bane":11200,"bulag":11201,"bÃ¦k":11202,"cong":11203,"cka":11204,"cada":11205,"cÄĥu":11206,"catepec":11207,"cÄ±k":11208,"creek":11209,"dle":11210,"dou":11211,"dri":11212,"dock":11213,"ew":11214,"eul":11215,"fou":11216,"font":11217,"flingen":11218,"god":11219,"gong":11220,"gart":11221,"giano":11222,"gÄĥu":11223,"hm":11224,"hur":11225,"hla":11226,"hay":11227,"hÃ¼":11228,"huan":11229,"hingen":11230,"hart":11231,"hwa":11232,"iale":11233,"jur":11234,"jat":11235,"jou":11236,"jov":11237,"jÄ«":11238,"jian":11239,"kad":11240,"kÃŃ":11241,"kek":11242,"kiz":11243,"kowa":11244,"kalan":11245,"lÃŃ":11246,"loy":11247,"lug":11248,"lÃ¤":11249,"lish":11250,"lona":11251,"lons":11252,"lÅĳ":11253,"likon":11254,"mis":11255,"may":11256,"mec":11257,"mels":11258,"mado":11259,"nod":11260,"niv":11261,"nai":11262,"nate":11263,"ness":11264,"nago":11265,"oti":11266,"off":11267,"otepec":11268,"pla":11269,"pit":11270,"pak":11271,"pell":11272,"pont":11273,"pero":11274,"prÃ©":11275,"pole":11276,"pils":11277,"pital":11278,"qiu":11279,"rol":11280,"rill":11281,"ross":11282,"rath":11283,"sÃ¡":11284,"sak":11285,"sund":11286,"sele":11287,"sÃ¸":11288,"tol":11289,"tne":11290,"torf":11291,"uay":11292,"uart":11293,"uwa":11294,"vir":11295,"vÃ¡n":11296,"vez":11297,"vaux":11298,"viller":11299,"wana":11300,"wley":11301,"wani":11302,"woude":11303,"yz":11304,"yas":11305,"yte":11306,"yro":11307,"yak":11308,"ysk":11309,"yny":11310,"zob":11311,"zbach":11312,"zzano":11313,"Ä§":11314,"ÄŃ":11315,"ÅĨ":11316,"Ġed":11317,"Ġles":11318,"Ġá¸Ĳ":11319,"Ľi":11320,"anar":11321,"anÃ©":11322,"antown":11323,"anello":11324,"annes":11325,"anlÄ±":11326,"arin":11327,"arle":11328,"arÃ¡n":11329,"arney":11330,"aridel":11331,"erio":11332,"erev":11333,"erich":11334,"erfield":11335,"inia":11336,"inki":11337,"ench":11338,"encio":11339,"enÃ§a":11340,"onon":11341,"onto":11342,"onica":11343,"onnes":11344,"alon":11345,"alde":11346,"alom":11347,"alÃ¡n":11348,"oran":11349,"oron":11350,"oros":11351,"orano":11352,"orga":11353,"eling":11354,"elong":11355,"elare":11356,"elange":11357,"ilong":11358,"ileni":11359,"ask":11360,"asia":11361,"asna":11362,"aside":11363,"esan":11364,"esana":11365,"esina":11366,"esine":11367,"chun":11368,"chach":11369,"chÃ¢":11370,"chburg":11371,"chingen":11372,"chies":11373,"amil":11374,"amat":11375,"amÃ¡":11376,"amonte":11377,"lai":11378,"lec":11379,"atÃ©":11380,"atia":11381,"atto":11382,"atovo":11383,"atley":11384,"atyn":11385,"atlÄ±":11386,"atenango":11387,"atchee":11388,"Sanhe":11389,"oulo":11390,"ouane":11391,"ousa":11392,"olin":11393,"olod":11394,"olph":11395,"olinos":11396,"oltern":11397,"Ã©nd":11398,"Ã©ko":11399,"Ã©oua":11400,"isko":11401,"iszÃ³w":11402,"isÅĤaw":11403,"isellen":11404,"tapa":11405,"taciÃ³n":11406,"tazar":11407,"ĠCed":11408,"ĠCoc":11409,"ĠCai":11410,"ĠCour":11411,"ĠCant":11412,"ĠCave":11413,"adale":11414,"adillo":11415,"aderos":11416,"adhoo":11417,"itta":11418,"itte":11419,"itingen":11420,"itha":11421,"itello":11422,"reb":11423,"rew":11424,"reta":11425,"reia":11426,"rejo":11427,"ovyy":11428,"ovÃ¬":11429,"ovÄĥÅ£":11430,"ingu":11431,"inggi":11432,"iav":11433,"ĠMÃ©n":11434,"ĠMans":11435,"ĠMount":11436,"ĠMuang":11437,"ĠMandi":11438,"ĠMendo":11439,"tey":11440,"tegem":11441,"icos":11442,"icÃ«":11443,"icias":11444,"ĠPul":11445,"ĠPoc":11446,"ĠPop":11447,"ĠPoz":11448,"ĠPolo":11449,"ĠPere":11450,"ĠPreto":11451,"ĠPanjang":11452,"angb":11453,"ayac":11454,"unes":11455,"Ã¡i":11456,"Ã¡Å¾":11457,"Ã¡ll":11458,"ĠSat":11459,"ĠSak":11460,"ĠSud":11461,"ĠSaw":11462,"ĠSuch":11463,"ĠStep":11464,"ĠStein":11465,"ĠSatu":11466,"etnoye":11467,"Lagu":11468,"Labu":11469,"ĠBun":11470,"ĠBod":11471,"ĠBul":11472,"ĠBec":11473,"ĠBog":11474,"ĠBoc":11475,"ĠBud":11476,"ĠBÃ¢r":11477,"ĠBÄĥl":11478,"ĠBrod":11479,"ĠBrighton":11480,"igal":11481,"igang":11482,"tonville":11483,"tondo":11484,"aguer":11485,"aguÃ¡":11486,"omon":11487,"omÃ©":11488,"imito":11489,"imonte":11490,"imeno":11491,"Chas":11492,"Chall":11493,"China":11494,"Chats":11495,"Chef":11496,"Chois":11497,"ChÄģnd":11498,"auss":11499,"ĠAj":11500,"ĠAch":11501,"ĠAli":11502,"Ã³ÅĤ":11503,"acao":11504,"tock":11505,"abon":11506,"abag":11507,"irk":11508,"irm":11509,"irt":11510,"irang":11511,"ands":11512,"andar":11513,"ÃŃjar":11514,"edu":11515,"edilla":11516,"edÃ³n":11517,"thill":11518,"thorn":11519,"akÃ©":11520,"akhi":11521,"skov":11522,"skoy":11523,"skÃ½":11524,"aines":11525,"ainville":11526,"ĠTel":11527,"ĠTil":11528,"ĠTres":11529,"ĠTenango":11530,"ĠTapia":11531,"odian":11532,"ĠHer":11533,"ĠHin":11534,"ĠHay":11535,"ĠHart":11536,"ĠHampton":11537,"ĠRic":11538,"ĠRab":11539,"ĠRec":11540,"ĠRaya":11541,"ĠRoa":11542,"Alang":11543,"Alton":11544,"Alamo":11545,"Altav":11546,"Altona":11547,"Allier":11548,"Altstadt":11549,"apelle":11550,"aphum":11551,"uling":11552,"ulung":11553,"uliano":11554,"ultepec":11555,"ĠGa":11556,"ĠGap":11557,"ĠGlor":11558,"ĠGallo":11559,"ĠGracia":11560,"ĠGustavo":11561,"ahi":11562,"ahar":11563,"ahio":11564,"ahui":11565,"ahoe":11566,"ĠVog":11567,"ĠVinc":11568,"ĠVillas":11569,"ĠVecchio":11570,"ĠVegas":11571,"usu":11572,"ustadt":11573,"ioka":11574,"iei":11575,"onge":11576,"aves":11577,"avet":11578,"avino":11579,"avaram":11580,"tih":11581,"tifla":11582,"tikon":11583,"neh":11584,"neja":11585,"neve":11586,"neye":11587,"neuf":11588,"cock":11589,"baz":11590,"ueta":11591,"umal":11592,"ĠLiv":11593,"ĠLamp":11594,"ĠLip":11595,"ĠLup":11596,"ĠLario":11597,"Elena":11598,"Eller":11599,"heta":11600,"ellin":11601,"ellÃ©":11602,"otu":11603,"ivi":11604,"ĠJa":11605,"ĠJe":11606,"ĠJil":11607,"ĠJara":11608,"oyi":11609,"Mard":11610,"Maro":11611,"Marly":11612,"Marietta":11613,"ĠNog":11614,"ĠNakhon":11615,"ĠNacion":11616,"owska":11617,"okrovka":11618,"ĠFerr":11619,"ĠFigu":11620,"erston":11621,"oges":11622,"oguhÃ©":11623,"rance":11624,"iku":11625,"ikovo":11626,"Ã¶g":11627,"Ã¶ss":11628,"Ã¶zÃ¼":11629,"Ã¼nster":11630,"shine":11631,"shoye":11632,"obu":11633,"obli":11634,"Shou":11635,"Shap":11636,"Shub":11637,"Shiz":11638,"Shiro":11639,"Shannon":11640,"ĠDal":11641,"ĠDor":11642,"ĠDale":11643,"ĠDios":11644,"ege":11645,"egy":11646,"eglio":11647,"stel":11648,"Argu":11649,"Arena":11650,"Arma":11651,"inoasa":11652,"Ä«ra":11653,"Ã³nica":11654,"quio":11655,"quina":11656,"quita":11657,"quira":11658,"estel":11659,"estra":11660,"Anak":11661,"Antip":11662,"ops":11663,"opÃ³":11664,"ĠMartha":11665,"tsovo":11666,"tsburg":11667,"liÃ¨res":11668,"alee":11669,"gee":11670,"entro":11671,"endr":11672,"endal":11673,"ĠKir":11674,"ĠKuj":11675,"Sten":11676,"Still":11677,"Stir":11678,"Stry":11679,"zhang":11680,"zhyn":11681,"zhnyy":11682,"iceÅŁti":11683,"assen":11684,"asset":11685,"ĠEigh":11686,"ipo":11687,"iping":11688,"iyam":11689,"iyÄģ":11690,"iyah":11691,"Ã¨n":11692,"Ã¨vres":11693,"Leut":11694,"ceola":11695,"ugli":11696,"ugao":11697,"ours":11698,"upan":11699,"upur":11700,"keby":11701,"ibar":11702,"ibre":11703,"ierzyce":11704,"ĠOco":11705,"Ã±or":11706,"Monast":11707,"Monforte":11708,"ĠChal":11709,"ĠCham":11710,"ĠChase":11711,"ĠCharoen":11712,"ianu":11713,"Bari":11714,"nych":11715,"nytsya":11716,"Å«h":11717,"Å«j":11718,"Å«kh":11719,"ĠWall":11720,"ĠWald":11721,"ĠWild":11722,"Guy":11723,"Bry":11724,"Bruch":11725,"uzi":11726,"Colon":11727,"Coloni":11728,"Colinas":11729,"atea":11730,"atepÃ©":11731,"ĠLaf":11732,"ĠLawn":11733,"ĠLaja":11734,"ĠLajas":11735,"ohl":11736,"izan":11737,"izon":11738,"izzo":11739,"izzi":11740,"ozÃ«r":11741,"Thames":11742,"fior":11743,"Valpara":11744,"ebi":11745,"ebu":11746,"Villahermosa":11747,"nola":11748,"loi":11749,"epy":11750,"Santos":11751,"Ã¤ll":11752,"Ambro":11753,"Gras":11754,"Grum":11755,"Grind":11756,"Grove":11757,"Grange":11758,"ĠAlbert":11759,"ĠAltas":11760,"Montan":11761,"MontrÃ©":11762,"Montalto":11763,"Ãºc":11764,"Ãºl":11765,"Ãºchil":11766,"oneÅŁti":11767,"senburg":11768,"senheim":11769,"Orlov":11770,"Å¡a":11771,"Å¡ovice":11772,"seh":11773,"seebad":11774,"voo":11775,"Westville":11776,"Westfield":11777,"rÃ©e":11778,"Mani":11779,"Mann":11780,"Manning":11781,"ÅĤÄĻ":11782,"ÅĤowo":11783,"Salas":11784,"Salto":11785,"Salvat":11786,"Salvador":11787,"Berz":11788,"BerÃ«z":11789,"uchÃ³w":11790,"Bej":11791,"Beacons":11792,"lyan":11793,"ossi":11794,"ÃŃnos":11795,"ieniec":11796,"Novov":11797,"Morin":11798,"ĠValverde":11799,"Hual":11800,"Huaj":11801,"Huayl":11802,"gao":11803,"Å£u":11804,"bruk":11805,"Calab":11806,"Balla":11807,"ÄįÃŃn":11808,"itai":11809,"ingstedt":11810,"khovo":11811,"khoz":11812,"Buj":11813,"Bueng":11814,"Buge":11815,"ĠZhen":11816,"Kral":11817,"Corb":11818,"Cors":11819,"Corozal":11820,"á¸ı":11821,"Khok":11822,"Este":11823,"Eschen":11824,"Seabrook":11825,"Ã«t":11826,"beuf":11827,"sonia":11828,"sonzo":11829,"Oliva":11830,"Greg":11831,"Greci":11832,"Greens":11833,"Greater":11834,"Greif":11835,"Paredes":11836,"Trud":11837,"Adi":11838,"Adliswil":11839,"stede":11840,"á»Ľi":11841,"Abad":11842,"ĠYang":11843,"ĠYelt":11844,"ÃŁe":11845,"ÃŁbach":11846,"Boris":11847,"Borov":11848,"Borghetto":11849,"ĠAren":11850,"ĠArena":11851,"ĠArcos":11852,"issac":11853,"Conde":11854,"Conway":11855,"ĠAnton":11856,"ocket":11857,"Mead":11858,"Mehr":11859,"ixco":11860,"ioni":11861,"ional":11862,"Baille":11863,"BaÃ±":11864,"Merri":11865,"aldi":11866,"Campol":11867,"Dealu":11868,"uax":11869,"uaÃ§u":11870,"ansi":11871,"zyca":11872,"areÃ±a":11873,"arejos":11874,"bork":11875,"Montev":11876,"Reis":11877,"Reed":11878,"Brom":11879,"Span":11880,"Banat":11881,"Roos":11882,"RoÃŁ":11883,"meer":11884,"Longquan":11885,"Ã¡rd":11886,"ĠSho":11887,"ĠShaykh":11888,"Bred":11889,"Breuil":11890,"Breaza":11891,"Heim":11892,"Heidel":11893,"ĠUm":11894,"AkÃ§":11895,"Ern":11896,"Erlenbach":11897,"IsÃ¨re":11898,"Inh":11899,"Inz":11900,"Capri":11901,"CapitÃ¡n":11902,"yeon":11903,"Zheng":11904,"ustri":11905,"ustine":11906,"Kalk":11907,"Rosh":11908,"ieto":11909,"Petro":11910,"Petersburg":11911,"wein":11912,"oldt":11913,"cual":11914,"cuautla":11915,"Obers":11916,"orghe":11917,"CrÄĥ":11918,"Magsaysay":11919,"racÃŃn":11920,"racuse":11921,"hota":11922,"Ploun":11923,"Ploug":11924,"Plaridel":11925,"elaar":11926,"Ãīt":11927,"Ãīpin":11928,"Kirchen":11929,"oleto":11930,"Ãģno":11931,"anning":11932,"annah":11933,"Porte":11934,"Ã¸nd":11935,"eneta":11936,"Cabo":11937,"Cabra":11938,"Å«ru":11939,"Pearl":11940,"Osceola":11941,"Atla":11942,"Graf":11943,"Graven":11944,"ÄģlÄ«yah":11945,"Entr":11946,"Steinh":11947,"Wein":11948,"Kamenka":11949,"Frum":11950,"Murph":11951,"Phon":11952,"Urs":11953,"Emmer":11954,"Loing":11955,"Serre":11956,"Albar":11957,"Krasnoye":11958,"Å¾a":11959,"Madrid":11960,"MadÄ«n":11961,"Äĥrm":11962,"Äĥrului":11963,"Holy":11964,"Martens":11965,"MartÃŃn":11966,"Acc":11967,"ller":11968,"ĠEsp":11969,"tzen":11970,"tzingo":11971,"Como":11972,"Bonn":11973,"Bonif":11974,"StrÃ¡Å¾":11975,"Ã¶nÃ¼":11976,"Wilmington":11977,"Woodb":11978,"Melbourne":11979,"kerk":11980,"viÅ£a":11981,"ĠBarco":11982,"ĠBarrio":11983,"donk":11984,"Ashton":11985,"akhurst":11986,"Kouassi":11987,"lavice":11988,"regon":11989,"Gorod":11990,"warth":11991,"Navarre":11992,"ÄħÅ¼":11993,"yliv":11994,"ĠAndres":11995,"Oakley":11996,"Trev":11997,"Winn":11998,"Ã¼rz":11999,"Fremont":12000,"Freeport":12001,"phis":12002,"bourn":12003,"Ã³rz":12004,"Grandview":12005,"ahuasi":12006,"ahuacÃ¡n":12007,"moos":12008,"igliana":12009,"BÃ©th":12010,"koua":12011,"Delta":12012,"Haag":12013,"Pinilla":12014,"Vilanova":12015,"ĠVeronese":12016,"Limon":12017,"Williston":12018,"Mahm":12019,"rivia":12020,"ĠXoch":12021,"Medford":12022,"kovci":12023,"kovskaya":12024,"ĠPlaine":12025,"Loud":12026,"ÅĽnica":12027,"anzuela":12028,"Ramat":12029,"Trap":12030,"buena":12031,"Charle":12032,"ĠInÃ©s":12033,"Konan":12034,"harpur":12035,"Linton":12036,"Linares":12037,"enhora":12038,"Sunshine":12039,"Å¼a":12040,"ĠCarlo":12041,"roux":12042,"ĠCorral":12043,"Irv":12044,"Padre":12045,"Waid":12046,"enzuela":12047,"rieu":12048,"Dalton":12049,"Roccas":12050,"Tepetz":12051,"Warwick":12052,"ÄĲáº¯k":12053,"ĠRosas":12054,"Ostseebad":12055,"ramento":12056,"Gaur":12057,"ViiÅŁoara":12058,"StarÃ©":12059,"StarÃ¡":12060,"Buli":12061,"Sidney":12062,"mpia":12063,"walk":12064,"ojia":12065,"ĠMonta":12066,"Denton":12067,"lement":12068,"riaga":12069,"Penns":12070,"ousse":12071,"Flores":12072,"ĠÃģngel":12073,"astide":12074,"ĠAmaro":12075,"ĠShaharch":12076,"yshche":12077,"Parker":12078,"tersheim":12079,"allah":12080,"andoah":12081,"Tlacotepec":12082,"Golub":12083,"onnay":12084,"agnÃ©":12085,"ĠOrlic":12086,"ĠOrtega":12087,"kÃ¶prÃ¼":12088,"Liub":12089,"zanÃ³w":12090,"Indre":12091,"Kotel":12092,"Souk":12093,"Ġ11":12094,"Press":12095,"ikhom":12096,"Mauges":12097,"Soko":12098,"Whitehall":12099,"Seneca":12100,"niceni":12101,"ĠOld":12102,"Aguil":12103,"Byron":12104,"Oglio":12105,"Argel":12106,"ninge":12107,"ĠCamacho":12108,"ĠPeÃ±Ã³n":12109,"Valdem":12110,"pswich":12111,"ammad":12112,"ĠPolvor":12113,"ĠSebastiÃ£o":12114,"Durham":12115,"Pietr":12116,"Pietro":12117,"ĠMatas":12118,"quiÃ¨res":12119,"Ocampo":12120,"Butt":12121,"Bernard":12122,"Home":12123,"eggia":12124,"Stanton":12125,"Steinbach":12126,"ontaines":12127,"Desert":12128,"Kemp":12129,"Tecom":12130,"Ä«dÄ«":12131,"Czarna":12132,"Ãħr":12133,"ÅĮm":12134,"Riverton":12135,"Riverview":12136,"werder":12137,"ĠÄĲá»©c":12138,"ĠCapilla":12139,"ĠAbÅ«":12140,"Touraine":12141,"Waller":12142,"ĠGrange":12143,"ĠSteiermark":12144,"ZapotitlÃ¡n":12145,"ÅŃng":12146,"tavou":12147,"ĠChapel":12148,"Essex":12149,"ĠBonito":12150,"bÃ¼ren":12151,"ĠRamon":12152,"Cassano":12153,"áº¡c":12154,"Lady":12155,"cescu":12156,"Blanc":12157,"David":12158,"Hawthorne":12159,"Ikot":12160,"Jacob":12161,"Chicon":12162,"Hatfield":12163,"Koby":12164,"Miraflores":12165,"tteville":12166,"ĠBormida":12167,"Provence":12168,"Lowell":12169,"Naples":12170,"ledas":12171,"ĠRivera":12172,"ĠRiviera":12173,"Houston":12174,"Xinglong":12175,"ÄĹs":12176,"Chamber":12177,"ÅŁaÄŁÄ±":12178,"ĠDolna":12179,"ĠDolores":12180,"Bradley":12181,"graben":12182,"Äģwah":12183,"tschach":12184,"ĠMichael":12185,"Sherwood":12186,"Sheridan":12187,"SchÃ¶nau":12188,"ĠAlbans":12189,"Ãļj":12190,"Clarence":12191,"Claremont":12192,"Humber":12193,"JoÃ£o":12194,"Lukav":12195,"Pyh":12196,"Sambre":12197,"Wyoming":12198,"ĠNegro":12199,"Bridgewater":12200,"Racovi":12201,"ĠJohann":12202,"Cordova":12203,"ÅĪany":12204,"ĠAguas":12205,"ÃŃritu":12206,"Didier":12207,"Friend":12208,"Socorro":12209,"nacht":12210,"iagara":12211,"ĠLeonardo":12212,"ĠLeonhard":12213,"Prosper":12214,"Smithfield":12215,"Randolph":12216,"ĠMazowie":12217,"ĠGranada":12218,"ĠVelha":12219,"itsyno":12220,"Boulder":12221,"Uzun":12222,"Vieille":12223,"Ã¡ndaro":12224,"ĠKalÄģn":12225,"Bloomingdale":12226,"Cinco":12227,"Nazaire":12228,"Sucre":12229,"breit":12230,"Alcolea":12231,"WeiÃŁen":12232,"JunÃŃn":12233,"Grosse":12234,"Edgewater":12235,"Pandan":12236,"adiokro":12237,"ĠPiedras":12238,"olayivka":12239,"ĠÅļlÄħski":12240,"Vienna":12241,"ĠHolly":12242,"Cerrito":12243,"Cerritos":12244,"Kreuz":12245,"Ljung":12246,"ĠCerrito":12247,"ĠJadraque":12248,"Shenandoah":12249,"Caldas":12250,"ixtlahuaca":12251,"Heiligen":12252,"Encinas":12253,"DoÄŁan":12254,"Harrisburg":12255,"Battle":12256,"ĠScrivia":12257,"ĠLodigiano":12258,"SchÃ¶ne":12259,"Velyki":12260,"Wildwood":12261,"Diamond":12262,"Hobart":12263,"TÃ¡pi":12264,"baum":12265,"Christi":12266,"ĠRocco":12267,"iechÃ³w":12268,"Eldorado":12269,"ÄĥÈĻeni":12270,"ĠKaeo":12271,"Ä±ÅŁla":12272,"Å¡Äĩe":12273,"Acquaviva":12274,"Banjar":12275,"Wasser":12276,"wolde":12277,"ĠSacatepÃ©":12278,"ĠStrada":12279,"áº¯c":12280,"Noble":12281,"enciado":12282,"Neuenkirchen":12283,"Altamira":12284,"Lourdes":12285,"ĠPadre":12286,"Mareuil":12287,"ĠOcotlÃ¡n":12288,"ĠCecilia":12289,"ĠAtzompa":12290,"arrubia":12291,"Glasgow":12292,"HacÄ±":12293,"fleet":12294,"ĠPurÃŃsima":12295,"ĠRayÃ³n":12296,"ĠLouis":12297,"Neuvy":12298,"Montreuil":12299,"ĠMartÃŃnez":12300,"Ã¥rd":12301,"Gladstone":12302,"Hippol":12303,"Pulau":12304,"Settimo":12305,"ĠCiudad":12306,"ĠCayetano":12307,"Neumarkt":12308,"ĠOjeda":12309,"ĠLaurel":12310,"ĠCruces":12311,"Åŀtefan":12312,"Portsmouth":12313,"Lagunillas":12314,"Fatehpur":12315,"Jamaica":12316,"Menzel":12317,"ĠLambro":12318,"Antoine":12319,"Nekras":12320,"Neunkirchen":12321,"ĠWinterthur":12322,"ĠWindsor":12323,"Espinosa":12324,"Abasolo":12325,"iftlik":12326,"Druzhba":12327,"Konstantin":12328,"Potrerillos":12329,"ĠMuÃ±oz":12330,"ĠNaranjos":12331,"ĠEscondido":12332,"ĠSharqÄ«yah":12333,"DÄħbrowa":12334,"Sullivan":12335,"Wetzikon":12336,"ĠButte":12337,"Seaford":12338,"Krasnoarmey":12339,"AydÄ±n":12340,"Humboldt":12341,"ĠVltavou":12342,"ĠLiberty":12343,"Schlieren":12344,"Atlantic":12345,"ĠDomingos":12346,"Krasnogvardey":12347,"Vladimir":12348,"Ospedaletto":12349,"NÄģá¸©iyat":12350,"ĠMÄĽsto":12351,"ĠMiasto":12352,"Beaulieu":12353,"ĠConstituciÃ³n":12354,"Izvoru":12355,"ÄĲáº¡i":12356,"Shevchen":12357,"Saturnin":12358,"Dioulasso":12359,"ĠMendoza":12360,"ĠBÄĥlcescu":12361,"ĠNacional":12362,"ĠFigueroa":12363,"ĠKujaw":12364,"Beaconsfield":12365,"ĠYeltes":12366,"Heidelberg":12367,"MadÄ«nat":12368,"ĠShaharchasi":12369,"ĠOrlicÃŃ":12370,"ĠSacatepÃ©quez":12371,"Aid":12372,"Aus":12373,"Ati":12374,"Aich":12375,"Aci":12376,"Aya":12377,"Aver":12378,"Aust":12379,"Auv":12380,"Austin":12381,"AÅŁaÄŁÄ±":12382,"Bers":12383,"Best":12384,"Bale":12385,"Bich":12386,"Bland":12387,"Beb":12388,"Bind":12389,"Berm":12390,"Bolo":12391,"BÃ¶r":12392,"Byr":12393,"Bosh":12394,"BÃ¤r":12395,"Besh":12396,"BÄ«r":12397,"Baud":12398,"Bajo":12399,"Bress":12400,"Báº¯c":12401,"Cie":12402,"Ceg":12403,"Cev":12404,"Cuz":12405,"Calm":12406,"Cash":12407,"Caf":12408,"Cuch":12409,"Cire":12410,"CÄĥr":12411,"Cava":12412,"Cott":12413,"CÃ¡rdenas":12414,"Cacho":12415,"CiÃ©nega":12416,"Dai":12417,"Dard":12418,"Dek":12419,"Dres":12420,"Dier":12421,"DÅ«":12422,"Dhu":12423,"Dera":12424,"Dari":12425,"Dhan":12426,"DÃ©s":12427,"Dunn":12428,"Doum":12429,"ER":12430,"ES":12431,"Ea":12432,"Ere":12433,"Esh":12434,"Eaux":12435,"Fj":12436,"Fau":12437,"Fah":12438,"Foy":12439,"FÃ¼":12440,"Foz":12441,"Fond":12442,"Flo":12443,"Feh":12444,"Flem":12445,"Flag":12446,"Five":12447,"Fontaines":12448,"Gok":12449,"Gev":12450,"Gara":12451,"Gey":12452,"Geld":12453,"Gaj":12454,"Gaf":12455,"Ghi":12456,"GÄĥl":12457,"Gbon":12458,"Gwang":12459,"Gates":12460,"Hw":12461,"Hra":12462,"Hec":12463,"Hark":12464,"Hort":12465,"Hung":12466,"Hamb":12467,"Hita":12468,"Hans":12469,"HÃł":12470,"Ic":12471,"Ij":12472,"Ion":12473,"Isk":12474,"Igh":12475,"Itz":12476,"Imb":12477,"Isonzo":12478,"Jet":12479,"Jie":12480,"Jev":12481,"Jut":12482,"Juv":12483,"Juli":12484,"Jordan":12485,"Kne":12486,"Khe":12487,"Kuan":12488,"Korn":12489,"Kint":12490,"Kalm":12491,"Koss":12492,"Kira":12493,"Klen":12494,"Kiss":12495,"Klin":12496,"Kih":12497,"KÅĻ":12498,"KÄģm":12499,"Krom":12500,"Krak":12501,"LÃŃ":12502,"Lard":12503,"Liz":12504,"Lof":12505,"Lama":12506,"List":12507,"Lix":12508,"Llor":12509,"LÄģl":12510,"Liver":12511,"Luck":12512,"Lenz":12513,"Mop":12514,"Male":12515,"Mina":12516,"Meld":12517,"Mola":12518,"More":12519,"MÄģn":12520,"Much":12521,"Mij":12522,"MÃª":12523,"Miro":12524,"Mesa":12525,"Mogo":12526,"Mits":12527,"MÄģnd":12528,"MÃ¤n":12529,"Mueang":12530,"Nh":12531,"Nos":12532,"Nol":12533,"Nest":12534,"Nana":12535,"Nort":12536,"Nip":12537,"Nian":12538,"Nott":12539,"Niem":12540,"NÃ¸r":12541,"Narros":12542,"Nether":12543,"Niagara":12544,"Of":12545,"Oos":12546,"Ono":12547,"Ohl":12548,"Otten":12549,"Odi":12550,"Pill":12551,"Pue":12552,"Pour":12553,"Poro":12554,"Perr":12555,"Pick":12556,"Pust":12557,"Pann":12558,"PÃ¢r":12559,"PÃ´":12560,"PÃ¨re":12561,"Piro":12562,"Pesh":12563,"PÄĥu":12564,"Prag":12565,"Punt":12566,"Prom":12567,"Prem":12568,"PÄ±nar":12569,"Persh":12570,"Pusz":12571,"Puerta":12572,"Qas":12573,"Rur":12574,"Rast":12575,"Rai":12576,"Ruc":12577,"RÃ¤":12578,"Rion":12579,"RÃ¸d":12580,"Sf":12581,"Sre":12582,"Sill":12583,"Sco":12584,"Sei":12585,"Sula":12586,"Sath":12587,"Sumb":12588,"SÃ¢r":12589,"Suh":12590,"SÃ©m":12591,"Sover":12592,"Slov":12593,"Sym":12594,"SÅĤaw":12595,"Sault":12596,"SÅ«q":12597,"SÃ¨vre":12598,"Tille":12599,"Tsh":12600,"Tard":12601,"Tana":12602,"Tark":12603,"Tuk":12604,"Toh":12605,"Tond":12606,"TÃ¤":12607,"Toch":12608,"Tij":12609,"Tama":12610,"Tank":12611,"Tanc":12612,"Tenn":12613,"TÃ½":12614,"Tull":12615,"Tando":12616,"Tlam":12617,"Uta":12618,"Ure":12619,"Uth":12620,"Una":12621,"Vara":12622,"Vord":12623,"Vass":12624,"Vian":12625,"Vint":12626,"Voss":12627,"Vish":12628,"Vico":12629,"Vaul":12630,"Vakh":12631,"Voj":12632,"Vult":12633,"Wig":12634,"Wap":12635,"Wong":12636,"Wob":12637,"Wich":12638,"Wier":12639,"Wess":12640,"Ware":12641,"Wagen":12642,"Wrigh":12643,"Xo":12644,"Xil":12645,"XÃ£":12646,"Yv":12647,"Yab":12648,"Yum":12649,"Yell":12650,"Yosh":12651,"Zm":12652,"Zun":12653,"Zong":12654,"Zum":12655,"Zev":12656,"Zarr":12657,"aan":12658,"bÄģ":12659,"bab":12660,"bul":12661,"bot":12662,"boc":12663,"bana":12664,"bina":12665,"bark":12666,"bug":12667,"bian":12668,"bani":12669,"bendorf":12670,"bold":12671,"bush":12672,"bougou":12673,"bisch":12674,"cim":12675,"cate":12676,"cÃŃa":12677,"cÃ³w":12678,"cze":12679,"cillas":12680,"dang":12681,"dir":12682,"dach":12683,"dham":12684,"dney":12685,"eau":12686,"eÅŁ":12687,"fes":12688,"fÃ©":12689,"fim":12690,"fah":12691,"fers":12692,"fouÃ©":12693,"feh":12694,"fried":12695,"flow":12696,"gil":12697,"gov":12698,"get":12699,"gai":12700,"gnies":12701,"hil":12702,"hang":12703,"hak":12704,"hus":12705,"herm":12706,"houn":12707,"hwar":12708,"haus":12709,"hampton":12710,"histor":12711,"ior":12712,"iÃ³n":12713,"iza":12714,"ique":12715,"iosa":12716,"jel":12717,"jÃ³":12718,"jac":12719,"jÃ«":12720,"kill":12721,"kem":12722,"kok":12723,"kut":12724,"kheim":12725,"koro":12726,"kofen":12727,"lÄģ":12728,"lÄĥ":12729,"lÄ«":12730,"lana":12731,"lina":12732,"leni":12733,"lung":12734,"lbach":12735,"lÄģn":12736,"lÃŃn":12737,"lund":12738,"lito":12739,"larn":12740,"luca":12741,"mig":12742,"mot":12743,"mik":12744,"mez":12745,"mÃ¡r":12746,"mersdorf":12747,"miao":12748,"nav":12749,"now":12750,"nard":12751,"novo":12752,"nine":12753,"nava":12754,"nitsa":12755,"nimas":12756,"pil":12757,"pos":12758,"pro":12759,"pano":12760,"phe":12761,"pilco":12762,"pierre":12763,"qÄģ":12764,"qah":12765,"qian":12766,"ror":12767,"ruz":12768,"rico":12769,"ruck":12770,"reras":12771,"sol":12772,"sing":12773,"sfeld":12774,"sdale":12775,"snacht":12776,"tw":12777,"tat":12778,"tÄģ":12779,"tus":12780,"tna":12781,"tina":12782,"tub":12783,"tyn":12784,"tree":12785,"ued":12786,"usk":12787,"uque":12788,"uja":12789,"uÅĦ":12790,"vol":12791,"vid":12792,"vec":12793,"villa":12794,"vard":12795,"vest":12796,"vant":12797,"varo":12798,"vÄģn":12799,"vari":12800,"vald":12801,"voll":12802,"veno":12803,"vliet":12804,"wez":12805,"woud":12806,"wards":12807,"wihr":12808,"xu":12809,"xas":12810,"xpan":12811,"xiu":12812,"yde":12813,"yay":12814,"yun":12815,"yri":12816,"yth":12817,"yers":12818,"yÅĽl":12819,"zd":12820,"zab":12821,"zka":12822,"zach":12823,"zingen":12824,"zolo":12825,"zki":12826,"zendorf":12827,"Ä¡":12828,"Ð°":12829,"Ð¸":12830,"ÙĬ":12831,"Ġar":12832,"Ġat":12833,"Ġad":12834,"anap":12835,"anci":12836,"aron":12837,"arte":12838,"aray":12839,"arri":12840,"aret":12841,"arav":12842,"arco":12843,"arano":12844,"arÃ³n":12845,"arca":12846,"arella":12847,"erz":12848,"erin":12849,"erta":12850,"erre":12851,"erzh":12852,"erke":12853,"erata":12854,"eries":12855,"inar":12856,"inam":12857,"inou":12858,"inand":12859,"inth":12860,"inice":12861,"inaldo":12862,"enov":12863,"enia":12864,"enac":12865,"enti":12866,"onah":12867,"onio":12868,"onice":12869,"onovo":12870,"onera":12871,"onico":12872,"alillo":12873,"alÃ©n":12874,"aloa":12875,"orz":12876,"oril":12877,"orto":12878,"orong":12879,"orhe":12880,"elj":12881,"elm":12882,"elberg":12883,"elieu":12884,"elgem":12885,"ilj":12886,"ilen":12887,"ilat":12888,"ilou":12889,"ilov":12890,"ilac":12891,"ilpan":12892,"ildo":12893,"aste":12894,"asaki":12895,"asota":12896,"estone":12897,"chas":12898,"chain":12899,"chem":12900,"chev":12901,"chug":12902,"chyn":12903,"chfield":12904,"chiano":12905,"chany":12906,"uris":12907,"urÃŃ":12908,"amur":12909,"amand":12910,"amish":12911,"ameca":12912,"dete":12913,"lean":12914,"lego":12915,"lett":12916,"atl":12917,"atre":12918,"atham":12919,"atpur":12920,"atÃŃo":12921,"atitla":12922,"Sangar":12923,"osu":12924,"osÃŃ":12925,"osha":12926,"ouz":12927,"ouch":12928,"outa":12929,"ouba":12930,"ouine":12931,"oucester":12932,"olon":12933,"olun":12934,"olengo":12935,"Ã©on":12936,"Ã©ra":12937,"Ã©ville":12938,"Ã©go":12939,"Ã©ni":12940,"Ã©llar":12941,"isen":12942,"isle":12943,"isou":12944,"isca":12945,"isberg":12946,"isten":12947,"isnes":12948,"ishui":12949,"tago":12950,"tayan":12951,"table":12952,"ĠCe":12953,"ĠCes":12954,"ĠCoy":12955,"ĠCres":12956,"ĠCip":12957,"ĠCount":12958,"ĠCost":12959,"ĠCumb":12960,"ĠCarn":12961,"ĠCorte":12962,"ĠCerd":12963,"ĠClar":12964,"ĠCabr":12965,"ĠComp":12966,"ĠCountry":12967,"ĠCÃ³rdoba":12968,"add":12969,"adap":12970,"itia":12971,"itrov":12972,"reo":12973,"reux":12974,"ovu":12975,"ovell":12976,"ovei":12977,"ingford":12978,"iap":12979,"iau":12980,"iaca":12981,"raine":12982,"rawe":12983,"ĠMus":12984,"ĠMem":12985,"ĠMant":12986,"ĠMold":12987,"ĠMinh":12988,"ĠMotte":12989,"ĠMirim":12990,"ĠMiami":12991,"teo":12992,"icco":12993,"icana":12994,"icina":12995,"ĠPil":12996,"ĠPac":12997,"ĠPap":12998,"ĠPly":12999,"ĠPira":13000,"ĠPonte":13001,"ĠPath":13002,"ĠPeral":13003,"ĠPunta":13004,"angue":13005,"ayag":13006,"ayama":13007,"unus":13008,"unter":13009,"roya":13010,"Äģsa":13011,"Äģganj":13012,"Ã¡cuaro":13013,"ĠSm":13014,"ĠSÃ¡":13015,"ĠSong":13016,"ĠSob":13017,"ĠSub":13018,"ĠStadt":13019,"ĠSÃ¡z":13020,"ĠSever":13021,"ĠSlob":13022,"ĠSoria":13023,"ĠSidi":13024,"riÈĻ":13025,"etro":13026,"etÃ¡":13027,"Lah":13028,"Lao":13029,"Laut":13030,"Lauz":13031,"Lajas":13032,"ĠBoh":13033,"ĠBua":13034,"ĠBois":13035,"ĠBÄģgh":13036,"ĠBÃ©jar":13037,"igou":13038,"igrad":13039,"agara":13040,"agudo":13041,"omin":13042,"omac":13043,"omand":13044,"omice":13045,"omut":13046,"omera":13047,"omero":13048,"omachi":13049,"omÄĽÅĻice":13050,"illers":13051,"illÃ¡n":13052,"imes":13053,"imah":13054,"imiento":13055,"Chol":13056,"ChÄģ":13057,"Chod":13058,"Chio":13059,"Chot":13060,"Chaz":13061,"Chino":13062,"Chib":13063,"Chala":13064,"Chry":13065,"Cherm":13066,"Chish":13067,"Chick":13068,"Chalo":13069,"Chiesa":13070,"Chá»£":13071,"auf":13072,"aula":13073,"augh":13074,"ĠAst":13075,"ĠApp":13076,"ĠApol":13077,"ĠAlem":13078,"Ã³c":13079,"Ã³f":13080,"acab":13081,"acoy":13082,"acÃ³n":13083,"acena":13084,"Ġden":13085,"topol":13086,"abang":13087,"abella":13088,"irin":13089,"irit":13090,"irsk":13091,"andilla":13092,"ÃŃra":13093,"ÃŃvar":13094,"eder":13095,"tho":13096,"thana":13097,"thier":13098,"akk":13099,"aker":13100,"akin":13101,"aken":13102,"akoro":13103,"skyi":13104,"ainen":13105,"ĠTon":13106,"ĠTes":13107,"ĠTat":13108,"ĠTim":13109,"ĠThi":13110,"ĠTule":13111,"ĠTagli":13112,"ĠTaju":13113,"ĠTerrero":13114,"odat":13115,"odio":13116,"odeni":13117,"ĠHou":13118,"ĠHong":13119,"ĠHot":13120,"ĠHoyo":13121,"ĠHome":13122,"ĠHuerta":13123,"ĠRei":13124,"ĠRoma":13125,"Alar":13126,"Alic":13127,"Alim":13128,"Almar":13129,"Aller":13130,"Alcan":13131,"Altay":13132,"apura":13133,"apampa":13134,"apÄ±nar":13135,"ulm":13136,"ulen":13137,"ĠGo":13138,"ĠGol":13139,"ĠGhe":13140,"ĠGÃ¼":13141,"ĠGuan":13142,"ĠGiang":13143,"ĠGorodok":13144,"ĠGaspar":13145,"ĠVis":13146,"ĠVed":13147,"ĠVers":13148,"ĠVino":13149,"ĠVent":13150,"ĠVtor":13151,"ĠVlad":13152,"ĠVorstadt":13153,"idia":13154,"idero":13155,"idonia":13156,"ushu":13157,"ioara":13158,"ieb":13159,"ief":13160,"iev":13161,"avak":13162,"avod":13163,"averal":13164,"avallo":13165,"avodsk":13166,"tiy":13167,"tich":13168,"tiÃ¨re":13169,"neg":13170,"nex":13171,"neuil":13172,"coch":13173,"cour":13174,"cota":13175,"baÄŁ":13176,"anoke":13177,"anowo":13178,"kach":13179,"kaway":13180,"umont":13181,"umberland":13182,"ĠLin":13183,"ĠLes":13184,"ĠLÃŃ":13185,"ĠLlor":13186,"ĠLox":13187,"Ellen":13188,"heil":13189,"heath":13190,"ellas":13191,"ellÃ³":13192,"ellino":13193,"Äĥng":13194,"ÄĥÅŁti":13195,"ÄĥteÅŁti":13196,"otan":13197,"otyn":13198,"iven":13199,"ives":13200,"ivis":13201,"tert":13202,"tering":13203,"terville":13204,"terson":13205,"tershausen":13206,"ĠJun":13207,"ĠJard":13208,"ĠJud":13209,"ĠJord":13210,"ĠJimÃ©":13211,"ecac":13212,"ecco":13213,"ecca":13214,"emo":13215,"eman":13216,"emet":13217,"oyne":13218,"Marian":13219,"Margar":13220,"Marks":13221,"Marble":13222,"Margate":13223,"Marysville":13224,"Maravillas":13225,"ĠNg":13226,"ĠNic":13227,"ĠNie":13228,"ĠNong":13229,"ĠNik":13230,"ĠNovo":13231,"ĠNinh":13232,"ĠNoria":13233,"ĠNghÄ©a":13234,"astre":13235,"astra":13236,"ower":13237,"oway":13238,"oku":13239,"ĠFam":13240,"ĠFra":13241,"ĠFab":13242,"ĠFour":13243,"ĠFair":13244,"ĠFoo":13245,"ĠFuerte":13246,"ÅŁe":13247,"ÅŁin":13248,"ÅŁia":13249,"ÅŁteni":13250,"ersham":13251,"ognes":13252,"ikan":13253,"Ã¶b":13254,"Ã¶ng":13255,"Ã¼zÃ¼":13256,"ontitlÃ¡n":13257,"shy":13258,"shang":13259,"shah":13260,"shÄ«":13261,"shaya":13262,"achapa":13263,"oce":13264,"ocon":13265,"ocun":13266,"occo":13267,"oby":13268,"obre":13269,"oboua":13270,"obbio":13271,"obrz":13272,"airi":13273,"Shor":13274,"Shing":13275,"Sheng":13276,"Shaf":13277,"Shire":13278,"Shady":13279,"Shrews":13280,"azm":13281,"azy":13282,"ĠDj":13283,"ĠDong":13284,"ĠDion":13285,"ĠDru":13286,"ĠDennis":13287,"egen":13288,"egal":13289,"egra":13290,"eglia":13291,"Ã¡nya":13292,"Arj":13293,"Arar":13294,"Arra":13295,"Arba":13296,"Arles":13297,"Arden":13298,"Arpa":13299,"Ä«la":13300,"Ä«ya":13301,"Ã³nio":13302,"ardt":13303,"quen":13304,"quero":13305,"quena":13306,"quito":13307,"quista":13308,"quitlÃ¡n":13309,"quÃ©s":13310,"Anc":13311,"Anast":13312,"orfolk":13313,"burne":13314,"udas":13315,"ĠMari":13316,"ĠMarino":13317,"ĠMarkt":13318,"tstein":13319,"araja":13320,"lione":13321,"aleu":13322,"naw":13323,"nais":13324,"entry":13325,"ucco":13326,"endas":13327,"endonk":13328,"ĠKing":13329,"ĠKamp":13330,"ĠKarl":13331,"Stub":13332,"Staro":13333,"Strom":13334,"arks":13335,"guang":13336,"zhay":13337,"zhne":13338,"zheng":13339,"eyli":13340,"eytin":13341,"ubu":13342,"ubok":13343,"elds":13344,"Need":13345,"utri":13346,"asser":13347,"ekro":13348,"ĠEp":13349,"ĠEss":13350,"ĠEmp":13351,"ipu":13352,"erndorf":13353,"ernales":13354,"ĠItz":13355,"ĠItal":13356,"Lep":13357,"Lede":13358,"awi":13359,"awang":13360,"Ã¢na":13361,"caÃ±":13362,"ugi":13363,"upy":13364,"uper":13365,"iban":13366,"ibou":13367,"iere":13368,"ĠOjo":13369,"ĠOula":13370,"ĠOcotepec":13371,"enste":13372,"enstetten":13373,"uko":13374,"ukay":13375,"ukovo":13376,"ukÅ«":13377,"Monmouth":13378,"ĠCha":13379,"ĠCho":13380,"ĠChor":13381,"ĠChol":13382,"ĠChau":13383,"ĠChir":13384,"ĠChian":13385,"Barc":13386,"Barr":13387,"Baru":13388,"Barri":13389,"Barber":13390,"Barns":13391,"Barrow":13392,"Barrancas":13393,"ĠWa":13394,"ĠWe":13395,"ĠWen":13396,"ĠWang":13397,"ĠWein":13398,"Guach":13399,"Guadal":13400,"Carc":13401,"Cartag":13402,"Carolina":13403,"Bren":13404,"Brass":13405,"Brgy":13406,"uzo":13407,"dade":13408,"huay":13409,"antino":13410,"ezen":13411,"Colli":13412,"Colling":13413,"Colmen":13414,"Collado":13415,"Colfax":13416,"atepe":13417,"ĠLaw":13418,"ĠLabor":13419,"ffin":13420,"ambre":13421,"rysh":13422,"izio":13423,"ornik":13424,"Thi":13425,"Tho":13426,"Thiers":13427,"eiu":13428,"tenay":13429,"nois":13430,"Castron":13431,"loe":13432,"loon":13433,"Schar":13434,"Scher":13435,"Schne":13436,"Schitu":13437,"Santiagu":13438,"Ques":13439,"Quir":13440,"Quip":13441,"Quatt":13442,"Ã¤ff":13443,"Ama":13444,"Amor":13445,"Amag":13446,"Ambo":13447,"ssou":13448,"hae":13449,"ynn":13450,"ynÃ³w":13451,"Gris":13452,"Grass":13453,"ochnoye":13454,"ochitlÃ¡n":13455,"Belfast":13456,"ĠAltam":13457,"ĠAlcÃ¡n":13458,"Montc":13459,"Monten":13460,"Monteleone":13461,"ermes":13462,"Ãºla":13463,"Orle":13464,"Orba":13465,"Orland":13466,"Orme":13467,"woods":13468,"Å¡i":13469,"alme":13470,"seo":13471,"seong":13472,"oloapan":13473,"Westport":13474,"Westlake":13475,"ashat":13476,"ghi":13477,"ghan":13478,"Manz":13479,"Manzana":13480,"ĠSands":13481,"ÅĤm":13482,"ÅĤud":13483,"ÅĤkowice":13484,"Ã§ek":13485,"ariÃ¡":13486,"Salcedo":13487,"Salamanca":13488,"Berd":13489,"Berwick":13490,"ucht":13491,"Bea":13492,"Bee":13493,"Beh":13494,"Beuv":13495,"Bexley":13496,"Newmarket":13497,"artÃŃn":13498,"artida":13499,"denham":13500,"Prin":13501,"Pram":13502,"Pring":13503,"Prados":13504,"cks":13505,"uerbach":13506,"lyy":13507,"ienne":13508,"NovÃ½":13509,"Malk":13510,"Malv":13511,"Malak":13512,"Morton":13513,"Moraleja":13514,"ĠVals":13515,"joa":13516,"tado":13517,"Huat":13518,"HuÃ©":13519,"Huaz":13520,"HuÃ©r":13521,"insberg":13522,"ĠJoseph":13523,"bras":13524,"Calat":13525,"Calder":13526,"Caledonia":13527,"Bali":13528,"Balta":13529,"Balogo":13530,"Äįica":13531,"Äįovice":13532,"khod":13533,"ĠZa":13534,"ĠZen":13535,"ĠZem":13536,"ĠZamora":13537,"Corc":13538,"Coral":13539,"Corbi":13540,"itzendorf":13541,"Khon":13542,"KhÄģ":13543,"Khir":13544,"Khand":13545,"uieni":13546,"Seen":13547,"Seaside":13548,"Ã«v":13549,"Ã«vka":13550,"beach":13551,"veh":13552,"Torric":13553,"Torrel":13554,"Burla":13555,"Boa":13556,"Both":13557,"BoÄŁ":13558,"bole":13559,"Maure":13560,"Greensburg":13561,"ulah":13562,"ulao":13563,"TrÃł":13564,"Trujillo":13565,"lenz":13566,"Adams":13567,"Southern":13568,"Southport":13569,"Abd":13570,"Abou":13571,"Periy":13572,"uyÃ¨res":13573,"waÅĤd":13574,"ĠYuc":13575,"ÃŁling":13576,"áº©":13577,"istlÃ¡n":13578,"Borde":13579,"anjiang":13580,"Conn":13581,"Connell":13582,"zea":13583,"zef":13584,"ĠBeÄį":13585,"vere":13586,"vert":13587,"verne":13588,"ridor":13589,"Mej":13590,"Mehl":13591,"Baun":13592,"BaÃ¯":13593,"Baxter":13594,"Coatepec":13595,"Campan":13596,"Campof":13597,"Badia":13598,"area":13599,"Reit":13600,"ttingen":13601,"nesboro":13602,"Broek":13603,"Ascot":13604,"AsunciÃ³n":13605,"Mois":13606,"Moore":13607,"Sarm":13608,"Sarai":13609,"ouges":13610,"Bank":13611,"RoÅ¾":13612,"Roanoke":13613,"anejo":13614,"Hein":13615,"Head":13616,"Heid":13617,"Akron":13618,"Äģdah":13619,"Isa":13620,"ysz":13621,"yshevo":13622,"Canter":13623,"Zhur":13624,"Kali":13625,"Kalten":13626,"RosiÃ¨res":13627,"Roslyn":13628,"Roseville":13629,"weis":13630,"olding":13631,"Benav":13632,"Groot":13633,"Oberw":13634,"urea":13635,"ureÅŁti":13636,"organ":13637,"Cric":13638,"Magh":13639,"Magall":13640,"Magny":13641,"hoek":13642,"PlÃ©":13643,"Anderson":13644,"Andrews":13645,"Ãīg":13646,"Ãīch":13647,"Ãīcole":13648,"rades":13649,"ufeng":13650,"Ãģr":13651,"Ãģgua":13652,"Ãģyi":13653,"aterina":13654,"Äģbah":13655,"umbia":13656,"Aves":13657,"Avoca":13658,"Forrest":13659,"Pear":13660,"Velilla":13661,"VelkÃ¡":13662,"Ã¢nc":13663,"ifeng":13664,"Atti":13665,"Camal":13666,"ÅĻany":13667,"ÅĻovice":13668,"ĠGutiÃ©rrez":13669,"ĠGuareÃ±a":13670,"Lesnoy":13671,"Bouc":13672,"Bouz":13673,"Harp":13674,"Harbor":13675,"Harvey":13676,"schlag":13677,"Kamenn":13678,"Langley":13679,"Plains":13680,"gnac":13681,"Muro":13682,"Murray":13683,"giate":13684,"ĠSalitre":13685,"ÄĻba":13686,"iniÅŁ":13687,"Castelo":13688,"Castelnau":13689,"Emin":13690,"Loos":13691,"kston":13692,"Serg":13693,"Krasne":13694,"Å¾i":13695,"Koto":13696,"Koff":13697,"KoÅĤ":13698,"Madh":13699,"marie":13700,"Ã©rica":13701,"Ciuc":13702,"Holm":13703,"Holden":13704,"AcatlÃ¡n":13705,"Taras":13706,"desheim":13707,"ĠEsper":13708,"Bagong":13709,"ĠMorales":13710,"ĠMorris":13711,"Terran":13712,"ĠCrem":13713,"enningen":13714,"Bonnet":13715,"kota":13716,"Strel":13717,"Strum":13718,"Bolivar":13719,"ÈĽeni":13720,"Ã¶nn":13721,"Cuba":13722,"Woodford":13723,"Woodbridge":13724,"trud":13725,"Melgar":13726,"ĠBarbara":13727,"Horton":13728,"Ashford":13729,"CaÃ±as":13730,"Saal":13731,"lerville":13732,"Ãĩak":13733,"Ãĩatal":13734,"Pasir":13735,"Pasadena":13736,"wayn":13737,"ĠKhÄģs":13738,"á¸©ah":13739,"mbar":13740,"Gornyy":13741,"ÄĽÅ¾":13742,"letta":13743,"letto":13744,"Palmer":13745,"Ã¯a":13746,"Ã©di":13747,"ĠThor":13748,"Waltham":13749,"Äħcz":13750,"ĠQan":13751,"ĠStar":13752,"Glend":13753,"Gloucester":13754,"ĠRech":13755,"ĠReadap":13756,"ussy":13757,"alote":13758,"ĠAndreu":13759,"Mayo":13760,"Suvor":13761,"ĠColor":13762,"Trem":13763,"taglia":13764,"Altos":13765,"Fred":13766,"Freud":13767,"phia":13768,"pherd":13769,"oshima":13770,"Ä«nah":13771,"ĠElm":13772,"ahuac":13773,"ahuatlÃ¡n":13774,"Ã¶ld":13775,"Rediu":13776,"ĠCalab":13777,"ĠCalzada":13778,"BÃ©l":13779,"BÃ©ziers":13780,"ĠRodeo":13781,"HaÃŁ":13782,"Molin":13783,"overy":13784,"Kefar":13785,"iasco":13786,"ĠXX":13787,"ĠXuÃ¢n":13788,"ĠXuyÃªn":13789,"riglia":13790,"France":13791,"Medve":13792,"Sauk":13793,"ĠPlaza":13794,"Loutr":13795,"Tabon":13796,"ÅĽna":13797,"anzas":13798,"inasco":13799,"Aleg":13800,"Alem":13801,"Dundee":13802,"Kurort":13803,"ĠTexcal":13804,"Birnin":13805,"Hoi":13806,"Hoop":13807,"Linjiang":13808,"ĠCarrizal":13809,"Scur":13810,"Scand":13811,"ĠCorona":13812,"ĠCorneja":13813,"Izum":13814,"Paderno":13815,"telvi":13816,"enzell":13817,"enzana":13818,"ÄĲá»ĵng":13819,"ĠBlancas":13820,"Glencoe":13821,"Ostro":13822,"Ostrow":13823,"Ruff":13824,"Ruther":13825,"ĠForks":13826,"Ottawa":13827,"Sult":13828,"ViÅŁ":13829,"ViÃ±":13830,"cones":13831,"Starok":13832,"Sinj":13833,"ĠPhisai":13834,"Makar":13835,"winkel":13836,"ÄĮer":13837,"Gher":13838,"Surd":13839,"Somerville":13840,"ĠMonica":13841,"varez":13842,"ÄĢb":13843,"ÄĢd":13844,"ÄĢq":13845,"ĠMaur":13846,"oussa":13847,"oussou":13848,"Äģspur":13849,"Krasnoyar":13850,"Florent":13851,"ĠCuaut":13852,"Flora":13853,"Imm":13854,"Lucas":13855,"Lucena":13856,"Åģub":13857,"KilÃ³m":13858,"Nyzh":13859,"VallÃ©e":13860,"Centreville":13861,"McKin":13862,"ukhov":13863,"ukhovo":13864,"Tanah":13865,"Arak":13866,"Piatra":13867,"Åĳd":13868,"terswil":13869,"Eglinton":13870,"Klim":13871,"Rockville":13872,"Rockford":13873,"Tlaco":13874,"Unirea":13875,"Shek":13876,"Shem":13877,"Shepherd":13878,"Uspen":13879,"unceston":13880,"Itur":13881,"raten":13882,"ĠMadrid":13883,"Alac":13884,"Jincheng":13885,"Jinshan":13886,"Livez":13887,"ĠMex":13888,"ĠOrchard":13889,"Crook":13890,"Sorrento":13891,"Souq":13892,"Ġ12":13893,"Blackburn":13894,"DzÃ¼":13895,"MÃ©ziÃ¨res":13896,"Priest":13897,"Wangen":13898,"caster":13899,"ĠRomÃ¡n":13900,"nicÃŃ":13901,"ettai":13902,"Brookfield":13903,"Brookhaven":13904,"Doroban":13905,"ĠNeustadt":13906,"Aguada":13907,"Trois":13908,"Ãĸl":13909,"Argent":13910,"á»ĭnh":13911,"Bethany":13912,"Estancia":13913,"MÃ¼ll":13914,"ĠEnmed":13915,"ĠZapotitlÃ¡n":13916,"Upton":13917,"Veinte":13918,"ĠCoatlÃ¡n":13919,"onzalo":13920,"ĠPolesine":13921,"Courcelles":13922,"Falcon":13923,"Robled":13924,"Ocna":13925,"Timber":13926,"Germantown":13927,"PopeÅŁti":13928,"Stanford":13929,"BÄĥile":13930,"Gardner":13931,"Praia":13932,"Reme":13933,"Wesley":13934,"uleÅŁti":13935,"Claude":13936,"Munster":13937,"Ä°n":13938,"Tecol":13939,"monton":13940,"stringen":13941,"Boden":13942,"Leninskiy":13943,"MÄĥd":13944,"Qingyuan":13945,"Ãħs":13946,"ĠBrand":13947,"ĠBurgos":13948,"ĠCapulÃŃn":13949,"itlapilco":13950,"Pacific":13951,"estead":13952,"Pangkalan":13953,"Ronc":13954,"ĠBelbo":13955,"Forestville":13956,"Rossville":13957,"ĠPeters":13958,"Alcub":13959,"Nikola":13960,"Pelham":13961,"Piedmont":13962,"Rouge":13963,"Round":13964,"ĠBonfil":13965,"Zhongshan":13966,"Cottage":13967,"bÃ¼hl":13968,"iÅ¡t":13969,"iÅ¡ov":13970,"ĠBernard":13971,"Shuanghe":13972,"Shuanglong":13973,"Rance":13974,"Rantau":13975,"CheÅĤm":13976,"oyotepec":13977,"Monterey":13978,"Buchanan":13979,"Exeter":13980,"Fresn":13981,"ĠMolina":13982,"Apple":13983,"Appleton":13984,"Hinton":13985,"Yaroslav":13986,"langen":13987,"ĠCasas":13988,"ĠParis":13989,"Wellsville":13990,"á¹¯":13991,"aylovka":13992,"Labastide":13993,"Davyd":13994,"Feistritz":13995,"Hawai":13996,"Hawthorn":13997,"rÃŃcola":13998,"anesville":13999,"Ã³poulo":14000,"Schwab":14001,"anuova":14002,"ĠSegunda":14003,"Providence":14004,"Kazan":14005,"Lichten":14006,"Wenquan":14007,"ledge":14008,"Ã©kaha":14009,"Girard":14010,"Jiangkou":14011,"SÃ¢nm":14012,"Krym":14013,"Pokrovskoye":14014,"RÄģmnagar":14015,"ĠBoedo":14016,"ĠNovarese":14017,"Ä«mah":14018,"zewice":14019,"Browns":14020,"Bowling":14021,"Cogon":14022,"Warrenton":14023,"Ãľber":14024,"ĠBalka":14025,"ĠVeit":14026,"Civita":14027,"turno":14028,"Clarendon":14029,"Brant":14030,"Henry":14031,"Ludwig":14032,"Pampas":14033,"wego":14034,"CÄĥp":14035,"Hillside":14036,"BiaÅĤa":14037,"Paraje":14038,"falva":14039,"oubli":14040,"Ã©vez":14041,"ĠFuentes":14042,"Bellaire":14043,"Monticelli":14044,"DrÄĥgo":14045,"KÃ¼Ã§":14046,"KÃ¼snacht":14047,"Lieben":14048,"ĠTomÃ©":14049,"ÅĻÃŃÄįÃŃ":14050,"Hunter":14051,"Huntsville":14052,"Yelan":14053,"yevskiy":14054,"yevskaya":14055,"ĠBanÄ«":14056,"Charlton":14057,"StraÃŁ":14058,"Clarksville":14059,"ĠLeonards":14060,"Litchfield":14061,"Vesel":14062,"vÃ¡ros":14063,"Ã¹ng":14064,"ĠMelbourne":14065,"Smithville":14066,"Pouilly":14067,"iÈĻoara":14068,"ĠBoston":14069,"ĠIxta":14070,"á»Ļt":14071,"ÄĥrÄĥÅŁti":14072,"ÄĥrÄĥÈĻti":14073,"Boulogne":14074,"Lynn":14075,"rubia":14076,"rubio":14077,"Chaumont":14078,"ĠTraun":14079,"Broadview":14080,"Bright":14081,"Rokyt":14082,"Ripley":14083,"ĠPascual":14084,"aydah":14085,"ÄĥmÃ¢n":14086,"Osteria":14087,"ĠQuemada":14088,"ĠInnkreis":14089,"Huehuet":14090,"Äĥsti":14091,"Guayabal":14092,"aqov":14093,"ĠCroix":14094,"ĠPlanes":14095,"Chandler":14096,"ĠTsuen":14097,"ittelfeld":14098,"Aleksandrov":14099,"Ulaan":14100,"Zamora":14101,"ouyÃ©":14102,"ĠMesnil":14103,"ĠPiauÃŃ":14104,"tophe":14105,"Marshfield":14106,"quarie":14107,"Mexico":14108,"Abram":14109,"Debre":14110,"Ljub":14111,"Morningside":14112,"ilyurt":14113,"ĠIndustri":14114,"Carboneras":14115,"Verkhniye":14116,"Pervomayskiy":14117,"BjÃ¶r":14118,"Tipton":14119,"adzor":14120,"ĠHerradura":14121,"ÄĥÅŁeÅŁti":14122,"enschwil":14123,"Novopokrovka":14124,"ĠNewton":14125,"Atotonilco":14126,"MÄĥrgin":14127,"Riach":14128,"Sugar":14129,"Zakr":14130,"glise":14131,"ĠMedio":14132,"Christophe":14133,"ĠRichmond":14134,"ĠJalÃ³n":14135,"ĠValdavia":14136,"Åļwier":14137,"CÃ¡i":14138,"Mikhay":14139,"Mikhaylovka":14140,"CabezÃ³n":14141,"Benson":14142,"FÃ¼rsten":14143,"Kendall":14144,"Peyr":14145,"Scotts":14146,"Winston":14147,"Wickham":14148,"ĠErmita":14149,"ĠImper":14150,"ĠChimalpa":14151,"Burnham":14152,"YeÅŁil":14153,"Johnston":14154,"Wattle":14155,"vieja":14156,"anbulag":14157,"ĠBrenner":14158,"ĠRegis":14159,"quipulas":14160,"Thalwil":14161,"ckenridge":14162,"Crosby":14163,"Compton":14164,"enegro":14165,"rocÅĤaw":14166,"ĠSummit":14167,"ĠAugusta":14168,"ĠHanÃ©":14169,"ĠChicago":14170,"Carlton":14171,"áº¿n":14172,"ÅĽciel":14173,"Sosnovka":14174,"Versailles":14175,"amangalam":14176,"ĠCortÃ©s":14177,"ĠStazione":14178,"ĠMargarethen":14179,"Bistri":14180,"Hickory":14181,"Phoenix":14182,"ĠSayago":14183,"Addison":14184,"Baisha":14185,"Wilhelm":14186,"ĠTepetitlÃ¡n":14187,"AhuacatlÃ¡n":14188,"Hidden":14189,"Nassau":14190,"Scarborough":14191,"Wysoka":14192,"mÃ¤ki":14193,"adelphia":14194,"ĠHuertas":14195,"ĠFilip":14196,"ĠÃģlvarez":14197,"Jastrz":14198,"Zarechnyy":14199,"Zacualpan":14200,"gÄĥului":14201,"viertel":14202,"ĠMondovÃ¬":14203,"ĠMureÅŁ":14204,"ĠTronto":14205,"Shorewood":14206,"Stamford":14207,"ĠWilliam":14208,"Manhattan":14209,"Tamazula":14210,"Cienegu":14211,"Cypress":14212,"Dnip":14213,"JoaquÃŃn":14214,"Rolling":14215,"Worthington":14216,"ĠCandelaria":14217,"ĠPavÃ³n":14218,"Leisure":14219,"Barcelona":14220,"ĠSalvatore":14221,"ÃĩamlÄ±":14222,"ĠConcordia":14223,"Imperial":14224,"ĠOrdaz":14225,"DrÄĥgÄĥneÅŁti":14226,"Tweed":14227,"Wentworth":14228,"ĠMezquit":14229,"ĠParanÃ¡":14230,"ĠRouge":14231,"ĠGonÃ§":14232,"ĠGÃ¡llego":14233,"ĠLecce":14234,"stream":14235,"Thompson":14236,"Brewster":14237,"Gallegos":14238,"Bogorodskoye":14239,"Komsomol":14240,"Bucium":14241,"HajdÃº":14242,"Voskres":14243,"ĠNativitas":14244,"Hinojosa":14245,"OÄŁuz":14246,"Qaryat":14247,"Tracy":14248,"Ã¡llÃ¡s":14249,"ĠBÃ¢rgÄĥului":14250,"ĠGloria":14251,"Antipolo":14252,"Stirling":14253,"ĠEighty":14254,"MontrÃ©al":14255,"Salvatierra":14256,"Spanish":14257,"Woodbine":14258,"ĠMazowiecki":14259,"Hippolyte":14260,"ERES":14261,"historical":14262,"miklÃ³s":14263,"mÃ¡rton":14264,"ĠCounty":14265,"ĠSÃ¡zavou":14266,"ĠTagliamento":14267,"ĠTajuÃ±a":14268,"ĠJimÃ©nez":14269,"Shrewsbury":14270,"ukÅ«mat":14271,"ĠChianti":14272,"Cartagena":14273,"ĠAlcÃ¡ntara":14274,"Torricella":14275,"Ãģyios":14276,"ĠReadaptaciÃ³n":14277,"Rutherford":14278,"KilÃ³metro":14279,"ĠEnmedio":14280,"ERESO":14281,"Aar":14282,"Ail":14283,"Ate":14284,"Ace":14285,"Aiz":14286,"Aten":14287,"Aga":14288,"Arac":14289,"Ahl":14290,"Bik":14291,"BÄ«":14292,"Biz":14293,"Bone":14294,"Bena":14295,"Boro":14296,"Bof":14297,"BÃ©n":14298,"Bila":14299,"Boug":14300,"Bomb":14301,"Banda":14302,"Betz":14303,"Bhar":14304,"Bondo":14305,"BÃ¢l":14306,"BÄģg":14307,"Cid":14308,"Cem":14309,"Cana":14310,"Coh":14311,"Clan":14312,"Cella":14313,"Cans":14314,"Cinc":14315,"CÃł":14316,"CÃ´":14317,"Criv":14318,"Crop":14319,"CÄĥt":14320,"Cáº§u":14321,"Cwm":14322,"Cáº©":14323,"Dm":14324,"Dv":14325,"Dit":14326,"Dand":14327,"DÃŃ":14328,"Dus":14329,"DÄĥ":14330,"Ders":14331,"Dend":14332,"Dey":14333,"Dord":14334,"Dass":14335,"Dern":14336,"Dala":14337,"Dond":14338,"Dind":14339,"DrÃ©":14340,"DÅĤ":14341,"Diano":14342,"Dist":14343,"Doll":14344,"Dank":14345,"Dole":14346,"Doma":14347,"Dih":14348,"Dzi":14349,"DÃ¢r":14350,"Dvor":14351,"DÃ¢mb":14352,"Eu":14353,"Eur":14354,"Eto":14355,"Eti":14356,"Ene":14357,"Eyn":14358,"Eix":14359,"Even":14360,"Eym":14361,"FB":14362,"Fas":14363,"Fak":14364,"Fai":14365,"Fale":14366,"Fark":14367,"Fey":14368,"Faj":14369,"Fuch":14370,"Fels":14371,"FlÃ©":14372,"Flav":14373,"Falls":14374,"Frontera":14375,"Gig":14376,"Gid":14377,"Gue":14378,"Gli":14379,"Gern":14380,"Geni":14381,"Gland":14382,"Gno":14383,"Gola":14384,"Gari":14385,"Gart":14386,"Gies":14387,"Gomb":14388,"Gann":14389,"Garl":14390,"Gales":14391,"Gatt":14392,"GÃ©r":14393,"GÃ¼r":14394,"Gbal":14395,"Gallo":14396,"GÃ³ra":14397,"Gantang":14398,"His":14399,"HÄģ":14400,"Hoc":14401,"Hond":14402,"Hly":14403,"Hess":14404,"Hany":14405,"Homb":14406,"Hole":14407,"HÄĥl":14408,"Hasan":14409,"Haine":14410,"HÃ¸r":14411,"Horgen":14412,"HÃ²a":14413,"Hubb":14414,"Ila":14415,"Ipp":14416,"Ibi":14417,"Iowa":14418,"Ibarra":14419,"Jers":14420,"Juc":14421,"Jord":14422,"Jup":14423,"Juch":14424,"Jank":14425,"JÄģm":14426,"Javier":14427,"Jssel":14428,"Kig":14429,"Kers":14430,"Kiy":14431,"Kny":14432,"Kins":14433,"Kany":14434,"Kys":14435,"Kitt":14436,"Komb":14437,"Kumb":14438,"Kuh":14439,"KÃ½":14440,"KÃ¼r":14441,"Kati":14442,"Koren":14443,"KÃ¤r":14444,"Klad":14445,"Krop":14446,"Kenne":14447,"KÄģnd":14448,"Lara":14449,"Laro":14450,"Lash":14451,"Lund":14452,"Lerr":14453,"Lion":14454,"Lane":14455,"LiÃ©":14456,"Lann":14457,"Leno":14458,"Ligny":14459,"Leland":14460,"Lunc":14461,"Lunga":14462,"LÃ¨ze":14463,"Mj":14464,"Mk":14465,"Mr":14466,"Ms":14467,"Mv":14468,"MÃ¡":14469,"Ment":14470,"Mub":14471,"Mord":14472,"MÃ¢":14473,"Mens":14474,"MÅ«":14475,"Maya":14476,"Mena":14477,"Mign":14478,"Muy":14479,"Mick":14480,"Miri":14481,"Miel":14482,"Mure":14483,"MÄģl":14484,"MÃ©r":14485,"MÃ¢r":14486,"Meth":14487,"Makh":14488,"Mango":14489,"Manga":14490,"Maha":14491,"MÃ¶l":14492,"Mills":14493,"Mamm":14494,"MÃ©nÃ©":14495,"MÃ¢nd":14496,"Má»¹":14497,"Nj":14498,"Ns":14499,"Nid":14500,"Nio":14501,"NÄĥ":14502,"NÃ¼":14503,"Nach":14504,"Nuc":14505,"NÃ¤":14506,"NÃº":14507,"Naro":14508,"Nien":14509,"Niang":14510,"Nick":14511,"Nanc":14512,"Nagar":14513,"Nyang":14514,"Norfolk":14515,"Oh":14516,"Ouan":14517,"Ons":14518,"Oua":14519,"Ocu":14520,"Oder":14521,"Odon":14522,"Ouss":14523,"Oriz":14524,"Ovoo":14525,"Oakhurst":14526,"Oregon":14527,"Pong":14528,"Pent":14529,"Pamb":14530,"Piz":14531,"Pei":14532,"Pep":14533,"Paro":14534,"PÅĤ":14535,"Pari":14536,"Pani":14537,"Puer":14538,"Parr":14539,"Piss":14540,"Pess":14541,"Pila":14542,"PÄģr":14543,"Pelle":14544,"Pank":14545,"Pomb":14546,"Patt":14547,"PÃ½":14548,"Preg":14549,"Piana":14550,"PÃ¶l":14551,"Passo":14552,"Penz":14553,"Prog":14554,"Progres":14555,"Pisc":14556,"Ponder":14557,"Qo":14558,"Qala":14559,"Quel":14560,"Reng":14561,"Rach":14562,"Rass":14563,"Rek":14564,"RÅ«":14565,"Rant":14566,"Rez":14567,"Rosa":14568,"Roug":14569,"Rye":14570,"Ruf":14571,"Roma":14572,"Ranc":14573,"Reth":14574,"Rieux":14575,"RÄĥc":14576,"RÃ¢m":14577,"Rinconada":14578,"Sde":14579,"Sri":14580,"Sti":14581,"Ska":14582,"SÄ«":14583,"Siz":14584,"Soch":14585,"Serm":14586,"Sita":14587,"Sign":14588,"Sve":14589,"Siss":14590,"Sess":14591,"Siri":14592,"Sinc":14593,"Sorg":14594,"SiÃ©":14595,"Scal":14596,"SÄģm":14597,"SÃ¶r":14598,"Slu":14599,"Saba":14600,"SÄĥc":14601,"SÄ«dÄ«":14602,"TÄģ":14603,"Tio":14604,"Tell":14605,"TÄĥ":14606,"TÃ¼":14607,"Tach":14608,"Tass":14609,"Talm":14610,"Tari":14611,"Tart":14612,"Tien":14613,"Tita":14614,"Tuy":14615,"TÃ©n":14616,"Tura":14617,"Toll":14618,"Turt":14619,"Toli":14620,"TÄģl":14621,"TÃ´":14622,"Takh":14623,"Treg":14624,"Tomas":14625,"Two":14626,"Tagu":14627,"Tats":14628,"Taver":14629,"Tacu":14630,"Towns":14631,"TÅĻeb":14632,"Ux":14633,"Uet":14634,"Uba":14635,"Uda":14636,"Uly":14637,"Upp":14638,"Umar":14639,"Vay":14640,"VÄĥ":14641,"Vot":14642,"Vard":14643,"Vli":14644,"Vip":14645,"Vib":14646,"Vala":14647,"VÅ¡":14648,"Viri":14649,"Vies":14650,"Voul":14651,"Vide":14652,"Vlas":14653,"Vigo":14654,"Wou":14655,"Wac":14656,"Wir":14657,"Wid":14658,"Wach":14659,"Wien":14660,"Werr":14661,"Wiet":14662,"Wann":14663,"Wawa":14664,"WÄħ":14665,"WÃ¶l":14666,"Welles":14667,"Wepp":14668,"Xic":14669,"Xix":14670,"Xoco":14671,"Yos":14672,"Yol":14673,"Yad":14674,"Yac":14675,"Yec":14676,"Yamp":14677,"Yark":14678,"Yek":14679,"Yuk":14680,"Yant":14681,"Yeb":14682,"Yep":14683,"Yao":14684,"Yonne":14685,"Yancheng":14686,"Yeghe":14687,"Yarmouth":14688,"Zon":14689,"Zas":14690,"Zit":14691,"Zach":14692,"Zuc":14693,"Ziz":14694,"Zona":14695,"Zoll":14696,"ZÃ©rÃ©":14697,"Zeytin":14698,"ail":14699,"aÄŁ":14700,"bh":14701,"bill":14702,"bÃ¶":14703,"billa":14704,"best":14705,"bich":14706,"bier":14707,"buk":14708,"buz":14709,"boh":14710,"biel":14711,"bide":14712,"bling":14713,"buen":14714,"blÃ©":14715,"baba":14716,"bÃ¼r":14717,"bbi":14718,"batu":14719,"cac":14720,"colo":14721,"cari":14722,"cart":14723,"cele":14724,"coli":14725,"ciago":14726,"catlÃ¡n":14727,"cayo":14728,"cÄĥneÅŁti":14729,"cÃ¼k":14730,"dom":14731,"die":14732,"down":14733,"dasht":14734,"eka":14735,"east":14736,"fs":14737,"fig":14738,"fir":14739,"fak":14740,"fell":14741,"ferr":14742,"fish":14743,"fenbach":14744,"gs":14745,"gay":14746,"gab":14747,"goy":14748,"gast":14749,"gara":14750,"gung":14751,"gda":14752,"garo":14753,"gani":14754,"gata":14755,"giri":14756,"gendorf":14757,"glia":14758,"gÃ¶l":14759,"gowo":14760,"gorod":14761,"gazi":14762,"hia":14763,"hri":14764,"het":14765,"him":14766,"hÃ³":14767,"hot":14768,"hÄ«":14769,"hala":14770,"hari":14771,"hiri":14772,"hler":14773,"hÄģt":14774,"ione":14775,"iolo":14776,"iona":14777,"jes":14778,"jam":14779,"jec":14780,"jna":14781,"jica":14782,"jera":14783,"japa":14784,"jovice":14785,"jandro":14786,"kang":14787,"kÃ³":14788,"kab":14789,"kell":14790,"kens":14791,"kila":14792,"kÃ¶l":14793,"kylÃ¤":14794,"lers":14795,"lens":14796,"lui":14797,"lope":14798,"mÄģ":14799,"mag":14800,"mod":14801,"meni":14802,"mala":14803,"mant":14804,"maj":14805,"moz":14806,"miel":14807,"mons":14808,"marn":14809,"machi":14810,"mersheim":14811,"nton":14812,"nag":14813,"nong":14814,"nÃ³w":14815,"nja":14816,"nova":14817,"nÅ«r":14818,"nodoro":14819,"niewo":14820,"oeiro":14821,"pia":14822,"pul":14823,"pok":14824,"peng":14825,"puz":14826,"pala":14827,"pper":14828,"piÃ©":14829,"pillas":14830,"pampa":14831,"pÄģra":14832,"pazarÄ±":14833,"qal":14834,"qay":14835,"qÄ«n":14836,"rt":14837,"rara":14838,"rale":14839,"rent":14840,"rza":14841,"rine":14842,"ringen":14843,"rÄģn":14844,"rona":14845,"ruy":14846,"rÃł":14847,"rush":14848,"rumb":14849,"rise":14850,"rÃ³s":14851,"reros":14852,"ringham":14853,"rÃ¼ck":14854,"sat":14855,"sall":14856,"singen":14857,"swood":14858,"sari":14859,"spr":14860,"sbury":14861,"swell":14862,"sjÃ¶":14863,"til":14864,"tÃ³w":14865,"tura":14866,"tendorf":14867,"tÃºn":14868,"uu":14869,"uas":14870,"uti":14871,"uge":14872,"uÃ±":14873,"ubach":14874,"uera":14875,"uova":14876,"uapa":14877,"uway":14878,"uÃ±o":14879,"vay":14880,"voy":14881,"vei":14882,"vola":14883,"vario":14884,"villy":14885,"vecchio":14886,"wr":14887,"wit":14888,"wing":14889,"wak":14890,"wind":14891,"wali":14892,"werd":14893,"wisch":14894,"wÃ¶rth":14895,"xa":14896,"xte":14897,"yer":14898,"yal":14899,"yac":14900,"yue":14901,"yno":14902,"yurt":14903,"yakh":14904,"yÅĦ":14905,"yalla":14906,"yÃªn":14907,"yotl":14908,"zk":14909,"zv":14910,"zim":14911,"zap":14912,"zara":14913,"zna":14914,"zola":14915,"zago":14916,"zenbach":14917,"ÄĨ":14918,"Äı":14919,"Ìĩ":14920,"Ñĥ":14921,"Ġ&":14922,"Ġul":14923,"Ġcon":14924,"ĠÅģ":14925,"Ġvor":14926,"Ġcel":14927,"ĠÅ»":14928,"ĠÈĺ":14929,"Ġunter":14930,"ģn":14931,"anal":14932,"anac":14933,"anville":14934,"anhe":14935,"anera":14936,"anpur":14937,"anivka":14938,"anÃ§a":14939,"arb":14940,"aring":14941,"arec":14942,"arez":14943,"arica":14944,"arten":14945,"arÃ³w":14946,"arito":14947,"arama":14948,"argarh":14949,"erel":14950,"erka":14951,"erey":14952,"erlo":14953,"erskiy":14954,"erve":14955,"erbo":14956,"erfeld":14957,"erolles":14958,"erheide":14959,"inÃ©":14960,"inio":14961,"inne":14962,"ints":14963,"inja":14964,"enic":14965,"enio":14966,"enville":14967,"enec":14968,"enik":14969,"ents":14970,"enich":14971,"enivka":14972,"enskaya":14973,"enÃ§o":14974,"onÃ©":14975,"onara":14976,"once":14977,"oncillo":14978,"alim":14979,"alÃŃ":14980,"aloc":14981,"alva":14982,"aleda":14983,"alunga":14984,"orb":14985,"orla":14986,"orra":14987,"orino":14988,"orna":14989,"oreni":14990,"orien":14991,"orivka":14992,"orosso":14993,"elg":14994,"elou":14995,"elang":14996,"elÃ¢ndia":14997,"ilon":14998,"ilis":14999,"ilai":15000,"ilua":15001,"aston":15002,"aski":15003,"ashevo":15004,"eser":15005,"esio":15006,"esda":15007,"esdorf":15008,"esita":15009,"chon":15010,"chov":15011,"chie":15012,"chberg":15013,"chheim":15014,"cheri":15015,"chnoye":15016,"chwitz":15017,"uron":15018,"urou":15019,"urne":15020,"urey":15021,"urovo":15022,"amont":15023,"amÃ³n":15024,"amina":15025,"amatsu":15026,"deburg":15027,"dejo":15028,"deira":15029,"laj":15030,"laz":15031,"lada":15032,"lapa":15033,"layan":15034,"lef":15035,"leg":15036,"leh":15037,"lej":15038,"levo":15039,"letown":15040,"atos":15041,"atun":15042,"atau":15043,"atÃ³n":15044,"atli":15045,"atuan":15046,"atica":15047,"atore":15048,"atown":15049,"atsi":15050,"Sans":15051,"Santer":15052,"Sanjiang":15053,"osco":15054,"osano":15055,"osovo":15056,"osÅĤaw":15057,"oszcz":15058,"oui":15059,"ouar":15060,"ouer":15061,"ouen":15062,"oule":15063,"ouma":15064,"ouze":15065,"ouillet":15066,"olen":15067,"olos":15068,"olim":15069,"olop":15070,"olÅ£":15071,"isz":15072,"isville":15073,"island":15074,"isario":15075,"taÅŁ":15076,"tagi":15077,"ĠCel":15078,"ĠCov":15079,"ĠCir":15080,"ĠCong":15081,"ĠCano":15082,"ĠCard":15083,"ĠCeb":15084,"ĠCien":15085,"ĠCelle":15086,"ĠCedro":15087,"ĠCali":15088,"ĠCliff":15089,"ĠCinco":15090,"ĠCaterina":15091,"adin":15092,"aden":15093,"adle":15094,"adana":15095,"adores":15096,"aduey":15097,"adavia":15098,"itat":15099,"itic":15100,"itro":15101,"itio":15102,"itama":15103,"itÃł":15104,"itinga":15105,"itlalpan":15106,"rets":15107,"reja":15108,"reuil":15109,"ovik":15110,"ovana":15111,"ovaya":15112,"ovlje":15113,"ovgrad":15114,"oviÄĩi":15115,"ingin":15116,"ingal":15117,"inges":15118,"ingrad":15119,"iah":15120,"iak":15121,"iaco":15122,"iapo":15123,"rae":15124,"raq":15125,"raje":15126,"raben":15127,"ĠMc":15128,"ĠMi":15129,"ĠMom":15130,"ĠMau":15131,"ĠMul":15132,"ĠMend":15133,"ĠMula":15134,"ĠMath":15135,"ĠMiss":15136,"ĠMess":15137,"ĠMella":15138,"ĠMiel":15139,"ĠMango":15140,"ĠMack":15141,"ĠMota":15142,"ĠMÃ³nica":15143,"ĠMÃ¼rz":15144,"tet":15145,"tead":15146,"teira":15147,"teaga":15148,"icon":15149,"icano":15150,"icara":15151,"icello":15152,"icella":15153,"icchio":15154,"ĠPou":15155,"ĠPast":15156,"ĠPall":15157,"ĠPek":15158,"ĠPint":15159,"ĠPico":15160,"ĠPost":15161,"ĠPanc":15162,"ĠPuj":15163,"ĠPros":15164,"ĠPorte":15165,"ĠPinos":15166,"ĠPesc":15167,"ĠPavese":15168,"angas":15169,"ayang":15170,"ayne":15171,"unj":15172,"unia":15173,"unna":15174,"undorf":15175,"roÃŁ":15176,"Äģsi":15177,"Äģvar":15178,"Äģrak":15179,"Ã¡huac":15180,"ĠSy":15181,"ĠSag":15182,"ĠSot":15183,"ĠSuc":15184,"ĠShu":15185,"ĠSpa":15186,"ĠSasso":15187,"ĠSlov":15188,"ĠSonn":15189,"ĠShui":15190,"ĠSesia":15191,"ĠSutton":15192,"rix":15193,"rien":15194,"riet":15195,"riÃ³n":15196,"riÃł":15197,"etan":15198,"etal":15199,"etch":15200,"etere":15201,"Lax":15202,"Lach":15203,"Laun":15204,"Lagar":15205,"Lapin":15206,"Lazar":15207,"ĠBl":15208,"ĠBes":15209,"ĠBir":15210,"ĠBus":15211,"ĠBara":15212,"ĠBass":15213,"ĠBug":15214,"ĠBari":15215,"ĠBerr":15216,"ĠBella":15217,"ĠBust":15218,"ĠBush":15219,"ĠBris":15220,"ĠBuey":15221,"ĠBrava":15222,"ĠBaja":15223,"ĠBarros":15224,"ĠBáº£":15225,"igar":15226,"iganj":15227,"igao":15228,"igbeu":15229,"igueira":15230,"tonda":15231,"agr":15232,"agas":15233,"agay":15234,"agni":15235,"aggi":15236,"aggio":15237,"agram":15238,"omy":15239,"omen":15240,"omano":15241,"omey":15242,"omonte":15243,"omatlÃ¡n":15244,"illard":15245,"illera":15246,"illero":15247,"illington":15248,"illya":15249,"illert":15250,"illoux":15251,"illermo":15252,"imat":15253,"imit":15254,"imÃ¡n":15255,"imore":15256,"imbo":15257,"imilco":15258,"Chy":15259,"Chon":15260,"Chay":15261,"Chig":15262,"Chah":15263,"Chop":15264,"Chey":15265,"Chass":15266,"Chuk":15267,"Chart":15268,"Chico":15269,"Chiri":15270,"ChÃª":15271,"Choi":15272,"auc":15273,"aug":15274,"aum":15275,"auville":15276,"audi":15277,"ĠAto":15278,"ĠAce":15279,"ĠAire":15280,"ĠAtla":15281,"Ã³a":15282,"Ã³g":15283,"Ã³st":15284,"Ã³var":15285,"aces":15286,"acam":15287,"acra":15288,"acÄĥ":15289,"accia":15290,"Ġdin":15291,"Ġdello":15292,"tois":15293,"toya":15294,"toky":15295,"abis":15296,"abÃ³n":15297,"abuan":15298,"abito":15299,"iram":15300,"irana":15301,"irli":15302,"iranga":15303,"andÃ©":15304,"ÃŃd":15305,"ÃŃl":15306,"ÃŃtsa":15307,"edy":15308,"edal":15309,"edas":15310,"edom":15311,"edge":15312,"edÃ¨s":15313,"thÃ©":15314,"thaca":15315,"thofen":15316,"throp":15317,"thouse":15318,"aky":15319,"akot":15320,"skill":15321,"skem":15322,"ains":15323,"ĠTi":15324,"ĠTu":15325,"ĠTar":15326,"ĠTos":15327,"ĠTou":15328,"ĠTay":15329,"ĠTun":15330,"ĠTap":15331,"ĠTong":15332,"ĠTum":15333,"ĠTaw":15334,"ĠThu":15335,"ĠTha":15336,"ĠTrÃ©":15337,"ĠThan":15338,"ĠTula":15339,"ĠTuy":15340,"odon":15341,"odos":15342,"odia":15343,"ĠHal":15344,"ĠHed":15345,"ĠHai":15346,"ĠHaw":15347,"ĠHagen":15348,"ĠHá»ĵ":15349,"ĠHernÃ¡ndez":15350,"ĠHouyÃ©":15351,"ĠRon":15352,"ĠRus":15353,"ĠRav":15354,"ĠRai":15355,"ĠRight":15356,"Alz":15357,"Alun":15358,"Allan":15359,"Albor":15360,"Allende":15361,"uld":15362,"ulpa":15363,"ĠGau":15364,"ĠGord":15365,"ĠGrim":15366,"ĠGoi":15367,"ahin":15368,"ahon":15369,"ahia":15370,"ahama":15371,"ĠVo":15372,"ĠVr":15373,"ĠVin":15374,"ĠVil":15375,"ĠVig":15376,"ĠViv":15377,"ĠValm":15378,"ĠVaras":15379,"idul":15380,"idoro":15381,"idona":15382,"ieck":15383,"iegos":15384,"ongj":15385,"avon":15386,"avas":15387,"avac":15388,"avita":15389,"avichy":15390,"tipan":15391,"neb":15392,"nev":15393,"new":15394,"neus":15395,"neÈĻti":15396,"coiu":15397,"anoy":15398,"kao":15399,"bers":15400,"bergo":15401,"ueca":15402,"ueve":15403,"umet":15404,"umbur":15405,"ĠLan":15406,"ĠLad":15407,"ĠLun":15408,"ĠLet":15409,"ĠLem":15410,"ĠLey":15411,"ĠLine":15412,"ĠLoz":15413,"ĠLock":15414,"ĠLiri":15415,"ĠLee":15416,"ĠLinh":15417,"ĠLuka":15418,"ĠLÃ¢m":15419,"ĠLhota":15420,"Elb":15421,"Elster":15422,"hea":15423,"hee":15424,"hey":15425,"heir":15426,"ellos":15427,"ellano":15428,"Äĥce":15429,"otang":15430,"otÃŃ":15431,"otti":15432,"otino":15433,"otts":15434,"otera":15435,"otnica":15436,"otitÃ¡n":15437,"otenango":15438,"tere":15439,"tery":15440,"terton":15441,"terbach":15442,"ĠJan":15443,"ĠJum":15444,"ĠJust":15445,"ĠJunta":15446,"ĠJusto":15447,"ĠJizer":15448,"ecera":15449,"emar":15450,"emans":15451,"Marz":15452,"Marta":15453,"Marac":15454,"Marip":15455,"Marche":15456,"Marston":15457,"ĠNob":15458,"ĠNep":15459,"ĠNied":15460,"ĠNagar":15461,"ĠNÄģÅŁ":15462,"ĠNisou":15463,"owra":15464,"owai":15465,"okan":15466,"oker":15467,"okum":15468,"okout":15469,"okoi":15470,"ĠFÃ©":15471,"ĠFul":15472,"ĠFranca":15473,"ĠFermo":15474,"ÅŁr":15475,"ersen":15476,"ersel":15477,"ersfeld":15478,"erstetten":15479,"ogh":15480,"ogong":15481,"ogee":15482,"ogarh":15483,"ikk":15484,"ikam":15485,"Ã¶he":15486,"Ã¶tt":15487,"Ã¼ng":15488,"Ã¼tten":15489,"Ã¼tte":15490,"onts":15491,"shal":15492,"shat":15493,"shun":15494,"shoy":15495,"shaw":15496,"shaf":15497,"shchina":15498,"enger":15499,"engah":15500,"engstringen":15501,"ocan":15502,"obas":15503,"obes":15504,"obia":15505,"obamba":15506,"Shab":15507,"Shed":15508,"Shiv":15509,"Short":15510,"Sheldon":15511,"azÃº":15512,"azapa":15513,"ally":15514,"allur":15515,"allÅ«r":15516,"ĠDan":15517,"ĠDin":15518,"egi":15519,"egon":15520,"egre":15521,"egui":15522,"egua":15523,"stÃŃ":15524,"statt":15525,"strana":15526,"Ark":15527,"Aral":15528,"Arco":15529,"ArÄ±":15530,"Arroy":15531,"ampi":15532,"ampang":15533,"inola":15534,"Ä«na":15535,"Ä«jÄģn":15536,"Ã³ni":15537,"Ã³nas":15538,"ardon":15539,"ardia":15540,"ardiel":15541,"quay":15542,"quara":15543,"quier":15544,"querÃ³n":15545,"estan":15546,"estin":15547,"esten":15548,"esting":15549,"Anch":15550,"Anac":15551,"Anda":15552,"anaju":15553,"eval":15554,"eves":15555,"evci":15556,"opf":15557,"opil":15558,"opoli":15559,"ĠMarg":15560,"ĠMarzo":15561,"ĠMarsi":15562,"ĠMarques":15563,"ĠMarcel":15564,"ĠMargherita":15565,"ĠMarquÃ©s":15566,"lian":15567,"liang":15568,"alejos":15569,"geest":15570,"entis":15571,"entidueÃ±a":15572,"ucio":15573,"endel":15574,"endrecht":15575,"inaw":15576,"ĠKon":15577,"ĠKÃ¶":15578,"ĠKut":15579,"ĠKry":15580,"ĠKÅĤ":15581,"ĠKÅį":15582,"ĠKlang":15583,"ĠKhao":15584,"ĠKiat":15585,"ĠKidul":15586,"Stand":15587,"StÄĥ":15588,"Stella":15589,"Strad":15590,"Stutt":15591,"Stuart":15592,"arki":15593,"guo":15594,"zhany":15595,"zhanka":15596,"eye":15597,"eyer":15598,"ubon":15599,"ubay":15600,"ubey":15601,"Neul":15602,"Neco":15603,"Neut":15604,"NeochÃ³ri":15605,"uten":15606,"utter":15607,"utlu":15608,"eken":15609,"ĠEra":15610,"ĠEng":15611,"ĠEdu":15612,"ĠEufemia":15613,"ipac":15614,"surg":15615,"ĠIng":15616,"ĠIbor":15617,"ĠIgles":15618,"iyo":15619,"iysk":15620,"iyÅ«r":15621,"Ã¨le":15622,"Ã¨ge":15623,"Ã¨ves":15624,"Leim":15625,"Leesburg":15626,"awat":15627,"Ã¢y":15628,"caia":15629,"cajo":15630,"cita":15631,"ugas":15632,"uges":15633,"ugat":15634,"ughe":15635,"oure":15636,"oural":15637,"ourala":15638,"upang":15639,"upleu":15640,"ibi":15641,"ibah":15642,"ibli":15643,"ibago":15644,"ibouo":15645,"ĠOg":15646,"ĠOriz":15647,"ĠOteros":15648,"ensberg":15649,"ensleben":15650,"ukou":15651,"uket":15652,"goa":15653,"gota":15654,"Monk":15655,"Monreal":15656,"ĠCher":15657,"ĠChum":15658,"ĠChica":15659,"ĠChiesa":15660,"ianos":15661,"ianka":15662,"Barm":15663,"Bars":15664,"Barac":15665,"Barranca":15666,"Barrington":15667,"Ä±nd":15668,"Ä±lÄ±":15669,"nyi":15670,"Å«Åį":15671,"ĠWar":15672,"ĠWis":15673,"ĠWong":15674,"ĠWell":15675,"ĠWorth":15676,"ĠWalk":15677,"ĠWhit":15678,"ĠWarren":15679,"Guer":15680,"Guas":15681,"Guap":15682,"Guess":15683,"Guild":15684,"Guijo":15685,"inea":15686,"inez":15687,"Carre":15688,"Carab":15689,"Carav":15690,"Carson":15691,"Carmo":15692,"Carleton":15693,"Carrizal":15694,"Brind":15695,"Brze":15696,"Broughton":15697,"daia":15698,"hude":15699,"huala":15700,"hualtepec":15701,"alajara":15702,"antic":15703,"antÃ¡n":15704,"ezze":15705,"ndi":15706,"Colchester":15707,"Colorado":15708,"Colombe":15709,"ĠLac":15710,"ffÃ©":15711,"ohr":15712,"ÈĻului":15713,"ÈĻtea":15714,"nien":15715,"nial":15716,"niÃ³w":15717,"niÃ¨re":15718,"ryan":15719,"ryany":15720,"izd":15721,"izy":15722,"izra":15723,"izonte":15724,"izavet":15725,"ajar":15726,"ajay":15727,"ajiang":15728,"ozor":15729,"ozas":15730,"ornoye":15731,"Thy":15732,"Thum":15733,"Thann":15734,"ThÃ©r":15735,"fiel":15736,"tene":15737,"eby":15738,"eben":15739,"Villac":15740,"noe":15741,"uelle":15742,"lohe":15743,"loff":15744,"Schil":15745,"Schell":15746,"Schwan":15747,"Schwer":15748,"Quit":15749,"Quero":15750,"Quiri":15751,"Quinto":15752,"Quáº£ng":15753,"leston":15754,"lestown":15755,"Ã¤ck":15756,"Ã¤ki":15757,"Amar":15758,"Amal":15759,"Ames":15760,"Amur":15761,"Ambar":15762,"sse":15763,"ssi":15764,"sser":15765,"hail":15766,"haur":15767,"haun":15768,"lanta":15769,"olah":15770,"olato":15771,"Villard":15772,"Villarr":15773,"Villares":15774,"Villase":15775,"Villaman":15776,"ynia":15777,"ynove":15778,"GrÃ¼":15779,"oches":15780,"ochtitlÃ¡n":15781,"ĠAlc":15782,"ĠAlgar":15783,"ĠAlcor":15784,"ĠAlberto":15785,"Montl":15786,"Montfort":15787,"Montesc":15788,
[...]
