{"<eos>":0,"<s>":1,"<pad>":2,"</s>":3,"<unk>":4,"<mask>":5,"!":6,"\"":7,"#":8,"$":9,"%":10,"&":11,"'":12,"(":13,")":14,"*":15,"+":16,",":17,"-":18,".":19,"/":20,"0":21,"1":22,"2":23,"3":24,"4":25,"5":26,"6":27,"7":28,"8":29,"9":30,":":31,";":32,"<":33,"=":34,">":35,"?":36,"@":37,"A":38,"B":39,"C":40,"D":41,"E":42,"F":43,"G":44,"H":45,"I":46,"J":47,"K":48,"L":49,"M":50,"N":51,"O":52,"P":53,"Q":54,"R":55,"S":56,"T":57,"U":58,"V":59,"W":60,"X":61,"Y":62,"Z":63,"[":64,"\\":65,"]":66,"^":67,"_":68,"`":69,"a":70,"b":71,"c":72,"d":73,"e":74,"f":75,"g":76,"h":77,"i":78,"j":79,"k":80,"l":81,"m":82,"n":83,"o":84,"p":85,"q":86,"r":87,"s":88,"t":89,"u":90,"v":91,"w":92,"x":93,"y":94,"z":95,"{":96,"|":97,"}":98,"~":99,"¡":100,"¢":101,"£":102,"¤":103,"¥":104,"¦":105,"§":106,"¨":107,"©":108,"ª":109,"«":110,"¬":111,"®":112,"¯":113,"°":114,"±":115,"²":116,"³":117,"´":118,"µ":119,"¶":120,"·":121,"¸":122,"¹":123,"º":124,"»":125,"¼":126,"½":127,"¾":128,"¿":129,"À":130,"Á":131,"Â":132,"Ã":133,"Ä":134,"Å":135,"Æ":136,"Ç":137,"È":138,"É":139,"Ê":140,"Ë":141,"Ì":142,"Í":143,"Î":144,"Ï":145,"Ð":146,"Ñ":147,"Ò":148,"Ó":149,"Ô":150,"Õ":151,"Ö":152,"×":153,"Ø":154,"Ù":155,"Ú":156,"Û":157,"Ü":158,"Ý":159,"Þ":160,"ß":161,"à":162,"á":163,"â":164,"ã":165,"ä":166,"å":167,"æ":168,"ç":169,"è":170,"é":171,"ê":172,"ë":173,"ì":174,"í":175,"î":176,"ï":177,"ð":178,"ñ":179,"ò":180,"ó":181,"ô":182,"õ":183,"ö":184,"÷":185,"ø":186,"ù":187,"ú":188,"û":189,"ü":190,"ý":191,"þ":192,"ÿ":193,"Ā":194,"ā":195,"Ă":196,"ă":197,"Ą":198,"ą":199,"Ć":200,"ć":201,"Ĉ":202,"ĉ":203,"Ċ":204,"ċ":205,"Č":206,"č":207,"Ď":208,"ď":209,"Đ":210,"đ":211,"Ē":212,"ē":213,"Ĕ":214,"ĕ":215,"Ė":216,"ė":217,"Ę":218,"ę":219,"Ě":220,"ě":221,"Ĝ":222,"ĝ":223,"Ğ":224,"ğ":225,"Ġ":226,"ġ":227,"Ģ":228,"ģ":229,"Ĥ":230,"ĥ":231,"Ħ":232,"ħ":233,"Ĩ":234,"ĩ":235,"Ī":236,"ī":237,"Ĭ":238,"ĭ":239,"Į":240,"į":241,"İ":242,"ı":243,"Ĳ":244,"ĳ":245,"Ĵ":246,"ĵ":247,"Ķ":248,"ķ":249,"ĸ":250,"Ĺ":251,"ĺ":252,"Ļ":253,"ļ":254,"Ľ":255,"ľ":256,"Ŀ":257,"ŀ":258,"Ł":259,"ł":260,"Ń":261,"os":262,"eos":263,"an":264,"ar":265,"er":266,"in":267,"en":268,"on":269,"al":270,"or":271,"el":272,"il":273,"as":274,"es":275,"ch":276,"ur":277,"am":278,"de":279,"la":280,"le":281,"at":282,"San":283,"ou":284,"ol":285,"Ã©":286,"is":287,"ta":288,"ĠC":289,"ad":290,"it":291,"re":292,"ov":293,"ing":294,"Ġde":295,"ia":296,"ra":297,"ĠM":298,"te":299,"ic":300,"ĠP":301,"ang":302,"ay":303,"un":304,"ro":305,"Äģ":306,"Ã¡":307,"ĠS":308,"ri":309,"et":310,"La":311,"ĠB":312,"ig":313,"ton":314,"ag":315,"om":316,"ill":317,"im":318,"Ch":319,"au":320,"ĠA":321,"Ã³":322,"ac":323,"Ġd":324,"to":325,"ab":326,"ir":327,"and":328,"ÃŃ":329,"ed":330,"th":331,"ak":332,"sk":333,"ain":334,"ĠT":335,"od":336,"ĠH":337,"ĠR":338,"Al":339,"ap":340,"ul":341,"ĠG":342,"ah":343,"ĠV":344,"id":345,"us":346,"io":347,"ie":348,"ille":349,"ong":350,"av":351,"ti":352,"ne":353,"co":354,"ba":355,"ano":356,"ka":357,"ber":358,"ue":359,"um":360,"Sain":361,"ĠL":362,"El":363,"ville":364,"Saint":365,"he":366,"ell":367,"Äĥ":368,"ot":369,"iv":370,"âĢ":371,"ter":372,"ĠJ":373,"ec":374,"em":375,"oy":376,"Mar":377,"ĠN":378,"ast":379,"ow":380,"ok":381,"ĠF":382,"ÅŁ":383,"ers":384,"og":385,"ran":386,"ik":387,"Ã¶":388,"illa":389,"Ã¼":390,"ont":391,"sh":392,"eng":393,"ach":394,"Santa":395,"oc":396,"ob":397,"ai":398,"Ġdel":399,"Sh":400,"az":401,"all":402,"ĠD":403,"eg":404,"st":405,"Ã¡n":406,"Ar":407,"amp":408,"ino":409,"Ä«":410,"Ã³n":411,"ard":412,"qu":413,"est":414,"An":415,"orf":416,"bur":417,"ana":418,"ev":419,"ud":420,"op":421,"ĠMar":422,"ts":423,"ara":424,"li":425,"ale":426,"ge":427,"âĢĻ":428,"na":429,"ent":430,"uc":431,"end":432,"ina":433,"ĠK":434,"ich":435,"St":436,"ark":437,"gu":438,"zh":439,"ey":440,"ice":441,"ub":442,"ort":443,"eld":444,"ord":445,"ut":446,"Ne":447,"ass":448,"ek":449,"res":450,"ĠE":451,"ip":452,"ern":453,"sur":454,"ĠI":455,"iy":456,"Ã¨":457,"Le":458,"aw":459,"Ã¢":460,"ce":461,"ca":462,"ci":463,"ug":464,"our":465,"up":466,"ke":467,"ib":468,"ier":469,"uan":470,"ĠO":471,"ens":472,"Ã±":473,"uk":474,"go":475,"ovo":476,"Mon":477,"eni":478,"berg":479,"ĠCh":480,"ian":481,"Bar":482,"za":483,"Ä±":484,"ood":485,"ny":486,"Å«":487,"ĠW":488,"Gu":489,"ine":490,"Car":491,"ung":492,"orth":493,"Br":494,"uz":495,"ley":496,"da":497,"burg":498,"hu":499,"ala":500,"ant":501,"ez":502,"nd":503,"bach":504,"Col":505,"ĠLa":506,"ff":507,"oh":508,"ate":509,"Ġ(":510,"land":511,"ÈĻ":512,"amb":513,"ni":514,"ry":515,"ng":516,"aya":517,"iz":518,"aj":519,"ity":520,"heim":521,"oye":522,"oz":523,"ond":524,"orn":525,"ica":526,"Ġla":527,"Th":528,"fi":529,"dorf":530,"ei":531,"era":532,"ingen":533,"ten":534,"Val":535,"eb":536,"ero":537,")<":538,"Villa":539,"no":540,"Cast":541,"ĠPark":542,"igh":543,"uel":544,"lo":545,"ep":546,"ham":547,"Sch":548,"Sant":549,"Qu":550,"les":551,"Ã¤":552,"Am":553,"va":554,"âĢĺ":555,"ss":556,"ind":557,"ha":558,"lan":559,"ola":560,"outh":561,"Vill":562,"ĠCity":563,"ÃŃa":564,"yn":565,"Gr":566,"ÅŁti":567,"och":568,"Bel":569,"ington":570,"Ġdi":571,"ĠAl":572,"Ã³w":573,"Mont":574,"erm":575,"Ãº":576,"ĠHill":577,"one":578,"field":579,"sen":580,"ada":581,"int":582,"wn":583,"que":584,"ena":585,"oun":586,"Or":587,"wood":588,"pur":589,"Å¡":590,"alm":591,"se":592,"vo":593,"ore":594,"aro":595,"olo":596,"West":597,"ash":598,"oro":599,"rÃ©":600,"gh":601,"Man":602,"ĠSan":603,"ÅĤ":604,"af":605,"Ã§":606,"Äģn":607,"ari":608,"Sal":609,"Ber":610,"uch":611,"Be":612,"Ã£":613,"ani":614,"ford":615,"ij":616,"of":617,"New":618,"art":619,"den":620,"Pr":621,"han":622,"ck":623,"uer":624,"ly":625,"pr":626,"oss":627,"ÃŃn":628,"ien":629,"Nov":630,"Mal":631,"Mor":632,"und":633,"ĠVal":634,"jo":635,"tad":636,"Hu":637,"ga":638,"ata":639,"ins":640,"ĠJos":641,"Å£":642,"br":643,"illo":644,"Cal":645,"Bal":646,"North":647,"Äį":648,"ita":649,"ings":650,"tep":651,"ira":652,"kh":653,"ito":654,"town":655,"skiy":656,"Bu":657,"ĠZ":658,"ja":659,"Kr":660,"arr":661,"Cor":662,"itz":663,"á¸":664,"Kh":665,"by":666,"Es":667,"Ã£o":668,"ui":669,"ign":670,"Cas":671,"Ã«":672,"osa":673,"err":674,"ĠCr":675,"Se":676,"be":677,"lÃ¡n":678,"son":679,"ya":680,"zo":681,"ve":682,"ĠHe":683,"Ol":684,"Tor":685,"ki":686,"ish":687,"Bur":688,"iang":689,"rov":690,"Bo":691,"ma":692,"bo":693,"ama":694,"Ma":695,"Gre":696,"Par":697,"ula":698,"ora":699,"Tr":700,"len":701,"man":702,"Ad":703,"ste":704,"iano":705,"Ġl":706,"South":707,"á»":708,"ona":709,"ÈĻti":710,"Ab":711,"ied":712,"Per":713,"uy":714,"wa":715,"ĠY":716,"chen":717,"Ã©n":718,"ÃŁ":719,"onte":720,"skoye":721,"ath":722,"ick":723,"ello":724,"áº":725,"ist":726,"Bor":727,"anj":728,"Kar":729,"ĠAr":730,"pa":731,"iss":732,"lin":733,"ranc":734,"Con":735,"Los":736,"ess":737,"ĠAn":738,"ze":739,"ĠBe":740,"ock":741,"ux":742,"ver":743,"onia":744,"ico":745,"rid":746,"Me":747,"ix":748,"ns":749,"ion":750,"ova":751,"any":752,"ivka":753,"ights":754,"Ba":755,"ila":756,"Mer":757,"iri":758,"ente":759,"ald":760,"Co":761,"East":762,"ella":763,"Camp":764,"ĠHeights":765,"Bad":766,"De":767,"ele":768,"ato":769,"ua":770,"ans":771,"ĠJuan":772,"che":773,"Pal":774,"Äģr":775,"ausen":776,"zy":777,"are":778,"ista":779,"bor":780,"Monte":781,"elle":782,"Re":783,"tt":784,"ura":785,"nes":786,"Bro":787,"edro":788,"ĠBeach":789,"As":790,"Mo":791,"Sp":792,"Sar":793,"oug":794,"isco":795,"ĠJosÃ©":796,"Ban":797,"Ro":798,"ount":799,"ere":800,"feld":801,"Las":802,"ies":803,"me":804,"inc":805,"Long":806,"Ãł":807,"tor":808,"Ã¡r":809,"Ġam":810,"ĠSh":811,"Bre":812,"per":813,"ane":814,"ciÃ³n":815,"ĠLake":816,"ire":817,"tepec":818,"Ag":819,"He":820,"endorf":821,"ost":822,"els":823,"oll":824,"Ġ/":825,"arm":826,"ĠIs":827,"ĠU":828,"ado":829,"ron":830,"Ak":831,"aul":832,"Er":833,"Äģd":834,"Cer":835,"Is":836,"Port":837,"lor":838,"ys":839,"Ġdo":840,"ÃŃo":841,"ĠPo":842,"In":843,"Ver":844,"je":845,"Cap":846,"ye":847,"iguel":848,"Can":849,"ao":850,"iel":851,"Zh":852,"Ã¡s":853,"ust":854,"Kal":855,"oul":856,"ago":857,"Ros":858,"iet":859,"ank":860,"kt":861,"Bay":862,"Pet":863,"Mat":864,"pe":865,"urt":866,"ĠVilla":867,"ĠMarÃŃa":868,"gar":869,"we":870,"old":871,"itt":872,"Ã¨s":873,"rancisco":874,"pan":875,"ush":876,"ĠBay":877,"omb":878,"Ben":879,"Gro":880,"ĠPedro":881,"iew":882,"tadt":883,"cu":884,"oli":885,"Ober":886,"sa":887,"ure":888,"Te":889,"org":890,"ide":891,"Åį":892,"Cr":893,"Mag":894,"rac":895,"ĠHills":896,"ĠCruz":897,"ho":898,"iu":899,"ling":900,"uang":901,"Ġder":902,"ueva":903,"Pl":904,"ren":905,"ÄŁ":906,"And":907,"iÃ©":908,"ridge":909,"ela":910,"ester":911,"Ãī":912,"ovka":913,"iago":914,"skaya":915,"ĠMiguel":916,"Kir":917,"ole":918,"bro":919,"cal":920,"rad":921,"Åŀ":922,"mer":923,"uf":924,"Ãģ":925,"ann":926,"Por":927,"Ã¸":928,"Ġal":929,"apa":930,"Colonia":931,"ater":932,"Cl":933,"ene":934,"bury":935,"Ġan":936,"anch":937,"oma":938,"ih":939,"Äģb":940,"Cab":941,"Po":942,"du":943,"kro":944,"ons":945,"rez":946,"umb":947,"own":948,"dale":949,"ese":950,"ĠSpr":951,"tonio":952,"Å«r":953,"Av":954,"For":955,"Vel":956,"arl":957,"arn":958,"una":959,"Lake":960,"Ã¢n":961,"Ġlos":962,"Mount":963,"Pe":964,"if":965,"ite":966,"Os":967,"cia":968,"ales":969,"att":970,"rande":971,"At":972,"Cam":973,"Ãª":974,"âĢĻ<":975,"Santiago":976,"Gra":977,"ima":978,"men":979,"ÅĻ":980,"Äģl":981,"En":982,"Ste":983,"ĠFrancisco":984,"ĠValley":985,"ĠVillage":986,"air":987,"ĠGu":988,"iver":989,"ĠMart":990,"uerto":991,"mont":992,"Les":993,"We":994,"zi":995,"Äģm":996,"Bou":997,"Har":998,"sch":999,"ingo":1000,"Bla":1001,"Kam":1002,"Lang":1003,"Pla":1004,"gn":1005,"pp":1006,"do":1007,"port":1008,"tla":1009,"uen":1010,"hausen":1011,"chi":1012,"ida":1013,"Ã±a":1014,"Fr":1015,"Mil":1016,"Mur":1017,"Wh":1018,"gi":1019,"ĠSal":1020,"Min":1021,"Tal":1022,"ĠAntonio":1023,"Ph":1024,"Sk":1025,"Ur":1026,"zano":1027,"ÄĻ":1028,"Ã¶r":1029,"Lu":1030,"ini":1031,"Santo":1032,"uevo":1033,"Gen":1034,"lu":1035,"ett":1036,"ĠVic":1037,"Castel":1038,"Em":1039,"Lo":1040,"ks":1041,"Ser":1042,"gen":1043,"Ġin":1044,"Gar":1045,"SÃ£o":1046,"ji":1047,"Alb":1048,"Ã¨res":1049,"Kras":1050,"ĠSprings":1051,"der":1052,"Å¾":1053,"Ge":1054,"Ko":1055,"Mad":1056,"ken":1057,"mar":1058,"Äĥr":1059,"oa":1060,"Ã©r":1061,"evo":1062,"ĠEst":1063,"Ci":1064,"Hol":1065,"ile":1066,"Mart":1067,"zhen":1068,"Ã¢r":1069,"Ac":1070,"Mas":1071,"Tar":1072,"des":1073,"ll":1074,"eno":1075,"ove":1076,"ĠEs":1077,"Bag":1078,"ee":1079,"uh":1080,"yr":1081,"illas":1082,"the":1083,"ido":1084,"po":1085,"anc":1086,"ĠMor":1087,"eda":1088,"Ter":1089,"tz":1090,"ĠCre":1091,"Com":1092,"Sam":1093,"ax":1094,"ston":1095,"Sankt":1096,"adal":1097,"aux":1098,"Bri":1099,"Sol":1100,"Äĩ":1101,"Ġel":1102,"eri":1103,"enn":1104,"ĠCamp":1105,"guan":1106,"Bon":1107,"ko":1108,"Ã´":1109,"ĠLe":1110,"Str":1111,"hi":1112,"kir":1113,"nad":1114,"nyy":1115,"ĠPoint":1116,"Bol":1117,"pol":1118,"ben":1119,"lÃ©":1120,"ÈĽ":1121,"Ã¨re":1122,"eth":1123,"ĠGrande":1124,"Ã¶n":1125,"á¸¨":1126,"Cu":1127,"Wil":1128,"Wood":1129,"tr":1130,"uri":1131,"ough":1132,"rove":1133,"Mel":1134,"Mac":1135,"ker":1136,"Bat":1137,"well":1138,"ary":1139,"ith":1140,"rim":1141,"Un":1142,"dt":1143,"lia":1144,"vi":1145,"ets":1146,"ĠBar":1147,"Don":1148,"Hor":1149,"Pol":1150,"don":1151,"iber":1152,"elo":1153,"ougou":1154,"Puerto":1155,"ral":1156,"yah":1157,"enter":1158,"Green":1159,"Ash":1160,"Ca":1161,"noye":1162,"uj":1163,"Ã¥":1164,"ise":1165,"akh":1166,"Kou":1167,"Sa":1168,"ler":1169,"Ã½":1170,"Ãĩ":1171,"lav":1172,"ange":1173,"roy":1174,"aba":1175,"ĠCreek":1176,"Pas":1177,"iam":1178,"uÃ¡":1179,"way":1180,"ÅĦ":1181,"reg":1182,"ango":1183,"anda":1184,"ĠKh":1185,"á¸©":1186,"iro":1187,"mb":1188,"yan":1189,"eral":1190,"itlÃ¡n":1191,"ueb":1192,"upe":1193,"Ts":1194,"Tur":1195,"ven":1196,"ines":1197,"ChÃ¢":1198,"engguan":1199,"Ang":1200,"Gor":1201,"Her":1202,"ban":1203,"ÄĽ":1204,"let":1205,"owice":1206,"ierra":1207,"Fort":1208,"Palm":1209,"war":1210,"worth":1211,"ario":1212,"ali":1213,"Ã©s":1214,"aca":1215,"ĠTr":1216,"Ay":1217,"Ã¯":1218,"anga":1219,"eto":1220,"aha":1221,"ĠChengguan":1222,"ĠChengguanzhen":1223,"Mid":1224,"Nav":1225,"nik":1226,"sville":1227,"Ã©d":1228,"ĠTh":1229,"Bra":1230,"Ham":1231,"Pont":1232,"wil":1233,"Ed":1234,"Wal":1235,"Ġim":1236,"cheng":1237,"ovice":1238,"Sainte":1239,"Pan":1240,"ros":1241,"enberg":1242,"reis":1243,"igny":1244,"awa":1245,"lÃ¨s":1246,"Äħ":1247,"ĠQ":1248,"orte":1249,"ĠSt":1250,"Gl":1251,"car":1252,"ĠRe":1253,"uss":1254,"ieu":1255,"eck":1256,"ersdorf":1257,"tsi":1258,"Bl":1259,"Sil":1260,"iana":1261,"yl":1262,"alo":1263,"asa":1264,"leu":1265,"ĠAnd":1266,"alls":1267,"GroÃŁ":1268,"Ly":1269,"Oak":1270,"amar":1271,"aga":1272,"Torre":1273,"adalupe":1274,"May":1275,"Su":1276,"sdorf":1277,"ĠCol":1278,"ĠGi":1279,"gua":1280,"zhou":1281,"Ta":1282,"Tre":1283,"van":1284,"amba":1285,"tag":1286,"Alt":1287,"Äĥl":1288,"Fair":1289,"Win":1290,"boro":1291,"ous":1292,"iao":1293,"agar":1294,"ĠGrove":1295,"kes":1296,"Ġnad":1297,"ares":1298,"apan":1299,"Ã¼r":1300,"Az":1301,"Fre":1302,"Nor":1303,"Sab":1304,"cos":1305,"hl":1306,"ati":1307,"Dr":1308,"Dob":1309,"Rom":1310,"gan":1311,"ph":1312,"ert":1313,"lay":1314,"atlÃ¡n":1315,"Ap":1316,"Dol":1317,"Mu":1318,"bar":1319,"bour":1320,"Åł":1321,"oni":1322,"ouÃ©":1323,"Ã³r":1324,"Ä«yah":1325,"Grand":1326,"Bas":1327,"Il":1328,"bal":1329,"nica":1330,"tten":1331,"osh":1332,"oren":1333,"ĠCon":1334,"unn":1335,"Ä«n":1336,"dal":1337,"yk":1338,"ĠEl":1339,"edo":1340,"ahu":1341,"Ã¶l":1342,"Pat":1343,"Red":1344,"mo":1345,"si":1346,"esa":1347,"cha":1348,"ĠCal":1349,"igli":1350,"ardo":1351,"BÃ©":1352,"Je":1353,"Nar":1354,"igu":1355,"aci":1356,"Äĥne":1357,"uÃ¡rez":1358,"Nied":1359,"bi":1360,"di":1361,"kou":1362,"ska":1363,"ĠRo":1364,"shan":1365,"cion":1366,"ĠWest":1367,"Ġlas":1368,"Del":1369,"Fu":1370,"Ha":1371,"Mol":1372,"Pin":1373,"Sta":1374,"Vil":1375,"cz":1376,"lio":1377,"uil":1378,"out":1379,"Ã©m":1380,"over":1381,"ĠVer":1382,"Villan":1383,"Lim":1384,"Mir":1385,"Spr":1386,"Will":1387,"lÄ±":1388,"ras":1389,"rah":1390,"rio":1391,"rich":1392,"illy":1393,"ull":1394,"Mah":1395,"Vic":1396,"nh":1397,"riv":1398,"Ã³s":1399,"aven":1400,"Ka":1401,"Ni":1402,"Tam":1403,"bei":1404,"ias":1405,"uis":1406,"view":1407,"ĠX":1408,"Sand":1409,"ĠSec":1410,"rig":1411,"ĠLuc":1412,"asso":1413,"Ass":1414,"Fran":1415,"Gal":1416,"Ke":1417,"Med":1418,"Sel":1419,"Sau":1420,"bon":1421,"kov":1422,"lingen":1423,"ty":1424,"yang":1425,"ison":1426,"ĠCast":1427,"red":1428,"ĠPla":1429,"etz":1430,"omas":1431,"ack":1432,"ega":1433,"ofen":1434,"Kor":1435,"Lou":1436,"Rad":1437,"Tab":1438,"Var":1439,"Vol":1440,"ÅĽ":1441,"anz":1442,"imo":1443,"Cher":1444,"Ã¤r":1445,"Dong":1446,"Kat":1447,"Ram":1448,"Tra":1449,"bu":1450,"tal":1451,"inas":1452,"ette":1453,"aco":1454,"ski":1455,"Ale":1456,"Bil":1457,"Bog":1458,"Dun":1459,"Go":1460,"Kur":1461,"ĠQu":1462,"ĠâĢĺ":1463,"ĠMonte":1464,"tein":1465,"icol":1466,"Char":1467,"ĠTe":1468,"ĠTor":1469,"idge":1470,"ĠIn":1471,"Bir":1472,"Kon":1473,"har":1474,"esh":1475,"Äĥu":1476,"Dar":1477,"Ho":1478,"Lin":1479,"Ville":1480,"uv":1481,"wang":1482,"enh":1483,"ayo":1484,"Ġda":1485,"ney":1486,"Å£a":1487,"Bang":1488,"Sun":1489,"fla":1490,"gio":1491,"tan":1492,"Å¼":1493,"ores":1494,"ili":1495,"tain":1496,"ĠCar":1497,"ills":1498,"ske":1499,"Sc":1500,"rou":1501,"val":1502,"Lag":1503,"ĠGard":1504,"Pa":1505,"Xin":1506,"eh":1507,"iers":1508,"ping":1509,"lad":1510,"olf":1511,"ĠCor":1512,"ava":1513,"ĠDom":1514,"uck":1515,"ignano":1516,"ÄģbÄģd":1517,"kirchen":1518,"Hal":1519,"Ir":1520,"Iz":1521,"Kol":1522,"Pad":1523,"Sm":1524,"Tem":1525,"Wa":1526,"ris":1527,"tel":1528,"wan":1529,"wick":1530,"Ġbei":1531,"enz":1532,"ates":1533,"oua":1534,"rie":1535,"idal":1536,"burn":1537,"ĠMare":1538,"Beau":1539,"toria":1540,"Dal":1541,"Roc":1542,"Rich":1543,"Tep":1544,"War":1545,"eÅŁti":1546,"ÄĲ":1547,"amo":1548,"ayan":1549,"ĠBlan":1550,"ĠRos":1551,"Alm":1552,"Ã¼n":1553,"Dam":1554,"Gran":1555,"Glen":1556,"Ost":1557,"Pueb":1558,"Ru":1559,"Riv":1560,"pin":1561,"ram":1562,"eland":1563,"ÃŃs":1564,"aki":1565,"ĠRÃŃo":1566,"ĠJuÃ¡rez":1567,"ĠFor":1568,"uca":1569,"iento":1570,"Spring":1571,"Ga":1572,"Ot":1573,"Sim":1574,"Sul":1575,"Vi":1576,"con":1577,"xi":1578,"insk":1579,"angan":1580,"rog":1581,"ĠNorth":1582,"Star":1583,"Bul":1584,"Ger":1585,"Ku":1586,"Ou":1587,"Pod":1588,"Pot":1589,"Sv":1590,"Sin":1591,"Sid":1592,"mp":1593,"ner":1594,"wal":1595,"lat":1596,"court":1597,"udad":1598,"Kings":1599,"Sto":1600,"Um":1601,"elos":1602,"rag":1603,"ĠPh":1604,"ĠPalm":1605,"unt":1606,"bert":1607,"ĠLoren":1608,"Ah":1609,"Bud":1610,"Mak":1611,"Nag":1612,"oj":1613,"win":1614,"ÄĮ":1615,"oud":1616,"agen":1617,"ĠFalls":1618,"uela":1619,"rÃ©s":1620,"Gh":1621,"Que":1622,"Sz":1623,"Sur":1624,"Som":1625,"bÃ©":1626,"alco":1627,"lev":1628,"ĠMon":1629,"etto":1630,"cep":1631,"Den":1632,"Lam":1633,"enbach":1634,"ori":1635,"ase":1636,"lem":1637,"Äģh":1638,"ĠSouth":1639,"aka":1640,"ĠHar":1641,"ipe":1642,"brook":1643,"Bh":1644,"Bell":1645,"Do":1646,"Kreis":1647,"Mos":1648,"Pon":1649,"lov":1650,"mond":1651,"ria":1652,"var":1653,"ÄĢ":1654,"anza":1655,"asco":1656,"ĠMa":1657,"ĠRosa":1658,"owo":1659,"ĠEast":1660,"Valle":1661,"borough":1662,"High":1663,"Ng":1664,"Pen":1665,"mi":1666,"pec":1667,"ru":1668,"encia":1669,"ouss":1670,"ĠCenter":1671,"Äģs":1672,"Ã¡z":1673,"tone":1674,"ĠTown":1675,"ĠRiver":1676,"oya":1677,"Krasn":1678,"Flor":1679,"Na":1680,"Sum":1681,"ĠÃģ":1682,"erd":1683,"erg":1684,"asti":1685,"oux":1686,"ĠCu":1687,"ray":1688,"rom":1689,"ĠAg":1690,"abo":1691,"thal":1692,"ott":1693,"Ä«r":1694,"Ä±n":1695,"ĠIsland":1696,"Ciudad":1697,"Maz":1698,"Sav":1699,"ft":1700,"wo":1701,"Äĵ":1702,"orsk":1703,"ĠAm":1704,"ĠAna":1705,"achi":1706,"idalgo":1707,"ĠLorenzo":1708,"Ball":1709,"Cat":1710,"Fl":1711,"Im":1712,"Ll":1713,"Luc":1714,"NÃ©":1715,"las":1716,"ves":1717,"Åģ":1718,"isch":1719,"age":1720,"agu":1721,"ului":1722,"elles":1723,"ĠNuevo":1724,"ogo":1725,"General":1726,"ĠVicente":1727,"Bour":1728,"Dom":1729,"Kil":1730,"Ny":1731,"Pu":1732,"Tom":1733,"Vall":1734,"Vale":1735,"its":1736,"rem":1737,"riba":1738,"ĠTer":1739,"owa":1740,"oca":1741,"zhuang":1742,"ĠShah":1743,"Cent":1744,"Da":1745,"Land":1746,"Mc":1747,"Ob":1748,"fa":1749,"ysh":1750,"oso":1751,"uro":1752,"urst":1753,"amiento":1754,"uma":1755,"ukh":1756,"Bab":1757,"Bak":1758,"Frac":1759,"Kom":1760,"Lan":1761,"Ra":1762,"Tan":1763,"Ven":1764,"jido":1765,"ky":1766,"ones":1767,"ĠMag":1768,"Ã±o":1769,"Ara":1770,"Bin":1771,"Kap":1772,"Nan":1773,"Pi":1774,"Park":1775,"Si":1776,"jiang":1777,"Ã²":1778,"Åĳ":1779,"Ġá¸¨":1780,"atu":1781,"rop":1782,"ĠSus":1783,"ĠRidge":1784,"cot":1785,"ters":1786,"ever":1787,"enda":1788,"eira":1789,"ountain":1790,"Eg":1791,"Kl":1792,"Mill":1793,"Pier":1794,"Rock":1795,"ael":1796,"ju":1797,"pen":1798,"sz":1799,"ĠSanta":1800,"eros":1801,"alla":1802,"ors":1803,"ats":1804,"oum":1805,"ando":1806,"ĠFel":1807,"Buen":1808,"cionamiento":1809,"Cos":1810,"LÃ©":1811,"Pom":1812,"Rio":1813,"RÃŃo":1814,"So":1815,"To":1816,"Tla":1817,"Uni":1818,"can":1819,"zen":1820,"arc":1821,"aran":1822,"idro":1823,"stein":1824,"ĠArriba":1825,"Fraccionamiento":1826,"Gol":1827,"Jal":1828,"Kan":1829,"She":1830,"Us":1831,"Vin":1832,"bridge":1833,"ger":1834,"oi":1835,"Å½":1836,"enne":1837,"iler":1838,"leton":1839,"adi":1840,"ĠMan":1841,"unc":1842,"aut":1843,"ongo":1844,"aver":1845,"ĠMaria":1846,"ĠMartÃŃn":1847,"cepciÃ³n":1848,"GÃ¼":1849,"It":1850,"Lar":1851,"PÃ©":1852,"The":1853,"more":1854,"rat":1855,"sburg":1856,"yi":1857,"ence":1858,"onn":1859,"onne":1860,"ĠMad":1861,"tea":1862,"Äģt":1863,"agn":1864,"ĠGre":1865,"ikro":1866,"ondo":1867,"Martin":1868,"Ala":1869,"Cur":1870,"Jin":1871,"Liv":1872,"Mass":1873,"Nuevo":1874,"Ok":1875,"com":1876,"eli":1877,"elen":1878,"ingham":1879,"ĠMe":1880,"illos":1881,"imb":1882,"acio":1883,"ĠOr":1884,"Guadalupe":1885,"ĠIsidro":1886,"Far":1887,"Han":1888,"Ry":1889,"kÃ¶":1890,"lar":1891,"lal":1892,"water":1893,"Ġ-":1894,"uru":1895,"iti":1896,"inga":1897,"rav":1898,"Äģj":1899,"Chang":1900,"uli":1901,"ĠVie":1902,"Neu":1903,"hua":1904,"Villanueva":1905,"Li":1906,"No":1907,"Tak":1908,"Ul":1909,"Zar":1910,"ym":1911,"zan":1912,"cher":1913,"aman":1914,"ĠCat":1915,"ree":1916,"oda":1917,"ĠVista":1918,"engo":1919,"unga":1920,"Castell":1921,"Kirch":1922,"Cro":1923,"Cav":1924,"Camb":1925,"Dan":1926,"Ind":1927,"Kot":1928,"Lip":1929,"Sor":1930,"Sou":1931,"SÃ©":1932,"Sem":1933,"Tel":1934,"pi":1935,"Ġ1":1936,"enburg":1937,"ĠSierra":1938,"ried":1939,"akro":1940,"ĠHidalgo":1941,"iec":1942,"Black":1943,"polis":1944,"Midd":1945,"ĠAndrÃ©s":1946,"Au":1947,"Dz":1948,"GÃ¶":1949,"Pil":1950,"Pres":1951,"Poz":1952,"fort":1953,"yy":1954,"Æ°":1955,"inh":1956,"ĠCan":1957,"une":1958,"Laur":1959,"ĠBart":1960,"avista":1961,"ĠNorte":1962,"ikh":1963,"Villar":1964,"ĠSecciÃ³n":1965,"Dub":1966,"Kok":1967,"MÃ©":1968,"Mau":1969,"Pri":1970,"Ped":1971,"Sok":1972,"Sint":1973,"Wang":1974,"Yang":1975,"cas":1976,"ea":1977,"hr":1978,"long":1979,"par":1980,"Åļ":1981,"Ġs":1982,"itas":1983,"Chi":1984,"ĠAir":1985,"ĠRom":1986,"ĠNicol":1987,"ques":1988,"enstein":1989,"ijk":1990,"garh":1991,"White":1992,"Georg":1993,"ÄĥneÅŁti":1994,"ĠDomingo":1995,"Bah":1996,"Du":1997,"Ejido":1998,"Mand":1999,"Sen":2000,"Wind":2001,"gem":2002,"jar":2003,"mes":2004,"nic":2005,"nice":2006,"ador":2007,"ĠMat":2008,"teau":2009,"ĠSeb":2010,"etta":2011,"iga":2012,"ablo":2013,"ĠOl":2014,"Brook":2015,"ĠEstate":2016,"Nieder":2017,"Valea":2018,"Dor":2019,"Ita":2020,"Jos":2021,"Jar":2022,"Pre":2023,"Ty":2024,"hol":2025,"jan":2026,"lis":2027,"ox":2028,"ota":2029,"rero":2030,"ster":2031,"unta":2032,"ĠRey":2033,"ĠNe":2034,"Campo":2035,"Verkh":2036,"Porto":2037,"Agu":2038,"By":2039,"Bos":2040,"Ix":2041,"Kle":2042,"Lub":2043,"Mit":2044,"Nam":2045,"Og":2046,"Op":2047,"Ple":2048,"Pit":2049,"Tu":2050,"Tro":2051,"jas":2052,"stadt":2053,"Ãĸ":2054,"eles":2055,"Äģpur":2056,"acu":2057,"Alf":2058,"ĠLuis":2059,"ivtsi":2060,"Marc":2061,"erson":2062,"Arg":2063,"á»ĭ":2064,"ancho":2065,"Bet":2066,"Buc":2067,"Est":2068,"Gb":2069,"Kos":2070,"MÃ¼":2071,"Mez":2072,"Sat":2073,"Tri":2074,"ning":2075,"aria":2076,"eras":2077,"inos":2078,"ĠCl":2079,"ĠCam":2080,"ĠCent":2081,"ĠPe":2082,"ĠEn":2083,"iya":2084,"Valde":2085,"ĠZap":2086,"Bob":2087,"Di":2088,"Ig":2089,"Ky":2090,"Novo":2091,"Nueva":2092,"Od":2093,"Up":2094,"Ve":2095,"nitz":2096,"ĠCo":2097,"Champ":2098,"aus":2099,"ĠHu":2100,"idad":2101,"Ã±as":2102,"atepec":2103,"Belle":2104,"erme":2105,"ĠValle":2106,"brunn":2107,"Gi":2108,"Mi":2109,"On":2110,"Water":2111,"Yan":2112,"cio":2113,"gos":2114,"hou":2115,"jia":2116,"ps":2117,"onz":2118,"orod":2119,"cht":2120,"amm":2121,"lez":2122,"ĠPol":2123,"ĠPablo":2124,"igo":2125,"illon":2126,"Chap":2127,"evka":2128,"ĠLakes":2129,"lands":2130,"stedt":2131,"áº¥":2132,"ĠSebasti":2133,"Cour":2134,"Day":2135,"Fal":2136,"Hil":2137,"Mang":2138,"Ponte":2139,"Tang":2140,"lob":2141,"lington":2142,"pu":2143,"sto":2144,"ars":2145,"aton":2146,"Sang":2147,"ichi":2148,"afael":2149,"Unter":2150,"Dj":2151,"Dur":2152,"Hoh":2153,"Horn":2154,"Lun":2155,"Piet":2156,"Tai":2157,"Top":2158,"dan":2159,"ganj":2160,"pel":2161,"iny":2162,"alan":2163,"asan":2164,"ovskiy":2165,"agan":2166,"ĠFlor":2167,"entes":2168,"Corn":2169,"Hay":2170,"Kas":2171,"Kab":2172,"Map":2173,"Pur":2174,"Pul":2175,"Rog":2176,"Rob":2177,"Rud":2178,"Ti":2179,"Tay":2180,"cy":2181,"Æ¡":2182,"ono":2183,"chio":2184,"leben":2185,"ĠCarl":2186,"raz":2187,"riz":2188,"ieux":2189,"ikon":2190,"azar":2191,"qui":2192,"Berg":2193,"Ãªn":2194,"Pierre":2195,"Bac":2196,"Font":2197,"Ker":2198,"Lind":2199,"Mou":2200,"Oc":2201,"Pine":2202,"Tol":2203,"Tim":2204,"Wald":2205,"bara":2206,"ef":2207,"eo":2208,"kin":2209,"sheim":2210,"vor":2211,"vel":2212,"Ġof":2213,"oria":2214,"ouo":2215,"isa":2216,"oven":2217,"ĠPin":2218,"sko":2219,"All":2220,"ĠDon":2221,"Ä±r":2222,"Nova":2223,"gnacio":2224,"Frank":2225,"ĠGardens":2226,"rogres":2227,"But":2228,"Bern":2229,"Dou":2230,"Germ":2231,"Hom":2232,"Kin":2233,"Kamp":2234,"Pop":2235,"Ren":2236,"Ten":2237,"bek":2238,"pat":2239,"illes":2240,"Chak":2241,"iego":2242,"Mark":2243,"egg":2244,"Stan":2245,"ciano":2246,"Amb":2247,"weiler":2248,"Stein":2249,"Pueblo":2250,"Ġsul":2251,"BÄĥ":2252,"Cop":2253,"Gard":2254,"Kaf":2255,"Lor":2256,"Lib":2257,"Litt":2258,"Pra":2259,"Rem":2260,"Sy":2261,"Wes":2262,"dar":2263,"ule":2264,"ĠSant":2265,"inskiy":2266,"onta":2267,"ory":2268,"lah":2269,"Ã©rÃ©":2270,"ret":2271,"ovan":2272,"iac":2273,"rak":2274,"ĠMate":2275,"unda":2276,"ĠAc":2277,"head":2278,"quil":2279,"huac":2280,"ibertad":2281,"Jean":2282,"Bug":2283,"Cla":2284,"Des":2285,"Dum":2286,"Ib":2287,"Ing":2288,"Kum":2289,"Mes":2290,"Mun":2291,"Pie":2292,"Pog":2293,"Rod":2294,"Sag":2295,"Sev":2296,"Sib":2297,"ech":2298,"gr":2299,"iÅŁ":2300,"Ä°":2301,"Ġy":2302,"ento":2303,"alu":2304,"adow":2305,"ĠPal":2306,"iller":2307,"ÃŃas":2308,"use":2309,"bajo":2310,"hem":2311,"eca":2312,"iki":2313,"shi":2314,"allo":2315,"Ä±k":2316,"zyce":2317,"Cerro":2318,"ĠVictoria":2319,"ĠMorelos":2320,"ĠGreen":2321,"ĠViejo":2322,"ĠCarlos":2323,"Aub":2324,"Bai":2325,"Kem":2326,"Tec":2327,"Yong":2328,"ZÃ¼":2329,"bin":2330,"iÃ¨re":2331,"mon":2332,"vale":2333,"yo":2334,"zÃ³w":2335,"Ã¬":2336,"orp":2337,"asi":2338,"chester":2339,"itu":2340,"rea":2341,"ĠMil":2342,"ĠMont":2343,"aud":2344,"ĠAbajo":2345,"ells":2346,"iva":2347,"ranca":2348,"str":2349,"ampton":2350,"Ä«d":2351,"quan":2352,"liano":2353,"entino":2354,"uelo":2355,"denas":2356,"ĠCrist":2357,"Old":2358,"Bois":2359,"agoza":2360,"ĠCampos":2361,"ĠTráº¥":2362,"Bed":2363,"Bod":2364,"Cz":2365,"Cand":2366,"Dh":2367,"Feng":2368,"Hel":2369,"Len":2370,"Lis":2371,"MÄĥ":2372,"Mich":2373,"Qing":2374,"Rib":2375,"Roch":2376,"Wat":2377,"vin":2378,"yat":2379,"Ãħ":2380,"ÅĮ":2381,"asca":2382,"asant":2383,"olom":2384,"Ã©e":2385,"ĠCarm":2386,"Ã¡t":2387,"ĠBr":2388,"ĠBur":2389,"agh":2390,"ĠTla":2391,"iem":2392,"ampa":2393,"ope":2394,"Thá»ĭ":2395,"ĠZar":2396,"beek":2397,"Sidi":2398,"ĠShahri":2399,"rogreso":2400,"ĠTráº¥n":2401,"Aur":2402,"Bun":2403,"Bain":2404,"Ken":2405,"Mab":2406,"Mog":2407,"Pap":2408,"River":2409,"Sap":2410,"Tin":2411,"Tap":2412,"Tong":2413,"Wo":2414,"cel":2415,"eu":2416,"eÈĻti":2417,"kÃ³w":2418,"lam":2419,"nÃŃ":2420,"sous":2421,"wer":2422,"ĠÄĲ":2423,"alle":2424,"esc":2425,"ĠCa":2426,"ĠCap":2427,"itla":2428,"Äģy":2429,"ĠSab":2430,"Chin":2431,"ĠAb":2432,"ĠAz":2433,"iras":2434,"tion":2435,"Ann":2436,"liff":2437,"Å«d":2438,"ambo":2439,"Ã¡rdenas":2440,"ĠUni":2441,"Whit":2442,"ĠEstates":2443,"ĠVerde":2444,"ĠFelipe":2445,"ZÃ¼rich":2446,"Bis":2447,"Fer":2448,"Fil":2449,"HÃ¶":2450,"Jam":2451,"Kis":2452,"My":2453,"Mot":2454,"Pro":2455,"Pac":2456,"Paul":2457,"Ton":2458,"Tag":2459,"Tour":2460,"Wall":2461,"dr":2462,"for":2463,"gin":2464,"kan":2465,"min":2466,"mark":2467,"niy":2468,"nagar":2469,"pet":2470,"qiao":2471,"yuan":2472,"Å¢":2473,"este":2474,"oln":2475,"tay":2476,"itos":2477,"aye":2478,"ĠSer":2479,"abr":2480,"irchen":2481,"ĠRafael":2482,"ulco":2483,"ĠGr":2484,"ahr":2485,"ĠVale":2486,"oko":2487,"aire":2488,"Ant":2489,"Ãºs":2490,"Esta":2491,"Great":2492,"incÃ³n":2493,"ChÃ¢teau":2494,"ĠAgust":2495,"Bi":2496,"Bass":2497,"Cre":2498,"Had":2499,"Kad":2500,"Lem":2501,"Lev":2502,"Men":2503,"Mul":2504,"Pang":2505,"Ron":2506,"Rancho":2507,"Tul":2508,"bat":2509,"kar":2510,"kino":2511,"mel":2512,"mouth":2513,"san":2514,"uzh":2515,"uovo":2516,"wald":2517,"tai":2518,"inge":2519,"ĠSte":2520,"ĠSul":2521,"Lac":2522,"ĠBer":2523,"ĠBen":2524,"ĠBel":2525,"ĠRock":2526,"Alde":2527,"elli":2528,"ĠOak":2529,"Barrio":2530,"Forest":2531,"ĠGuadalupe":2532,"CaÃ±":2533,"Little":2534,"Band":2535,"Ced":2536,"Der":2537,"Koz":2538,"Llan":2539,"Ping":2540,"Ross":2541,"Tav":2542,"Zap":2543,"jos":2544,"kel":2545,"kovo":2546,"nia":2547,"zon":2548,"ÅŃ":2549,"erÃ³n":2550,"enheim":2551,"ilo":2552,"aso":2553,"tav":2554,"itan":2555,"ĠPet":2556,"rod":2557,"ĠSur":2558,"Alc":2559,"ĠGuer":2560,"onga":2561,"uey":2562,"ĠJo":2563,"shausen":2564,"ourt":2565,"ĠChap":2566,"Å«n":2567,"ĠAlto":2568,"ashi":2569,"ÅĤaw":2570,"peranza":2571,"ĠCampo":2572,"NÃ©a":2573,"Buenavista":2574,"ĠMateo":2575,"BÃ¼":2576,"Ess":2577,"Gri":2578,"Nik":2579,"Pel":2580,"Pied":2581,"Rou":2582,"Ust":2583,"cer":2584,"feng":2585,"kal":2586,"nov":2587,"nau":2588,"ois":2589,"ery":2590,"ami":2591,"dem":2592,"lach":2593,"adas":2594,"rava":2595,"tem":2596,"ĠPiet":2597,"eton":2598,"ĠBon":2599,"Chal":2600,"odi":2601,"tier":2602,"Casal":2603,"Ã«r":2604,"Burg":2605,"Ã©nÃ©":2606,"Zhong":2607,"ĠBlanca":2608,"Ä±nar":2609,"Af":2610,"Big":2611,"Cot":2612,"Ev":2613,"Has":2614,"Mam":2615,"Ox":2616,"Reg":2617,"Sak":2618,"bel":2619,"bÃ¼":2620,"iÅ¡":2621,"iÄĩ":2622,"ric":2623,"stown":2624,"uÃ©":2625,"uth":2626,"vik":2627,"wich":2628,"Å»":2629,"ante":2630,"orado":2631,"esta":2632,"ouin":2633,"oukro":2634,"iso":2635,"rab":2636,"ĠPaz":2637,"row":2638,"etown":2639,"ĠBern":2640,"agua":2641,"Ã³polis":2642,"usa":2643,"ump":2644,"ersheim":2645,"Shuang":2646,"ĠMarcos":2647,"tepe":2648,"verde":2649,"bourne":2650,"dalena":2651,"ĠRosario":2652,"DÃ©":2653,"Gil":2654,"Gun":2655,"Kay":2656,"Kop":2657,"Linc":2658,"Pak":2659,"Plan":2660,"Ri":2661,"Ran":2662,"ht":2663,"hill":2664,"hurst":2665,"ved":2666,"wÄģ":2667,"Åı":2668,"arina":2669,"iliano":2670,"dep":2671,"lag":2672,"atz":2673,"isc":2674,"ĠCÃ¡rdenas":2675,"ovac":2676,"ovsk":2677,"Ã¡l":2678,"Che":2679,"ĠRam":2680,"ĠView":2681,"oyo":2682,"opol":2683,"Monter":2684,"see":2685,"osso":2686,"Borgo":2687,"ĠGiovan":2688,"Middle":2689,"ĠNicolÃ¡s":2690,"ĠSebastiÃ¡n":2691,"ĠGiovanni":2692,"Bus":2693,"Buch":2694,"Cass":2695,"Ex":2696,"Fres":2697,"Gn":2698,"Gur":2699,"Gou":2700,"Herm":2701,"Hart":2702,"Log":2703,"Mach":2704,"Nat":2705,"Now":2706,"Oz":2707,"Pav":2708,"Put":2709,"Say":2710,"Vit":2711,"Vila":2712,"Wei":2713,"Wolf":2714,"bad":2715,"bey":2716,"fen":2717,"gy":2718,"gon":2719,"hÄģ":2720,"Ġa":2721,"into":2722,"ely":2723,"iston":2724,"rach":2725,"ĠMol":2726,"tedt":2727,"uno":2728,"riel":2729,"igen":2730,"Cha":2731,"Ã³bal":2732,"Äĥd":2733,"Arc":2734,"ampo":2735,"ĠWiel":2736,"Colle":2737,"Villal":2738,"Huang":2739,"errato":2740,"Seine":2741,"áº¡":2742,"royo":2743,"ĠPietro":2744,"App":2745,"Cou":2746,"Gul":2747,"Hin":2748,"Kul":2749,"Loma":2750,"Met":2751,"Nd":2752,"Nong":2753,"Neg":2754,"Sir":2755,"Sus":2756,"Song":2757,"Tou":2758,"Tres":2759,"Yar":2760,"lang":2761,"nan":2762,"nÃ¡":2763,"rin":2764,"Ã¦":2765,"anka":2766,"eren":2767,"alpa":2768,"ork":2769,"ame":2770,"lea":2771,"atan":2772,"ĠCas":2773,"itsa":2774,"ĠPr":2775,"ĠPar":2776,"Äģnd":2777,"ĠSa":2778,"Ã³m":2779,"andi":2780,"aine":2781,"Äĥc":2782,"ots":2783,"tera":2784,"tern":2785,"ema":2786,"ache":2787,"uda":2788,"tsville":2789,"âĢĻ-":2790,"Carr":2791,"Ã§a":2792,"irie":2793,"ault":2794,"theim":2795,"stone":2796,"ÈĽa":2797,"Laguna":2798,"Ã¡zaro":2799,"Cad":2800,"Cra":2801,"Dem":2802,"Eng":2803,"Fel":2804,"Gorn":2805,"Harr":2806,"Ja":2807,"Lad":2808,"Ling":2809,"Mus":2810,"Om":2811,"Pos":2812,"Roy":2813,"Seg":2814,"Tir":2815,"Vr":2816,"Vig":2817,"Well":2818,"Xia":2819,"cs":2820,"ces":2821,"gre":2822,"iÃ¨res":2823,"lyn":2824,"pal":2825,"ws":2826,"á¹":2827,"Ġ2":2828,"ches":2829,"urn":2830,"tau":2831,"ĠCer":2832,"ici":2833,"ayl":2834,"ĠSe":2835,"ĠSol":2836,"Lab":2837,"omp":2838,"ĠAgua":2839,"skie":2840,"ĠTep":2841,"ĠTerme":2842,"ĠGe":2843,"ahan":2844,"iden":2845,"uez":2846,"obo":2847,"ĠDe":2848,"Arn":2849,"gues":2850,"awan":2851,"Ã§u":2852,"stetten":2853,"linton":2854,"giore":2855,"Loire":2856,"igliano":2857,"Nizh":2858,"Union":2859,"kÃ¶y":2860,"ĠBartolom":2861,"ĠZapata":2862,"Agua":2863,"Bes":2864,"Blan":2865,"Cres":2866,"Cant":2867,"Dav":2868,"Fe":2869,"Gab":2870,"Haw":2871,"Ik":2872,"Jac":2873,"Mb":2874,"Suk":2875,"Vo":2876,"Wol":2877,"Ye":2878,"fer":2879,"ges":2880,"pÃ©":2881,"pino":2882,"rÃŃ":2883,"sor":2884,"uÅŁ":2885,"vas":2886,"yt":2887,"zyn":2888,"anh":2889,"anes":2890,"aru":2891,"enton":2892,"alt":2893,"chia":2894,"urch":2895,"lac":2896,"ĠCab":2897,"ĠPor":2898,"Chic":2899,"Ã³p":2900,"ĠHaven":2901,"ĠGar":2902,"ive":2903,"Ã¼k":2904,"ĠDu":2905,"Arm":2906,"utla":2907,"assa":2908,"erno":2909,"ĠOb":2910,"Vald":2911,"Castle":2912,"Schw":2913,"Villam":2914,"ĠMartino":2915,"acienda":2916,"Bains":2917,"ĠGuerrero":2918,"Lincoln":2919,"Ach":2920,"Cle":2921,"God":2922,"Hat":2923,"Hau":2924,"Hong":2925,"Kun":2926,"Lat":2927,"Lug":2928,"Vir":2929,"Wan":2930,"hofen":2931,"wi":2932,"zin":2933,"Ġp":2934,"anu":2935,"erb":2936,"enza":2937,"ilia":2938,"ilton":2939,"isi":2940,"rey":2941,"Ã¡d":2942,"Lak":2943,"Lap":2944,"autla":2945,"ĠAy":2946,"avan":2947,"Äĥt":2948,"otte":2949,"okro":2950,"acho":2951,"quin":2952,"eva":2953,"ĠMarina":2954,"Ã±os":2955,"gaon":2956,"Å£i":2957,"Ã¸r":2958,"ĠHarbor":2959,"Aj":2960,"Ath":2961,"Aber":2962,"Ding":2963,"Ful":2964,"Hir":2965,"Jes":2966,"Joh":2967,"Kn":2968,"KÃ¶":2969,"Kob":2970,"Lum":2971,"Maj":2972,"Mira":2973,"Rh":2974,"Roh":2975,"Va":2976,"dad":2977,"fo":2978,"fu":2979,"gg":2980,"gal":2981,"mit":2982,"so":2983,"tte":2984,"zal":2985,"zel":2986,"inte":2987,"ony":2988,"orio":2989,"elt":2990,"Ã©g":2991,"Ã©gu":2992,"iten":2993,"ovskaya":2994,"rap":2995,"ĠMills":2996,"uni":2997,"ĠSeg":2998,"Lav":2999,"ĠBor":3000,"ĠAd":3001,"thor":3002,"ĠVen":3003,"ersville":3004,"oga":3005,"endale":3006,"asse":3007,"ipp":3008,"Prov":3009,"ĠShores":3010,"Bayt":3011,"eriore":3012,"Ã¯n":3013,"William":3014,"Kafr":3015,"ĠCristÃ³bal":3016,"ĠZaragoza":3017,"Kang":3018,"Kaz":3019,"Low":3020,"Lich":3021,"Nap":3022,"Pes":3023,"Pag":3024,"Pir":3025,"Seb":3026,"Vern":3027,"Wen":3028,"cord":3029,"hÃ©":3030,"ios":3031,"ial":3032,"ika":3033,"oto":3034,"side":3035,"tar":3036,"tas":3037,"tre":3038,"uco":3039,"witz":3040,"wijk":3041,"zana":3042,"Ġc":3043,"erne":3044,"alb":3045,"orge":3046,"ilco":3047,"aster":3048,"cho":3049,"chy":3050,"led":3051,"Ã©k":3052,"Ã©l":3053,"ĠMountain":3054,"ĠPa":3055,"ĠPort":3056,"ĠBa":3057,"abad":3058,"aint":3059,"ĠRio":3060,"ĠRiv":3061,"Mars":3062,"alli":3063,"ierz":3064,"enii":3065,"nies":3066,"inster":3067,"Maur":3068,"ConcepciÃ³n":3069,"ĠCarmen":3070,"ĠUniÃ³n":3071,"ĠAgustÃŃn":3072,"Ari":3073,"Boy":3074,"Blo":3075,"Cul":3076,"Clay":3077,"Dy":3078,"Die":3079,"Farm":3080,"Gan":3081,"Gang":3082,"Gir":3083,"Hou":3084,"Ju":3085,"Jab":3086,"Juan":3087,"Jiang":3088,"Kim":3089,"Nord":3090,"Ras":3091,"Sec":3092,"SÃ¢n":3093,"Vor":3094,"Xing":3095,"far":3096,"kowice":3097,"mÃ¼":3098,"xing":3099,"xtla":3100,"ÄĹ":3101,"inka":3102,"ils":3103,"dez":3104,"ouse":3105,"ĠPer":3106,"Äģz":3107,"ĠSch":3108,"eti":3109,"Cham":3110,"edes":3111,"ake":3112,"ape":3113,"tian":3114,"Maria":3115,"ÅŁa":3116,"ersh":3117,"ogorsk":3118,"azz":3119,"ĠDol":3120,"quer":3121,"ernando":3122,"ugh":3123,"Brad":3124,"Columb":3125,"ajo":3126,"tenberg":3127,"ashington":3128,"Novos":3129,"ignÃ©":3130,"Trin":3131,"ksand":3132,"ĠReal":3133,"Richmond":3134,"unction":3135,"Klein":3136,"Germain":3137,"EstaciÃ³n":3138,"erÃ³nimo":3139,"depend":3140,"'s":3141,"Bau":3142,"Bot":3143,"Francisco":3144,"Gy":3145,"Hem":3146,"Iv":3147,"Ivan":3148,"Jer":3149,"Ki":3150,"Kry":3151,"Let":3152,"Lob":3153,"Mis":3154,"Nieu":3155,"Pok":3156,"Punta":3157,"RÃ¶":3158,"RÄģm":3159,"Sut":3160,"Ya":3161,"ble":3162,"bank":3163,"cr":3164,"cin":3165,"ding":3166,"fr":3167,"fton":3168,"gra":3169,"gate":3170,"kam":3171,"lon":3172,"lie":3173,"low":3174,"ms":3175,"sberg":3176,"uta":3177,"uka":3178,"vat":3179,"zar":3180,"ĠÅŀ":3181,"ania":3182,"ance":3183,"atta":3184,"Ã©b":3185,"ads":3186,"ĠMo":3187,"ayy":3188,"Äģw":3189,"ĠBo":3190,"ĠBra":3191,"illÃ©":3192,"Chil":3193,"ako":3194,"Alp":3195,"ĠVega":3196,"usta":3197,"ĠJerÃ³nimo":3198,"ĠNov":3199,"ÅŁu":3200,"Ã¼ck":3201,"sha":3202,"sham":3203,"ĠDiego":3204,"stÃ¤":3205,"Ä«m":3206,"tsch":3207,"Ã¢nd":3208,"ndorf":3209,"ishi":3210,"zew":3211,"Brown":3212,"felden":3213,"Silver":3214,"ĠConcepciÃ³n":3215,"Bourg":3216,"ĠCatarina":3217,"JosÃ©":3218,"AÃ¯n":3219,"Bow":3220,"Boc":3221,"Bish":3222,"Cac":3223,"Cog":3224,"Coc":3225,"Center":3226,"King":3227,"Mod":3228,"Mend":3229,"Mih":3230,"Nog":3231,"Ov":3232,"Pau":3233,"Pian":3234,"Sed":3235,"Tis":3236,"Vas":3237,"Warr":3238,"Zag":3239,"bah":3240,"cor":3241,"dy":3242,"dz":3243,"fel":3244,"jin":3245,"kon":3246,"nam":3247,"pleu":3248,"uo":3249,"uve":3250,"yd":3251,"Ãľ":3252,"osto":3253,"esville":3254,"Ã©kro":3255,"Ġdei":3256,"ĠMal":3257,"ĠMich":3258,"ĠBal":3259,"ĠBro":3260,"omo":3261,"Chern":3262,"Chester":3263,"tham":3264,"ulo":3265,"ĠVe":3266,"ĠVall":3267,"ave":3268,"nez":3269,"owns":3270,"Ġdella":3271,"Shar":3272,"Sher":3273,"ĠII":3274,"ĠIl":3275,"iye":3276,"uga":3277,"ĠOc":3278,"ĠOro":3279,"SchÃ¶n":3280,"Quint":3281,"ĠAlb":3282,"Oliv":3283,"Tex":3284,"orgio":3285,"ÈĽi":3286,"Llano":3287,"Hohen":3288,"Cedar":3289,"Ast":3290,"Baz":3291,"Civ":3292,"Dorf":3293,"Eb":3294,"Fern":3295,"Gall":3296,"Jan":3297,"Kaw":3298,"Mai":3299,"Rab":3300,"Rot":3301,"Roz":3302,"Sie":3303,"Za":3304,"Zac":3305,"]<":3306,"born":3307,"cun":3308,"kÃ©":3309,"los":3310,"pang":3311,"sbach":3312,"tin":3313,"tur":3314,"tto":3315,"xand":3316,"Ã®":3317,"Ãµ":3318,"Ãļ":3319,"Ġ[":3320,"anas":3321,"alia":3322,"recht":3323,"Äģna":3324,"ĠSar":3325,"ĠSau":3326,"Law":3327,"ĠBase":3328,"igan":3329,"Cheng":3330,"hein":3331,"okaha":3332,"iko":3333,"Shel":3334,"egu":3335,"Ard":3336,"estre":3337,"hui":3338,"ĠLag":3339,"ffen":3340,"ngeles":3341,"undo":3342,"á¸ĳ":3343,"ignan":3344,"Merc":3345,"aldo":3346,"ĠUn":3347,"Plou":3348,"Clar":3349,"Ã´ne":3350,"Paso":3351,"Ã¤rvi":3352,"Georges":3353,"Upper":3354,"Æ¡n":3355,"Aw":3356,"Bran":3357,"Card":3358,"Hy":3359,"Hen":3360,"Hum":3361,"Haz":3362,"Huan":3363,"Ignacio":3364,"Ji":3365,"Jo":3366,"Lud":3367,"Luk":3368,"Mountain":3369,"Py":3370,"Pay":3371,"PÄģ":3372,"Pob":3373,"Pamp":3374,"Rav":3375,"Rum":3376,"Rev":3377,"Son":3378,"Sing":3379,"Sig":3380,"Sey":3381,"Samb":3382,"Tet":3383,"Tot":3384,"Tub":3385,"Wy":3386,"Wester":3387,"bes":3388,"hai":3389,"mers":3390,"oe":3391,"rum":3392,"sar":3393,"vill":3394,"vern":3395,"weg":3396,"anos":3397,"anca":3398,"erville":3399,"elu":3400,"chan":3401,"chang":3402,"oula":3403,"olm":3404,"isto":3405,"itÃ¡n":3406,"ovci":3407,"teÅŁti":3408,"ĠProgreso":3409,"ĠBuen":3410,"ĠRa":3411,"ĠRita":3412,"ulu":3413,"bao":3414,"ĠLibertad":3415,"ĠNeg":3416,"ersburg":3417,"ogne":3418,"Ä«l":3419,"iche":3420,"Ã¢l":3421,"oura":3422,"Barra":3423,"GuÃ©":3424,"hao":3425,"Newport":3426,"ignac":3427,"Kirk":3428,"Bagn":3429,"ĠGiorgio":3430,"Victoria":3431,"Stock":3432,"ĠFlores":3433,"Franklin":3434,"ĠBravo":3435,"Buk":3436,"Bridge":3437,"Cau":3438,"CÄĥ":3439,"Cond":3440,"Dev":3441,"Ek":3442,"Guan":3443,"Hon":3444,"Hill":3445,"Hav":3446,"Herr":3447,"Hills":3448,"Ill":3449,"Kel":3450,"Kro":3451,"Lom":3452,"LÃ¼":3453,"Loc":3454,"Nu":3455,"Nak":3456,"Pem":3457,"Ray":3458,"Rac":3459,"Sos":3460,"Sad":3461,"Sob":3462,"Tian":3463,"Tanj":3464,"Ud":3465,"Vad":3466,"Wit":3467,"You":3468,"Zav":3469,"Zhu":3470,"bio":3471,"din":3472,"eville":3473,"fe":3474,"lano":3475,"mor":3476,"mad":3477,"net":3478,"pam":3479,"ple":3480,"rÃ¡":3481,"zz":3482,"Åº":3483,"Èĺ":3484,"enas":3485,"alÃ¡":3486,"ation":3487,"ouan":3488,"Ã©lÃ©":3489,"isar":3490,"ĠMer":3491,"ĠPueb":3492,"uns":3493,"Äģri":3494,"Äģá¸©":3495,"righ":3496,"ĠBou":3497,"iglio":3498,"agna":3499,"agui":3500,"ĠAt":3501,"ĠAle":3502,"Ã³ri":3503,"abel":3504,"ĠRod":3505,"ĠGab":3506,"usz":3507,"ĠJoh":3508,"okh":3509,"ÅŁi":3510,"Shang":3511,"Shah":3512,"ards":3513,"Monta":3514,"burgh":3515,"Villas":3516,"ermosa":3517,"Ãºn":3518,"Esc":3519,"Casas":3520,"Sea":3521,"stead":3522,"borg":3523,"Benito":3524,"eneuve":3525,"Emiliano":3526,"Ã¶nig":3527,"Angelo":3528,"niki":3529,"tagne":3530,"iglione":3531,"ĠLucas":3532,"ackson":3533,"Rocca":3534,"walde":3535,"Central":3536,"Æ°á»":3537,"Aug":3538,"Bia":3539,"Bok":3540,"Boh":3541,"Boz":3542,"Beth":3543,"Cord":3544,"Hur":3545,"Hud":3546,"Hacienda":3547,"Jing":3548,"Kong":3549,"Main":3550,"Mant":3551,"Moh":3552,"Nau":3553,"Nicol":3554,"Our":3555,"Para":3556,"Rat":3557,"Rub":3558,"Sw":3559,"Sac":3560,"SÄĥ":3561,"Sung":3562,"Tamb":3563,"Van":3564,"Yun":3565,"cast":3566,"dong":3567,"fal":3568,"ku":3569,"mat":3570,"mere":3571,"pas":3572,"wis":3573,"yne":3574,"ÅĪ":3575,"Ġi":3576,"ose":3577,"arra":3578,"enk":3579,"eny":3580,"enka":3581,"onda":3582,"elia":3583,"asc":3584,"amor":3585,"leur":3586,"leigh":3587,"oub":3588,"Ã©v":3589,"ĠCom":3590,"ĠCorn":3591,"ados":3592,"race":3593,"ĠPra":3594,"ĠPuerto":3595,"Äģla":3596,"ĠBran":3597,"agle":3598,"ome":3599,"Chich":3600,"ĠAgu":3601,"Ġdos":3602,"ĠTri":3603,"ĠHa":3604,"ĠRanch":3605,"Alber":3606,"avi":3607,"avese":3608,"ĠLar":3609,"Marina":3610,"ĠNa":3611,"ĠNou":3612,"ĠNueva":3613,"ĠFu":3614,"illac":3615,"shui":3616,"aza":3617,"Arroyo":3618,"Ä«s":3619,"quit":3620,"Neus":3621,"eke":3622,"Ã¢m":3623,"ungan":3624,"Brand":3625,"ize":3626,"aja":3627,"Thorn":3628,"Valley":3629,"Ã¤s":3630,"Villeneuve":3631,"Bella":3632,"Montic":3633,"Novi":3634,"Äįe":3635,"Ã©nou":3636,"áºĸ":3637,"istr":3638,"Roth":3639,"onso":3640,"Casteln":3641,"ĠEsperanza":3642,"warz":3643,"DrÄĥ":3644,"DolnÃŃ":3645,"Alexand":3646,"olfo":3647,"ÃŃso":3648,"ĠPalma":3649,"Highland":3650,"Att":3651,"Beni":3652,"Cub":3653,"Clinton":3654,"Fa":3655,"Fi":3656,"Fin":3657,"Fra":3658,"Kra":3659,"Kod":3660,"KÃ¼":3661,"Lov":3662,"Lie":3663,"Lamb":3664,"Meng":3665,"Pic":3666,"Ret":3667,"Rus":3668,"Rec":3669,"RÃ¼":3670,"RincÃ³n":3671,"Sop":3672,"Tok":3673,"Vy":3674,"Wer":3675,"Wai":3676,"bol":3677,"bia":3678,"beck":3679,"gor":3680,"gat":3681,"hn":3682,"lik":3683,"nio":3684,"pÄ±nar":3685,"say":3686,"teni":3687,"wu":3688,"zec":3689,"ince":3690,"enay":3691,"altepec":3692,"eley":3693,"ilar":3694,"dec":3695,"lau":3696,"lake":3697,"Ã©ri":3698,"tak":3699,"ĠCove":3700,"ovskoye":3701,"ayor":3702,"ĠSaint":3703,"tong":3704,"ime":3705,"iman":3706,"Chel":3707,"abal":3708,"ÃŃr":3709,"thur":3710,"ĠTom":3711,"ĠHund":3712,"Alten":3713,"ĠFe":3714,"ikha":3715,"Ã¶s":3716,"stal":3717,"udi":3718,"assi":3719,"ipa":3720,"ĠOne":3721,"bergen":3722,"ĠWood":3723,"Tha":3724,"Castro":3725,"ĠAlta":3726,"Mans":3727,"ija":3728,"ĠJose":3729,"Bald":3730,"nsdorf":3731,"cuaro":3732,"ÅĻÃŃ":3733,"ĠMartin":3734,"rose":3735,"ÄĥneÈĻti":3736,"ĠRoque":3737,"Fuente":3738,"ĠInf":3739,"ĠForce":3740,"ĠMadero":3741,"ĠClara":3742,"ĠCentro":3743,"ontaine":3744,"Pieve":3745,"ĠHundred":3746,"Cel":3747,"Cob":3748,"Dos":3749,"Did":3750,"Fri":3751,"Gand":3752,"Gem":3753,"Hun":3754,"Hard":3755,"Hunt":3756,"Jas":3757,"Jackson":3758,"Kah":3759,"Lal":3760,"Luz":3761,"Liber":3762,"Mut":3763,"Miss":3764,"Ole":3765,"RÄĥ":3766,"Sov":3767,"Ston":3768,"SÃ¼":3769,"Soc":3770,"Tah":3771,"Ug":3772,"Ung":3773,"Vis":3774,"Wel":3775,"Way":3776,"Yel":3777,"Yak":3778,"gel":3779,"gang":3780,"gau":3781,"hor":3782,"hall":3783,"iqu":3784,"non":3785,"nach":3786,"oo":3787,"por":3788,"qi":3789,"sy":3790,"sta":3791,"uit":3792,"vador":3793,"yev":3794,"oster":3795,"aram":3796,"ende":3797,"als":3798,"alina":3799,"ild":3800,"ilh":3801,"esto":3802,"chin":3803,"lado":3804,"tac":3805,"ĠCourt":3806,"iag":3807,"ĠPrim":3808,"Ã¡m":3809,"ĠSee":3810,"ĠBan":3811,"Charl":3812,"ace":3813,"tok":3814,"ĠTec":3815,"Alto":3816,"cott":3817,"ÅŁÄ±":3818,"Art":3819,"uci":3820,"Stra":3821,"ordo":3822,"iera":3823,"izz":3824,"Villaf":3825,"uelas":3826,"âĢĺ<":3827,"quez":3828,"uerta":3829,"Ã«vo":3830,"áºŃ":3831,"Petit":3832,"Clark":3833,"Ã´ng":3834,"ĠLeon":3835,"ĠLeft":3836,"ĠStef":3837,"Tanjung":3838,"Bard":3839,"Ce":3840,"Cov":3841,"Cir":3842,"Cum":3843,"Cran":3844,"Cort":3845,"Din":3846,"Dig":3847,"Dag":3848,"Fay":3849,"Foss":3850,"Gos":3851,"Gold":3852,"Id":3853,"Jul":3854,"Kut":3855,"Lit":3856,"Lok":3857,"Lut":3858,"LÃ¡zaro":3859,"Ning":3860,"Not":3861,"Ori":3862,"Poc":3863,"Prim":3864,"Res":3865,"Rap":3866,"Sub":3867,"Tat":3868,"Ves":3869,"Wor":3870,"Washington":3871,"iat":3872,"kaha":3873,"ote":3874,"oara":3875,"su":3876,"vet":3877,"vÃ¡r":3878,"wice":3879,"xco":3880,"zell":3881,"Ã¹":3882,"ĠÅļ":3883,"arh":3884,"onk":3885,"alam":3886,"ching":3887,"ouk":3888,"oles":3889,"olles":3890,"isk":3891,"ishan":3892,"ovi":3893,"ovec":3894,"rain":3895,"ĠMel":3896,"ĠMill":3897,"ĠPaul":3898,"Äģq":3899,"agno":3900,"Chat":3901,"Chev":3902,"ĠHor":3903,"apur":3904,"ĠGarc":3905,"hevo":3906,"otto":3907,"ĠJunction":3908,"Marie":3909,"Marne":3910,"azzo":3911,"opp":3912,"assou":3913,"ress":3914,"Ä±z":3915,"huaca":3916,"fferson":3917,"Quin":3918,"Å¡t":3919,"sea":3920,"ÅĤÃ³w":3921,"ucheng":3922,"Pros":3923,"Perv":3924,"Concord":3925,"ĠAnt":3926,"nster":3927,"Reich":3928,"oledad":3929,"Poiana":3930,"ÅĻice":3931,"luff":3932,"Kota":3933,"Villanova":3934,"Smith":3935,"ĠBlanco":3936,"Puebla":3937,"Kingston":3938,"Pleasant":3939,"ouinÃ©":3940,"Ã³mez":3941,"Cis":3942,"Dul":3943,"Dah":3944,"Eber":3945,"Fried":3946,"Hall":3947,"Hof":3948,"Jia":3949,"Kp":3950,"Kit":3951,"Kak":3952,"Lus":3953,"Lomas":3954,"Meg":3955,"Ner":3956,"Nes":3957,"Nab":3958,"Nev":3959,"Pou":3960,"Rand":3961,"Step":3962,"Tun":3963,"Tig":3964,"Tac":3965,"Tob":3966,"TrÃ©":3967,"Taf":3968,"Terr":3969,"Vid":3970,"bos":3971,"bas":3972,"fj":3973,"fran":3974,"gas":3975,"hen":3976,"hel":3977,"iÈĻ":3978,"jal":3979,"lv":3980,"lice":3981,"nano":3982,"rz":3983,"tu":3984,"tle":3985,"vre":3986,"xiang":3987,"Ä©":3988,"Åĵ":3989,"Ġe":3990,"ancia":3991,"enta":3992,"alk":3993,"eln":3994,"iles":3995,"chard":3996,"chuan":3997,"deÅŁti":3998,"ols":3999,"adia":4000,"ovoye":4001,"ĠMaz":4002,"icola":4003,"ĠPan":4004,"ĠPed":4005,"Äģra":4006,"rique":4007,"Lau":4008,"ĠBos":4009,"ĠBas":4010,"ĠBridge":4011,"Chip":4012,"ĠAs":4013,"Ã³d":4014,"Ã³ra":4015,"edale":4016,"akan":4017,"ĠGh":4018,"ĠGran":4019,"ĠVel":4020,"idi":4021,"ĠLu":4022,"ĠLig":4023,"tero":4024,"ĠJes":4025,"emb":4026,"ĠFer":4027,"ĠFernando":4028,"Ã¶y":4029,"Shi":4030,"sten":4031,"Ã¡ny":4032,"quÃŃn":4033,"opa":4034,"ĠEnd":4035,"ĠEste":4036,"ipur":4037,"ĠIx":4038,"cea":4039,"nya":4040,"Guar":4041,"eiro":4042,"ight":4043,"Belmont":4044,"ĠAlm":4045,"Ã§Ã£o":4046,"uchi":4047,"Newton":4048,"arros":4049,"á»Ļ":4050,"áº£":4051,"áº§":4052,"ttel":4053,"PeÃ±":4054,"Langen":4055,"Krasnyy":4056,"Madison":4057,"ÄĥrÄĥ":4058,"venir":4059,"ĠTrin":4060,"ĠLucÃŃa":4061,"Charles":4062,"Umm":4063,"Denis":4064,"itsy":4065,"ĠChapelle":4066,"Nieuw":4067,"ĠGabriel":4068,"Bom":4069,"Bec":4070,"Boul":4071,"Bever":4072,"Cont":4073,"Dim":4074,"Dab":4075,"Gam":4076,"Gag":4077,"Gamb":4078,"Iss":4079,"Kav":4080,"Kib":4081,"Lyn":4082,"Miguel":4083,"MÃ©d":4084,"Nas":4085,"Nie":4086,"Oy":4087,"Oce":4088,"Ojo":4089,"Pf":4090,"Pia":4091,"Pun":4092,"RÄģj":4093,"Slob":4094,"Tek":4095,"Troy":4096,"Tierra":4097,"Uz":4098,"Vie":4099,"Wu":4100,"Wies":4101,"Xoch":4102,"Yen":4103,"York":4104,"col":4105,"fels":4106,"forte":4107,"kins":4108,"lou":4109,"rub":4110,"tang":4111,"vers":4112,"Ġ3":4113,"erton":4114,"inda":4115,"inskoye":4116,"onde":4117,"onville":4118,"alta":4119,"dea":4120,"atla":4121,"ĠMu":4122,"ĠMur":4123,"ĠMayo":4124,"ĠPot":4125,"rode":4126,"Äģf":4127,"Äģk":4128,"Chau":4129,"Ã³j":4130,"ther":4131,"akovo":4132,"ĠTra":4133,"ĠHall":4134,"ulan":4135,"ĠGor":4136,"ĠGÃ³r":4137,"ids":4138,"usco":4139,"avia":4140,"cote":4141,"ume":4142,"ĠLim":4143,"Ell":4144,"Elm":4145,"Äĥn":4146,"ĠJac":4147,"Marse":4148,"Markt":4149,"oki":4150,"ĠFarm":4151,"erst":4152,"rana":4153,"Sha":4154,"ego":4155,"storf":4156,"Ã¡nd":4157,"ucan":4158,"ĠKal":4159,"ensee":4160,"uki":4161,"uku":4162,"Mons":4163,"ffi":4164,"Ã¤n":4165,"oche":4166,"asht":4167,"ĠCross":4168,"Olm":4169,"á»ĵ":4170,"Const":4171,"Broad":4172,"ushi":4173,"broek":4174,"gnano":4175,"Brigh":4176,"kirch":4177,"oughton":4178,"Fairview":4179,"ĠTorre":4180,"ĠTorres":4181,"Rocc":4182,"ĠCanavese":4183,"Laurent":4184,"ĠAires":4185,"Windsor":4186,"ĠAcres":4187,"ĠOaks":4188,"ĠJoÃ£o":4189,"Bloom":4190,"Bishop":4191,"Hudson":4192,"Bill":4193,"Bord":4194,"Cin":4195,"Cay":4196,"Cod":4197,"Caz":4198,"Cli":4199,"Cuc":4200,"Dia":4201,"Dra":4202,"Div":4203,"Diet":4204,"Eagle":4205,"Ferr":4206,"Gas":4207,"Gla":4208,"Hod":4209,"How":4210,"Jag":4211,"KÃ¡":4212,"Kai":4213,"Kara":4214,"Kost":4215,"KÃ¶nig":4216,"Leg":4217,"Mok":4218,"MÃ¶":4219,"Nur":4220,"Nang":4221,"Ned":4222,"Naz":4223,"Ow":4224,"Oss":4225,"Over":4226,"Paw":4227,"Pant":4228,"Pry":4229,"Pira":4230,"Rak":4231,"Rok":4232,"Rip":4233,"Riz":4234,"Sl":4235,"Sit":4236,"SÃ¶":4237,"Sud":4238,"Suc":4239,"Tau":4240,"TiÃ©":4241,"Wad":4242,"Xi":4243,"Ze":4244,"Zu":4245,"Zw":4246,"bre":4247,"cliff":4248,"ferrato":4249,"hal":4250,"hof":4251,"jÃ³n":4252,"kent":4253,"lÄħ":4254,"nell":4255,"rada":4256,"tos":4257,"ugu":4258,"zu":4259,"Ì±":4260,"Ġon":4261,"arg":4262,"inj":4263,"ennes":4264,"enango":4265,"aly":4266,"alto":4267,"alapa":4268,"chor":4269,"chel":4270,"urg":4271,"atÃ¡n":4272,"Ã©t":4273,"Ã©li":4274,"ĠMir":4275,"ĠPas":4276,"angu":4277,"ayd":4278,"Äģv":4279,"Äģng":4280,"Ã¡k":4281,"ĠSam":4282,"ĠBÃ¡r":4283,"aggiore":4284,"abeth":4285,"abamba":4286,"tha":4287,"ĠTir":4288,"Ald":4289,"Alco":4290,"Alba":4291,"ĠVern":4292,"ushan":4293,"ieÈĻti":4294,"tip":4295,"ĠLuz":4296,"Äĥm":4297,"otitlÃ¡n":4298,"ranza":4299,"ShÄģh":4300,"ĠDowns":4301,"qua":4302,"tsia":4303,"ĠEm":4304,"ĠIgnacio":4305,"Ã¢mp":4306,"ugan":4307,"Ã±ez":4308,"ĠChico":4309,"ĠWan":4310,"ineÅŁti":4311,"antes":4312,"ezzo":4313,"Coll":4314,"eph":4315,"Amp":4316,"Villers":4317,"ocha":4318,"Princ":4319,"Coron":4320,"Esp":4321,"Mae":4322,"Adda":4323,"rontera":4324,"Cerv":4325,"Isle":4326,"Isola":4327,"Independ":4328,"Ã¡sz":4329,"ÄŁÄ±":4330,"ĠSpring":4331,"Oster":4332,"Serra":4333,"ĠQue":4334,"Blue":4335,"bourg":4336,"Willow":4337,"Louis":4338,"ĠInn":4339,"ĠGarden":4340,"Beaumont":4341,"ĠTeresa":4342,"ĠBartolo":4343,"Dayr":4344,"WeiÃŁ":4345,"ĠWielk":4346,"ĠBartolomÃ©":4347,"Castelnuovo":4348,"ĠStefano":4349,"Air":4350,"Bey":4351,"Bond":4352,"BÄĥl":4353,"Boca":4354,"Caj":4355,"CÄĥl":4356,"Dec":4357,"Ele":4358,"Fur":4359,"Gad":4360,"Hig":4361,"Hue":4362,"Hoch":4363,"Holl":4364,"Jun":4365,"Kand":4366,"Leng":4367,"Lamp":4368,"Lop":4369,"Lup":4370,"Ming":4371,"Mong":4372,"Mug":4373,"Paj":4374,"Sah":4375,"Serr":4376,"Stadt":4377,"Tuc":4378,"Tib":4379,"TÃ¢r":4380,"Vl":4381,"Wend":4382,"Xiang":4383,"Yam":4384,"bs":4385,"bell":4386,"dington":4387,"fug":4388,"fingen":4389,"hagen":4390,"iá»":4391,"jev":4392,"naya":4393,"oka":4394,"qing":4395,"ser":4396,"uto":4397,"vka":4398,"ward":4399,"Ã»":4400,"Ġna":4401,"Ġash":4402,"Ġthe":4403,"osta":4404,"arta":4405,"eron":4406,"inz":4407,"inha":4408,"alda":4409,"elbach":4410,"ilan":4411,"ams":4412,"lak":4413,"leasant":4414,"atal":4415,"isy":4416,"ady":4417,"adero":4418,"adougou":4419,"reto":4420,"ĠPat":4421,"ĠPleasant":4422,"Äģg":4423,"Äģsh":4424,"ĠSÆ¡n":4425,"ĠBu":4426,"agne":4427,"omay":4428,"Chir":4429,"auht":4430,"ÃŃk":4431,"ĠTre":4432,"ĠHam":4433,"ĠRu":4434,"ĠGen":4435,"avier":4436,"cola":4437,"cotepec":4438,"baÅŁÄ±":4439,"umba":4440,"ĠLoma":4441,"ĠLlano":4442,"Äĥs":4443,"ÄĥÅ£":4444,"oyang":4445,"ĠNova":4446,"Ã¼l":4447,"acha":4448,"azi":4449,"alles":4450,"egem":4451,"Ä«t":4452,"udo":4453,"tsy":4454,"entin":4455,"ental":4456,"utt":4457,"ibo":4458,"ense":4459,"nyaya":4460,"Guay":4461,"ungen":4462,"fford":4463,"izabeth":4464,"ondon":4465,"tenbach":4466,"less":4467,"Gros":4468,"Orange":4469,"ÅĤa":4470,"Salem":4471,"rovka":4472,"issa":4473,"essa":4474,"elsheim":4475,"elsdorf":4476,"Bayan":4477,"Ãīti":4478,"Plain":4479,"Hamilton":4480,"Edge":4481,"Fuentes":4482,"rivka":4483,"ĠCastillo":4484,"Springfield":4485,"ĠMonferrato":4486,"Indian":4487,"Lunca":4488,"Ã¬nh":4489,"JesÃºs":4490,"felde":4491,"ĠLaguna":4492,"ĠPrairie":4493,"Notre":4494,"ĠGarcÃŃa":4495,"ĠLigure":4496,"Marseille":4497,"ĠBÃ¡rbara":4498,"Bov":4499,"Bei":4500,"Buck":4501,"Cim":4502,"Cern":4503,"Doug":4504,"Et":4505,"Four":4506,"Forn":4507,"Franc":4508,"Gav":4509,"Giv":4510,"Good":4511,"Hag":4512,"Just":4513,"Kw":4514,"LÃ¶":4515,"Lanc":4516,"Libertad":4517,"Mey":4518,"Pand":4519,"Pec":4520,"Ply":4521,"Pedro":4522,"Qar":4523,"Rov":4524,"Ric":4525,"Rim":4526,"Rey":4527,"Ried":4528,"Samp":4529,"Sek":4530,"Saw":4531,"Sierra":4532,"Vent":4533,"Vinc":4534,"Vega":4535,"Zo":4536,"Zab":4537,"aq":4538,"cillo":4539,"czy":4540,"cingo":4541,"fan":4542,"gom":4543,"haven":4544,"iÃ±o":4545,"jon":4546,"lant":4547,"litz":4548,"mas":4549,"rzy":4550,"tic":4551,"vis":4552,"yb":4553,"Ġob":4554,"anne":4555,"erk":4556,"along":4557,"orÃ©":4558,"iling":4559,"ureni":4560,"olt":4561,"olle":4562,"ĠCro":4563,"adio":4564,"ovÃ¡":4565,"ĠMain":4566,"ĠMesa":4567,"teÈĻti":4568,"ĠPlan":4569,"ĠPied":4570,"Äģli":4571,"ĠSil":4572,"ĠSup":4573,"riano":4574,"igi":4575,"omba":4576,"Chand":4577,"acÃ¡n":4578,"abe":4579,"skirchen":4580,"ĠTs":4581,"ult":4582,"ulla":4583,"ĠGreg":4584,"ĠVill":4585,"idencia":4586,"ĠLong":4587,"otz":4588,"ĠJoa":4589,"emont":4590,"March":4591,"ĠNor":4592,"Ã¶ren":4593,"Ã¼hl":4594,"Shim":4595,"ardi":4596,"ĠKn":4597,"ĠKhan":4598,"Neuk":4599,"iyang":4600,"upa":4601,"ensburg":4602,"Barb":4603,"Å«l":4604,"ozo":4605,"Castiglione":4606,"indi":4607,"olay":4608,"ĠSanto":4609,"Ã§ay":4610,"iente":4611,"Äįa":4612,"lende":4613,"Karl":4614,"Meadow":4615,"irim":4616,"Palo":4617,"Zhang":4618,"Rose":4619,"ittel":4620,"Cruz":4621,"Magdalena":4622,"Ãªt":4623,"yanka":4624,"Fairfield":4625,"moor":4626,"Jefferson":4627,"aciÃ³n":4628,"Sauve":4629,"ĠPlains":4630,"Aleksand":4631,"ĠCarranza":4632,"ĠForest":4633,"ĠÃģngeles":4634,"ĠMeadow":4635,"ĠReyes":4636,"MÃ¼hl":4637,"James":4638,"ĠBenito":4639,"bÃ¼ttel":4640,"Rohr":4641,"ĠBrook":4642,"Monticello":4643,"ĠÅļlÄħ":4644,"fugio":4645,"Ax":4646,"Ahu":4647,"Ayn":4648,"Bit":4649,"Bark":4650,"Buz":4651,"Bamb":4652,"Cs":4653,"Cong":4654,"Cow":4655,"Coch":4656,"Dover":4657,"Drag":4658,"Eas":4659,"Eden":4660,"Gel":4661,"Gat":4662,"Gib":4663,"Gura":4664,"Heng":4665,"Hop":4666,"Kla":4667,"Kast":4668,"Kall":4669,"Lig":4670,"Lian":4671,"Moz":4672,"Ris":4673,"Raj":4674,"Russ":4675,"Sas":4676,"Sot":4677,"Saf":4678,"Tod":4679,"Tran":4680,"Tall":4681,"Tlal":4682,"Ula":4683,"Vik":4684,"Vien":4685,"Wah":4686,"Zam":4687,"Zell":4688,"bÃ¡":4689,"cro":4690,"gow":4691,"gli":4692,"hum":4693,"jÃ¤rvi":4694,"kreis":4695,"mu":4696,"med":4697,"minster":4698,"nac":4699,"rs":4700,"sel":4701,"ute":4702,"wah":4703,"wala":4704,"willer":4705,"xton":4706,"xington":4707,"zio":4708,"zza":4709,"zzo":4710,"Äĳ":4711,"anÃ³w":4712,"aral":4713,"arÃ©":4714,"arre":4715,"arro":4716,"inen":4717,"ilio":4718,"chÅį":4719,"ames":4720,"ouy":4721,"ound":4722,"Ã©z":4723,"ĠCarr":4724,"adilla":4725,"ital":4726,"ĠMes":4727,"ĠMic":4728,"ican":4729,"ĠPia":4730,"ayn":4731,"ayr":4732,"ungu":4733,"Ã¡za":4734,"ĠSp":4735,"ries":4736,"etla":4737,"ĠBend":4738,"ĠBuri":4739,"ignies":4740,"tona":4741,"aglia":4742,"imas":4743,"Chor":4744,"Chim":4745,"Ġdu":4746,"tog":4747,"top":4748,"ĠTa":4749,"ĠHol":4750,"ĠRap":4751,"Alg":4752,"ĠVod":4753,"ĠVito":4754,"idd":4755,"idel":4756,"usti":4757,"cob":4758,"Elizabeth":4759,"heide":4760,"ivers":4761,"Marsh":4762,"ĠNar":4763,"ĠNeck":4764,"ikou":4765,"ĠDÃŃ":4766,"Ä«sh":4767,"quar":4768,"quilla":4769,"quera":4770,"tsya":4771,"Stary":4772,"ĠIr":4773,"ĠOber":4774,"enstadt":4775,"ĠChar":4776,"Carmen":4777,"ezi":4778,"Cold":4779,"erode":4780,"ermo":4781,"erman":4782,"pura":4783,"ashen":4784,"arita":4785,"ossa":4786,"Novyy":4787,"uyo":4788,"Mex":4789,"ountry":4790,"ĠIsabel":4791,"Milton":4792,"Milford":4793,"ĠSalvador":4794,"Phil":4795,"ÄĻb":4796,"ĠEsc":4797,"Brie":4798,"etsu":4799,"ChÃ¢t":4800,"ĠRefugio":4801,"Winter":4802,"Ã©moc":4803,"Dame":4804,"Puente":4805,"Golden":4806,"ĠManor":4807,"agnano":4808,"ĠRomano":4809,"Georgetown":4810,"onzÃ¡":4811,"stock":4812,"HornÃŃ":4813,"Æ¡ng":4814,"Weston":4815,"Poggio":4816,"ĠPorvenir":4817,"Ã³pez":4818,"ĠDuero":4819,"thorpe":4820,"Ã¢ndia":4821,"ĠAlegre":4822,"áºŃn":4823,"Ocean":4824,"ĠVernon":4825,"auhtÃ©moc":4826,"Sauveur":4827,"Are":4828,"AÅŁ":4829,"Aran":4830,"Abr":4831,"Akh":4832,"Baj":4833,"Bij":4834,"Call":4835,"Cerr":4836,"Dre":4837,"Dod":4838,"Deb":4839,"Ep":4840,"Eis":4841,"Gong":4842,"Gaz":4843,"Goh":4844,"Hend":4845,"Heb":4846,"Hampton":4847,"Ish":4848,"Jon":4849,"Kes":4850,"Kre":4851,"Kush":4852,"Lj":4853,"Lys":4854,"Mik":4855,"Mud":4856,"Morn":4857,"Mund":4858,"Mata":4859,"Och":4860,"Off":4861,"Pis":4862,"Penn":4863,"Rath":4864,"Sass":4865,"Slav":4866,"Til":4867,"Ying":4868,"Yurt":4869,"Zor":4870,"Zou":4871,"Zelen":4872,"cl":4873,"dere":4874,"furt":4875,"fors":4876,"her":4877,"lic":4878,"lÃ¡":4879,"nÃ©":4880,"rb":4881,"rug":4882,"rillo":4883,"wen":4884,"yp":4885,"yar":4886,"zes":4887,"zcz":4888,"Ã°":4889,"oshi":4890,"anan":4891,"anilla":4892,"aras":4893,"arolo":4894,"enal":4895,"enau":4896,"ensk":4897,"onan":4898,"alang":4899,"alpan":4900,"oru":4901,"elaria":4902,"ily":4903,"lewood":4904,"ister":4905,"isbury":4906,"ĠChe":4907,"ĠCerr":4908,"rews":4909,"teg":4910,"ĠPod":4911,"ĠPob":4912,"ĠPara":4913,"rot":4914,"Äģgh":4915,"ĠSu":4916,"ĠSim":4917,"ĠBat":4918,"agi":4919,"ombo":4920,"Chav":4921,"Chamb":4922,"ĠAv":4923,"Ġdas":4924,"abro":4925,"iros":4926,"ĠTur":4927,"ĠRincÃ³n":4928,"ulin":4929,"ĠGal":4930,"ĠVit":4931,"tik":4932,"cop":4933,"kaz":4934,"kawa":4935,"berry":4936,"ĠLo":4937,"Elk":4938,"otla":4939,"ĠJu":4940,"ĠJad":4941,"eme":4942,"Marg":4943,"ĠNu":4944,"ĠFort":4945,"ersbach":4946,"ogor":4947,"ike":4948,"enga":4949,"obod":4950,"Shen":4951,"Arb":4952,"Arz":4953,"arda":4954,"estr":4955,"eve":4956,"alejo":4957,"zhi":4958,"ĠInd":4959,"Ã¢u":4960,"ugg":4961,"Å«s":4962,"Carbon":4963,"ÈĻi":4964,"Quar":4965,"Quer":4966,"yntsi":4967,"ermont":4968,"intla":4969,"Salv":4970,"Morris":4971,"Huai":4972,"Cald":4973,"Buena":4974,"ignon":4975,"beu":4976,"sonville":4977,"Max":4978,"Trz":4979,"Abb":4980,"ixtla":4981,"Coal":4982,"Deer":4983,"Heil":4984,"ankro":4985,"Petrov":4986,"Cross":4987,"AndrÃ©":4988,"Ãīv":4989,"Point":4990,"Camar":4991,"Grab":4992,"Enc":4993,"Mines":4994,"akhon":4995,"ChÃ¢tel":4996,"ĠStation":4997,"ĠColorado":4998,"Tepe":4999,"Sulz":5000,"DoÄŁ":5001,"ĠTerrace":5002,"ĠMagdalena":5003,"Costa":5004,"UniÃ³n":5005,"Æ°Æ¡ng":5006,"Sokol":5007,"holm":5008,"Verkhniy":5009,"Hilaire":5010,"Taylor":5011,"ĠDonau":5012,"Kampung":5013,"huacÃ¡n":5014,"Bedford":5015,"ĠCaÃ±":5016,"CaÃ±ada":5017,"Harris":5018,"Royal":5019,"Nizhniy":5020,"ĠObreg":5021,"Sutton":5022,"ĠOcampo":5023,"Sungai":5024,"castle":5025,"Ä±zÄ±":5026,"Pervomay":5027,"ĠEsteban":5028,"Ãītienne":5029,"ĠSuperiore":5030,"ĠGregorio":5031,"ĠDÃŃaz":5032,"onzÃ¡lez":5033,"Ata":5034,"Aqu":5035,"AÅ£":5036,"Bj":5037,"BÃ¶":5038,"Born":5039,"Batt":5040,"BlÃ©":5041,"Ces":5042,"Cut":5043,"DÃ¼":5044,"Daw":5045,"Eure":5046,"Fou":5047,"Fol":5048,"Fig":5049,"Fir":5050,"Gom":5051,"Gond":5052,"Him":5053,"Hab":5054,"Haj":5055,"Ip":5056,"Kri":5057,"Kens":5058,"Koh":5059,"Kond":5060,"Lay":5061,"Moy":5062,"MÃ¼n":5063,"Nou":5064,"Nem":5065,"Noy":5066,"Oula":5067,"Ott":5068,"PrÃ©":5069,"Progreso":5070,"Rau":5071,"Rid":5072,"Ster":5073,"Sai":5074,"Sep":5075,"Such":5076,"Saul":5077,"Syl":5078,"Tie":5079,"Tum":5080,"Tip":5081,"Tup":5082,"Tung":5083,"Ved":5084,"Viv":5085,"Vend":5086,"Vista":5087,"Vys":5088,"Zal":5089,"bec":5090,"cen":5091,"cat":5092,"czyce":5093,"dam":5094,"dingen":5095,"gol":5096,"hon":5097,"hout":5098,"iÃ¡":5099,"iÄį":5100,"jÃ¶":5101,"kow":5102,"kivtsi":5103,"log":5104,"lÃ¼":5105,"nay":5106,"rel":5107,"rington":5108,"tes":5109,"tou":5110,"titlÃ¡n":5111,"vy":5112,"wies":5113,"zac":5114,"anta":5115,"arÃ¡":5116,"inville":5117,"inci":5118,"inovo":5119,"inho":5120,"champ":5121,"chez":5122,"uren":5123,"amon":5124,"dek":5125,"deo":5126,"lava":5127,"lee":5128,"atrava":5129,"olÃŃ":5130,"Ã©ny":5131,"tach":5132,"adz":5133,"iton":5134,"itang":5135,"reville":5136,"ĠMas":5137,"ĠMac":5138,"icu":5139,"ĠPu":5140,"ĠProv":5141,"unk":5142,"Ã¡ri":5143,"ĠSc":5144,"ĠSel":5145,"ĠSic":5146,"ĠSop":5147,"Lago":5148,"ĠBre":5149,"igno":5150,"agli":5151,"imp":5152,"skÃ¡":5153,"ĠHel":5154,"ĠHad":5155,"ĠHerr":5156,"ĠRem":5157,"apest":5158,"ieÅĦ":5159,"ĠLod":5160,"ÄĥÅŁ":5161,"oten":5162,"otlÃ¡n":5163,"ivan":5164,"Mary":5165,"Marion":5166,"ĠFre":5167,"ĠFrontera":5168,"shofen":5169,"Shu":5170,"azh":5171,"lier":5172,"entre":5173,"icheng":5174,"gui":5175,"zha":5176,"Neuf":5177,"Leon":5178,"Lexington":5179,"ugo":5180,"ourg":5181,"ĠOs":5182,"ensch":5183,"Ã±Ã³n":5184,"ĠChai":5185,"Barn":5186,"nita":5187,"ondale":5188,"eix":5189,"tenco":5190,"tenango":5191,"loch":5192,"SchÃ¶":5193,"Schwarz":5194,"ochÃ³ri":5195,"Bellev":5196,"Montes":5197,"Manchester":5198,"ÄģnÄ«":5199,"Salt":5200,"Salisbury":5201,"Novop":5202,"insville":5203,"Khar":5204,"Ã«l":5205,"á»ĳ":5206,"Perry":5207,"ĠYa":5208,"ather":5209,"áºķ":5210,"anyon":5211,"Ãłnh":5212,"orgen":5213,"calo":5214,"calÃ¡":5215,"Vely":5216,"gios":5217,"Emp":5218,"ĠLeÃ³n":5219,"Wild":5220,"kerke":5221,"Greenville":5222,"iami":5223,"ChÃ¢tea":5224,"amarca":5225,"Freder":5226,"Dolores":5227,"iguera":5228,"Victor":5229,"Medina":5230,"Kuala":5231,"Budapest":5232,"Somers":5233,"ĠHarbour":5234,"Buenos":5235,"ĠNew":5236,"Aubin":5237,"drÃ³j":5238,"Åın":5239,"Åıng":5240,"Ġpri":5241,"Lower":5242,"stÃ¤dt":5243,"Æ°á»Ŀ":5244,"Neustadt":5245,"Liberty":5246,"ĠTrinidad":5247,"ĠObregÃ³n":5248,"Ato":5249,"Aud":5250,"Aff":5251,"Bach":5252,"Bek":5253,"Bib":5254,"Bung":5255,"Brid":5256,"Buss":5257,"Cen":5258,"Coy":5259,"Cib":5260,"Cep":5261,"CrÃ©":5262,"Dau":5263,"Dian":5264,"Diam":5265,"Ech":5266,"Eich":5267,"Ever":5268,"Gw":5269,"Ged":5270,"Gum":5271,"Gud":5272,"Gour":5273,"Grim":5274,"Hul":5275,"Hob":5276,"HÃ¤":5277,"Jim":5278,"Jard":5279,"Jian":5280,"Jones":5281,"Kill":5282,"Kau":5283,"Lon":5284,"Lic":5285,"Led":5286,"Lod":5287,"Loz":5288,"Loch":5289,"Liang":5290,"Lans":5291,"Mec":5292,"Miy":5293,"MÄĥr":5294,"Myr":5295,"Nad":5296,"Oran":5297,"Oud":5298,"Oost":5299,"Opp":5300,"Past":5301,"Pass":5302,"RÃ©":5303,"Ria":5304,"RÄģ":5305,"Rie":5306,"Rong":5307,"Rep":5308,"RÃ©m":5309,"Soy":5310,"Sug":5311,"Sup":5312,"Sever":5313,"Tic":5314,"TÃ¡":5315,"Toc":5316,"Tarn":5317,"Vlad":5318,"Was":5319,"Wag":5320,"Yu":5321,"Zak":5322,"Zah":5323,"bri":5324,"bau":5325,"bak":5326,"ds":5327,"dorp":5328,"gl":5329,"guez":5330,"jak":5331,"kot":5332,"kern":5333,"lje":5334,"mal":5335,"nou":5336,"nis":5337,"oco":5338,"rer":5339,"vey":5340,"wy":5341,"wig":5342,"ych":5343,"yye":5344,"Ì§":5345,"Ġ0":5346,"Ġas":5347,"Ġker":5348,"anto":5349,"anica":5350,"anova":5351,"arde":5352,"inese":5353,"oral":5354,"ilin":5355,"urs":5356,"deg":5357,"leb":5358,"lein":5359,"leÅŁti":5360,"Santi":5361,"oltepec":5362,"Ã©a":5363,"ispo":5364,"tah":5365,"reÅŁti":5366,"raj":5367,"rau":5368,"ĠMed":5369,"tetten":5370,"ĠPier":5371,"unas":5372,"roe":5373,"Ã¡c":5374,"ĠSi":5375,"riÃ¨res":5376,"ĠBarr":5377,"ĠBluff":5378,"igne":5379,"Chac":5380,"Chris":5381,"auli":5382,"acan":5383,"acion":5384,"irano":5385,"andu":5386,"edon":5387,"then":5388,"odsk":5389,"ĠHab":5390,"ĠHermosa":5391,"ĠRoc":5392,"ĠRich":5393,"ĠGall":5394,"idian":5395,"iech":5396,"avent":5397,"berton":5398,"Eld":5399,"hev":5400,"ellen":5401,"ÄĥÈĻ":5402,"ivo":5403,"ĠJal":5404,"ecchio":5405,"oyan":5406,"Marm":5407,"ĠFi":5408,"ogna":5409,"Ã¼let":5410,"shahr":5411,"octor":5412,"azu":5413,"ĠDa":5414,"ĠDam":5415,"egas":5416,"ampur":5417,"Antonio":5418,"lip":5419,"endo":5420,"enden":5421,"endon":5422,"ĠKa":5423,"Stara":5424,"guÃ©":5425,"zhausen":5426,"upo":5427,"ieri":5428,"ĠOz":5429,"Ä±ÅŁ":5430,"antla":5431,"ezzano":5432,"ÈĻu":5433,"niÃ¨res":5434,"orno":5435,"Valverde":5436,"Orta":5437,"Å¡ov":5438,"Å¡ice":5439,"Å¡Äĩ":5440,"Przy":5441,"Novaya":5442,"ĠVald":5443,"brada":5444,"Corral":5445,"Casa":5446,"See":5447,"ĠHead":5448,"ĠHeath":5449,"AbÅ«":5450,"istol":5451,"anje":5452,"incon":5453,"ĠUno":5454,"ustin":5455,"kty":5456,"hoe":5457,"rence":5458,"ForÃªt":5459,"Acqu":5460,"Strat":5461,"ibera":5462,"Ã¥s":5463,"Bray":5464,"Sabana":5465,"Roman":5466,"ĠElena":5467,"Cherry":5468,"Rams":5469,"Rivers":5470,"Queens":5471,"Cambridge":5472,"Auburn":5473,"Åļw":5474,"house":5475,"Fontan":5476,"beke":5477,"Garden":5478,"Michel":5479,"Aurora":5480,"ĠAzul":5481,"forma":5482,"ĠGrand":5483,"Bandar":5484,"ĠBernardo":5485,"Clear":5486,"Ġcity":5487,"Villafranca":5488,"Clifton":5489,"KÃ¡to":5490,"ChÃ¢tillon":5491,"ĠkerÃ¼let":5492,"Ain":5493,"Ask":5494,"Bam":5495,"Bic":5496,"Bid":5497,"Bast":5498,"Bara":5499,"Bath":5500,"Banj":5501,"BÃ¢r":5502,"Bisch":5503,"Cit":5504,"Cic":5505,"CÃ¡":5506,"Cue":5507,"Cai":5508,"Clev":5509,"Ded":5510,"Dib":5511,"Ey":5512,"Fo":5513,"Fall":5514,"Fuen":5515,"Fox":5516,"Fleur":5517,"Gus":5518,"Gord":5519,"Hain":5520,"Hus":5521,"HÃ¼":5522,"Hope":5523,"Iw":5524,"Koch":5525,"Kash":5526,"Mano":5527,"Mem":5528,"Mala":5529,"Mind":5530,"Moss":5531,"Math":5532,"Mess":5533,"Mikh":5534,"Noc":5535,"Ore":5536,"Ond":5537,"Pio":5538,"Pall":5539,"Puch":5540,"Puy":5541,"Priv":5542,"Pfa":5543,"Qal":5544,"Ring":5545,"Rain":5546,"Sn":5547,"Sik":5548,"Sard":5549,"Sour":5550,"Sala":5551,"Sind":5552,"Sund":5553,"Swan":5554,"Tz":5555,"Ting":5556,"Tern":5557,"TÃ¢n":5558,"Vos":5559,"Vau":5560,"Vieux":5561,"Wau":5562,"Wed":5563,"Wul":5564,"Wass":5565,"Yal":5566,"Yur":5567,"aÅŁ":5568,"bl":5569,"bang":5570,"bod":5571,"bello":5572,"cÃ©":5573,"cov":5574,"cell":5575,"ceni":5576,"hat":5577,"hlen":5578,"hren":5579,"hoven":5580,"ieni":5581,"jing":5582,"kur":5583,"kop":5584,"kala":5585,"loh":5586,"lovka":5587,"mun":5588,"mah":5589,"nie":5590,"nÃ¤s":5591,"poli":5592,"rus":5593,"rup":5594,"rovo":5595,"tam":5596,"tta":5597,"ude":5598,"von":5599,"veld":5600,"wol":5601,"yon":5602,"zent":5603,"Å¥":5604,"anco":5605,"arna":5606,"inn":5607,"enc":5608,"enica":5609,"enskoye":5610,"alc":5611,"alat":5612,"elin":5613,"asu":5614,"esi":5615,"eso":5616,"esburg":5617,"chau":5618,"church":5619,"uran":5620,"def":5621,"olla":5622,"olina":5623,"isse":5624,"tage":5625,"ĠCad":5626,"adr":5627,"itou":5628,"ĠMay":5629,"tek":5630,"icino":5631,"ĠPic":5632,"ungo":5633,"ĠSac":5634,"ĠStr":5635,"ĠSelo":5636,"rik":5637,"Laf":5638,"ĠBri":5639,"ige":5640,"aglio":5641,"imi":5642,"imar":5643,"Chong":5644,"Church":5645,"ĠAng":5646,"abl":5647,"abu":5648,"ÃŃz":5649,"ĠTin":5650,"AlÄ«":5651,"apo":5652,"apleu":5653,"ĠGlen":5654,"ĠGÃ³mez":5655,"ĠGonzÃ¡lez":5656,"idan":5657,"usi":5658,"ongan":5659,"bai":5660,"kaw":5661,"berto":5662,"berland":5663,"ueÃ±a":5664,"umi":5665,"ĠLÃ³pez":5666,"ĠJavier":5667,"Mari":5668,"ĠNat":5669,"ĠNoi":5670,"oke":5671,"ĠFr":5672,"ersch":5673,"sheng":5674,"Shir":5675,"ĠDel":5676,"egh":5677,"Ars":5678,"quÃŃ":5679,"quillo":5680,"evskaya":5681,"tsa":5682,"ichy":5683,"Stor":5684,"Stre":5685,"zhai":5686,"uban":5687,"orda":5688,"Neuh":5689,"ĠIon":5690,"Ã¨ne":5691,"awr":5692,"cade":5693,"upon":5694,"enstedt":5695,"Mond":5696,"Brus":5697,"huang":5698,"huet":5699,"Colomb":5700,"ffa":5701,"niÅ£a":5702,"izen":5703,"aji":5704,"ozia":5705,"Three":5706,"Valencia":5707,"uelos":5708,"ynivka":5709,"Belm":5710,"ĠAllende":5711,"Ã³wka":5712,"ÅĤo":5713,"Ã§o":5714,"Newtown":5715,"bronn":5716,"Calv":5717,"ingston":5718,"Esperanza":5719,"ignes":5720,"Ã«z":5721,"Torres":5722,"isht":5723,"Adel":5724,"Adam":5725,"ÈĻtii":5726,"áº¯":5727,"esso":5728,"cheid":5729,"Ã¡ramo":5730,"ĠShar":5731,"Ãģgios":5732,"Cabez":5733,"Avon":5734,"Camden":5735,"Albany":5736,"Holly":5737,"Strath":5738,"Univers":5739,"Greenfield":5740,"Greenwood":5741,"Ashland":5742,"Åłt":5743,"ĠCalatrava":5744,"Fuent":5745,"Stav":5746,"Sandy":5747,"ĠLucia":5748,"ĠTorinese":5749,"RiviÃ¨re":5750,"ĠPalmas":5751,"atuba":5752,"autista":5753,"combe":5754,"Kirchberg":5755,"GÃ¶k":5756,"uneuf":5757,"Laurel":5758,"ÅŃp":5759,"Oxford":5760,"rÃŃguez":5761,"Warren":5762,"ĠMichele":5763,"Lawrence":5764,"ĠPueblo":5765,"ĠInferiore":5766,"Julien":5767,"lvaro":5768,"Ä©nh":5769,"Brighton":5770,"Vincent":5771,"ĠRapids":5772,"ĠVodÄĥ":5773,"ĠSopra":5774,"Bellevue":5775,"ChÃ¢teauneuf":5776,"Bav":5777,"Beg":5778,"Bres":5779,"Bens":5780,"Biel":5781,"Cala":5782,"Cry":5783,"Comb":5784,"Dad":5785,"Dro":5786,"DiÃ©":5787,"Fon":5788,"Fun":5789,"Fuk":5790,"Fren":5791,"FÃ¼r":5792,"Fontaine":5793,"Gon":5794,"Gob":5795,"Grande":5796,"GÃ¶l":5797,"Hos":5798,"Hov":5799,"Hey":5800,"Jh":5801,"Kov":5802,"Kud":5803,"Kend":5804,"Key":5805,"Kup":5806,"Keb":5807,"Lur":5808,"Loh":5809,"MÄģ":5810,"Mell":5811,"Moc":5812,"Maf":5813,"Mouss":5814,"Nel":5815,"Net":5816,"Nand":5817,"Nob":5818,"Pam":5819,"Pow":5820,"Pey":5821,"Pola":5822,"Post":5823,"Poll":5824,"Run":5825,"Raw":5826,"Sis":5827,"Scot":5828,"TÃ¶":5829,"Tort":5830,"Tux":5831,"Uk":5832,"VÃ©":5833,"Vand":5834,"Wi":5835,"Wak":5836,"Whe":5837,"Wins":5838,"Wick":5839,"Xian":5840,"Yuan":5841,"Zha":5842,"cza":5843,"ej":5844,"fax":5845,"grad":5846,"hue":5847,"jah":5848,"kol":5849,"kÃ¡":5850,"kiv":5851,"kowo":5852,"livka":5853,"mur":5854,"ming":5855,"mÃ¡n":5856,"mart":5857,"nar":5858,"nin":5859,"nel":5860,"pio":5861,"ring":5862,"sp":5863,"set":5864,"uÅ¡":5865,"vens":5866,"wel":5867,"wall":5868,"xia":5869,"yg":5870,"yÄģ":5871,"yana":5872,"yevo":5873,"zheim":5874,"zada":5875,"zowice":5876,"ĠÃ":5877,"oslav":5878,"eres":5879,"inet":5880,"enci":5881,"enfeld":5882,"onna":5883,"alay":5884,"alac":5885,"elez":5886,"chnyy":5887,"deen":5888,"lain":5889,"ator":5890,"atÃ¡":5891,"atitlÃ¡n":5892,"oukou":5893,"oufla":5894,"olino":5895,"ollo":5896,"tab":5897,"itch":5898,"reu":5899,"redo":5900,"Ġdegli":5901,"iai":5902,"ĠManz":5903,"ĠMinas":5904,"ĠPines":5905,"angel":5906,"unfo":5907,"Ã¡ki":5908,"ĠSoledad":5909,"ĠScalo":5910,"riÅŁ":5911,"etsk":5912,"Laz":5913,"Lakes":5914,"oman":5915,"Chr":5916,"Chu":5917,"ĠAp":5918,"akaha":5919,"ĠTam":5920,"ĠTlal":5921,"ĠHigh":5922,"ules":5923,"ĠGia":5924,"ĠVes":5925,"iek":5926,"ĠLas":5927,"ĠLomas":5928,"ellina":5929,"Marl":5930,"ĠNav":5931,"ĠNine":5932,"ĠNiÃ±o":5933,"owie":5934,"ĠFar":5935,"ÅŁani":5936,"ÅŁeh":5937,"enge":5938,"Shal":5939,"Shil":5940,"azzano":5941,"allas":5942,"ĠDos":5943,"ĠDun":5944,"stra":5945,"Arch":5946,"ardino":5947,"quia":5948,"quim":5949,"Anne":5950,"Neuen":5951,"ĠEr":5952,"ĠIm":5953,"Ã¨ze":5954,"Monaster":5955,"ĠChim":5956,"iani":5957,"Å«b":5958,"ĠWal":5959,"Guang":5960,"BrÄĥ":5961,"ezz":5962,"ĠLab":5963,"ĠLago":5964,"aju":5965,"Thor":5966,"Thur":5967,"Village":5968,"Castelle":5969,"loo":5970,"epp":5971,"hama":5972,"QuáºŃn":5973,"erma":5974,"Berez":5975,"Beaver":5976,"Prad":5977,"Malab":5978,"Huay":5979,"Buff":5980,"Burn":5981,"Parad":5982,"ulag":5983,"ĠYar":5984,"Karak":5985,"Cons":5986,"zewo":5987,"Deh":5988,"ÄģrÄ«":5989,"Brod":5990,"Asp":5991,"Asti":5992,"Canton":5993,"oulÃ©":5994,"ureba":5995,"orges":5996,"Weil":5997,"zione":5998,"Kamen":5999,"Plage":6000,"PhÃº":6001,"Ã¶rth":6002,"Donji":6003,"SaÃ´ne":6004,"regal":6005,"mbre":6006,"Oakland":6007,"Altam":6008,"Muara":6009,"igues":6010,"outou":6011,"NyÃŃr":6012,"Presid":6013,"Pitts":6014,"ĠCameros":6015,"Belleville":6016,"Maple":6017,"Roche":6018,"ĠPeter":6019,"Logan":6020,"Villalba":6021,"ĠGeorge":6022,"YeÅŁ":6023,"Ġpod":6024,"Johns":6025,"Clayton":6026,"Columbus":6027,"Ãµes":6028,"NicolÃ¡s":6029,"ĠBranch":6030,"Alexandria":6031,"ĠWoods":6032,"Fayette":6033,"á»Ļc":6034,"ĠJacinto":6035,"Coronel":6036,"ĠMeadows":6037,"Æ°á»Ŀng":6038,"ktyabr":6039,"Aig":6040,"Agh":6041,"Bub":6042,"Bier":6043,"Bian":6044,"Bez":6045,"BÄģn":6046,"Bess":6047,"Cio":6048,"City":6049,"Country":6050,"Das":6051,"Dat":6052,"Dach":6053,"Dud":6054,"Dax":6055,"DÃ¼r":6056,"Doctor":6057,"End":6058,"Epp":6059,"Fla":6060,"Fav":6061,"Gin":6062,"Gau":6063,"Gund":6064,"GÃ¢r":6065,"Hes":6066,"HÃ©":6067,"Hai":6068,"II":6069,"Jor":6070,"Jur":6071,"Jat":6072,"Jaw":6073,"Koc":6074,"Kass":6075,"Kuk":6076,"Kuz":6077,"Kuy":6078,"Kenn":6079,"Kfar":6080,"Lour":6081,"Lock":6082,"Muk":6083,"Malm":6084,"Muang":6085,"Myk":6086,"Nic":6087,"NÄģ":6088,"Namb":6089,"Oro":6090,"One":6091,"Ong":6092,"Pim":6093,"Pai":6094,"Pend":6095,"Piano":6096,"Qian":6097,"Rang":6098,"Rag":6099,"Raz":6100,"Ridge":6101,"Sla":6102,"Soh":6103,"SÅĤ":6104,"Stone":6105,"Tos":6106,"Tch":6107,"Tamp":6108,"Tuz":6109,"Torn":6110,"Ub":6111,"Ut":6112,"Vog":6113,"Viz":6114,"Voz":6115,"VÃ¢n":6116,"Watt":6117,"Waver":6118,"Yi":6119,"Yas":6120,"Zim":6121,"Zem":6122,"ZdrÃ³j":6123,"ade":6124,"bing":6125,"cone":6126,"cedo":6127,"ex":6128,"ete":6129,"eir":6130,"fil":6131,"fing":6132,"fang":6133,"fonte":6134,"grove":6135,"hin":6136,"has":6137,"horn":6138,"ii":6139,"jen":6140,"kivka":6141,"kovice":6142,"lj":6143,"lod":6144,"mern":6145,"noy":6146,"nut":6147,"pt":6148,"pac":6149,"ped":6150,"pice":6151,"rano":6152,"rÄ«":6153,"rest":6154,"stad":6155,"tÃ©":6156,"vie":6157,"won":6158,"west":6159,"xian":6160,"yam":6161,"yÃ¼k":6162,"zÃ©":6163,"zÃ¼":6164,"zeg":6165,"ÃĦ":6166,"Äª":6167,"Å¯":6168,"ĠÅ¢":6169,"Ġupon":6170,"osi":6171,"oski":6172,"anb":6173,"arak":6174,"arai":6175,"arele":6176,"erv":6177,"erberg":6178,"inan":6179,"enhausen":6180,"enthal":6181,"alÃ©":6182,"alÄ±":6183,"orst":6184,"orada":6185,"elec":6186,"ilor":6187,"asta":6188,"esheim":6189,"amin":6190,"det":6191,"dey":6192,"lair":6193,"lawn":6194,"aty":6195,"atur":6196,"atti":6197,"atico":6198,"iste":6199,"isheim":6200,"issen":6201,"adan":6202,"ading":6203,"itÃ©":6204,"reÈĻti":6205,"reuth":6206,"oville":6207,"ovica":6208,"ingdale":6209,"rai":6210,"ĠMun":6211,"ĠMai":6212,"tez":6213,"icz":6214,"ĠPad":6215,"ĠPass":6216,"Ã¡ch":6217,"rigo":6218,"eter":6219,"ĠBah":6220,"ĠBren":6221,"ĠBureba":6222,"igui":6223,"ombe":6224,"imba":6225,"Chit":6226,"Ã³l":6227,"tola":6228,"iria":6229,"andra":6230,"andro":6231,"akou":6232,"ĠTen":6233,"ĠTop":6234,"odoro":6235,"ĠHouse":6236,"ĠReg":6237,"ĠRibera":6238,"Alam":6239,"api":6240,"ĠGhar":6241,"ĠVol":6242,"usto":6243,"iola":6244,"avilla":6245,"tiv":6246,"coy":6247,"baj":6248,"berts":6249,"ĠLam":6250,"ĠLom":6251,"ĠLomb":6252,"ĠLima":6253,"Äĥra":6254,"ÄĥÈĽ":6255,"ĠJar":6256,"ĠJul":6257,"ĠJoya":6258,"Mare":6259,"Mariano":6260,"ĠNord":6261,"astro":6262,"owiec":6263,"Ġdelle":6264,"Shan":6265,"Shib":6266,"Arlington":6267,"arden":6268,"quis":6269,"quip":6270,"Anna":6271,"eview":6272,"aley":6273,"gut":6274,"zhan":6275,"zhong":6276,"utu":6277,"ĠEd":6278,"Ã¨ve":6279,"Leban":6280,"Lewis":6281,"Ã¢ne":6282,"ierre":6283,"ĠOcot":6284,"Montag":6285,"ĠChÃ¢u":6286,"Barg":6287,"Å«m":6288,"Bras":6289,"Brou":6290,"Brent":6291,"ryn":6292,"Thal":6293,"Castello":6294,"epec":6295,"Quinc":6296,"Ã¤ng":6297,"indo":6298,"Gram":6299,"ocheng":6300,"Ort":6301,"ashan":6302,"ĠSang":6303,"Newcastle":6304,"cken":6305,"prÃ¼":6306,"undu":6307,"inson":6308,"brÃ¼ck":6309,"itage":6310,"Esch":6311,"Burton":6312,"Boj":6313,"Box":6314,"Paris":6315,"sted":6316,"ÃŁen":6317,"Borg":6318,"arejo":6319,"Montec":6320,"Reh":6321,"Moos":6322,"Roi":6323,"iesa":6324,"Breiten":6325,"Bretagne":6326,"Isla":6327,"Kalin":6328,"Rosario":6329,"Cros":6330,"racia":6331,"hoo":6332,"Plum":6333,"oledo":6334,"Ã¸d":6335,"Form":6336,"Velika":6337,"VelkÃ©":6338,"Ãªs":6339,"Gray":6340,"Playa":6341,"ettingen":6342,"Comp":6343,"Ãĩay":6344,"Midway":6345,"nikovo":6346,"ĠThong":6347,"Äħb":6348,"Torrec":6349,"MuÃ±":6350,"Vicente":6351,"ĠCastle":6352,"ĠCastello":6353,"ĠPlace":6354,"ĠTej":6355,"Hoog":6356,"Sunny":6357,"valle":6358,"rieux":6359,"ÃŃsima":6360,"ĠPalmar":6361,"Bally":6362,"ĠMaggiore":6363,"Egg":6364,"Pomp":6365,"ĠManuel":6366,"como":6367,"lalpan":6368,"Neuville":6369,"Noord":6370,"Pozo":6371,"Brooklyn":6372,"Mitter":6373,"ĠCentral":6374,"Linden":6375,"ĠMontes":6376,"vedere":6377,"wÄģra":6378,"Fresno":6379,"ĠWielka":6380,"Carroll":6381,"Aberdeen":6382,"Ġcentre":6383,"Maurice":6384,"ÄģzÄģr":6385,"Columbia":6386,"crest":6387,"Tisz":6388,"Ekiti":6389,"right":6390,"ĠRodrÃŃguez":6391,"ĠJohn":6392,"ĠPrimero":6393,"uciÃ³n":6394,"Rizal":6395,"Princeton":6396,"ĠWielkie":6397,"ustiano":6398,"ĠParaÃŃso":6399,"Kensington":6400,"aventura":6401,"University":6402,"ÅŁehir":6403,"Lebanon":6404,"Aul":6405,"Ble":6406,"Bong":6407,"Bent":6408,"Bany":6409,"Boll":6410,"Cet":6411,"Cost":6412,"Dang":6413,"Dak":6414,"Dap":6415,"DÃ¶":6416,"Damp":6417,"Dund":6418,"Earl":6419,"Eaton":6420,"Feld":6421,"Fate":6422,"Fish":6423,"Fuj":6424,"Ges":6425,"GÄĥ":6426,"Gut":6427,"Hot":6428,"Hoy":6429,"Ich":6430,"Ket":6431,"Kag":6432,"Kus":6433,"Kell":6434,"Kent":6435,"Kip":6436,"Kham":6437,"Khan":6438,"KÄģl":6439,"KÄ±zÄ±":6440,"Ley":6441,"Liu":6442,"Lumb":6443,"Mav":6444,"Maw":6445,"Mamb":6446,"Moul":6447,"Momb":6448,"MÃ¶n":6449,"Nk":6450,"Non":6451,"Naw":6452,"Ooster":6453,"Paz":6454,"Pala":6455,"RÃ¡":6456,"Rah":6457,"Rut":6458,"Reb":6459,"Raf":6460,"Siv":6461,"Sale":6462,"Suz":6463,"Salm":6464,"Stad":6465,"SÄĥl":6466,"Toy":6467,"Teg":6468,"Uch":6469,"Vet":6470,"Vac":6471,"Vey":6472,"VÃ¢r":6473,"Wand":6474,"Wij":6475,"Warm":6476,"Wiel":6477,"Witt":6478,"Yuzh":6479,"Zel":6480,"bou":6481,"bay":6482,"bog":6483,"buch":6484,"cle":6485,"cina":6486,"cani":6487,"cester":6488,"celles":6489,"dol":6490,"dia":6491,"ein":6492,"eta":6493,"gur":6494,"gou":6495,"hard":6496,"hÃ¡za":6497,"iba":6498,"kl":6499,"ket":6500,"kul":6501,"kamp":6502,"lig":6503,"lÃ³":6504,"lovo":6505,"lock":6506,"mos":6507,"mac":6508,"ment":6509,"mero":6510,"nit":6511,"nÄģ":6512,"oÃº":6513,"py":6514,"pina":6515,"qq":6516,"rg":6517,"rÄģ":6518,"rand":6519,"rÃ³n":6520,"rÃ³w":6521,"schen":6522,"tlÃ¡n":6523,"uÃŃ":6524,"via":6525,"veni":6526,"wat":6527,"wyn":6528,"xc":6529,"Ġen":6530,"Ġle":6531,"ande":6532,"anueva":6533,"eru":6534,"erup":6535,"erÃŃa":6536,"inco":6537,"eneg":6538,"eston":6539,"chit":6540,"urd":6541,"dev":6542,"degem":6543,"atro":6544,"olu":6545,"olco":6546,"taj":6547,"tao":6548,"ĠCac":6549,"ĠCec":6550,"ĠClem":6551,"ĠCerrato":6552,"ĠCÃ¢mp":6553,"adh":6554,"rade":6555,"ĠMin":6556,"ĠMata":6557,"ĠMÃ¼hl":6558,"ted":6559,"ĠPen":6560,"ĠPom":6561,"ĠPino":6562,"ĠPres":6563,"ĠPÃ¡ramo":6564,"angen":6565,"uny":6566,"unciÃ³n":6567,"roc":6568,"ĠSin":6569,"ĠSum":6570,"ĠSoc":6571,"ĠSotto":6572,"rij":6573,"rier":6574,"riana":6575,"etu":6576,"ĠBÃ¬nh":6577,"ĠBautista":6578,"iglia":6579,"ague":6580,"agny":6581,"omi":6582,"imin":6583,"imil":6584,"Chen":6585,"Ches":6586,"Chia":6587,"Chum":6588,"Chem":6589,"Choc":6590,"ĠAug":6591,"ĠAtz":6592,"aban":6593,"abia":6594,"iran":6595,"ires":6596,"ĠTan":6597,"ĠTem":6598,"odz":6599,"ĠHan":6600,"ĠHope":6601,"ĠRhein":6602,"Albe":6603,"AlcalÃ¡":6604,"apu":6605,"ĠGuz":6606,"ahua":6607,"ĠVar":6608,"iot":6609,"iez":6610,"illet":6611,"nec":6612,"nee":6613,"neu":6614,"umo":6615,"umen":6616,"ĠLang":6617,"ĠLÃ¡zaro":6618,"tersdorf":6619,"oyar":6620,"ĠNÃº":6621,"ĠFran":6622,"ĠFres":6623,"ĠFranc":6624,"ogan":6625,"ograd":6626,"Ã¶v":6627,"engen":6628,"achÅį":6629,"Sham":6630,"Shaw":6631,"ĠDar":6632,"ĠDes":6633,"ĠDorf":6634,"storp":6635,"Ä«b":6636,"quet":6637,"Anj":6638,"Ans":6639,"opan":6640,"ĠMaritt":6641,"endi":6642,"ĠKar":6643,"ĠKha":6644,"eya":6645,"ubi":6646,"utz":6647,"assÃ©":6648,"assikro":6649,"Lew":6650,"upp":6651,"gola":6652,"Monti":6653,"ĠChic":6654,"ĠWat":6655,"Carl":6656,"Carm":6657,"oho":6658,"ohrad":6659,"onder":6660,"Thomas":6661,"nox":6662,"Santana":6663,"BelÃ©n":6664,"ĠAlf":6665,"Montel":6666,"Å¡ka":6667,"Manzan":6668,"ÅĤowice":6669,"Äģnpur":6670,"Prat":6671,"Prince":6672,"uerte":6673,"ossou":6674,"brÄĥ":6675,"Äįany":6676,"Krum":6677,"arral":6678,"arrub":6679,"Khor":6680,"veen":6681,"ĠHeads":6682,"Burlington":6683,"mann":6684,"manns":6685,"uyan":6686,"áº¿":6687,"anjang":6688,"Karang":6689,"issy":6690,"Meer":6691,"borne":6692,"Rein":6693,"Spen":6694,"Rox":6695,"ĠShore":6696,"AgÃŃa":6697,"ÄģdÄ«":6698,"lores":6699,"yeh":6700,"yeong":6701,"Petr":6702,"olds":6703,"Cris":6704,"Crest":6705,"Andrea":6706,"ĠGuay":6707,"Blag":6708,"doba":6709,"Talis":6710,"Urb":6711,"ÄĻd":6712,"Luis":6713,"Emm":6714,"Geis":6715,"Äĥreni":6716,"Äĩi":6717,"Bonne":6718,"Unidad":6719,"ÅĦsk":6720,"Nava":6721,"Naval":6722,"Ã©dougou":6723,"Walnut":6724,"ĠStre":6725,"Glas":6726,"Glendale":6727,"ĠColle":6728,"Winchester":6729,"ĠSeca":6730,"ĠCastro":6731,"ÅĽci":6732,"Izvo":6733,"Temple":6734,"Tepet":6735,"Otter":6736,"Staraya":6737,"Svet":6738,"Sveti":6739,"Szcz":6740,"Krasnaya":6741,"Florence":6742,"ÅģÄĻ":6743,"Ã²a":6744,"Zaragoza":6745,"ĠCatalina":6746,"Pilar":6747,"Preston":6748,"Ixta":6749,"Waterloo":6750,"stow":6751,"Kampong":6752,"Seven":6753,"Candelaria":6754,"Rochester":6755,"Motta":6756,"Evans":6757,"iÄĩi":6758,"Harrison":6759,"Wellington":6760,"thorne":6761,"Centerville":6762,"ĠBuenavista":6763,"Bridgeport":6764,"Sosn":6765,"Young":6766,"amoros":6767,"ĠLargo":6768,"ĠTomÃ¡s":6769,"Mansfield":6770,"Mission":6771,"Sovet":6772,"Concordia":6773,"ĠFerry":6774,"Slobozia":6775,"á»ĵng":6776,"cliffe":6777,"iá»ĩ":6778,"Douglas":6779,"Lancaster":6780,"Plymouth":6781,"gomery":6782,"Neukirchen":6783,"ĠCaÃ±ada":6784,"ĠPuente":6785,"Crystal":6786,"ĠGiacomo":6787,"Ait":6788,"Aro":6789,"Beng":6790,"Bli":6791,"Balm":6792,"Boss":6793,"Cah":6794,"Cus":6795,"Cip":6796,"Coz":6797,"Cly":6798,"CÃ¢r":6799,"Det":6800,"Dok":6801,"Dik":6802,"Dash":6803,"Fara":6804,"Ford":6805,"Fry":6806,"Gai":6807,"GouÃ©":6808,"Hac":6809,"Hino":6810,"Hut":6811,"Hern":6812,"HÃ¶r":6813,"Hidalgo":6814,"Huey":6815,"Igu":6816,"Jol":6817,"Jay":6818,"Jed":6819,"Jak":6820,"Jem":6821,"Jud":6822,"KÄģ":6823,"Ked":6824,"Kard":6825,"Kind":6826,"Kha":6827,"KÅį":6828,"Lent":6829,"Lek":6830,"Mp":6831,"Mia":6832,"Mom":6833,"Mort":6834,"Mei":6835,"Moch":6836,"Metz":6837,"Nal":6838,"Nil":6839,"Nia":6840,"Ngu":6841,"Nash":6842,"Osh":6843,"Out":6844,"Pov":6845,"Pell":6846,"RÃ¢":6847,"Rug":6848,"Rij":6849,"Rhein":6850,"Ses":6851,"Sell":6852,"Sach":6853,"Sukh":6854,"Tw":6855,"TÃ©":6856,"Tad":6857,"Tug":6858,"Tez":6859,"Tiz":6860,"Tomb":6861,"Tann":6862,"Vou":6863,"Vers":6864,"Vysh":6865,"Wey":6866,"Web":6867,"Wola":6868,"Wake":6869,"Yer":6870,"YÃªn":6871,"Zi":6872,"Zan":6873,"beni":6874,"cou":6875,"cul":6876,"cÃ¡n":6877,"ders":6878,"dens":6879,"dougou":6880,"fle":6881,"fontaine":6882,"gia":6883,"horod":6884,"jerg":6885,"kap":6886,"kum":6887,"kaya":6888,"luk":6889,"lÄĥu":6890,"mour":6891,"mada":6892,"mund":6893,"nor":6894,"nah":6895,"nock":6896,"sb":6897,"sby":6898,"uya":6899,"vil":6900,"vou":6901,"vila":6902,"wei":6903,"yra":6904,"yany":6905,"Ãİ":6906,"Ġ4":6907,"anna":6908,"arp":6909,"arne":6910,"arpur":6911,"argues":6912,"eria":6913,"erra":6914,"inec":6915,"inskaya":6916,"alar":6917,"alak":6918,"alba":6919,"orro":6920,"orne":6921,"elas":6922,"ilu":6923,"ilas":6924,"esch":6925,"chu":6926,"uray":6927,"amang":6928,"atem":6929,"olz":6930,"olsheim":6931,"isan":6932,"isio":6933,"tap":6934,"ĠCos":6935,"ĠCort":6936,"ĠCald":6937,"itella":6938,"rei":6939,"ovy":6940,"ingh":6941,"tega":6942,"iceni":6943,"ĠPur":6944,"ĠPri":6945,"ĠPiano":6946,"anger":6947,"roz":6948,"ÄģÅŁ":6949,"Äģni":6950,"Ã¡la":6951,"ĠSta":6952,"ĠSav":6953,"ĠSai":6954,"rib":6955,"etti":6956,"Laval":6957,"ĠBy":6958,"igÃ¼":6959,"igua":6960,"agro":6961,"omar":6962,"illi":6963,"Chan":6964,"Chur":6965,"Chun":6966,"Chik":6967,"Chep":6968,"Ã³t":6969,"acas":6970,"Ġdes":6971,"tow":6972,"abas":6973,"andy":6974,"andale":6975,"ÃŃm":6976,"ÃŃos":6977,"sky":6978,"ĠTau":6979,"ĠTul":6980,"ĠHo":6981,"ĠHÃł":6982,"ĠRi":6983,"ĠRay":6984,"ĠRun":6985,"ĠRob":6986,"apia":6987,"usan":6988,"usen":6989,"ieÅĽ":6990,"aville":6991,"coe":6992,"bera":6993,"bern":6994,"uea":6995,"ueil":6996,"ueira":6997,"uman":6998,"ĠLou":6999,"ĠLand":7000,"ĠLlan":7001,"otton":7002,"ivia":7003,"teros":7004,"ecchia":7005,"Mara":7006,"ĠNo":7007,"ogu":7008,"shu":7009,"ship":7010,"acht":7011,"ĠDub":7012,"stant":7013,"Ã¡ndez":7014,"Ã¡nchez":7015,"Armen":7016,"Ä«k":7017,"Anton":7018,"even":7019,"evskoye":7020,"opold":7021,"ĠMargar":7022,"tstadt":7023,"aleana":7024,"ĠKo":7025,"ĠKham":7026,"ĠKunda":7027,"icha":7028,"Stol":7029,"Stro":7030,"Stari":7031,"eyville":7032,"eldon":7033,"Neuv":7034,"Ã¢ng":7035,"ourou":7036,"iero":7037,"ensdorf":7038,"Barre":7039,"Å«q":7040,"Guin":7041,"Guad":7042,"Guard":7043,"Carn":7044,"Brat":7045,"Bristol":7046,"ambi":7047,"izo":7048,"ondi":7049,"Thung":7050,"tenheim":7051,"Vals":7052,"Villag":7053,"Amand":7054,"lane":7055,"Bela":7056,"Montre":7057,"Montgomery":7058,"Ãºj":7059,"Ãºcar":7060,"Ord":7061,"Salinas":7062,"Morav":7063,"bruck":7064,"Äįice":7065,"itacion":7066,"tepa":7067,"Krzy":7068,"Khal":7069,"Caste":7070,"Torri":7071,"Burns":7072,"Burgos":7073,"rovskoye":7074,"ulak":7075,"mans":7076,"mannsdorf":7077,"Adj":7078,"á»©":7079,"á»¹":7080,"ĠYai":7081,"ĠYuen":7082,"istric":7083,"essel":7084,"uxi":7085,"Meh":7086,"ixi":7087,"Campos":7088,"zyl":7089,"Brock":7090,"Spas":7091,"Sarthe":7092,"Brez":7093,"Agata":7094,"Heath":7095,"Int":7096,"Inver":7097,"Verd":7098,"Cape":7099,"Mats":7100,"linge":7101,"Lakewood":7102,"attan":7103,"ĠMartÃŃ":7104,"Bouss":7105,"Fras":7106,"Front":7107,"Fruit":7108,"ĠEstancia":7109,"Holt":7110,"uhÃ©":7111,"ancy":7112,"Ã´n":7113,"kirk":7114,"ether":7115,"Horod":7116,"Ã¥r":7117,"Ã©dÃ©":7118,"Mayfield":7119,"Taur":7120,"Treb":7121,"Dobr":7122,"Ã³rdoba":7123,"ĠCalera":7124,"acios":7125,"ĠRoad":7126,"Miranda":7127,"ĠPlata":7128,"Xincheng":7129,"Padang":7130,"Granite":7131,"ĠPhra":7132,"Buda":7133,"ÄĮes":7134,"Quebrada":7135,"atsu":7136,"LÃ©ger":7137,"holz":7138,"Mitch":7139,"Troit":7140,"Äģpuram":7141,"ĠPeÃ±a":7142,"Kyzyl":7143,"Dayton":7144,"iÅŁoara":7145,"Helena":7146,"ginia":7147,"Piedra":7148,"tepeque":7149,"Middletown":7150,"Nowe":7151,"Negr":7152,"Ã¦r":7153,"ĠSeco":7154,"John":7155,"Ã©guhÃ©":7156,"ĠSegundo":7157,"Farmington":7158,"Trinidad":7159,"Friedrich":7160,"fjord":7161,"ĠJesÃºs":7162,"áº§u":7163,"Piazza":7164,"KÃ¶nigs":7165,"ĠJoaquÃŃn":7166,"Jamestown":7167,"Russell":7168,"ĠPiave":7169,"Hebron":7170,"Vysok":7171,"wiesen":7172,"inconada":7173,"Riverside":7174,"Pfaff":7175,"ĠCadore":7176,"Belmonte":7177,"French":7178,"Castelletto":7179,"Spencer":7180,"istrict":7181,"Aut":7182,"Bant":7183,"Boch":7184,"Bien":7185,"Bist":7186,"Bust":7187,"BÅĻ":7188,"Bull":7189,"CÃ©":7190,"Cun":7191,"Cell":7192,"Cup":7193,"Coss":7194,"Coul":7195,"Cyr":7196,"Dri":7197,"Dow":7198,"Deg":7199,"Dale":7200,"Dip":7201,"Dry":7202,"Dep":7203,"Dick":7204,"Ec":7205,"Ez":7206,"Eff":7207,"Fro":7208,"Fab":7209,"Fund":7210,"Fonte":7211,"FÃ¢n":7212,"Gia":7213,"Gim":7214,"Gub":7215,"Gala":7216,"Gao":7217,"Glad":7218,"GbÃ©":7219,"Gonz":7220,"Hv":7221,"Het":7222,"Hand":7223,"Hed":7224,"Hap":7225,"Hamp":7226,"Hass":7227,"Hip":7228,"Hick":7229,"Haut":7230,"Haus":7231,"Ile":7232,"Kow":7233,"Koul":7234,"Ler":7235,"Lot":7236,"Lond":7237,"Mers":7238,"Mall":7239,"Mian":7240,"Mish":7241,"Most":7242,"Moll":7243,"MÃ¶r":7244,"Muss":7245,"Miami":7246,"Nac":7247,"Niam":7248,"Nazar":7249,"Oj":7250,"Ora":7251,"Oise":7252,"Oktyabr":7253,"Ps":7254,"Pid":7255,"Pach":7256,"Peg":7257,"Pud":7258,"Puc":7259,"Phu":7260,"Plo":7261,"Part":7262,"Pins":7263,"Pula":7264,"Pho":7265,"Row":7266,"Rush":7267,"Ranch":7268,"Sle":7269,"Sia":7270,"Sod":7271,"Sip":7272,"Sart":7273,"Sien":7274,"Six":7275,"SÃ¡r":7276,"Sett":7277,"Tes":7278,"Tit":7279,"Till":7280,"Tow":7281,"Taz":7282,"Tud":7283,"Tut":7284,"Twin":7285,"Uj":7286,"Vul":7287,"Vran":7288,"Vest":7289,"Verm":7290,"VÄĥl":7291,"VÄ©nh":7292,"Won":7293,"Wing":7294,"Xal":7295,"Yin":7296,"Yon":7297,"ZÃ©":7298,"Zang":7299,"Zaw":7300,"bir":7301,"bli":7302,"bamba":7303,"cur":7304,"cap":7305,"cara":7306,"cles":7307,"cello":7308,"ceda":7309,"del":7310,"dra":7311,"forth":7312,"gad":7313,"gne":7314,"gorn":7315,"hain":7316,"hara":7317,"herst":7318,"iff":7319,"jÄģn":7320,"jÅį":7321,"jÃ¸":7322,"joki":7323,"kor":7324,"kun":7325,"kom":7326,"kau":7327,"kove":7328,"kÃ½":7329,"lim":7330,"line":7331,"mil":7332,"mington":7333,"mount":7334,"nos":7335,"nas":7336,"nat":7337,"ned":7338,"nich":7339,"nogorsk":7340,"ode":7341,"oth":7342,"pay":7343,"para":7344,"rino":7345,"sun":7346,"som":7347,"sac":7348,"sley":7349,"vera":7350,"xter":7351,"xcal":7352,"yevka":7353,"zÃ³n":7354,"zate":7355,"Ãĺ":7356,"Ġ6":7357,"ĠÅ½":7358,"osse":7359,"oshan":7360,"anÃ¡":7361,"arÃŃ":7362,"arts":7363,"erh":7364,"erie":7365,"erbach":7366,"eruela":7367,"onal":7368,"alag":7369,"alpur":7370,"elton":7371,"iltepec":7372,"asz":7373,"chat":7374,"china":7375,"amal":7376,"amas":7377,"deÈĻti":7378,"lao":7379,"lade":7380,"atar":7381,"atra":7382,"atte":7383,"atay":7384,"olas":7385,"Ã©rez":7386,"isano":7387,"isdorf":7388,"ĠCi":7389,"ĠCur":7390,"ĠCay":7391,"ĠCod":7392,"ĠCue":7393,"ĠCop":7394,"ĠCanyon":7395,"itra":7396,"ituciÃ³n":7397,"ĠMÃ©":7398,"ĠMak":7399,"ical":7400,"ices":7401,"ĠPel":7402,"ĠPes":7403,"ayal":7404,"aykh":7405,"unan":7406,"roth":7407,"Ã¡p":7408,"Ã¡da":7409,"Ã¡ly":7410,"ĠSay":7411,"ĠSqu":7412,"ĠSerd":7413,"Lakh":7414,"ĠBi":7415,"ĠBÄģzÄģr":7416,"igg":7417,"ompa":7418,"imer":7419,"imÃ©":7420,"Chis":7421,"Chad":7422,"Chab":7423,"Chai":7424,"Chant":7425,"Chorn":7426,"ĠAsh":7427,"Ã³k":7428,"acÃ¡":7429,"Ġdell":7430,"toy":7431,"iry":7432,"andougou":7433,"ÃŃt":7434,"ÃŃba":7435,"thon":7436,"ĠTomas":7437,"ĠTree":7438,"ĠTajo":7439,"odar":7440,"oden":7441,"odol":7442,"ĠHen":7443,"ĠHue":7444,"ĠHondo":7445,"ĠRes":7446,"ĠRet":7447,"ĠRoche":7448,"Alla":7449,"apat":7450,"apÃ¡n":7451,"ulce":7452,"ĠGil":7453,"ĠGri":7454,"ĠGrad":7455,"ĠGordo":7456,"ahd":7457,"ahe":7458,"ahn":7459,"ĠVi":7460,"idu":7461,"ides":7462,"idougou":7463,"nea":7464,"nem":7465,"nech":7466,"bernad":7467,"ueang":7468,"ums":7469,"ĠLor":7470,"ĠLuang":7471,"Els":7472,"ellan":7473,"terthur":7474,"emp":7475,"ĠNuovo":7476,"ĠNicola":7477,"ÅŁeni":7478,"erstown":7479,"ogno":7480,"Ã¶m":7481,"shagen":7482,"ocin":7483,"obe":7484,"oban":7485,"aix":7486,"aira":7487,"Shin":7488,"Shell":7489,"Ship":7490,"Shij":7491,"Shahr":7492,"azo":7493,"azÄ±":7494,"egno":7495,"eggio":7496,"quite":7497,"Ank":7498,"Anth":7499,"Anse":7500,"burton":7501,"evskiy":7502,"ĠMarco":7503,"tsevo":7504,"geÅŁti":7505,"entina":7506,"ĠKr":7507,"ĠKey":7508,"Stud":7509,"zhd":7510,"ordan":7511,"Neum":7512,"ekh":7513,"ĠEjido":7514,"iyat":7515,"Leh":7516,"Leu":7517,"cei":7518,"ciu":7519,"ouro":7520,"kee":7521,"ibe":7522,"ibu":7523,"ĠOj":7524,"Monroe":7525,"nye":7526,"ĠWells":7527,"BrÃ©":7528,"Bris":7529,"Brun":7530,"uzzo":7531,"ĠLaur":7532,"ffel":7533,"izzano":7534,"aje":7535,"onds":7536,"Thanh":7537,"Castil":7538,"ighton":7539,"eppe":7540,"hamn":7541,"Sche":7542,"Scho":7543,"Villiers":7544,"Belo":7545,"Belvedere":7546,"Montal":7547,"Montrose":7548,"Orm":7549,"Å¡Å¥":7550,"alma":7551,"aroo":7552,"gher":7553,"Manuel":7554,"ÅĤy":7555,"afla":7556,"Ã§on":7557,"Bergen":7558,"Beach":7559,"ijo":7560,"undi":7561,"under":7562,"Huar":7563,"Huitz":7564,"Escal":7565,"Casale":7566,"ĠCruc":7567,"Add":7568,"ĠArroyo":7569,"isso":7570,"essou":7571,"Bais":7572,"ilao":7573,"Cook":7574,"Campbell":7575,"Palos":7576,"Rech":7577,"Spe":7578,"SarÄ±":7579,"BanÄ«":7580,"Roque":7581,"tori":7582,"Breit":7583,"ireÅŁti":7584,"Portland":7585,"oult":7586,"iewo":7587,"Obern":7588,"Crist":7589,"Plop":7590,"broke":7591,"Åŀte":7592,"Ãģlvaro":7593,"annon":7594,"Ports":7595,"ancha":7596,"ancheng":7597,"Velyk":7598,"Plat":7599,"Plaine":7600,"ĠSalz":7601,"Albion":7602,"ĠEspino":7603,"pool":7604,"point":7605,"ĠMoreno":7606,"Ã´nio":7607,"Wilson":7608,"Wilhel":7609,"Woodville":7610,"mbaro":7611,"Palma":7612,"Palmar":7613,"Midland":7614,"ĠThÃłnh":7615,"ylivka":7616,"Lyon":7617,"Lyub":7618,"Norton":7619,"Dobro":7620,"Romain":7621,"Ã³ria":7622,"Molino":7623,"czyn":7624,"rigg":7625,"ĠPlain":7626,"Loup":7627,"Aleks":7628,"Gobernad":7629,"ĠIndepend":7630,"enhofen":7631,"Å¼y":7632,"Lagun":7633,"ĠGarda":7634,"ĠFork":7635,"Sulpice":7636,"Stoke":7637,"ĠPhÃº":7638,"Moselle":7639,"pect":7640,"Sumber":7641,"Summer":7642,"ĠCuauhtÃ©moc":7643,"Imeni":7644,"Centen":7645,"LÃ©on":7646,"Massa":7647,"Hanover":7648,"Ryb":7649,"ĠNicolas":7650,"ĠOliv":7651,"Joseph":7652,"Aguas":7653,"Byst":7654,"Marcel":7655,"ĠClub":7656,"ĠHuitz":7657,"Pietra":7658,"Mound":7659,"Prairie":7660,"quilpan":7661,"strup":7662,"ĠUnion":7663,"ĠRocks":7664,"Nikol":7665,"Gunung":7666,"Hartford":7667,"Gornji":7668,"ĠCerro":7669,"ĠTepet":7670,"ĠGeorgen":7671,"ĠCaball":7672,"Virginia":7673,"wiÄĻ":7674,"ĠAyala":7675,"RhÃ´ne":7676,"galant":7677,"ĠPaolo":7678,"ĠVallÃ¨s":7679,"Quintana":7680,"Shelby":7681,"Hazel":7682,"Poblado":7683,"villiers":7684,"unswick":7685,"Bethel":7686,"Nicolas":7687,"ĠCorner":7688,"ĠCorners":7689,"ĠTriunfo":7690,"Huntington":7691,"Stony":7692,"ĠAntÃ´nio":7693,"ffield":7694,"ĠPiedra":7695,"bÃ¡Ã±ez":7696,"croft":7697,"Marshall":7698,"ĠNuova":7699,"Oulad":7700,"Lagoa":7701,"Velyka":7702,"ĠHabitacion":7703,"Stratford":7704,"Cuevas":7705,"ĠBrianza":7706,"GÃ¶kÃ§":7707,"Buffalo":7708,"Fateh":7709,"ĠClemente":7710,"ĠMÃ¼hlkreis":7711,"ĠGuzmÃ¡n":7712,"ĠSerdÃ¡n":7713,"Aq":7714,"Aal":7715,"Aco":7716,"Aba":7717,"Aka":7718,"Ahuac":7719,"Bie":7720,"Bev":7721,"Baf":7722,"Bund":7723,"Bato":7724,"Bush":7725,"Bott":7726,"Cag":7727,"Cec":7728,"Cof":7729,"Cock":7730,"Dio":7731,"Dog":7732,"Daz":7733,"Daj":7734,"Domb":7735,"Dumb":7736,"DÄĻb":7737,"Ej":7738,"Fen":7739,"Fle":7740,"Fang":7741,"FÄĥ":7742,"Fron":7743,"Fush":7744,"Fisch":7745,"Gill":7746,"Gain":7747,"Ghe":7748,"Gres":7749,"Gry":7750,"Geb":7751,"GÅĤ":7752,"GÃ¶r":7753,"Hr":7754,"Hid":7755,"Hell":7756,"Hers":7757,"Hind":7758,"HÃ©r":7759,"Higuera":7760,"Ist":7761,"Ins":7762,"Jil":7763,"Jind":7764,"Jama":7765,"Kain":7766,"Kran":7767,"Kamb":7768,"Kof":7769,"Kita":7770,"Kish":7771,"Kula":7772,"Krem":7773,"KÄ±r":7774,"Lil":7775,"LÄĥ":7776,"Lark":7777,"LÃ¸":7778,"Luna":7779,"Lido":7780,"Mic":7781,"Mim":7782,"Mour":7783,"Miz":7784,"Mire":7785,"Mold":7786,"Muh":7787,"MÄĽ":7788,"Menz":7789,"Munt":7790,"Nz":7791,"Nin":7792,"Nich":7793,"Nass":7794,"Nine":7795,"Neck":7796,"Ola":7797,"Oco":7798,"Oke":7799,"Ouen":7800,"Pah":7801,"Pich":7802,"Pek":7803,"Pern":7804,"Poh":7805,"Poch":7806,"Phan":7807,"Path":7808,"PÃ©r":7809,"Qi":7810,"Rz":7811,"Rol":7812,"Sall":7813,"Sern":7814,"Sier":7815,"Saj":7816,"SÃ¤":7817,"Sole":7818,"Scar":7819,"Soledad":7820,"Tand":7821,"Tina":7822,"Tsur":7823,"Toul":7824,"Tumb":7825,"Tax":7826,"TÃ¼r":7827,"Triv":7828,"TÄĥt":7829,"Toledo":7830,"Vez":7831,"Wur":7832,"Wet":7833,"Wern":7834,"Wys":7835,"Wierz":7836,"Yay":7837,"Yav":7838,"Zer":7839,"Znam":7840,"aur":7841,"aia":7842,"bil":7843,"bano":7844,"cab":7845,"cino":7846,"cana":7847,"cke":7848,"cala":7849,"cera":7850,"dre":7851,"fur":7852,"fra":7853,"fino":7854,"gÃ©":7855,"gun":7856,"gir":7857,"gado":7858,"gueva":7859,"hills":7860,"hermosa":7861,"iÅ£a":7862,"jara":7863,"jiao":7864,"kat":7865,"kay":7866,"kah":7867,"kale":7868,"khan":7869,"kendorf":7870,"lla":7871,"lit":7872,"loc":7873,"lino":7874,"my":7875,"mak":7876,"mÃ¤":7877,"mida":7878,"mith":7879,"nu":7880,"nal":7881,"nil":7882,"oba":7883,"pl":7884,"pata":7885,"rice":7886,"rÃŃa":7887,"rone":7888,"rick":7889,"rella":7890,"rado":7891,"rales":7892,"sc":7893,"sum":7894,"saw":7895,"sworth":7896,"tara":7897,"tÃ¢n":7898,"uin":7899,"uÈĻ":7900,"vres":7901,"vington":7902,"wed":7903,"wai":7904,"wara":7905,"wÄģn":7906,"wart":7907,"wold":7908,"xin":7909,"zig":7910,"zem":7911,"zno":7912,"Ãĵ":7913,"Ġ7":7914,"Ġu":7915,"ĠÄĢ":7916,"ĠÃļ":7917,"anton":7918,"anovo":7919,"anya":7920,"arana":7921,"inal":7922,"inta":7923,"inca":7924,"enj":7925,"enice":7926,"onay":7927,"alp":7928,"alai":7929,"iliÃ©":7930,"asin":7931,"esia":7932,"chos":7933,"char":7934,"chil":7935,"amu":7936,"amos":7937,"amay":7938,"amac":7939,"dee":7940,"lab":7941,"leby":7942,"leÈĻti":7943,"atec":7944,"ouville":7945,"ouna":7946,"olia":7947,"Ã©bo":7948,"Ã©jar":7949,"iska":7950,"isai":7951,"islav":7952,"iswil":7953,"tava":7954,"ĠCav":7955,"ĠCont":7956,"adel":7957,"ades":7958,"itar":7959,"rech":7960,"reira":7961,"ovÃ«":7962,"ingan":7963,"ingdon":7964,"iagu":7965,"ĠMix":7966,"teca":7967,"icia":7968,"icourt":7969,"ĠPi":7970,"ĠPau":7971,"ĠPir":7972,"ĠPug":7973,"ĠPilar":7974,"ayevo":7975,"ayette":7976,"rock":7977,"Äģda":7978,"Äģrah":7979,"Äģgarh":7980,"Ã¡v":7981,"Ã¡polis":7982,"ĠSor":7983,"ĠSad":7984,"ĠSha":7985,"rios":7986,"ety":7987,"etano":7988,"Lai":7989,"ĠBil":7990,"ĠBol":7991,"ĠBia":7992,"ĠBang":7993,"ĠBell":7994,"ĠBank":7995,"ĠBerg":7996,"igheim":7997,"agra":7998,"oming":7999,"illan":8000,"illing":8001,"illia":8002,"illip":8003,"Chet":8004,"Chup":8005,"Chiang":8006,"ĠAur":8007,"ĠAbr":8008,"ĠAmar":8009,"acal":8010,"acÄ±k":8011,"abar":8012,"abat":8013,"aberg":8014,"irÃ©":8015,"ander":8016,"ÃŃna":8017,"ÃŃni":8018,"thage":8019,"aklÄ±":8020,"aina":8021,"ĠTl":8022,"ĠTo":8023,"ĠTol":8024,"ĠTig":8025,"ĠTot":8026,"odo":8027,"odu":8028,"odougou":8029,"ĠHom":8030,"ĠHau":8031,"ĠHerm":8032,"ĠHuer":8033,"Alh":8034,"Alv":8035,"Alle":8036,"Alta":8037,"Alma":8038,"Alder":8039,"Albert":8040,"ulia":8041,"ĠGate":8042,"ĠGÃ³ra":8043,"aho":8044,"idz":8045,"idos":8046,"iday":8047,"idence":8048,"usch":8049,"iembre":8050,"avou":8051,"tiz":8052,"tiers":8053,"neÅŁti":8054,"neux":8055,"anowice":8056,"berge":8057,"bersdorf":8058,"ĠLos":8059,"ĠLamb":8060,"ĠLuna":8061,"oty":8062,"otes":8063,"Marano":8064,"ĠFil":8065,"ĠFri":8066,"ĠFlat":8067,"ersberg":8068,"ersleben":8069,"rane":8070,"rans":8071,"ikÃ³":8072,"Ã¼nd":8073,"shÃ¶":8074,"azza":8075,"ĠDorado":8076,"Ä«rah":8077,"Ä«yeh":8078,"Anto":8079,"anao":8080,"evac":8081,"opo":8082,"liu":8083,"lich":8084,"entos":8085,"inao":8086,"ĠKil":8087,"ĠKur":8088,"ĠKam":8089,"ĠKou":8090,"ĠKra":8091,"ĠKok":8092,"icho":8093,"iches":8094,"zhu":8095,"eys":8096,"ube":8097,"eldorf":8098,"Nek":8099,"Neun":8100,"ĠEul":8101,"ĠEbro":8102,"ipi":8103,"ipan":8104,"ĠIz":8105,"Leb":8106,"Ã¢mb":8107,"ceÅŁti":8108,"ciana":8109,"uping":8110,"ĠOst":8111,"ensen":8112,"Monc":8113,"Monto":8114,"ĠChiqu":8115,"Ä±m":8116,"Å«t":8117,"ĠWin":8118,"ĠWind":8119,"ĠWater":8120,"Guil":8121,"Brz":8122,"Bram":8123,"uze":8124,"ndon":8125,"ngel":8126,"izer":8127,"ozy":8128,"Thir":8129,"tenau":8130,"Castrillo":8131,"Schwe":8132,"vais":8133,"inden":8134,"GrÃ¼n":8135,"Montf":8136,"Monts":8137,"Montigny":8138,"Ãºa":8139,"Orb":8140,"Org":8141,"Orge":8142,"Å¡k":8143,"almouth":8144,"ghetto":8145,"ĠSannio":8146,"Berkel":8147,"uche":8148,"Prato":8149,"cker":8150,"lya":8151,"lyk":8152,"prÃ¨s":8153,"NovÃ©":8154,"Novom":8155,"Mali":8156,"Malu":8157,"Malvern":8158,"Morgan":8159,"Morelos":8160,"Huam":8161,"Northfield":8162,"Äįina":8163,"Äįki":8164,"arrat":8165,"Corte":8166,"Espin":8167,"uiÃ©":8168,"Ã«n":8169,"errero":8170,"ishche":8171,"rovsk":8172,"Trenton":8173,"lenbach":8174,"á»§":8175,"á»³":8176,"Abas":8177,"uyu":8178,"uyang":8179,"ĠYÃªn":8180,"Conf":8181,"Concei":8182,"verton":8183,"BaÅŁ":8184,"Cole":8185,"Cool":8186,"Coop":8187,"cheon":8188,"Moor":8189,"torp":8190,"Agn":8191,"ollar":8192,"Zhelez":8193,"Benton":8194,"Tej":8195,"Cruc":8196,"ÄŁa":8197,"calco":8198,"Clermont":8199,"Caba":8200,"Caban":8201,"arlÄ±":8202,"arlington":8203,"PeÃ±a":8204,"ife":8205,"ift":8206,"iforn":8207,"ÅĻeb":8208,"Milan":8209,"Mineral":8210,"Phra":8211,"Geneva":8212,"ĠVicentino":8213,"George":8214,"oaia":8215,"Holz":8216,"Mason":8217,"llar":8218,"ĠEscob":8219,"ĠEsgueva":8220,"Ã´me":8221,"Melrose":8222,"ralba":8223,"Ã¥g":8224,"royos":8225,"Herz":8226,"lette":8227,"Navas":8228,"ĠReina":8229,"ĠReforma":8230,"ylÃ¤":8231,"Torrem":8232,"ĠColonia":8233,"TaÅŁ":8234,"Norwood":8235,"Sabang":8236,"Druzh":8237,"Äĥneasa":8238,"czÃ³w":8239,"rigny":8240,"Franken":8241,"Radom":8242,"Konstant":8243,"wangen":8244,"Å¼e":8245,"Half":8246,"Oued":8247,"Potrer":8248,"Ã¡zar":8249,"ĠÃģl":8250,"Äĵl":8251,"Llang":8252,"amanca":8253,"Croix":8254,"Danville":8255,"Pozz":8256,"inhos":8257,"ĠMatamoros":8258,"Itap":8259,"Verkhnyaya":8260,"ĠPeÃ±":8261,"Waterford":8262,"ĠPolyana":8263,"Chapel":8264,"rizal":8265,"Fontenay":8266,"ĠPinar":8267,"Westh":8268,"quiles":8269,"Clair":8270,"DumbrÄĥ":8271,"Ribeira":8272,"Wool":8273,"ĠSerra":8274,"Ronco":8275,"Tavern":8276,"Piedras":8277,"Cotton":8278,"umpang":8279,"ĠRamÃ³n":8280,"opolis":8281,"opolski":8282,"Ã¦k":8283,"Craig":8284,"Vrb":8285,"ĠBartolomeo":8286,"Lakeland":8287,"Lakeview":8288,"Athens":8289,"Williams":8290,"Novosel":8291,"Trinity":8292,"ĠVechi":8293,"Dorfkern":8294,"ĠUnter":8295,"ĠMerc":8296,"Æ°á»Ľ":8297,"ĠBranco":8298,"ĠLarga":8299,"Thornton":8300,"Baldwin":8301,"Oleksand":8302,"Charlotte":8303,"Cumberland":8304,"Prospect":8305,"Lauter":8306,"MÃ©doc":8307,"ĠMuÃ±":8308,"ĠPotrero":8309,"ĠFarms":8310,"Neder":8311,"Ã©lix":8312,"Independence":8313,"Decatur":8314,"TÃ¢rgu":8315,"ĠGeneral":8316,"lessis":8317,"ĠCroce":8318,"Vienne":8319,"ĠNaranj":8320,"ĠCharles":8321,"ĠEscond":8322,"Henderson":8323,"Salvacion":8324,"Eureka":8325,"champs":8326,"ĠLodge":8327,"Somerset":8328,"RÃ©my":8329,"Cleveland":8330,"ĠSharq":8331,"ĠHighlands":8332,"ĠLabem":8333,"fontein":8334,"ĠGharb":8335,"Torrecilla":8336,"ĠWaters":8337,"Izvoarele":8338,"ĠSquare":8339,"ĠIndependencia":8340,"ĠHabitacional":8341,"ConceiÃ§Ã£o":8342,"Ai":8343,"Bing":8344,"Bend":8345,"BÃ¢":8346,"Bala":8347,"Biss":8348,"BÄģr":8349,"Beck":8350,"Cang":8351,"Ceb":8352,"Cair":8353,"Cull":8354,"CÃ¢mp":8355,"Dov":8356,"Deng":8357,"Duc":8358,"Dug":8359,"Duk":8360,"Doh":8361,"Dorn":8362,"Dix":8363,"DÄģr":8364,"DÄħ":8365,"Ein":8366,"Esk":8367,"Ens":8368,"Fan":8369,"Fam":8370,"FÃ©":8371,"Fed":8372,"Farr":8373,"Farn":8374,"Gj":8375,"Gov":8376,"Gay":8377,"Gog":8378,"Goss":8379,"Gost":8380,"Hak":8381,"Hast":8382,"Hok":8383,"Hont":8384,"Heg":8385,"Hek":8386,"Haf":8387,"Hato":8388,"Hann":8389,"Hack":8390,"Hagen":8391,"Hugh":8392,"If":8393,"Jen":8394,"Jau":8395,"Jast":8396,"Job":8397,"Jug":8398,"Jiu":8399,"JÃ¤r":8400,"JÃ¡sz":8401,"KÃ©":8402,"Koy":8403,"Kog":8404,"Kant":8405,"KÄģn":8406,"Kuch":8407,"Kann":8408,"Lec":8409,"Loy":8410,"Lens":8411,"Lant":8412,"Lland":8413,"Luch":8414,"Lomb":8415,"Mw":8416,"Muz":8417,"Moro":8418,"MÃ©n":8419,"Mix":8420,"Nom":8421,"Nah":8422,"Num":8423,"Ney":8424,"Nish":8425,"Nicola":8426,"Oly":8427,"Poy":8428,"PÃ¶":8429,"Peng":8430,"Pino":8431,"Pard":8432,"Pug":8433,"Ples":8434,"PÅĻ":8435,"Prig":8436,"Prav":8437,"Pesc":8438,"Qin":8439,"Qir":8440,"Rhe":8441,"Rup":8442,"Rafael":8443,"Sog":8444,"Seng":8445,"Sull":8446,"Satu":8447,"Sunga":8448,"Sesto":8449,"Tl":8450,"Tas":8451,"Tia":8452,"Taw":8453,"Try":8454,"Taj":8455,"Tula":8456,"Tuf":8457,"Town":8458,"Tamar":8459,"Uc":8460,"Uy":8461,"Uri":8462,"Ush":8463,"Und":8464,"Utt":8465,"Ull":8466,"Vim":8467,"VÃ¤":8468,"Wim":8469,"WÃ¤":8470,"Wiang":8471,"Warn":8472,"Wetz":8473,"Woj":8474,"Yap":8475,"Yeni":8476,"Zand":8477,"ZÄĥ":8478,"Zub":8479,"Zamb":8480,"ZÅĤ":8481,"Zare":8482,"Zacu":8483,"bun":8484,"bong":8485,"bok":8486,"bella":8487,"bouÃ©":8488,"bbs":8489,"cq":8490,"cam":8491,"cano":8492,"cÃ³n":8493,"cent":8494,"cut":8495,"dor":8496,"eiras":8497,"fl":8498,"fin":8499,"fre":8500,"flores":8501,"gul":8502,"gÄĥ":8503,"hy":8504,"hle":8505,"had":8506,"hit":8507,"hra":8508,"hun":8509,"hau":8510,"hir":8511,"hav":8512,"hisar":8513,"jun":8514,"jie":8515,"jÃ¡n":8516,"kas":8517,"kav":8518,"koye":8519,"kha":8520,"liv":8521,"lÃ¸":8522,"mÃ©":8523,"met":8524,"mir":8525,"mach":8526,"nen":8527,"nak":8528,"num":8529,"nje":8530,"nÄĽ":8531,"oor":8532,"oÅ¡":8533,"oÄŁ":8534,"pon":8535,"pÃ¡n":8536,"qin":8537,"rang":8538,"rera":8539,"rÃ³d":8540,"sin":8541,"sang":8542,"she":8543,"sey":8544,"ting":8545,"tun":8546,"tim":8547,"tÃ³":8548,"uba":8549,"utsch":8550,"vad":8551,"vier":8552,"vÃ¡s":8553,"will":8554,"wey":8555,"wane":8556,"xheim":8557,"yu":8558,"yin":8559,"yre":8560,"yville":8561,"zor":8562,"zah":8563,"zkÃ³w":8564,"ÌĦ":8565,"ÑĢ":8566,"Ġ5":8567,"ĠSantiago":8568,"ĠÅł":8569,"osz":8570,"anov":8571,"arat":8572,"arang":8573,"arth":8574,"arah":8575,"erle":8576,"ering":8577,"erano":8578,"erna":8579,"erdale":8580,"inari":8581,"innes":8582,"inje":8583,"enham":8584,"enzo":8585,"alem":8586,"elheim":8587,"elfingen":8588,"ilah":8589,"asen":8590,"esar":8591,"esboro":8592,"chino":8593,"chich":8594,"chÃ©n":8595,"chetta":8596,"chÃ³ri":8597,"ury":8598,"uras":8599,"ures":8600,"urai":8601,"deb":8602,"deville":8603,"dega":8604,"lei":8605,"atinga":8606,"Sanch":8607,"ouda":8608,"olk":8609,"oly":8610,"olan":8611,"olot":8612,"olok":8613,"isu":8614,"isson":8615,"tawa":8616,"ĠCond":8617,"adena":8618,"adura":8619,"itepec":8620,"reek":8621,"oveni":8622,"raga":8623,"ĠMah":8624,"ĠMond":8625,"ĠMora":8626,"ĠMure":8627,"ĠMayor":8628,"icas":8629,"icay":8630,"ĠPis":8631,"ĠPha":8632,"ĠPaso":8633,"angar":8634,"Äģi":8635,"Äģp":8636,"Äģth":8637,"ÄģÅ£":8638,"Äģkh":8639,"Ã¡pam":8640,"ĠShe":8641,"ĠSung":8642,"ĠSham":8643,"ĠSuÃ¡rez":8644,"rian":8645,"rign":8646,"riÃ¨re":8647,"Laj":8648,"Laud":8649,"ĠBut":8650,"ĠBaj":8651,"ĠBrad":8652,"ĠBene":8653,"ĠBajo":8654,"igas":8655,"igna":8656,"igiano":8657,"toni":8658,"agÃ¼":8659,"agung":8660,"agiri":8661,"imachi":8662,"Cho":8663,"ChÃ©":8664,"Chill":8665,"Cheb":8666,"Charm":8667,"auan":8668,"ĠAra":8669,"ĠArag":8670,"ĠAngeles":8671,"Ã³v":8672,"acon":8673,"acay":8674,"acker":8675,"aby":8676,"aburi":8677,"ÃŃc":8678,"ÃŃcuaro":8679,"edin":8680,"eden":8681,"akar":8682,"ĠTro":8683,"ĠTak":8684,"ĠTav":8685,"ĠToro":8686,"ĠTron":8687,"ĠHoll":8688,"ĠRat":8689,"ĠRad":8690,"ĠRed":8691,"ĠRub":8692,"ĠRica":8693,"ĠRÃŃos":8694,"Als":8695,"Allen":8696,"AlÄģq":8697,"aph":8698,"apÃ©":8699,"ulong":8700,"ĠGer":8701,"ĠGerm":8702,"ĠGora":8703,"ĠGraz":8704,"ĠVir":8705,"ĠVid":8706,"ĠVera":8707,"iding":8708,"idio":8709,"uso":8710,"ieta":8711,"aviva":8712,"tif":8713,"tiÃ©r":8714,"neville":8715,"nega":8716,"anoa":8717,"ĠLev":8718,"ĠLub":8719,"ĠLondon":8720,"ĠLá»Ļc":8721,"otou":8722,"otta":8723,"ĠJam":8724,"ĠJuli":8725,"emia":8726,"Marqu":8727,"ĠNam":8728,"owe":8729,"ĠFa":8730,"ĠFl":8731,"ĠFont":8732,"ÅŁeÅŁti":8733,"ershausen":8734,"oge":8735,"ogn":8736,"Ã¶hr":8737,"Ã¼tz":8738,"achen":8739,"aide":8740,"Shun":8741,"Shore":8742,"Shira":8743,"Shakh":8744,"azÃ¡n":8745,"ĠDo":8746,"Aren":8747,"Arcos":8748,"Ä«pur":8749,"quir":8750,"quila":8751,"estina":8752,"ĠMarta":8753,"ĠMarys":8754,"tstown":8755,"Stal":8756,"Stam":8757,"arkt":8758,"guhÃ©":8759,"ubb":8760,"utan":8761,"Nef":8762,"Neud":8763,"eki":8764,"ernÃ¡ndez":8765,"iyya":8766,"Ã¨vre":8767,"awk":8768,"cial":8769,"ugn":8770,"upu":8771,"iermark":8772,"ĠOn":8773,"ensac":8774,"Ã±gan":8775,"Montagne":8776,"ĠChang":8777,"Barton":8778,"nyye":8779,"nytsia":8780,"Å«Å£":8781,"ĠWo":8782,"ĠWill":8783,"Guat":8784,"ineÈĻti":8785,"Carp":8786,"Brum":8787,"Bruck":8788,"Brunswick":8789,"huela":8790,"huizen":8791,"ezd":8792,"ĠLach":8793,"ffe":8794,"landa":8795,"ÈĻani":8796,"ÈĻeÈĻti":8797,"ambe":8798,"nga":8799,"ayao":8800,"izu":8801,"ozi":8802,"ozal":8803,"Thom":8804,"ebro":8805,"ebir":8806,"eroa":8807,"Villaverde":8808,"epe":8809,"eport":8810,"Schle":8811,"Aman":8812,"ynohrad":8813,"Grad":8814,"Grov":8815,"ĠAld":8816,"ĠAlba":8817,"ĠAltos":8818,"Ã³wek":8819,"Montm":8820,"ounou":8821,"Ors":8822,"Orne":8823,"Å¡te":8824,"voir":8825,"olotepec":8826,"Manh":8827,"ĠSand":8828,"Ã§i":8829,"Ã§an":8830,"Berk":8831,"Berri":8832,"Berlin":8833,"ucho":8834,"hany":8835,"cki":8836,"ueras":8837,"ienica":8838,"NovÃ¡":8839,"Novob":8840,"Malp":8841,"Mora":8842,"ĠValt":8843,"Hua":8844,"Huach":8845,"Äįov":8846,"ÄįÃŃ":8847,"Äįka":8848,"Bula":8849,"ĠZac":8850,"á¸Ĳ":8851,"Khlong":8852,"uix":8853,"Casta":8854,"Ã«m":8855,"Ã«s":8856,"ĠCristo":8857,"Seaf":8858,"bee":8859,"Tras":8860,"Adolfo":8861,"iedl":8862,"ĠYork":8863,"chensk":8864,"rancas":8865,"Concep":8866,"BaÃ±os":8867,"Meridian":8868,"irio":8869,"zyna":8870,"Montem":8871,"Real":8872,"nesville":8873,"Spin":8874,"Sparta":8875,"Roberts":8876,"Ãłs":8877,"pert":8878,"elsbach":8879,"ĠIsla":8880,"Aksu":8881,"Erb":8882,"Ceres":8883,"Cerreto":8884,"Island":8885,"ysville":8886,"ĠPole":8887,"Inn":8888,"Verg":8889,"Capp":8890,"Capit":8891,"Zhou":8892,"Peter":8893,"garten":8894,"weil":8895,"Benn":8896,"merald":8897,"Clover":8898,"Poien":8899,"Pointe":8900,"Pech":8901,"Atz":8902,"Ãªque":8903,"ÄģlÄ«":8904,"Äģlpur":8905,"ĠGuad":8906,"Weis":8907,"Weit":8908,"schau":8909,"ĠSalinas":8910,"Emb":8911,"genland":8912,"Garb":8913,"Krasno":8914,"Å¾ice":8915,"uhl":8916,"Terre":8917,"Terra":8918,"Äĩe":8919,"Bonny":8920,"Stras":8921,"ethen":8922,"Woodstock":8923,"tram":8924,"Donja":8925,"Kouadio":8926,"roydon":8927,"ÅĦski":8928,"Tsaga":8929,"Palmas":8930,"Ayd":8931,"Ã¯t":8932,"Hamburg":8933,"Walton":8934,"Blang":8935,"Norman":8936,"Drum":8937,"Naranj":8938,"Miramar":8939,"KaÅ¡":8940,"Tamaz":8941,"ĠXian":8942,"Selva":8943,"kovskiy":8944,"ĠQuir":8945,"ĠTormes":8946,"Birken":8947,"Villefran":8948,"Scor":8949,"Rocchetta":8950,"Ã¼nde":8951,"Ostrov":8952,"Nagy":8953,"Lambert":8954,"ĠMauro":8955,"Florida":8956,"ĠÃģvila":8957,"ĠCuesta":8958,"ĠShahr":8959,"Centro":8960,"Komar":8961,"Rade":8962,"Venustiano":8963,"Kloten":8964,"Rocky":8965,"szent":8966,"ĠFelice":8967,"GÃ¼mÃ¼":8968,"Livingston":8969,"kÃ¶ping":8970,"Kirchheim":8971,"rieden":8972,"Pedra":8973,"BahÃŃa":8974,"Jargalant":8975,"holt":8976,"Aguilar":8977,"MÃ¼nster":8978,"MezÅĳ":8979,"ĠCentre":8980,"Falken":8981,"Topol":8982,"Fontana":8983,"Frankfort":8984,"Butler":8985,"Market":8986,"Loreto":8987,"ĠSantos":8988,"Ingen":8989,"Severn":8990,"ĠMilan":8991,"Ä«dah":8992,"ĠCristina":8993,"MÄĥg":8994,"Ribeir":8995,"ĠBurgenland":8996,"ĠCapo":8997,"ĠSabino":8998,"Chinch":8999,"markt":9000,"ĠAgustin":9001,"Aldeanueva":9002,"ĠJoan":9003,"ÅĤawice":9004,"BÃ¼yÃ¼k":9005,"tempan":9006,"iÅ¡te":9007,"ĠBernardino":9008,"Nowy":9009,"College":9010,"Hinter":9011,"Felipe":9012,"á¹Ń":9013,"Blanken":9014,"ĠBaÃ±os":9015,"ĠRivers":9016,"stÃ¤tten":9017,"MihÄĥ":9018,"Nogent":9019,"ĠIldef":9020,"Quintanilla":9021,"Civitella":9022,"Hyde":9023,"villers":9024,"ĠBuenaventura":9025,"Stockton":9026,"Herrera":9027,"Hillsboro":9028,"Pembroke":9029,"Vadu":9030,"Augusta":9031,"BiaÅĤ":9032,"Chelsea":9033,"ĠPaulista":9034,"Å¡tÄĽ":9035,"Beverly":9036,"ĠLimÃ³n":9037,"Constant":9038,"Bloomfield":9039,"Howard":9040,"ĠTirol":9041,"Edgewood":9042,"otzingo":9043,"Easton":9044,"ĠPobla":9045,"ĠSimÃ³n":9046,"Trzeb":9047,"MÃ¼nch":9048,"Ridg":9049,"Sylvan":9050,"ĠProvidencia":9051,"ĠHelena":9052,"atherine":9053,"Frederick":9054,"Bridg":9055,"SantibÃ¡Ã±ez":9056,"Gordon":9057,"aÅŁr":9058,"Presidente":9059,"VÃ¢nÄĥ":9060,"Brentwood":9061,"Carrollton":9062,"ĠNÃºmero":9063,"Talisay":9064,"Wakefield":9065,"á»©c":9066,"Johnson":9067,"FÃ¢ntÃ¢n":9068,"ahdÄģrÄ«":9069,"Gobernador":9070,"ĠPuglia":9071,"Berkeley":9072,"ifornia":9073,"ĠEscobedo":9074,"Æ°á»Ľc":9075,"AlÄģqahdÄģrÄ«":9076,"tiÃ©rrez":9077,"GÃ¼mÃ¼ÅŁ":9078,"ĠIldefonso":9079,"FÃ¢ntÃ¢nele":9080,"AÃ±":9081,"Ada":9082,"Aquiles":9083,"BÃ¡":9084,"Biv":9085,"Bies":9086,"Bih":9087,"BÃ¼r":9088,"Cach":9089,"Cud":9090,"Cien":9091,"Cao":9092,"Curt":9093,"Cax":9094,"Crem":9095,"Cyp":9096,"Dn":9097,"Dil":9098,"Dzh":9099,"Dung":9100,"Diang":9101,"Dhar":9102,"Dallas":9103,"Eben":9104,"Fos":9105,"Fag":9106,"Fell":9107,"FrÃ©":9108,"Fitz":9109,"FÄĥr":9110,"Gle":9111,"Glan":9112,"GÃ©n":9113,"Goul":9114,"Gott":9115,"Hj":9116,"Hep":9117,"Hund":9118,"Host":9119,"Hank":9120,"Humb":9121,"Henn":9122,"Haver":9123,"Houghton":9124,"Iron":9125,"Jou":9126,"Jand":9127,"Jah":9128,"Jav":9129,"Joa":9130,"Jagu":9131,"Junction":9132,"Kv":9133,"Kid":9134,"Kik":9135,"Kung":9136,"Kep":9137,"Koro":9138,"KÅĤ":9139,"Kani":9140,"Kank":9141,"Khao":9142,"Lel":9143,"Lla":9144,"Mt":9145,"Muc":9146,"Mek":9147,"Mier":9148,"Mittel":9149,"Nt":9150,"Nis":9151,"Nant":9152,"Niz":9153,"Naj":9154,"Naf":9155,"Nowa":9156,"Nakhon":9157,"Oberg":9158,"Oles":9159,"Obr":9160,"PÃ³":9161,"PÄĥ":9162,"Pik":9163,"Pip":9164,"Poul":9165,"Push":9166,"Panc":9167,"Puj":9168,"Qor":9169,"Qia":9170,"Ramb":9171,"Roll":9172,"Riet":9173,"Rank":9174,"Raven":9175,"Rouss":9176,"Sr":9177,"Sic":9178,"Sne":9179,"Sara":9180,"Sof":9181,"Sira":9182,"Soul":9183,"SÄĥr":9184,"Sax":9185,"Senn":9186,"Sonn":9187,"Scott":9188,"Tus":9189,"Tara":9190,"Tord":9191,"Tind":9192,"Tash":9193,"Tuch":9194,"Tess":9195,"Tix":9196,"Tiel":9197,"Tyr":9198,"Uss":9199,"Vu":9200,"Vla":9201,"Vod":9202,"Veg":9203,"Vier":9204,"Vine":9205,"Vaux":9206,"Vynohrad":9207,"Ward":9208,"Worth":9209,"Wyn":9210,"WÅĤ":9211,"Woll":9212,"Wells":9213,"Yat":9214,"Yau":9215,"Yue":9216,"Yem":9217,"Yok":9218,"Zv":9219,"Zin":9220,"Zay":9221,"Zaf":9222,"Zales":9223,"Zsch":9224,"Zlat":9225,"band":9226,"bow":9227,"blan":9228,"bona":9229,"bjerg":9230,"cav":9231,"cÄ±":9232,"cito":9233,"dah":9234,"fia":9235,"fred":9236,"gam":9237,"glen":9238,"hos":9239,"hio":9240,"hrad":9241,"iq":9242,"jd":9243,"kr":9244,"kos":9245,"kra":9246,"key":9247,"kup":9248,"lg":9249,"lum":9250,"leng":9251,"lberg":9252,"lovice":9253,"lÃ¶v":9254,"mam":9255,"mau":9256,"mano":9257,"mÄģn":9258,"mita":9259,"nang":9260,"nbach":9261,"ohe":9262,"oire":9263,"pf":9264,"ppe":9265,"qa":9266,"rn":9267,"rar":9268,"ril":9269,"rina":9270,"rosa":9271,"sas":9272,"ses":9273,"sden":9274,"sboro":9275,"tra":9276,"tana":9277,"tingen":9278,"uar":9279,"ual":9280,"vino":9281,"vigny":9282,"vestre":9283,"wm":9284,"wand":9285,"wagan":9286,"xe":9287,"xley":9288,"xico":9289,"ying":9290,"yant":9291,"zat":9292,"zra":9293,"zÄĻ":9294,"Ä¾":9295,"Å©":9296,"Åª":9297,"Åĺ":9298,"Ġv":9299,"Ġand":9300,"osc":9301,"anon":9302,"anou":9303,"anzo":9304,"anico":9305,"arf":9306,"aren":9307,"arch":9308,"arap":9309,"arka":9310,"arino":9311,"erde":9312,"erau":9313,"inch":9314,"inde":9315,"inburg":9316,"onos":9317,"onet":9318,"onac":9319,"alen":9320,"alas":9321,"alÃŃa":9322,"albo":9323,"alÅ«r":9324,"orskiy":9325,"elice":9326,"iley":9327,"esz":9328,"esen":9329,"esse":9330,"chiv":9331,"chowice":9332,"uria":9333,"amÃ©":9334,"amento":9335,"degg":9336,"detto":9337,"lap":9338,"laya":9339,"latt":9340,"ledo":9341,"atina":9342,"oude":9343,"ouakro":9344,"olÃ©":9345,"olong":9346,"olzh":9347,"Ã©la":9348,"Ã©fla":9349,"isti":9350,"tada":9351,"ĠCand":9352,"ĠCob":9353,"ĠCaj":9354,"ĠColl":9355,"ĠCosta":9356,"adar":9357,"adji":9358,"iter":9359,"itre":9360,"itÃ¡":9361,"itland":9362,"ovia":9363,"ovets":9364,"inger":9365,"inghem":9366,"iapa":9367,"raw":9368,"ĠMen":9369,"ĠMang":9370,"ĠMass":9371,"ĠMaj":9372,"tec":9373,"teuil":9374,"icÃ³":9375,"ĠPon":9376,"ĠPav":9377,"ĠPont":9378,"ĠPozo":9379,"ĠPÃ©rez":9380,"ays":9381,"ayu":9382,"ayong":9383,"unay":9384,"roda":9385,"robo":9386,"Äģwar":9387,"Ã¡rio":9388,"ĠSo":9389,"ĠSon":9390,"ĠSom":9391,"ĠSev":9392,"ĠSÃ£o":9393,"ĠSide":9394,"ĠSoto":9395,"ĠSÃ¡nchez":9396,"riy":9397,"riÃ¡n":9398,"rida":9399,"ĠBad":9400,"ĠBag":9401,"ĠBall":9402,"ĠBuk":9403,"ĠBuz":9404,"ĠBlas":9405,"ĠBranca":9406,"iger":9407,"iguan":9408,"tonilco":9409,"agon":9410,"agawa":9411,"omiya":9412,"ims":9413,"imon":9414,"imont":9415,"Chh":9416,"Chiv":9417,"Chann":9418,"ĠAk":9419,"ĠAnita":9420,"acco":9421,"acalco":9422,"tobe":9423,"abb":9424,"abi":9425,"abÃ©":9426,"abah":9427,"abana":9428,"abli":9429,"abela":9430,"irs":9431,"ÃŃng":9432,"ÃŃrez":9433,"ÃŃlia":9434,"edd":9435,"eds":9436,"edonia":9437,"thi":9438,"skÃ©":9439,"ĠTal":9440,"ĠTab":9441,"ĠTour":9442,"ĠTung":9443,"ĠTÃ¢n":9444,"ĠHat":9445,"ĠHang":9446,"ĠHum":9447,"ĠHÃ²a":9448,"ĠRoy":9449,"ĠRaw":9450,"ĠRib":9451,"ĠRico":9452,"ĠRoca":9453,"ĠRancho":9454,"Alice":9455,"apol":9456,"ulas":9457,"ĠGra":9458,"ĠGrou":9459,"ĠGorda":9460,"ĠGaleana":9461,"ĠVl":9462,"uster":9463,"useppe":9464,"iej":9465,"avera":9466,"avillas":9467,"nek":9468,"coa":9469,"cole":9470,"bais":9471,"kai":9472,"kaj":9473,"ĠLung":9474,"ĠLind":9475,"ĠLiber":9476,"ĠLlob":9477,"heiro":9478,"otin":9479,"otal":9480,"otillo":9481,"ivar":9482,"teren":9483,"Marin":9484,"Marco":9485,"astel":9486,"okou":9487,"ÅŁtea":9488,"erstadt":9489,"ersee":9490,"ogon":9491,"ogue":9492,"iken":9493,"Ã¶d":9494,"Ã¶ck":9495,"Ã¼t":9496,"sho":9497,"Sho":9498,"Shch":9499,"Shat":9500,"Shik":9501,"aze":9502,"azan":9503,"ĠDra":9504,"ĠDef":9505,"ĠDistrict":9506,"eghe":9507,"Arr":9508,"Aram":9509,"Argen":9510,"Arenas":9511,"Ä«f":9512,"quÃ©":9513,"Ants":9514,"Angu":9515,"evi":9516,"evsk":9517,"opal":9518,"oping":9519,"opleu":9520,"ĠMary":9521,"tsu":9522,"lion":9523,"aleja":9524,"endam":9525,"endingen":9526,"ichen":9527,"ichang":9528,"ichÅį":9529,"Stur":9530,"guer":9531,"guas":9532,"guila":9533,"eyevo":9534,"ubo":9535,"elden":9536,"orden":9537,"uty":9538,"utton":9539,"Nep":9540,"Neer":9541,"Neub":9542,"assin":9543,"assing":9544,"ĠEx":9545,"iyuan":9546,"iyivka":9547,"Lee":9548,"Lei":9549,"Lez":9550,"Leis":9551,"Leopold":9552,"ceville":9553,"ceÈĻti":9554,"ugnano":9555,"ouri":9556,"ĠOeste":9557,"ensville":9558,"Ã±ar":9559,"ukan":9560,"enix":9561,"ĠChich":9562,"ĠChuen":9563,"iane":9564,"iany":9565,"Bart":9566,"Barcel":9567,"nyk":9568,"Å«f":9569,"Å«k":9570,"ĠWy":9571,"ĠWai":9572,"ĠWashington":9573,"ĠWieÅĽ":9574,"Gua":9575,"Gual":9576,"Carri":9577,"Carter":9578,"Carras":9579,"Carlis":9580,"Carlos":9581,"Carthage":9582,"BrÃ¼":9583,"Brunn":9584,"huatlÃ¡n":9585,"eze":9586,"ndale":9587,"ohar":9588,"ÈĻeni":9589,"ambra":9590,"niÈĽa":9591,"ryville":9592,"ebo":9593,"ebad":9594,"Villav":9595,"Castille":9596,"Castillo":9597,"Schm":9598,"Schli":9599,"Quil":9600,"Quart":9601,"Quentin":9602,"Amer":9603,"ssa":9604,"lans":9605,"ynÄĽ":9606,"Gren":9607,"Gron":9608,"Grat":9609,"GrÄĥ":9610,"GrÃ¤":9611,"Gross":9612,"Belaya":9613,"Bellav":9614,"ĠAlam":9615,"ĠAlban":9616,"Ãºr":9617,"Ãºna":9618,"oneta":9619,"queira":9620,"Orchard":9621,"Å¡iÄĩ":9622,"almi":9623,"almimil":9624,"vois":9625,"orejo":9626,"Westwood":9627,"Manj":9628,"Manor":9629,"Salz":9630,"Berl":9631,"Beech":9632,"Ã£es":9633,"ije":9634,"ijiang":9635,"Newark":9636,"denburg":9637,"Prud":9638,"Novok":9639,"Morr":9640,"Morro":9641,"Morales":9642,"ĠValde":9643,"bron":9644,"Äįin":9645,"Äįko":9646,"irah":9647,"Kron":9648,"arras":9649,"Kholm":9650,"Espar":9651,"ignana":9652,"Casar":9653,"Casti":9654,"beau":9655,"sons":9656,"Olsz":9657,"Torr":9658,"Torralba":9659,"Maas":9660,"á»į":9661,"Abu":9662,"iedo":9663,"Pert":9664,"uyama":9665,"ÃŁnitz":9666,"Karab":9667,"ĠArg":9668,"ĠArroyos":9669,"paÅŁa":9670,"Meuse":9671,"Mechan":9672,"Baia":9673,"BaÄŁ":9674,"Cox":9675,"Campillo":9676,"Baden":9677,"Deal":9678,"Deutsch":9679,"ansville":9680,"chee":9681,"Palacios":9682,"ttes":9683,"Asc":9684,"Sarat":9685,"Banks":9686,"Rode":9687,"mead":9688,"Ãłng":9689,"armey":9690,"ĠUr":9691,"ĠUrb":9692,"Äģdi":9693,"ĠPointe":9694,"Invern":9695,"Cann":9696,"Zhen":9697,"oldo":9698,"ombre":9699,"Obersch":9700,"Magn":9701,"Magliano":9702,"iÃ©nega":9703,"Ãīc":9704,"Ãīp":9705,"radÃŃa":9706,"ufemia":9707,"enex":9708,"ific":9709,"Osiek":9710,"Osped":9711,"Atlant":9712,"Grafen":9713,"Enfield":9714,"Stevens":9715,"Blair":9716,"Fram":9717,"Whitt":9718,"ĠSalvat":9719,"Minas":9720,"Minam":9721,"Uru":9722,"Urz":9723,"ettes":9724,"Loir":9725,"Alban":9726,"Ã©ria":9727,"Cior":9728,"ĠEspin":9729,"ancingo":9730,"Cuau":9731,"CuauhtÃ©moc":9732,"Wilton":9733,"Woodbury":9734,"Melchor":9735,"Batu":9736,"ĠBaru":9737,"ujillo":9738,"Ã¥ng":9739,"Ãĩam":9740,"ÅĦska":9741,"ÅĦskie":9742,"Herb":9743,"Walker":9744,"ĠQal":9745,"ĠStan":9746,"Lyman":9747,"Oakwood":9748,"ĠColorada":9749,"ĠGiuseppe":9750,"Frei":9751,"ertÃ©":9752,"baru":9753,"barra":9754,"ĠConcord":9755,"Redwood":9756,"ĠCaliente":9757,"ĠCalabro":9758,"Stazione":9759,"Kew":9760,"bonne":9761,"ĠCastell":9762,"Varennes":9763,"ÅĽl":9764,"Traian":9765,"ĠQuint":9766,"Birch":9767,"ÄĥuÈĽi":9768,"Bangor":9769,"Sunset":9770,"ĠDoming":9771,"ĠDomÃŃng":9772,"Halle":9773,"Smol":9774,"Temp":9775,"Waim":9776,"Beaufort":9777,"Richland":9778,"Almol":9779,"Granville":9780,"Granada":9781,"Springdale":9782,"Simpang":9783,"Gervais":9784,"mpton":9785,"ÄĮern":9786,"Quezon":9787,"Szent":9788,"lovskaya":9789,"Krasnok":9790,"Krasnog":9791,"Savigny":9792,"Flore":9793,"Imper":9794,"Ġá¸¨am":9795,"Soto":9796,"Toto":9797,"Uster":9798,"Itu":9799,"ĠOrd":9800,"ĠVieja":9801,"Castellar":9802,"Ġ10":9803,"Middel":9804,"Pozuelo":9805,"ĠNicolÃ²":9806,"liswil":9807,"Lubuk":9808,"Alfredo":9809,"Mezz":9810,"ĠCamino":9811,"orodok":9812,"Moulay":9813,"Tenango":9814,"patti":9815,"Ġsulla":9816,"uleÈĻti":9817,"Czer":9818,"Czern":9819,"iemonte":9820,"Mabini":9821,"ĠSabina":9822,"market":9823,"ĠSerena":9824,"Basse":9825,"Gries":9826,"ĠBonita":9827,"atzingo":9828,"Cheong":9829,"beyli":9830,"Ġaan":9831,"Äĥdeni":9832,"áº¡nh":9833,"ÄĥcÄĥ":9834,"Äĥceni":9835,"Gornja":9836,"Nizhne":9837,"Valdel":9838,"Fulton":9839,"Hirsch":9840,"rappa":9841,"Williamstown":9842,"ĠRioja":9843,"mÃ¼nster":9844,"ustavo":9845,"ĠNoviembre":9846,"Brownsville":9847,"ĠVeche":9848,"Sharon":9849,"Oliveira":9850,"ĠSauces":9851,"Mercedes":9852,"Ravens":9853,"Seymour":9854,"ĠRaab":9855,"CondÃ©":9856,"ĠJohns":9857,"ParaÃŃso":9858,"ĠNouÄĥ":9859,"istrica":9860,"DrÄĥg":9861,"Fium":9862,"Jasper":9863,"Ungureni":9864,"Wayne":9865,"yevsk":9866,"ilhac":9867,"Chatham":9868,"apuram":9869,"Taft":9870,"bosch":9871,"ĠPedregal":9872,"ĠJesus":9873,"áº£ng":9874,"áº§n":9875,"Charlestown":9876,"Yenice":9877,"ĠGÃ³rne":9878,"Zuid":9879,"ĠEmiliano":9880,"Cervera":9881,"Reyn":9882,"Rohrbach":9883,"ĠÅļlÄħskie":9884,"ĠCarrillo":9885,"ĠMicÄĥ":9886,"ĠNeckar":9887,"Philip":9888,"Ã°ur":9889,"abrook":9890,"ÃīvÃªque":9891,"Pervomayskoye":9892,"Vladim":9893,"Bischof":9894,"Lafayette":9895,"martin":9896,"Paradise":9897,"SÅĤup":9898,"Voznes":9899,"Waverly":9900,"Quincy":9901,"KÄ±zÄ±l":9902,"ĠCÃ¢mpie":9903,"AlbeÅŁti":9904,"ĠFresno":9905,"ĠMarittima":9906,"Lewiston":9907,"ĠStreet":9908,"Clyde":9909,"denswil":9910,"Ãİle":9911,"CastejÃ³n":9912,"Mitchell":9913,"BÅĻez":9914,"Aleksey":9915,"LÃ©onard":9916,"ĠCaballeros":9917,"FushÃ«":9918,"ĠMixtepec":9919,"ĠBiagio":9920,"Hastings":9921,"Qiryat":9922,"WÃ¤denswil":9923,"ĠAragÃ³n":9924,"ĠAldama":9925,"Concepcion":9926,"Villefranche":9927,"Carlisle":9928,"Bellavista":9929,"Mechanic":9930,"Ospedal":9931,"ĠDomÃŃnguez":9932,"Ais":9933,"Aca":9934,"Auz":9935,"Auch":9936,"Aix":9937,"AÄŁ":9938,"Apol":9939,"Bem":9940,"Baw":9941,"Bock":9942,"Brac":9943,"Bett":9944,"Biber":9945,"BÃ©d":9946,"Cri":9947,"Cale":9948,"Caw":9949,"Cuy":9950,"Cess":9951,"Celle":9952,"Cumb":9953,"Caux":9954,"Croydon":9955,"Dis":9956,"Dic":9957,"Damb":9958,"Dani":9959,"Down":9960,"DÃ¶r":9961,"Dmit":9962,"Eck":9963,"Ett":9964,"Fus":9965,"Fog":9966,"Fli":9967,"Fier":9968,"Foug":9969,"Flat":9970,"Falmouth":9971,"GÃ©":9972,"Gio":9973,"Gow":9974,"Gers":9975,"Gamp":9976,"Gop":9977,"Goz":9978,"Garr":9979,"Gole":9980,"Gosh":9981,"Goud":9982,"Hing":9983,"Hang":9984,"Hei":9985,"Hock":9986,"Hurst":9987,"Huerta":9988,"Ira":9989,"Ibr":9990,"Jel":9991,"Jad":9992,"Jang":9993,"Jeb":9994,"JÃ¤":9995,"Kie":9996,"Kach":9997,"Kale":9998,"Kub":9999,"Kort":10000,"KÄ±":10001,"Kala":10002,"Kaj":10003,"Kart":10004,"Kly":10005,"Kund":10006,"Kels":10007,"KÃ¶r":10008,"Kyr":10009,"Kosh":10010,"Kimb":10011,"Knox":10012,"Lille":10013,"Lik":10014,"Lier":10015,"Luan":10016,"Lung":10017,"Lone":10018,"Liss":10019,"Lima":10020,"London":10021,"Mov":10022,"Mob":10023,"Mana":10024,"Mine":10025,"Mate":10026,"Mash":10027,"Mula":10028,"Mist":10029,"Maul":10030,"Mys":10031,"Mets":10032,"MÆ°á»Ŀng":10033,"NÃ¡":10034,"Nig":10035,"Niv":10036,"Nij":10037,"Nanj":10038,"Nanch":10039,"NÄģá¸©":10040,"Oul":10041,"Ocot":10042,"PÃ¡":10043,"Pab":10044,"Pers":10045,"Puk":10046,"Pind":10047,"Poli":10048,"Pater":10049,"Pax":10050,"Pith":10051,"Pred":10052,"Pampa":10053,"QaÅŁr":10054,"Ries":10055,"RÃ¸":10056,"Ruh":10057,"Rover":10058,"Retz":10059,"Set":10060,"Send":10061,"Sond":10062,"Sakh":10063,"Sred":10064,"Siem":10065,"Tov":10066,"Tain":10067,"Tiv":10068,"Tog":10069,"Tik":10070,"Tier":10071,"Tala":10072,"Term":10073,"Toro":10074,"Twe":10075,"TÅį":10076,"Trim":10077,"Tambo":10078,"Uit":10079,"Vat":10080,"Vre":10081,"Vell":10082,"Vec":10083,"Voy":10084,"Vai":10085,"Vij":10086,"Vign":10087,"VÃ¡r":10088,"Viana":10089,"VÃ¶l":10090,"Vosto":10091,"VÃ¢l":10092,"Wis":10093,"Wie":10094,"Wav":10095,"Went":10096,"Wash":10097,"Wart":10098,"Wied":10099,"WÄĻ":10100,"WÃ¼l":10101,"Xind":10102,"Xiao":10103,"YÃ©":10104,"Yom":10105,"Yanj":10106,"Zb":10107,"Zd":10108,"Zy":10109,"Zhan":10110,"Zgorn":10111,"aff":10112,"aÅ£":10113,"bra":10114,"bet":10115,"boy":10116,"bala":10117,"bly":10118,"cil":10119,"cid":10120,"cie":10121,"czew":10122,"cabamba":10123,"dd":10124,"das":10125,"dow":10126,"dieu":10127,"dijk":10128,"eur":10129,"ede":10130,"eza":10131,"fast":10132,"four":10133,"foss":10134,"fling":10135,"falu":10136,"gue":10137,"gum":10138,"gell":10139,"gna":10140,"gles":10141,"hong":10142,"hÃ¶":10143,"hÄģr":10144,"hope":10145,"jer":10146,"jÃ©":10147,"jay":10148,"jani":10149,"jevo":10150,"kil":10151,"kre":10152,"kie":10153,"kenstein":10154,"ld":10155,"lle":10156,"lass":10157,"lÃ³s":10158,"mou":10159,"main":10160,"maz":10161,"mana":10162,"mberg":10163,"mingen":10164,"nog":10165,"nant":10166,"oq":10167,"oia":10168,"pes":10169,"pad":10170,"park":10171,"rong":10172,"rilla":10173,"rud":10174,"rÃ¨":10175,"rate":10176,"sv":10177,"sal":10178,"scheid":10179,"tom":10180,"tÃŃ":10181,"ueng":10182,"uÃ¢n":10183,"uÃ±a":10184,"vÃ©":10185,"vig":10186,"vent":10187,"wau":10188,"wij":10189,"wÄģr":10190,"xo":10191,"yÃ©":10192,"yst":10193,"yna":10194,"zos":10195,"zer":10196,"zone":10197,"zele":10198,"Ãį":10199,"ÃĲ":10200,"Ä¼":10201,"Èļ":10202,"Ðµ":10203,"Ð¾":10204,"Ġnel":10205,"anay":10206,"anche":10207,"ancu":10208,"ancourt":10209,"arton":10210,"arag":10211,"arovo":10212,"arno":10213,"arivka":10214,"arese":10215,"ink":10216,"incourt":10217,"inÃ³polis":10218,"enque":10219,"enÃ§":10220,"enzano":10221,"enfels":10222,"onj":10223,"onou":10224,"onik":10225,"onese":10226,"alin":10227,"aling":10228,"alah":10229,"aloya":10230,"orm":10231,"orde":10232,"orre":10233,"orama":10234,"elv":10235,"elde":10236,"ilt":10237,"ilam":10238,"ilsk":10239,"ilovo":10240,"ilhan":10241,"ilapan":10242,"ilento":10243,"asio":10244,"aspar":10245,"esco":10246,"esca":10247,"esbury":10248,"chÃ©":10249,"chÃ³w":10250,"chevo":10251,"urra":10252,"urga":10253,"amel":10254,"amora":10255,"amÃ©kro":10256,"law":10257,"leto":10258,"leda":10259,"lehem":10260,"aten":10261,"atÃŃ":10262,"atka":10263,"atino":10264,"Sanc":10265,"oung":10266,"olpan":10267,"Ã©kou":10268,"taf":10269,"ĠCid":10270,"ĠCons":10271,"ĠClair":10272,"ĠCilento":10273,"ader":10274,"adon":10275,"adian":10276,"itsch":10277,"rec":10278,"reh":10279,"real":10280,"reich":10281,"ovit":10282,"ovce":10283,"ovichi":10284,"ingue":10285,"iawa":10286,"iakro":10287,"raque":10288,"rave":10289,"ĠMam":10290,"ĠMet":10291,"ĠMog":10292,"ĠMach":10293,"ĠMina":10294,"ĠMez":10295,"ĠMoh":10296,"ĠMira":10297,"ĠMile":10298,"ĠMÄĽ":10299,"ĠMias":10300,"ĠMá»¹":10301,"tei":10302,"teaux":10303,"icy":10304,"icar":10305,"icun":10306,"icio":10307,"ĠPos":10308,"ĠPro":10309,"ĠPong":10310,"ĠPine":10311,"ĠPhan":10312,"ĠPrad":10313,"ĠPlay":10314,"ĠPardo":10315,"ĠParan":10316,"ĠPlessis":10317,"ĠPiemonte":10318,"anges":10319,"angun":10320,"angarh":10321,"ayuca":10322,"ayevka":10323,"rob":10324,"roit":10325,"Ã¡li":10326,"ĠSv":10327,"ĠSun":10328,"ĠSap":10329,"ĠSah":10330,"ĠSib":10331,"ĠSep":10332,"ĠSola":10333,"ĠShan":10334,"rip":10335,"Laus":10336,"Lauf":10337,"ĠBab":10338,"ĠBaz":10339,"ĠBolÃŃ":10340,"tongo":10341,"agy":10342,"ager":10343,"omor":10344,"omulco":10345,"omaggiore":10346,"imen":10347,"Chag":10348,"Chul":10349,"Chian":10350,"auga":10351,"ĠAh":10352,"ĠAla":10353,"ĠAth":10354,"acons":10355,"toc":10356,"tot":10357,"toke":10358,"aber":10359,"abac":10360,"ablan":10361,"ably":10362,"ird":10363,"iru":10364,"andan":10365,"anden":10366,"edi":10367,"edorf":10368,"edios":10369,"akam":10370,"akent":10371,"ĠTet":10372,"ĠTai":10373,"ĠTera":10374,"ĠTicino":10375,"ody":10376,"ĠHig":10377,"ĠHoch":10378,"ĠHora":10379,"ĠHacienda":10380,"ĠRou":10381,"ĠRov":10382,"ĠRain":10383,"ĠRoch":10384,"ĠRinconada":10385,"Ali":10386,"Alia":10387,"Aless":10388,"Algar":10389,"Almen":10390,"Alcon":10391,"apÃ¡":10392,"ulam":10393,"uleni":10394,"ullo":10395,"ulles":10396,"ulÃŃn":10397,"ĠGon":10398,"ĠGul":10399,"ĠGÃ¡l":10400,"ĠGrappa":10401,"ĠVas":10402,"ĠVille":10403,"idong":10404,"idueÃ±a":10405,"usha":10406,"iog":10407,"ieÅŁti":10408,"ieve":10409,"iemi":10410,"avka":10411,"nei":10412,"neuk":10413,"berk":10414,"berley":10415,"ueÃ±as":10416,"ĠLi":10417,"ĠLy":10418,"ĠLec":10419,"ĠLeg":10420,"ĠLour":10421,"Elwood":10422,"Elkh":10423,"Elgin":10424,"otl":10425,"ĠJer":10426,"ĠJorge":10427,"ĠJames":10428,"ecik":10429,"emer":10430,"embe":10431,"oyuan":10432,"MarÃŃa":10433,"Marien":10434,"Markaz":10435,"ĠNang":10436,"ĠNap":10437,"ĠNaran":10438,"owy":10439,"okee":10440,"ĠFal":10441,"ĠFÃ©lix":10442,"ĠFertÃ©":10443,"ÅŁar":10444,"Ã¶ll":10445,"shire":10446,"obos":10447,"Ġdels":10448,"Shum":10449,"ĠDur":10450,"ĠDav":10451,"ĠDob":10452,"ĠDulce":10453,"egna":10454,"stre":10455,"Ã¡nh":10456,"Arqu":10457,"Arkh":10458,"Arbo":10459,"Arthur":10460,"Arenal":10461,"amps":10462,"ampleu":10463,"Ã³na":10464,"quel":10465,"quillas":10466,"Anta":10467,"udu":10468,"ĠMarsh":10469,"ĠMariano":10470,"ĠMarket":10471,"lib":10472,"liet":10473,"alea":10474,"enty":10475,"uce":10476,"ucu":10477,"uccio":10478,"ender":10479,"ĠKings":10480,"ĠKrem":10481,"Stall":10482,"Stare":10483,"zhao":10484,"uben":10485,"elda":10486,"ordino":10487,"assel":10488,"eker":10489,"ĠEtla":10490,"ernheim":10491,"ĠIxtla":10492,"iyn":10493,"Ã¨che":10494,"awl":10495,"away":10496,"upi":10497,"ibor":10498,"ĠOd":10499,"ĠOt":10500,"ĠOx":10501,"ĠOri":10502,"ĠChi":10503,"ĠChan":10504,"ianello":10505,"Barro":10506,"Barran":10507,"Å«rah":10508,"ĠWil":10509,"Guis":10510,"Guing":10511,"Carb":10512,"Carde":10513,"Carpin":10514,"Carmel":10515,"Bron":10516,"Brice":10517,"Bryn":10518,"dao":10519,"daÄŁ":10520,"huapan":10521,"antas":10522,"antang":10523,"antina":10524,"ezo":10525,"ColÃ³n":10526,"oha":10527,"ÈĻa":10528,"ÈĻca":10529,"ÈĻteni":10530,"ajac":10531,"ondÃ³n":10532,"Thou":10533,"ThÃ©":10534,"Thomp":10535,"eiba":10536,"tenburg":10537,"tenham":10538,"Valla":10539,"Valder":10540,"Valence":10541,"ebe":10542,"nole":10543,"Castrov":10544,"Castels":10545,"lof":10546,"hammad":10547,"Schwar":10548,"Ã¤Ã¤":10549,"Amherst":10550,"sso":10551,"ssel":10552,"inder":10553,"indale":10554,"Villarejo":10555,"ynske":10556,"Gru":10557,"ochi":10558,"Belin":10559,"ĠAll":10560,"Montalb":10561,"Ãºt":10562,"fields":10563,"aroen":10564,"Westminster":10565,"ghÄ©":10566,"Mank":10567,"ĠSannita":10568,"ÅĤd":10569,"Äģnah":10570,"Äģnagar":10571,"Salit":10572,"ucha":10573,"Bech":10574,"Beaul":10575,"iji":10576,"ijon":10577,"ijÃ¤rvi":10578,"Prest":10579,"Prata":10580,"Prado":10581,"Novod":10582,"Novyye":10583,"Malin":10584,"Huy":10585,"Huac":10586,"Huix":10587,"insheim":10588,"Å£eÅŁti":10589,"Calzada":10590,"California":10591,"Balaton":10592,"Äįani":10593,"Äįevo":10594,"ingside":10595,"irac":10596,"Buh":10597,"arren":10598,"arram":10599,"itzsch":10600,"Esper":10601,"Caselle":10602,"Cascade":10603,"ĠCrest":10604,"Sef":10605,"bej":10606,"boa":10607,"Mais":10608,"Param":10609,"Tron":10610,"TrÃªs":10611,"á»£":10612,"Perth":10613,"uyÃªn":10614,"ĠYbbs":10615,"istor":10616,"ĠArenal":10617,"ĠAnn":10618,"Mein":10619,"Mech":10620,"Bail":10621,"Baie":10622,"eleone":10623,"Palai":10624,"ÄģrÄģ":10625,"areo":10626,"Montebello":10627,"Rejon":10628,"Moj":10629,"Sper":10630,"Saran":10631,"Saray":10632,"Ãłn":10633,"Ã¡rt":10634,"Brew":10635,"aneta":10636,"Heus":10637,"elsberg":10638,"olls":10639,"armouth":10640,"ĠIsle":10641,"ĠUl":10642,"Äģdh":10643,"Vert":10644,"Verona":10645,"Canale":10646,"Kalam":10647,"Roseb":10648,"Rosedale":10649,"ietta":10650,"Petite":10651,"Petrop":10652,"ushima":10653,"iewice":10654,"Oberndorf":10655,"rento":10656,"Andover":10657,"iÃ©kro":10658,"browa":10659,"meralda":10660,"Portage":10661,"Ã¸bing":10662,"ClÃ©":10663,"eneÅŁti":10664,"ihr":10665,"Aven":10666,"Avondale":10667,"Velik":10668,"Veliko":10669,"ifla":10670,"Cameron":10671,"Grav":10672,"Grafton":10673,"Ent":10674,"Steen":10675,"ziers":10676,"ziÃ¨res":10677,"Äģmpur":10678,"ppo":10679,"tlahuaca":10680,"ĠSalto":10681,"Miner":10682,"Phillip":10683,"Garg":10684,"Holland":10685,"Holiday":10686,"ileÅŁti":10687,"Acton":10688,"Comte":10689,"Commer":10690,"Solnech":10691,"erior":10692,"ennis":10693,"Strzel":10694,"ÈĽeÈĻti":10695,"Woodland":10696,"Woodlawn":10697,"Batang":10698,"ĠBarra":10699,"Horad":10700,"ujia":10701,"Paseos":10702,"regat":10703,"ĠKhÄĵl":10704,"yansk":10705,"Heritage":10706,"ÄĽÅĻice":10707,"Palmira":10708,"Palmillas":10709,"Palmyra":10710,"angaon":10711,"Braun":10712,"Edg":10713,"Walla":10714,"roso":10715,"Äħs":10716,"ussac":10717,"Silv":10718,"ĠAndrews":10719,"Lynd":10720,"Lyons":10721,"Oakdale":10722,"AltÄ±n":10723,"Fairfax":10724,"Winfield":10725,"Saban":10726,"Dobra":10727,"Rome":10728,"phur":10729,"ĠConst":10730,"ykovo":10731,"ahualco":10732,"Niedern":10733,"biate":10734,"Stafford":10735,"ĠVercell":10736,"rigal":10737,"Galle":10738,"kovac":10739,"Cherem":10740,"Bogd":10741,"Bogorod":10742,"Hook":10743,"enhagen":10744,"Izvor":10745,"Waik":10746,"Warsaw":10747,"ÄĲáº¡":10748,"Ã¼nz":10749,"Dames":10750,"Grant":10751,"Glenwood":10752,"OstrÃ³w":10753,"Riva":10754,"Sultan":10755,"ViÅ¡":10756,"Podg":10757,"Ahue":10758,"Queen":10759,"Ponta":10760,"lovsk":10761,"vardey":10762,"ÄĢs":10763,"ĠMaÅĤ":10764,"ĠMaá¸©":10765,"Ã¡zquez":10766,"ĠTownship":10767,"Summit":10768,"ĠÃģguila":10769,"ĠCuau":10770,"aguas":10771,"DaÄŁ":10772,"Landes":10773,"Komsom":10774,"Venta":10775,"ĠMagÃ³n":10776,"Arap":10777,"endaal":10778,"orstadt":10779,"Shev":10780,"Sheffield":10781,"Neuilly":10782,"Zarz":10783,"Kirchdorf":10784,"Cave":10785,"Cavall":10786,"Teluk":10787,"Middleton":10788,"Æ°ng":10789,"ĠCanton":10790,"Dublin":10791,"ĠRomero":10792,"Mandal":10793,"ĠMateos":10794,"ĠOlona":10795,"Boston":10796,"Bosco":10797,"Opat":10798,"Buci":10799,"Saturn":10800,"ĠEnrique":10801,"Dioul":10802,"Champs":10803,"MiÄĻd":10804,"Watertown":10805,"ĠPolje":10806,"Court":10807,"Taiping":10808,"ĠFlorida":10809,"PurÃŃsima":10810,"azarÄ±":10811,"velines":10812,"Homer":10813,"Stanley":10814,"iÅŁtea":10815,"Lisbon":10816,"Micha":10817,"ĠCarmel":10818,"Riverdale":10819,"lamos":10820,"nÃŃk":10821,"Filip":10822,"HÃ¶ch":10823,"Aldea":10824,"Llanf":10825,"ĠRamos":10826,"ĠRamÃŃrez":10827,"ĠMolino":10828,"Arcadia":10829,"Gulf":10830,"ĠPrado":10831,"Demir":10832,"Englewood":10833,"Arnold":10834,"Nizhnyaya":10835,"Cantal":10836,"ĠPorto":10837,"ĠObispo":10838,"Villamayor":10839,"Haute":10840,"isiÃ³n":10841,"ĠSegura":10842,"ĠVeneto":10843,"Providencia":10844,"Williamsburg":10845,"Vernon":10846,"ĠRiviÃ¨re":10847,"JabÅĤ":10848,"Sector":10849,"ĠSchwarz":10850,"azzolo":10851,"Bradford":10852,"front":10853,"grave":10854,"Mihai":10855,"Vasil":10856,"Chesterfield":10857,"Texcal":10858,"Ferndale":10859,"Sieg":10860,"Ã®t":10861,"ĠSarabia":10862,"Bagnolo":10863,"Hillcrest":10864,"Hillsborough":10865,"Raymond":10866,"ĠPuebla":10867,"righton":10868,"Bethlehem":10869,"ĠFuente":10870,"Brandon":10871,"Ã©noufla":10872,"istritz":10873,"DrÄĥgu":10874,"Frauen":10875,"saysay":10876,"Jacksonville":10877,"horst":10878,"syth":10879,"Covington":10880,"Cortes":10881,"Primero":10882,"franco":10883,"ĠAsunciÃ³n":10884,"áº£i":10885,"Charleston":10886,"ĠGÃ³rna":10887,"ĠCrossing":10888,"Dietikon":10889,"ĠMirador":10890,"ShÄģhpur":10891,"Collinsville":10892,"Independencia":10893,"Serravalle":10894,"Louisville":10895,"ĠWielkopolski":10896,"Higash":10897,"jevac":10898,"ĠBuena":10899,"ĠRuiz":10900,"Francavilla":10901,"Ricardo":10902,"Dragom":10903,"Staryy":10904,"ĠIrpino":10905,"ĠPodlas":10906,"ĠJadÄ«dah":10907,"ogorskiy":10908,"Abbots":10909,"Heilig":10910,"Hajd":10911,"Sterling":10912,"ĠSelva":10913,"ĠSicilia":10914,"ĠHerrera":10915,"Myrtle":10916,"ĠDaeng":10917,"OrtakÃ¶y":10918,"Citrus":10919,"Fleury":10920,"Vosk":10921,"ĠNativ":10922,"Neuhaus":10923,"ĠIonio":10924,"áº¯k":10925,"ÅłtÄĽ":10926,"Nelson":10927,"ĠManzana":10928,"Lakeside":10929,"Fayetteville":10930,"Cioc":10931,"Å¯v":10932,"ĠLomellina":10933,"ĠLombardo":10934,"MÃ¶nch":10935,"ĠSocial":10936,"Hinoj":10937,"Khair":10938,"Nashville":10939,"Webster":10940,"VÄĥleni":10941,"ĠMÃ©xico":10942,"ĠHenares":10943,"gherita":10944,"CofradÃŃa":10945,"Dumbrava":10946,"Neckar":10947,"ĠAurora":10948,"ĠTlalmimil":10949,"ĠTigre":10950,"ĠFriuli":10951,"ĠEulalia":10952,"ÄŁaÃ§":10953,"CabaÃ±as":10954,"Cottonwood":10955,"Oleksandrivka":10956,"Nicolae":10957,"lÃ¸se":10958,"ĠBenedetto":10959,"ĠHollow":10960,"ebirge":10961,"KaÅ¡tel":10962,"ĠMilanese":10963,"RibeirÃ£o":10964,"VÃ¢nÄĥtori":10965,"ĠGround":10966,"ĠLlobregat":10967,"ĠAlbanese":10968,"Inverness":10969,"ĠBolÃŃvar":10970,"neukirchen":10971,"ĠNaranjo":10972,"ghÄ©a":10973,"Petropav":10974,"ĠVercellese":10975,"MiÄĻdzy":10976,"ĠTlalmimilolpan":10977,"'<":10978,"Aou":10979,"Apr":10980,"Ave":10981,"Apa":10982,"Aux":10983,"Acu":10984,"BÄģ":10985,"BÃŃ":10986,"BÅ«":10987,"BÃ¤":10988,"Bola":10989,"Boun":10990,"Bani":10991,"Bly":10992,"Bata":10993,"Bick":10994,"BÃ¡r":10995,"Bold":10996,"BÄģl":10997,"BÄĥr":10998,"Bakh":10999,"Biga":11000,"Bluff":11001,"BÃ¬nh":11002,"Cig":11003,"Cano":11004,"Cik":11005,"Cara":11006,"Cey":11007,"Clo":11008,"Cola":11009,"Cint":11010,"Coro":11011,"Caul":11012,"Citt":11013,"Cuen":11014,"Cliff":11015,"Canyon":11016,"CÃ³rdoba":11017,"Dell":11018,"Dour":11019,"Dalm":11020,"Dies":11021,"Dren":11022,"DouÃ©":11023,"Darlington":11024,"Dijon":11025,"Emerald":11026,"Fow":11027,"Find":11028,"Faul":11029,"Fountain":11030,"Forges":11031,"Get":11032,"Gap":11033,"Gie":11034,"Got":11035,"Gach":11036,"Gent":11037,"Gaw":11038,"Glo":11039,"Gorg":11040,"Garn":11041,"Gban":11042,"GÃ³r":11043,"Gunn":11044,"Gilles":11045,"GÃ³mez":11046,"Hl":11047,"Hale":11048,"Hausen":11049,"Hels":11050,"HÃ¸":11051,"Hatt":11052,"HÃ¢r":11053,"Halls":11054,"Ili":11055,"Igar":11056,"JÃ³":11057,"Jir":11058,"Jod":11059,"Jap":11060,"Jum":11061,"JÃ¼":11062,"Jamb":11063,"Jouy":11064,"Kour":11065,"Khu":11066,"Kiz":11067,"Kari":11068,"Koll":11069,"Korg":11070,"KÄĻ":11071,"Ksi":11072,"Kriv":11073,"Khem":11074,"Lia":11075,"Lid":11076,"Lend":11077,"Lass":11078,"Lint":11079,"Lath":11080,"Less":11081,"Lux":11082,"Lies":11083,"Luf":11084,"Lith":11085,"Lamar":11086,"Lodi":11087,"MÄ«":11088,"Mung":11089,"Merr":11090,"Mied":11091,"Melle":11092,"Mies":11093,"Mago":11094,"MÃ¢n":11095,"Mett":11096,"Migli":11097,"Mull":11098,"MÄ«r":11099,"Mukh":11100,"Nay":11101,"Nun":11102,"Nim":11103,"Nell":11104,"Nok":11105,"Nai":11106,"Nib":11107,"Nany":11108,"NÅ«r":11109,"Nyk":11110,"Nancy":11111,"Ode":11112,"Ota":11113,"Oth":11114,"Osk":11115,"OÄŁ":11116,"Orop":11117,"Pain":11118,"PÃ¡n":11119,"Pana":11120,"Pez":11121,"Polo":11122,"Panj":11123,"Pion":11124,"PiÃ©":11125,"Pole":11126,"PÄģl":11127,"Pyr":11128,"Pias":11129,"Pyat":11130,"PÄĥd":11131,"Pizz":11132,"Quan":11133,"Qary":11134,"Rop":11135,"RÄģn":11136,"Rish":11137,"Rick":11138,"Rans":11139,"Rost":11140,"Rust":11141,"Rott":11142,"Sina":11143,"Sola":11144,"SÄģn":11145,"Sui":11146,"Sied":11147,"Swe":11148,"Sold":11149,"SÅį":11150,"SÄĻ":11151,"Slat":11152,"SÆ¡n":11153,"Tv":11154,"Tid":11155,"Teng":11156,"Thu":11157,"Teb":11158,"Tlan":11159,"Tof":11160,"Tiang":11161,"Trac":11162,"Trez":11163,"Timb":11164,"Ulan":11165,"Vag":11166,"Voh":11167,"Vire":11168,"VÄĥr":11169,"Vignes":11170,"Wr":11171,"Wam":11172,"Wain":11173,"Wem":11174,"Weg":11175,"Wud":11176,"Wuy":11177,"WÃ¶r":11178,"With":11179,"WÃ¶rth":11180,"Wright":11181,"WÄģdÄ«":11182,"Xun":11183,"Yag":11184,"Yaz":11185,"Yerm":11186,"Yash":11187,"Yax":11188,"Yagu":11189,"Yvelines":11190,"Zur":11191,"Zir":11192,"Zeg":11193,"Zug":11194,"Zeb":11195,"Zump":11196,"Zhao":11197,"aá¸©":11198,"ailles":11199,"bis":11200,"bic":11201,"bag":11202,"bus":11203,"bitz":11204,"biano":11205,"bane":11206,"bulag":11207,"bÃ¦k":11208,"cong":11209,"cka":11210,"cada":11211,"cÄĥu":11212,"catepec":11213,"cÄ±k":11214,"creek":11215,"dle":11216,"dou":11217,"dri":11218,"dock":11219,"ew":11220,"eul":11221,"fou":11222,"font":11223,"flingen":11224,"god":11225,"gong":11226,"gart":11227,"giano":11228,"gÄĥu":11229,"hm":11230,"hur":11231,"hla":11232,"hay":11233,"hÃ¼":11234,"huan":11235,"hingen":11236,"hart":11237,"hwa":11238,"iale":11239,"jur":11240,"jat":11241,"jou":11242,"jov":11243,"jÄ«":11244,"jian":11245,"kad":11246,"kÃŃ":11247,"kek":11248,"kiz":11249,"kowa":11250,"kalan":11251,"lÃŃ":11252,"loy":11253,"lug":11254,"lÃ¤":11255,"lish":11256,"lona":11257,"lons":11258,"lÅĳ":11259,"likon":11260,"mis":11261,"may":11262,"mec":11263,"mels":11264,"mado":11265,"nod":11266,"niv":11267,"nai":11268,"nate":11269,"ness":11270,"nago":11271,"oti":11272,"off":11273,"otepec":11274,"pla":11275,"pit":11276,"pak":11277,"pell":11278,"pont":11279,"pero":11280,"prÃ©":11281,"pole":11282,"pils":11283,"pital":11284,"qiu":11285,"rol":11286,"rill":11287,"ross":11288,"rath":11289,"sÃ¡":11290,"sak":11291,"sund":11292,"sele":11293,"sÃ¸":11294,"tol":11295,"tne":11296,"torf":11297,"uay":11298,"uart":11299,"uwa":11300,"vir":11301,"vÃ¡n":11302,"vez":11303,"vaux":11304,"viller":11305,"wana":11306,"wley":11307,"wani":11308,"woude":11309,"yz":11310,"yas":11311,"yte":11312,"yro":11313,"yak":11314,"ysk":11315,"yny":11316,"zob":11317,"zbach":11318,"zzano":11319,"Ä§":11320,"ÄŃ":11321,"ÅĨ":11322,"Ġed":11323,"Ġles":11324,"Ġá¸Ĳ":11325,"Ľi":11326,"anar":11327,"anÃ©":11328,"antown":11329,"anello":11330,"annes":11331,"anlÄ±":11332,"arin":11333,"arle":11334,"arÃ¡n":11335,"arney":11336,"aridel":11337,"erio":11338,"erev":11339,"erich":11340,"erfield":11341,"inia":11342,"inki":11343,"ench":11344,"encio":11345,"enÃ§a":11346,"onon":11347,"onto":11348,"onica":11349,"onnes":11350,"alon":11351,"alde":11352,"alom":11353,"alÃ¡n":11354,"oros":11355,"oran":11356,"oron":11357,"orano":11358,"orga":11359,"eling":11360,"elong":11361,"elare":11362,"elange":11363,"ilong":11364,"ileni":11365,"ask":11366,"asia":11367,"asna":11368,"aside":11369,"esan":11370,"esana":11371,"esina":11372,"esine":11373,"chun":11374,"chach":11375,"chÃ¢":11376,"chburg":11377,"chingen":11378,"chies":11379,"amil":11380,"amat":11381,"amÃ¡":11382,"amonte":11383,"lai":11384,"lec":11385,"atÃ©":11386,"atia":11387,"atto":11388,"atovo":11389,"atley":11390,"atyn":11391,"atlÄ±":11392,"atenango":11393,"atchee":11394,"Sanhe":11395,"oulo":11396,"ouane":11397,"ousa":11398,"olin":11399,"olod":11400,"olph":11401,"olinos":11402,"oltern":11403,"Ã©nd":11404,"Ã©ko":11405,"Ã©oua":11406,"isko":11407,"iszÃ³w":11408,"isÅĤaw":11409,"isellen":11410,"tapa":11411,"taciÃ³n":11412,"tazar":11413,"ĠCed":11414,"ĠCoc":11415,"ĠCai":11416,"ĠCour":11417,"ĠCant":11418,"ĠCave":11419,"adale":11420,"adillo":11421,"aderos":11422,"adhoo":11423,"itta":11424,"itte":11425,"itingen":11426,"itha":11427,"itello":11428,"reb":11429,"rew":11430,"reta":11431,"reia":11432,"rejo":11433,"ovyy":11434,"ovÃ¬":11435,"ovÄĥÅ£":11436,"ingu":11437,"inggi":11438,"iav":11439,"ĠMÃ©n":11440,"ĠMans":11441,"ĠMount":11442,"ĠMuang":11443,"ĠMandi":11444,"ĠMendo":11445,"tey":11446,"tegem":11447,"icos":11448,"icÃ«":11449,"icias":11450,"ĠPul":11451,"ĠPoc":11452,"ĠPop":11453,"ĠPoz":11454,"ĠPolo":11455,"ĠPere":11456,"ĠPreto":11457,"ĠPanjang":11458,"angb":11459,"ayac":11460,"unes":11461,"Ã¡i":11462,"Ã¡Å¾":11463,"Ã¡ll":11464,"ĠSat":11465,"ĠSak":11466,"ĠSud":11467,"ĠSaw":11468,"ĠSuch":11469,"ĠStep":11470,"ĠStein":11471,"ĠSatu":11472,"etnoye":11473,"Lagu":11474,"Labu":11475,"ĠBun":11476,"ĠBod":11477,"ĠBul":11478,"ĠBec":11479,"ĠBog":11480,"ĠBoc":11481,"ĠBud":11482,"ĠBÃ¢r":11483,"ĠBÄĥl":11484,"ĠBrod":11485,"ĠBrighton":11486,"igal":11487,"igang":11488,"tonville":11489,"tondo":11490,"aguer":11491,"aguÃ¡":11492,"omon":11493,"omÃ©":11494,"imito":11495,"imonte":11496,"imeno":11497,"Chas":11498,"Chall":11499,"China":11500,"Chats":11501,"Chef":11502,"Chois":11503,"ChÄģnd":11504,"auss":11505,"ĠAj":11506,"ĠAch":11507,"ĠAli":11508,"Ã³ÅĤ":11509,"acao":11510,"tock":11511,"abon":11512,"abag":11513,"irk":11514,"irm":11515,"irt":11516,"irang":11517,"ands":11518,"andar":11519,"ÃŃjar":11520,"edu":11521,"edilla":11522,"edÃ³n":11523,"thill":11524,"thorn":11525,"akÃ©":11526,"akhi":11527,"skov":11528,"skoy":11529,"skÃ½":11530,"aines":11531,"ainville":11532,"ĠTel":11533,"ĠTil":11534,"ĠTres":11535,"ĠTenango":11536,"ĠTapia":11537,"odian":11538,"ĠHer":11539,"ĠHin":11540,"ĠHay":11541,"ĠHart":11542,"ĠHampton":11543,"ĠRic":11544,"ĠRab":11545,"ĠRec":11546,"ĠRaya":11547,"ĠRoa":11548,"Alang":11549,"Alton":11550,"Alamo":11551,"Altav":11552,"Altona":11553,"Allier":11554,"Altstadt":11555,"apelle":11556,"aphum":11557,"uling":11558,"ulung":11559,"uliano":11560,"ultepec":11561,"ĠGa":11562,"ĠGap":11563,"ĠGlor":11564,"ĠGallo":11565,"ĠGracia":11566,"ĠGustavo":11567,"ahi":11568,"ahar":11569,"ahio":11570,"ahui":11571,"ahoe":11572,"ĠVog":11573,"ĠVinc":11574,"ĠVillas":11575,"ĠVecchio":11576,"ĠVegas":11577,"usu":11578,"ustadt":11579,"ioka":11580,"iei":11581,"onge":11582,"aves":11583,"avet":11584,"avino":11585,"avaram":11586,"tih":11587,"tifla":11588,"tikon":11589,"neh":11590,"neja":11591,"neve":11592,"neye":11593,"neuf":11594,"cock":11595,"baz":11596,"ueta":11597,"umal":11598,"ĠLiv":11599,"ĠLamp":11600,"ĠLip":11601,"ĠLup":11602,"ĠLario":11603,"Elena":11604,"Eller":11605,"heta":11606,"ellin":11607,"ellÃ©":11608,"otu":11609,"ivi":11610,"ĠJa":11611,"ĠJe":11612,"ĠJil":11613,"ĠJara":11614,"oyi":11615,"Mard":11616,"Maro":11617,"Marly":11618,"Marietta":11619,"ĠNog":11620,"ĠNakhon":11621,"ĠNacion":11622,"owska":11623,"okrovka":11624,"ĠFerr":11625,"ĠFigu":11626,"erston":11627,"oges":11628,"oguhÃ©":11629,"rance":11630,"iku":11631,"ikovo":11632,"Ã¶g":11633,"Ã¶ss":11634,"Ã¶zÃ¼":11635,"Ã¼nster":11636,"shine":11637,"shoye":11638,"obu":11639,"obli":11640,"Shou":11641,"Shap":11642,"Shub":11643,"Shiz":11644,"Shiro":11645,"Shannon":11646,"ĠDal":11647,"ĠDor":11648,"ĠDale":11649,"ĠDios":11650,"ege":11651,"egy":11652,"eglio":11653,"stel":11654,"Argu":11655,"Arena":11656,"Arma":11657,"inoasa":11658,"Ä«ra":11659,"Ã³nica":11660,"quio":11661,"quina":11662,"quita":11663,"quira":11664,"estel":11665,"estra":11666,"Anak":11667,"Antip":11668,"ops":11669,"opÃ³":11670,"ĠMartha":11671,"tsovo":11672,"tsburg":11673,"liÃ¨res":11674,"alee":11675,"gee":11676,"entro":11677,"endr":11678,"endal":11679,"ĠKir":11680,"ĠKuj":11681,"Sten":11682,"Still":11683,"Stir":11684,"Stry":11685,"zhang":11686,"zhyn":11687,"zhnyy":11688,"iceÅŁti":11689,"assen":11690,"asset":11691,"ĠEigh":11692,"ipo":11693,"iping":11694,"iyam":11695,"iyÄģ":11696,"iyah":11697,"Ã¨n":11698,"Ã¨vres":11699,"Leut":11700,"ceola":11701,"ugli":11702,"ugao":11703,"ours":11704,"upan":11705,"upur":11706,"keby":11707,"ibar":11708,"ibre":11709,"ierzyce":11710,"ĠOco":11711,"Ã±or":11712,"Monast":11713,"Monforte":11714,"ĠChal":11715,"ĠCham":11716,"ĠChase":11717,"ĠCharoen":11718,"ianu":11719,"Bari":11720,"nych":11721,"nytsya":11722,"Å«h":11723,"Å«j":11724,"Å«kh":11725,"ĠWall":11726,"ĠWald":11727,"ĠWild":11728,"Guy":11729,"Bry":11730,"Bruch":11731,"uzi":11732,"Colon":11733,"Coloni":11734,"Colinas":11735,"ĠLaf":11736,"ĠLawn":11737,"ĠLaja":11738,"ĠLajas":11739,"ohl":11740,"atea":11741,"atepÃ©":11742,"izan":11743,"izon":11744,"izzo":11745,"izzi":11746,"ozÃ«r":11747,"Thames":11748,"fior":11749,"Valpara":11750,"ebi":11751,"ebu":11752,"Villahermosa":11753,"nola":11754,"loi":11755,"epy":11756,"Santos":11757,"Ã¤ll":11758,"Ambro":11759,"Gras":11760,"Grum":11761,"Grind":11762,"Grove":11763,"Grange":11764,"ĠAlbert":11765,"ĠAltas":11766,"Montan":11767,"MontrÃ©":11768,"Montalto":11769,"Ãºc":11770,"Ãºl":11771,"Ãºchil":11772,"oneÅŁti":11773,"senburg":11774,"senheim":11775,"Orlov":11776,"Å¡a":11777,"Å¡ovice":11778,"seh":11779,"seebad":11780,"voo":11781,"Westville":11782,"Westfield":11783,"rÃ©e":11784,"Mani":11785,"Mann":11786,"Manning":11787,"ÅĤÄĻ":11788,"ÅĤowo":11789,"Salas":11790,"Salto":11791,"Salvat":11792,"Salvador":11793,"Berz":11794,"BerÃ«z":11795,"uchÃ³w":11796,"Bej":11797,"Beacons":11798,"lyan":11799,"ossi":11800,"ÃŃnos":11801,"ieniec":11802,"Novov":11803,"Morin":11804,"ĠValverde":11805,"Hual":11806,"Huaj":11807,"Huayl":11808,"gao":11809,"Å£u":11810,"bruk":11811,"Calab":11812,"Balla":11813,"ÄįÃŃn":11814,"itai":11815,"ingstedt":11816,"khovo":11817,"khoz":11818,"Buj":11819,"Bueng":11820,"Buge":11821,"ĠZhen":11822,"Kral":11823,"Corb":11824,"Cors":11825,"Corozal":11826,"á¸ı":11827,"Khok":11828,"Este":11829,"Eschen":11830,"Ã«t":11831,"Seabrook":11832,"beuf":11833,"sonia":11834,"sonzo":11835,"Oliva":11836,"Greg":11837,"Greci":11838,"Greens":11839,"Greater":11840,"Greif":11841,"Paredes":11842,"Trud":11843,"Adi":11844,"Adliswil":11845,"stede":11846,"á»Ľi":11847,"Abad":11848,"ĠYang":11849,"ĠYelt":11850,"ÃŁe":11851,"ÃŁbach":11852,"Boris":11853,"Borov":11854,"Borghetto":11855,"ĠAren":11856,"ĠArena":11857,"ĠArcos":11858,"issac":11859,"Conde":11860,"Conway":11861,"ĠAnton":11862,"ocket":11863,"Mead":11864,"Mehr":11865,"ixco":11866,"ioni":11867,"ional":11868,"Baille":11869,"BaÃ±":11870,"Merri":11871,"aldi":11872,"Campol":11873,"Dealu":11874,"uax":11875,"uaÃ§u":11876,"ansi":11877,"zyca":11878,"areÃ±a":11879,"arejos":11880,"bork":11881,"Montev":11882,"Reis":11883,"Reed":11884,"Brom":11885,"Span":11886,"Banat":11887,"Roos":11888,"RoÃŁ":11889,"meer":11890,"Longquan":11891,"Ã¡rd":11892,"ĠSho":11893,"ĠShaykh":11894,"Bred":11895,"Breuil":11896,"Breaza":11897,"Heim":11898,"Heidel":11899,"ĠUm":11900,"AkÃ§":11901,"Ern":11902,"Erlenbach":11903,"IsÃ¨re":11904,"Inh":11905,"Inz":11906,"Capri":11907,"CapitÃ¡n":11908,"yeon":11909,"Zheng":11910,"ustri":11911,"ustine":11912,"Kalk":11913,"Rosh":11914,"ieto":11915,"Petro":11916,"Petersburg":11917,"wein":11918,"oldt":11919,"cual":11920,"cuautla":11921,"Obers":11922,"orghe":11923,"CrÄĥ":11924,"Magsaysay":11925,"racÃŃn":11926,"racuse":11927,"hota":11928,"Ploun":11929,"Ploug":11930,"Plaridel":11931,"elaar":11932,"Ãīt":11933,"Ãīpin":11934,"Kirchen":11935,"oleto":11936,"Ãģno":11937,"anning":11938,"annah":11939,"Porte":11940,"Ã¸nd":11941,"eneta":11942,"Cabo":11943,"Cabra":11944,"Å«ru":11945,"Pearl":11946,"Osceola":11947,"Atla":11948,"Graf":11949,"Graven":11950,"ÄģlÄ«yah":11951,"Entr":11952,"Steinh":11953,"Wein":11954,"Kamenka":11955,"Frum":11956,"Murph":11957,"Phon":11958,"Urs":11959,"Emmer":11960,"Loing":11961,"Serre":11962,"Albar":11963,"Krasnoye":11964,"Å¾a":11965,"Madrid":11966,"MadÄ«n":11967,"Äĥrm":11968,"Äĥrului":11969,"Holy":11970,"Martens":11971,"MartÃŃn":11972,"Acc":11973,"ller":11974,"ĠEsp":11975,"tzen":11976,"tzingo":11977,"Como":11978,"Bonn":11979,"Bonif":11980,"StrÃ¡Å¾":11981,"Ã¶nÃ¼":11982,"Wilmington":11983,"Woodb":11984,"Melbourne":11985,"kerk":11986,"viÅ£a":11987,"ĠBarco":11988,"ĠBarrio":11989,"donk":11990,"Ashton":11991,"akhurst":11992,"Kouassi":11993,"lavice":11994,"regon":11995,"Gorod":11996,"warth":11997,"Navarre":11998,"ÄħÅ¼":11999,"yliv":12000,"ĠAndres":12001,"Oakley":12002,"Trev":12003,"Winn":12004,"Ã¼rz":12005,"Fremont":12006,"Freeport":12007,"phis":12008,"bourn":12009,"Ã³rz":12010,"Grandview":12011,"ahuasi":12012,"ahuacÃ¡n":12013,"moos":12014,"igliana":12015,"BÃ©th":12016,"koua":12017,"Delta":12018,"Haag":12019,"Pinilla":12020,"Vilanova":12021,"ĠVeronese":12022,"Limon":12023,"Williston":12024,"Mahm":12025,"rivia":12026,"ĠXoch":12027,"Medford":12028,"kovci":12029,"kovskaya":12030,"ĠPlaine":12031,"Loud":12032,"ÅĽnica":12033,"anzuela":12034,"Ramat":12035,"Trap":12036,"buena":12037,"Charle":12038,"ĠInÃ©s":12039,"Konan":12040,"harpur":12041,"Linton":12042,"Linares":12043,"enhora":12044,"Sunshine":12045,"Å¼a":12046,"ĠCarlo":12047,"roux":12048,"ĠCorral":12049,"Irv":12050,"Padre":12051,"Waid":12052,"enzuela":12053,"rieu":12054,"Dalton":12055,"Roccas":12056,"Tepetz":12057,"Warwick":12058,"ÄĲáº¯k":12059,"ĠRosas":12060,"Ostseebad":12061,"ramento":12062,"Gaur":12063,"ViiÅŁoara":12064,"StarÃ©":12065,"StarÃ¡":12066,"Buli":12067,"Sidney":12068,"mpia":12069,"walk":12070,"ojia":12071,"ĠMonta":12072,"Denton":12073,"lement":12074,"riaga":12075,"Penns":12076,"ousse":12077,"Flores":12078,"ĠÃģngel":12079,"astide":12080,"ĠAmaro":12081,"ĠShaharch":12082,"yshche":12083,"Parker":12084,"tersheim":12085,"allah":12086,"andoah":12087,"Tlacotepec":12088,"Golub":12089,"onnay":12090,"agnÃ©":12091,"ĠOrlic":12092,"ĠOrtega":12093,"kÃ¶prÃ¼":12094,"Liub":12095,"zanÃ³w":12096,"Indre":12097,"Kotel":12098,"Souk":12099,"Ġ11":12100,"Press":12101,"ikhom":12102,"Mauges":12103,"Soko":12104,"Whitehall":12105,"Seneca":12106,"niceni":12107,"ĠMatas":12108,"ĠOld":12109,"Aguil":12110,"Byron":12111,"Oglio":12112,"Argel":12113,"ninge":12114,"ĠCamacho":12115,"ĠPeÃ±Ã³n":12116,"Valdem":12117,"pswich":12118,"ammad":12119,"ĠPolvor":12120,"ĠSebastiÃ£o":12121,"Durham":12122,"Pietr":12123,"Pietro":12124,"quiÃ¨res":12125,"Ocampo":12126,"Butt":12127,"Bernard":12128,"Home":12129,"eggia":12130,"Stanton":12131,"Steinbach":12132,"ontaines":12133,"Desert":12134,"Kemp":12135,"Tecom":12136,"Ä«dÄ«":12137,"Czarna":12138,"Ãħr":12139,"ÅĮm":12140,"Riverton":12141,"Riverview":12142,"werder":12143,"ĠÄĲá»©c":12144,"ĠCapilla":12145,"ĠAbÅ«":12146,"Touraine":12147,"Waller":12148,"ĠGrange":12149,"ĠSteiermark":12150,"ZapotitlÃ¡n":12151,"ÅŃng":12152,"tavou":12153,"ĠChapel":12154,"Essex":12155,"ĠBonito":12156,"bÃ¼ren":12157,"ĠRamon":12158,"Cassano":12159,"áº¡c":12160,"Lady":12161,"cescu":12162,"Blanc":12163,"David":12164,"Hawthorne":12165,"Ikot":12166,"Jacob":12167,"Chicon":12168,"Hatfield":12169,"Koby":12170,"Miraflores":12171,"tteville":12172,"ĠBormida":12173,"Provence":12174,"Lowell":12175,"Naples":12176,"ledas":12177,"ĠRivera":12178,"ĠRiviera":12179,"Houston":12180,"Xinglong":12181,"ÄĹs":12182,"Chamber":12183,"ÅŁaÄŁÄ±":12184,"ĠDolna":12185,"ĠDolores":12186,"Bradley":12187,"graben":12188,"Äģwah":12189,"tschach":12190,"ĠMichael":12191,"Sherwood":12192,"Sheridan":12193,"SchÃ¶nau":12194,"ĠAlbans":12195,"Ãļj":12196,"Clarence":12197,"Claremont":12198,"Humber":12199,"JoÃ£o":12200,"Lukav":12201,"Pyh":12202,"Sambre":12203,"Wyoming":12204,"ĠNegro":12205,"Bridgewater":12206,"Racovi":12207,"ĠJohann":12208,"Cordova":12209,"ÅĪany":12210,"ĠAguas":12211,"ÃŃritu":12212,"Didier":12213,"Friend":12214,"Socorro":12215,"nacht":12216,"iagara":12217,"ĠLeonardo":12218,"ĠLeonhard":12219,"Prosper":12220,"Smithfield":12221,"Randolph":12222,"ĠMazowie":12223,"ĠGranada":12224,"ĠVelha":12225,"itsyno":12226,"Boulder":12227,"Uzun":12228,"Vieille":12229,"Ã¡ndaro":12230,"ĠKalÄģn":12231,"Bloomingdale":12232,"Cinco":12233,"Nazaire":12234,"Sucre":12235,"breit":12236,"Alcolea":12237,"WeiÃŁen":12238,"JunÃŃn":12239,"Grosse":12240,"Edgewater":12241,"Pandan":12242,"adiokro":12243,"ĠPiedras":12244,"olayivka":12245,"ĠÅļlÄħski":12246,"Vienna":12247,"ĠHolly":12248,"Cerrito":12249,"Cerritos":12250,"Kreuz":12251,"Ljung":12252,"ĠCerrito":12253,"ĠJadraque":12254,"Shenandoah":12255,"Caldas":12256,"ixtlahuaca":12257,"Heiligen":12258,"Encinas":12259,"DoÄŁan":12260,"Harrisburg":12261,"Battle":12262,"ĠScrivia":12263,"ĠLodigiano":12264,"SchÃ¶ne":12265,"Velyki":12266,"Wildwood":12267,"Diamond":12268,"Hobart":12269,"TÃ¡pi":12270,"baum":12271,"Christi":12272,"ĠRocco":12273,"iechÃ³w":12274,"Eldorado":12275,"ÄĥÈĻeni":12276,"ĠKaeo":12277,"Ä±ÅŁla":12278,"Å¡Äĩe":12279,"Acquaviva":12280,"Banjar":12281,"Wasser":12282,"wolde":12283,"ĠSacatepÃ©":12284,"ĠStrada":12285,"áº¯c":12286,"Noble":12287,"enciado":12288,"Neuenkirchen":12289,"Altamira":12290,"Lourdes":12291,"ĠPadre":12292,"Mareuil":12293,"ĠOcotlÃ¡n":12294,"ĠCecilia":12295,"ĠAtzompa":12296,"arrubia":12297,"Glasgow":12298,"HacÄ±":12299,"fleet":12300,"ĠPurÃŃsima":12301,"ĠRayÃ³n":12302,"ĠLouis":12303,"Neuvy":12304,"Montreuil":12305,"ĠMartÃŃnez":12306,"Ã¥rd":12307,"Gladstone":12308,"Hippol":12309,"Pulau":12310,"Settimo":12311,"ĠCiudad":12312,"ĠCayetano":12313,"Neumarkt":12314,"ĠOjeda":12315,"ĠLaurel":12316,"ĠCruces":12317,"Åŀtefan":12318,"Portsmouth":12319,"Lagunillas":12320,"Fatehpur":12321,"Jamaica":12322,"Menzel":12323,"ĠLambro":12324,"Antoine":12325,"Nekras":12326,"Neunkirchen":12327,"ĠWinterthur":12328,"ĠWindsor":12329,"Espinosa":12330,"Abasolo":12331,"iftlik":12332,"Druzhba":12333,"Konstantin":12334,"Potrerillos":12335,"ĠMuÃ±oz":12336,"ĠNaranjos":12337,"ĠEscondido":12338,"ĠSharqÄ«yah":12339,"DÄħbrowa":12340,"Sullivan":12341,"Wetzikon":12342,"ĠButte":12343,"Seaford":12344,"Krasnoarmey":12345,"AydÄ±n":12346,"Humboldt":12347,"ĠVltavou":12348,"ĠLiberty":12349,"Schlieren":12350,"Atlantic":12351,"ĠDomingos":12352,"Krasnogvardey":12353,"Vladimir":12354,"Ospedaletto":12355,"NÄģá¸©iyat":12356,"ĠMÄĽsto":12357,"ĠMiasto":12358,"Beaulieu":12359,"ĠConstituciÃ³n":12360,"Izvoru":12361,"ÄĲáº¡i":12362,"Shevchen":12363,"Saturnin":12364,"Dioulasso":12365,"ĠMendoza":12366,"ĠBÄĥlcescu":12367,"ĠNacional":12368,"ĠFigueroa":12369,"ĠKujaw":12370,"Beaconsfield":12371,"ĠYeltes":12372,"Heidelberg":12373,"MadÄ«nat":12374,"ĠShaharchasi":12375,"ĠOrlicÃŃ":12376,"ĠSacatepÃ©quez":12377,"Aid":12378,"Aus":12379,"Ati":12380,"Aich":12381,"Aci":12382,"Aya":12383,"Aver":12384,"Aust":12385,"Auv":12386,"Austin":12387,"AÅŁaÄŁÄ±":12388,"Bers":12389,"Best":12390,"Bale":12391,"Bich":12392,"Bland":12393,"Beb":12394,"Bind":12395,"Berm":12396,"Bolo":12397,"BÃ¶r":12398,"Byr":12399,"Bosh":12400,"BÃ¤r":12401,"Besh":12402,"BÄ«r":12403,"Baud":12404,"Bajo":12405,"Bress":12406,"Báº¯c":12407,"Cie":12408,"Ceg":12409,"Cev":12410,"Cuz":12411,"Calm":12412,"Cash":12413,"Caf":12414,"Cuch":12415,"Cire":12416,"CÄĥr":12417,"Cava":12418,"Cott":12419,"CÃ¡rdenas":12420,"Cacho":12421,"CiÃ©nega":12422,"Dai":12423,"Dard":12424,"Dek":12425,"Dres":12426,"Dier":12427,"DÅ«":12428,"Dhu":12429,"Dera":12430,"Dari":12431,"Dhan":12432,"DÃ©s":12433,"Dunn":12434,"Doum":12435,"ER":12436,"ES":12437,"Ea":12438,"Ere":12439,"Esh":12440,"Eaux":12441,"Fj":12442,"Fau":12443,"Fah":12444,"Foy":12445,"FÃ¼":12446,"Foz":12447,"Fond":12448,"Flo":12449,"Feh":12450,"Flem":12451,"Flag":12452,"Five":12453,"Fontaines":12454,"Gok":12455,"Gev":12456,"Gara":12457,"Gey":12458,"Geld":12459,"Gaj":12460,"Gaf":12461,"Ghi":12462,"GÄĥl":12463,"Gbon":12464,"Gwang":12465,"Gates":12466,"Hw":12467,"Hra":12468,"Hec":12469,"Hark":12470,"Hort":12471,"Hung":12472,"Hamb":12473,"Hita":12474,"Hans":12475,"HÃł":12476,"Ic":12477,"Ij":12478,"Ion":12479,"Isk":12480,"Igh":12481,"Itz":12482,"Imb":12483,"Isonzo":12484,"Jet":12485,"Jie":12486,"Jev":12487,"Jut":12488,"Juv":12489,"Juli":12490,"Jordan":12491,"Kne":12492,"Khe":12493,"Kuan":12494,"Korn":12495,"Kint":12496,"Kalm":12497,"Koss":12498,"Kira":12499,"Klen":12500,"Kiss":12501,"Klin":12502,"Kih":12503,"KÅĻ":12504,"KÄģm":12505,"Krom":12506,"Krak":12507,"LÃŃ":12508,"Lard":12509,"Liz":12510,"Lof":12511,"Lama":12512,"List":12513,"Lix":12514,"Llor":12515,"LÄģl":12516,"Liver":12517,"Luck":12518,"Lenz":12519,"Mop":12520,"Male":12521,"Mina":12522,"Meld":12523,"Mola":12524,"More":12525,"MÄģn":12526,"Much":12527,"Mij":12528,"MÃª":12529,"Miro":12530,"Mesa":12531,"Mogo":12532,"Mits":12533,"MÄģnd":12534,"MÃ¤n":12535,"Mueang":12536,"Nh":12537,"Nos":12538,"Nol":12539,"Nest":12540,"Nana":12541,"Nort":12542,"Nip":12543,"Nian":12544,"Nott":12545,"Niem":12546,"NÃ¸r":12547,"Narros":12548,"Nether":12549,"Niagara":12550,"Of":12551,"Oos":12552,"Ono":12553,"Ohl":12554,"Otten":12555,"Odi":12556,"Pill":12557,"Pue":12558,"Pour":12559,"Poro":12560,"Perr":12561,"Pick":12562,"Pust":12563,"Pann":12564,"PÃ¢r":12565,"PÃ´":12566,"PÃ¨re":12567,"Piro":12568,"Pesh":12569,"PÄĥu":12570,"Prag":12571,"Punt":12572,"Prom":12573,"Prem":12574,"PÄ±nar":12575,"Persh":12576,"Pusz":12577,"Puerta":12578,"Qas":12579,"Rur":12580,"Rast":12581,"Rai":12582,"Ruc":12583,"RÃ¤":12584,"Rion":12585,"RÃ¸d":12586,"Sf":12587,"Sre":12588,"Sill":12589,"Sco":12590,"Sei":12591,"Sula":12592,"Sath":12593,"Sumb":12594,"SÃ¢r":12595,"Suh":12596,"SÃ©m":12597,"Sover":12598,"Slov":12599,"Sym":12600,"SÅĤaw":12601,"Sault":12602,"SÅ«q":12603,"SÃ¨vre":12604,"Tille":12605,"Tsh":12606,"Tard":12607,"Tana":12608,"Tark":12609,"Tuk":12610,"Toh":12611,"Tond":12612,"TÃ¤":12613,"Toch":12614,"Tij":12615,"Tama":12616,"Tank":12617,"Tanc":12618,"Tenn":12619,"TÃ½":12620,"Tull":12621,"Tando":12622,"Tlam":12623,"Uta":12624,"Ure":12625,"Uth":12626,"Una":12627,"Vara":12628,"Vord":12629,"Vass":12630,"Vian":12631,"Vint":12632,"Voss":12633,"Vish":12634,"Vico":12635,"Vaul":12636,"Vakh":12637,"Voj":12638,"Vult":12639,"Wig":12640,"Wap":12641,"Wong":12642,"Wob":12643,"Wich":12644,"Wier":12645,"Wess":12646,"Ware":12647,"Wagen":12648,"Wrigh":12649,"Xo":12650,"Xil":12651,"XÃ£":12652,"Yv":12653,"Yab":12654,"Yum":12655,"Yell":12656,"Yosh":12657,"Zm":12658,"Zun":12659,"Zong":12660,"Zum":12661,"Zev":12662,"Zarr":12663,"aan":12664,"bÄģ":12665,"bab":12666,"bul":12667,"bot":12668,"boc":12669,"bana":12670,"bina":12671,"bark":12672,"bug":12673,"bian":12674,"bani":12675,"bendorf":12676,"bold":12677,"bush":12678,"bougou":12679,"bisch":12680,"cim":12681,"cate":12682,"cÃŃa":12683,"cÃ³w":12684,"cze":12685,"cillas":12686,"dang":12687,"dir":12688,"dach":12689,"dham":12690,"dney":12691,"eau":12692,"eka":12693,"eÅŁ":12694,"fes":12695,"fÃ©":12696,"fim":12697,"fah":12698,"fers":12699,"fouÃ©":12700,"feh":12701,"fried":12702,"flow":12703,"gil":12704,"gov":12705,"get":12706,"gai":12707,"gnies":12708,"hil":12709,"hang":12710,"hak":12711,"hus":12712,"herm":12713,"houn":12714,"hwar":12715,"haus":12716,"hampton":12717,"histor":12718,"ior":12719,"iÃ³n":12720,"iza":12721,"ique":12722,"iosa":12723,"jel":12724,"jÃ³":12725,"jac":12726,"jÃ«":12727,"kill":12728,"kem":12729,"kok":12730,"kut":12731,"kheim":12732,"koro":12733,"kofen":12734,"lÄģ":12735,"lÄĥ":12736,"lÄ«":12737,"lana":12738,"lina":12739,"leni":12740,"lung":12741,"lbach":12742,"lÄģn":12743,"lÃŃn":12744,"lund":12745,"lito":12746,"larn":12747,"luca":12748,"mig":12749,"mot":12750,"mik":12751,"mez":12752,"mÃ¡r":12753,"mersdorf":12754,"miao":12755,"nav":12756,"now":12757,"nard":12758,"novo":12759,"nine":12760,"nava":12761,"nitsa":12762,"nimas":12763,"pos":12764,"pil":12765,"pro":12766,"pano":12767,"phe":12768,"pilco":12769,"pierre":12770,"qÄģ":12771,"qah":12772,"qian":12773,"ror":12774,"ruz":12775,"rico":12776,"ruck":12777,"reras":12778,"sol":12779,"sing":12780,"sfeld":12781,"sdale":12782,"snacht":12783,"tw":12784,"tat":12785,"tÄģ":12786,"tus":12787,"tna":12788,"tina":12789,"tub":12790,"tyn":12791,"tree":12792,"ued":12793,"usk":12794,"uque":12795,"uja":12796,"uÅĦ":12797,"vol":12798,"vid":12799,"vec":12800,"villa":12801,"vard":12802,"vest":12803,"vant":12804,"varo":12805,"vÄģn":12806,"vari":12807,"vald":12808,"voll":12809,"veno":12810,"vliet":12811,"wez":12812,"woud":12813,"wards":12814,"wihr":12815,"xu":12816,"xas":12817,"xpan":12818,"xiu":12819,"yde":12820,"yay":12821,"yun":12822,"yri":12823,"yth":12824,"yers":12825,"yÅĽl":12826,"zd":12827,"zab":12828,"zka":12829,"zach":12830,"zingen":12831,"zolo":12832,"zki":12833,"zendorf":12834,"Ä¡":12835,"Ð°":12836,"Ð¸":12837,"ÙĬ":12838,"Ġar":12839,"Ġat":12840,"Ġad":12841,"osÃŃ":12842,"osha":12843,"anap":12844,"anci":12845,"aron":12846,"arte":12847,"aray":12848,"arri":12849,"aret":12850,"arav":12851,"arco":12852,"arano":12853,"arÃ³n":12854,"arca":12855,"arella":12856,"erz":12857,"erin":12858,"erta":12859,"erre":12860,"erzh":12861,"erke":12862,"erata":12863,"eries":12864,"inar":12865,"inam":12866,"inou":12867,"inand":12868,"inth":12869,"inice":12870,"inaldo":12871,"enov":12872,"enia":12873,"enac":12874,"enti":12875,"onah":12876,"onio":12877,"onice":12878,"onovo":12879,"onera":12880,"onico":12881,"alillo":12882,"alÃ©n":12883,"aloa":12884,"orz":12885,"oril":12886,"orto":12887,"orong":12888,"orhe":12889,"elj":12890,"elm":12891,"elberg":12892,"elieu":12893,"elgem":12894,"ilj":12895,"ilen":12896,"ilat":12897,"ilou":12898,"ilov":12899,"ilac":12900,"ilpan":12901,"ildo":12902,"aste":12903,"asaki":12904,"asota":12905,"estone":12906,"chas":12907,"chain":12908,"chem":12909,"chev":12910,"chug":12911,"chyn":12912,"chfield":12913,"chiano":12914,"chany":12915,"uris":12916,"urÃŃ":12917,"amur":12918,"amand":12919,"amish":12920,"ameca":12921,"dete":12922,"lean":12923,"lego":12924,"lett":12925,"atl":12926,"atre":12927,"atham":12928,"atpur":12929,"atÃŃo":12930,"atitla":12931,"Sangar":12932,"ouz":12933,"ouch":12934,"outa":12935,"ouba":12936,"ouine":12937,"oucester":12938,"olon":12939,"olun":12940,"olengo":12941,"Ã©on":12942,"Ã©ra":12943,"Ã©ville":12944,"Ã©go":12945,"Ã©ni":12946,"Ã©llar":12947,"isen":12948,"isle":12949,"isou":12950,"isca":12951,"isberg":12952,"isten":12953,"isnes":12954,"ishui":12955,"tago":12956,"tayan":12957,"table":12958,"ĠCe":12959,"ĠCes":12960,"ĠCoy":12961,"ĠCres":12962,"ĠCip":12963,"ĠCount":12964,"ĠCost":12965,"ĠCumb":12966,"ĠCarn":12967,"ĠCorte":12968,"ĠCerd":12969,"ĠClar":12970,"ĠCabr":12971,"ĠComp":12972,"ĠCountry":12973,"ĠCÃ³rdoba":12974,"add":12975,"adap":12976,"itia":12977,"itrov":12978,"reo":12979,"reux":12980,"ovu":12981,"ovell":12982,"ovei":12983,"ingford":12984,"iap":12985,"iau":12986,"iaca":12987,"raine":12988,"rawe":12989,"ĠMus":12990,"ĠMem":12991,"ĠMant":12992,"ĠMold":12993,"ĠMinh":12994,"ĠMotte":12995,"ĠMirim":12996,"ĠMiami":12997,"teo":12998,"icco":12999,"icana":13000,"icina":13001,"ĠPil":13002,"ĠPac":13003,"ĠPap":13004,"ĠPly":13005,"ĠPira":13006,"ĠPonte":13007,"ĠPath":13008,"ĠPeral":13009,"ĠPunta":13010,"angue":13011,"ayag":13012,"ayama":13013,"unus":13014,"unter":13015,"roya":13016,"Äģsa":13017,"Äģganj":13018,"Ã¡cuaro":13019,"ĠSm":13020,"ĠSÃ¡":13021,"ĠSong":13022,"ĠSob":13023,"ĠSub":13024,"ĠStadt":13025,"ĠSÃ¡z":13026,"ĠSever":13027,"ĠSlob":13028,"ĠSoria":13029,"ĠSidi":13030,"riÈĻ":13031,"etro":13032,"etÃ¡":13033,"Lah":13034,"Lao":13035,"Laut":13036,"Lauz":13037,"Lajas":13038,"ĠBoh":13039,"ĠBua":13040,"ĠBois":13041,"ĠBÄģgh":13042,"ĠBÃ©jar":13043,"igou":13044,"igrad":13045,"agara":13046,"agudo":13047,"omin":13048,"omac":13049,"omand":13050,"omice":13051,"omut":13052,"omera":13053,"omero":13054,"omachi":13055,"omÄĽÅĻice":13056,"illers":13057,"illÃ¡n":13058,"imes":13059,"imah":13060,"imiento":13061,"Chol":13062,"ChÄģ":13063,"Chod":13064,"Chio":13065,"Chot":13066,"Chaz":13067,"Chino":13068,"Chib":13069,"Chala":13070,"Chry":13071,"Cherm":13072,"Chish":13073,"Chick":13074,"Chalo":13075,"Chiesa":13076,"Chá»£":13077,"auf":13078,"aula":13079,"augh":13080,"ĠAst":13081,"ĠApp":13082,"ĠApol":13083,"ĠAlem":13084,"Ã³c":13085,"Ã³f":13086,"acab":13087,"acoy":13088,"acÃ³n":13089,"acena":13090,"Ġden":13091,"topol":13092,"abang":13093,"abella":13094,"irin":13095,"irit":13096,"irsk":13097,"andilla":13098,"ÃŃra":13099,"ÃŃvar":13100,"eder":13101,"tho":13102,"thana":13103,"thier":13104,"akk":13105,"aker":13106,"akin":13107,"aken":13108,"akoro":13109,"skyi":13110,"ainen":13111,"ĠTon":13112,"ĠTes":13113,"ĠTat":13114,"ĠTim":13115,"ĠThi":13116,"ĠTule":13117,"ĠTagli":13118,"ĠTaju":13119,"ĠTerrero":13120,"odat":13121,"odio":13122,"odeni":13123,"ĠHou":13124,"ĠHong":13125,"ĠHot":13126,"ĠHoyo":13127,"ĠHome":13128,"ĠHuerta":13129,"ĠRei":13130,"ĠRoma":13131,"Alar":13132,"Alic":13133,"Alim":13134,"Almar":13135,"Aller":13136,"Alcan":13137,"Altay":13138,"apura":13139,"apampa":13140,"apÄ±nar":13141,"ulm":13142,"ulen":13143,"ĠGo":13144,"ĠGol":13145,"ĠGhe":13146,"ĠGÃ¼":13147,"ĠGuan":13148,"ĠGiang":13149,"ĠGorodok":13150,"ĠGaspar":13151,"ĠVis":13152,"ĠVed":13153,"ĠVers":13154,"ĠVino":13155,"ĠVent":13156,"ĠVtor":13157,"ĠVlad":13158,"ĠVorstadt":13159,"idia":13160,"idero":13161,"idonia":13162,"ushu":13163,"ioara":13164,"ieb":13165,"ief":13166,"iev":13167,"avak":13168,"avod":13169,"averal":13170,"avallo":13171,"avodsk":13172,"tiy":13173,"tich":13174,"tiÃ¨re":13175,"neg":13176,"nex":13177,"neuil":13178,"coch":13179,"cour":13180,"cota":13181,"baÄŁ":13182,"anoke":13183,"anowo":13184,"kach":13185,"kaway":13186,"umont":13187,"umberland":13188,"ĠLin":13189,"ĠLes":13190,"ĠLÃŃ":13191,"ĠLlor":13192,"ĠLox":13193,"Ellen":13194,"heil":13195,"heath":13196,"ellas":13197,"ellÃ³":13198,"ellino":13199,"Äĥng":13200,"ÄĥÅŁti":13201,"ÄĥteÅŁti":13202,"otan":13203,"otyn":13204,"iven":13205,"ives":13206,"ivis":13207,"tert":13208,"tering":13209,"terville":13210,"terson":13211,"tershausen":13212,"ĠJun":13213,"ĠJard":13214,"ĠJud":13215,"ĠJord":13216,"ĠJimÃ©":13217,"ecac":13218,"ecco":13219,"ecca":13220,"emo":13221,"eman":13222,"emet":13223,"oyne":13224,"Marian":13225,"Margar":13226,"Marks":13227,"Marble":13228,"Margate":13229,"Marysville":13230,"Maravillas":13231,"ĠNg":13232,"ĠNic":13233,"ĠNie":13234,"ĠNong":13235,"ĠNik":13236,"ĠNovo":13237,"ĠNinh":13238,"ĠNoria":13239,"ĠNghÄ©a":13240,"astre":13241,"astra":13242,"ower":13243,"oway":13244,"oku":13245,"ĠFam":13246,"ĠFra":13247,"ĠFab":13248,"ĠFour":13249,"ĠFair":13250,"ĠFoo":13251,"ĠFuerte":13252,"ÅŁe":13253,"ÅŁin":13254,"ÅŁia":13255,"ÅŁteni":13256,"ersham":13257,"ognes":13258,"ikan":13259,"Ã¶b":13260,"Ã¶ng":13261,"Ã¼zÃ¼":13262,"ontitlÃ¡n":13263,"shy":13264,"shang":13265,"shah":13266,"shÄ«":13267,"shaya":13268,"achapa":13269,"oce":13270,"ocon":13271,"ocun":13272,"occo":13273,"oby":13274,"obre":13275,"oboua":13276,"obbio":13277,"obrz":13278,"airi":13279,"Shor":13280,"Shing":13281,"Sheng":13282,"Shaf":13283,"Shire":13284,"Shady":13285,"Shrews":13286,"azm":13287,"azy":13288,"ĠDj":13289,"ĠDong":13290,"ĠDion":13291,"ĠDru":13292,"ĠDennis":13293,"egen":13294,"egal":13295,"egra":13296,"eglia":13297,"Ã¡nya":13298,"Arj":13299,"Arar":13300,"Arra":13301,"Arba":13302,"Arles":13303,"Arden":13304,"Arpa":13305,"Ä«la":13306,"Ä«ya":13307,"Ã³nio":13308,"ardt":13309,"quen":13310,"quero":13311,"quena":13312,"quito":13313,"quista":13314,"quitlÃ¡n":13315,"quÃ©s":13316,"Anc":13317,"Anast":13318,"orfolk":13319,"burne":13320,"udas":13321,"ĠMari":13322,"ĠMarino":13323,"ĠMarkt":13324,"tstein":13325,"araja":13326,"lione":13327,"aleu":13328,"naw":13329,"nais":13330,"entry":13331,"ucco":13332,"endas":13333,"endonk":13334,"ĠKing":13335,"ĠKamp":13336,"ĠKarl":13337,"Stub":13338,"Staro":13339,"Strom":13340,"arks":13341,"guang":13342,"zhay":13343,"zhne":13344,"zheng":13345,"eyli":13346,"eytin":13347,"ubu":13348,"ubok":13349,"elds":13350,"utri":13351,"Need":13352,"asser":13353,"ekro":13354,"ĠEp":13355,"ĠEss":13356,"ĠEmp":13357,"ipu":13358,"erndorf":13359,"ernales":13360,"ĠItz":13361,"ĠItal":13362,"Lep":13363,"Lede":13364,"awi":13365,"awang":13366,"Ã¢na":13367,"caÃ±":13368,"ugi":13369,"upy":13370,"uper":13371,"iban":13372,"ibou":13373,"iere":13374,"ĠOjo":13375,"ĠOula":13376,"ĠOcotepec":13377,"enste":13378,"enstetten":13379,"uko":13380,"ukay":13381,"ukovo":13382,"ukÅ«":13383,"Monmouth":13384,"ĠCha":13385,"ĠCho":13386,"ĠChor":13387,"ĠChol":13388,"ĠChau":13389,"ĠChir":13390,"ĠChian":13391,"Barc":13392,"Barr":13393,"Baru":13394,"Barri":13395,"Barber":13396,"Barns":13397,"Barrow":13398,"Barrancas":13399,"ĠWa":13400,"ĠWe":13401,"ĠWen":13402,"ĠWang":13403,"ĠWein":13404,"Guach":13405,"Guadal":13406,"Carc":13407,"Cartag":13408,"Carolina":13409,"Bren":13410,"Brass":13411,"Brgy":13412,"uzo":13413,"dade":13414,"huay":13415,"antino":13416,"ezen":13417,"Colli":13418,"Colling":13419,"Colmen":13420,"Collado":13421,"Colfax":13422,"ĠLaw":13423,"ĠLabor":13424,"ffin":13425,"atepe":13426,"ambre":13427,"rysh":13428,"izio":13429,"ornik":13430,"Thi":13431,"Tho":13432,"Thiers":13433,"eiu":13434,"tenay":13435,"nois":13436,"Castron":13437,"loe":13438,"loon":13439,"Schar":13440,"Scher":13441,"Schne":13442,"Schitu":13443,"Santiagu":13444,"Ques":13445,"Quir":13446,"Quip":13447,"Quatt":13448,"Ã¤ff":13449,"Ama":13450,"Amor":13451,"Amag":13452,"Ambo":13453,"ssou":13454,"hae":13455,"ynn":13456,"ynÃ³w":13457,"Gris":13458,"Grass":13459,"ochnoye":13460,"ochitlÃ¡n":13461,"Belfast":13462,"ĠAltam":13463,"ĠAlcÃ¡n":13464,"Montc":13465,"Monten":13466,"Monteleone":13467,"ermes":13468,"Ãºla":13469,"Orle":13470,"Orba":13471,"Orland":13472,"Orme":13473,"woods":13474,"Å¡i":13475,"alme":13476,"seo":13477,"seong":13478,"oloapan":13479,"Westport":13480,"Westlake":13481,"ashat":13482,"ghi":13483,"ghan":13484,"Manz":13485,"Manzana":13486,"ĠSands":13487,"ÅĤm":13488,"ÅĤud":13489,"ÅĤkowice":13490,"Ã§ek":13491,"ariÃ¡":13492,"Salcedo":13493,"Salamanca":13494,"Berd":13495,"Berwick":13496,"ucht":13497,"Bea":13498,"Bee":13499,"Beh":13500,"Beuv":13501,"Bexley":13502,"Newmarket":13503,"artÃŃn":13504,"artida":13505,"denham":13506,"Prin":13507,"Pram":13508,"Pring":13509,"Prados":13510,"cks":13511,"uerbach":13512,"lyy":13513,"ienne":13514,"NovÃ½":13515,"Malk":13516,"Malv":13517,"Malak":13518,"Morton":13519,"Moraleja":13520,"ĠVals":13521,"joa":13522,"tado":13523,"Huat":13524,"HuÃ©":13525,"Huaz":13526,"HuÃ©r":13527,"insberg":13528,"ĠJoseph":13529,"bras":13530,"Calat":13531,"Calder":13532,"Caledonia":13533,"Bali":13534,"Balta":13535,"Balogo":13536,"Äįica":13537,"Äįovice":13538,"khod":13539,"ĠZa":13540,"ĠZen":13541,"ĠZem":13542,"ĠZamora":13543,"Corc":13544,"Coral":13545,"Corbi":13546,"itzendorf":13547,"Khon":13548,"KhÄģ":13549,"Khir":13550,"Khand":13551,"uieni":13552,"Ã«v":13553,"Ã«vka":13554,"Seen":13555,"Seaside":13556,"beach":13557,"veh":13558,"Torric":13559,"Torrel":13560,"Burla":13561,"Boa":13562,"Both":13563,"BoÄŁ":13564,"bole":13565,"Maure":13566,"Greensburg":13567,"ulah":13568,"ulao":13569,"TrÃł":13570,"Trujillo":13571,"lenz":13572,"Adams":13573,"Southern":13574,"Southport":13575,"Abd":13576,"Abou":13577,"Periy":13578,"uyÃ¨res":13579,"waÅĤd":13580,"ĠYuc":13581,"ÃŁling":13582,"áº©":13583,"istlÃ¡n":13584,"Borde":13585,"anjiang":13586,"Conn":13587,"Connell":13588,"zea":13589,"zef":13590,"ĠBeÄį":13591,"vere":13592,"vert":13593,"verne":13594,"ridor":13595,"Mej":13596,"Mehl":13597,"Baun":13598,"BaÃ¯":13599,"Baxter":13600,"Coatepec":13601,"Campan":13602,"Campof":13603,"Badia":13604,"area":13605,"Reit":13606,"ttingen":13607,"nesboro":13608,"Broek":13609,"Ascot":13610,"AsunciÃ³n":13611,"Mois":13612,"Moore":13613,"Sarm":13614,"Sarai":13615,"ouges":13616,"Bank":13617,"RoÅ¾":13618,"Roanoke":13619,"anejo":13620,"Hein":13621,"Head":13622,"Heid":13623,"Akron":13624,"Äģdah":13625,"Isa":13626,"ysz":13627,"yshevo":13628,"Canter":13629,"Zhur":13630,"Kali":13631,"Kalten":13632,"RosiÃ¨res":13633,"Roslyn":13634,"Roseville":13635,"weis":13636,"olding":13637,"Benav":13638,"Groot":13639,"Oberw":13640,"urea":13641,"ureÅŁti":13642,"organ":13643,"Cric":13644,"Magh":13645,"Magall":13646,"Magny":13647,"hoek":13648,"PlÃ©":13649,"Anderson":13650,"Andrews":13651,"Ãīg":13652,"Ãīch":13653,"Ãīcole":13654,"rades":13655,"ufeng":13656,"Ãģr":13657,"Ãģgua":13658,"Ãģyi":13659,"aterina":13660,"Äģbah":13661,"umbia":13662,"Aves":13663,"Avoca":13664,"Forrest":13665,"Velilla":13666,"VelkÃ¡":13667,"Ã¢nc":13668,"Pear":13669,"ifeng":13670,"Atti":13671,"Camal":13672,"ÅĻany":13673,"ÅĻovice":13674,"ĠGutiÃ©rrez":13675,"ĠGuareÃ±a":13676,"Lesnoy":13677,"Bouc":13678,"Bouz":13679,"Harp":13680,"Harbor":13681,"Harvey":13682,"schlag":13683,"Kamenn":13684,"Langley":13685,"Plains":13686,"gnac":13687,"Muro":13688,"Murray":13689,"giate":13690,"ĠSalitre":13691,"ÄĻba":13692,"iniÅŁ":13693,"Castelo":13694,"Castelnau":13695,"Emin":13696,"Loos":13697,"kston":13698,"Serg":13699,"Krasne":13700,"Å¾i":13701,"Koto":13702,"Koff":13703,"KoÅĤ":13704,"Madh":13705,"marie":13706,"Ã©rica":13707,"Ciuc":13708,"Holm":13709,"Holden":13710,"AcatlÃ¡n":13711,"Taras":13712,"desheim":13713,"ĠEsper":13714,"Bagong":13715,"ĠMorales":13716,"ĠMorris":13717,"Terran":13718,"ĠCrem":13719,"enningen":13720,"Bonnet":13721,"kota":13722,"Strel":13723,"Strum":13724,"Bolivar":13725,"ÈĽeni":13726,"Ã¶nn":13727,"Cuba":13728,"Woodford":13729,"Woodbridge":13730,"trud":13731,"Melgar":13732,"ĠBarbara":13733,"Horton":13734,"Ashford":13735,"CaÃ±as":13736,"Saal":13737,"lerville":13738,"Ãĩak":13739,"Ãĩatal":13740,"Pasir":13741,"Pasadena":13742,"wayn":13743,"ĠKhÄģs":13744,"á¸©ah":13745,"mbar":13746,"Gornyy":13747,"ÄĽÅ¾":13748,"letta":13749,"letto":13750,"Palmer":13751,"Ã¯a":13752,"Ã©di":13753,"ĠThor":13754,"Waltham":13755,"Äħcz":13756,"ĠQan":13757,"ĠStar":13758,"Glend":13759,"Gloucester":13760,"ĠRech":13761,"ĠReadap":13762,"ussy":13763,"alote":13764,"ĠAndreu":13765,"Mayo":13766,"Suvor":13767,"ĠColor":13768,"Trem":13769,"taglia":13770,"Altos":13771,"Fred":13772,"Freud":13773,"phia":13774,"pherd":13775,"oshima":13776,"Ä«nah":13777,"ĠElm":13778,"ahuac":13779,"ahuatlÃ¡n":13780,"Ã¶ld":13781,"Rediu":13782,"ĠCalab":13783,"ĠCalzada":13784,"BÃ©l":13785,"BÃ©ziers":13786,"ĠRodeo":13787,"HaÃŁ":13788,"Molin":13789,"overy":13790,"iasco":13791,"ĠXX":13792,"ĠXuÃ¢n":13793,"ĠXuyÃªn":13794,"riglia":13795,"France":13796,"Kefar":13797,"Medve":13798,"Sauk":13799,"ĠPlaza":13800,"Loutr":13801,"Tabon":13802,"ÅĽna":13803,"anzas":13804,"inasco":13805,"Aleg":13806,"Alem":13807,"Dundee":13808,"Kurort":13809,"ĠTexcal":13810,"Birnin":13811,"Hoi":13812,"Hoop":13813,"Linjiang":13814,"ĠCarrizal":13815,"Scur":13816,"Scand":13817,"ĠCorona":13818,"ĠCorneja":13819,"Izum":13820,"Paderno":13821,"telvi":13822,"enzell":13823,"enzana":13824,"ÄĲá»ĵng":13825,"ĠBlancas":13826,"Glencoe":13827,"Ostro":13828,"Ostrow":13829,"Ruff":13830,"Ruther":13831,"ĠForks":13832,"Ottawa":13833,"Sult":13834,"ViÅŁ":13835,"ViÃ±":13836,"cones":13837,"Starok":13838,"Sinj":13839,"ĠPhisai":13840,"Makar":13841,"winkel":13842,"ÄĮer":13843,"Gher":13844,"Surd":13845,"Somerville":13846,"ĠMonica":13847,"varez":13848,"ÄĢb":13849,"ÄĢd":13850,"ÄĢq":13851,"ĠMaur":13852,"oussa":13853,"oussou":13854,"Äģspur":13855,"Krasnoyar":13856,"Florent":13857,"ĠCuaut":13858,"Flora":13859,"Imm":13860,"Lucas":13861,"Lucena":13862,"Åģub":13863,"KilÃ³m":13864,"Nyzh":13865,"VallÃ©e":13866,"Centreville":13867,"McKin":13868,"ukhov":13869,"ukhovo":13870,"Tanah":13871,"Arak":13872,"Piatra":13873,"Åĳd":13874,"terswil":13875,"Eglinton":13876,"Klim":13877,"Rockville":13878,"Rockford":13879,"Tlaco":13880,"Unirea":13881,"Shek":13882,"Shem":13883,"Shepherd":13884,"Uspen":13885,"unceston":13886,"Itur":13887,"raten":13888,"ĠMadrid":13889,"Alac":13890,"Jincheng":13891,"Jinshan":13892,"Livez":13893,"ĠMex":13894,"ĠOrchard":13895,"Crook":13896,"Sorrento":13897,"Souq":13898,"Ġ12":13899,"Blackburn":13900,"DzÃ¼":13901,"MÃ©ziÃ¨res":13902,"Priest":13903,"Wangen":13904,"caster":13905,"ĠRomÃ¡n":13906,"nicÃŃ":13907,"ettai":13908,"Brookfield":13909,"Brookhaven":13910,"Doroban":13911,"ĠNeustadt":13912,"Aguada":13913,"Trois":13914,"Ãĸl":13915,"Argent":13916,"á»ĭnh":13917,"Bethany":13918,"Estancia":13919,"MÃ¼ll":13920,"ĠEnmed":13921,"ĠZapotitlÃ¡n":13922,"Upton":13923,"Veinte":13924,"ĠCoatlÃ¡n":13925,"onzalo":13926,"ĠPolesine":13927,"Courcelles":13928,"Falcon":13929,"Robled":13930,"Ocna":13931,"Timber":13932,"Germantown":13933,"PopeÅŁti":13934,"Stanford":13935,"BÄĥile":13936,"Gardner":13937,"Praia":13938,"Reme":13939,"Wesley":13940,"uleÅŁti":13941,"Claude":13942,"Munster":13943,"Ä°n":13944,"Tecol":13945,"monton":13946,"stringen":13947,"Boden":13948,"Leninskiy":13949,"MÄĥd":13950,"Qingyuan":13951,"Ãħs":13952,"ĠBrand":13953,"ĠBurgos":13954,"ĠCapulÃŃn":13955,"itlapilco":13956,"Pacific":13957,"estead":13958,"Pangkalan":13959,"Ronc":13960,"ĠBelbo":13961,"Forestville":13962,"Rossville":13963,"ĠPeters":13964,"Alcub":13965,"Nikola":13966,"Pelham":13967,"Piedmont":13968,"Rouge":13969,"Round":13970,"ĠBonfil":13971,"Zhongshan":13972,"Cottage":13973,"bÃ¼hl":13974,"iÅ¡t":13975,"iÅ¡ov":13976,"ĠBernard":13977,"Shuanghe":13978,"Shuanglong":13979,"Rance":13980,"Rantau":13981,"CheÅĤm":13982,"oyotepec":13983,"Monterey":13984,"Buchanan":13985,"Exeter":13986,"Fresn":13987,"ĠMolina":13988,"Apple":13989,"Appleton":13990,"Hinton":13991,"Yaroslav":13992,"langen":13993,"ĠCasas":13994,"ĠParis":13995,"Wellsville":13996,"á¹¯":13997,"aylovka":13998,"Labastide":13999,"Davyd":14000,"Feistritz":14001,"Hawai":14002,"Hawthorn":14003,"rÃŃcola":14004,"anesville":14005,"Ã³poulo":14006,"Schwab":14007,"anuova":14008,"ĠSegunda":14009,"Providence":14010,"Kazan":14011,"Lichten":14012,"Wenquan":14013,"ledge":14014,"Ã©kaha":14015,"Girard":14016,"Jiangkou":14017,"SÃ¢nm":14018,"Krym":14019,"Pokrovskoye":14020,"RÄģmnagar":14021,"ĠBoedo":14022,"ĠNovarese":14023,"Ä«mah":14024,"zewice":14025,"Browns":14026,"Bowling":14027,"Cogon":14028,"Warrenton":14029,"Ãľber":14030,"ĠBalka":14031,"ĠVeit":14032,"Civita":14033,"turno":14034,"Clarendon":14035,"Brant":14036,"Henry":14037,"Ludwig":14038,"Pampas":14039,"wego":14040,"CÄĥp":14041,"Hillside":14042,"BiaÅĤa":14043,"Paraje":14044,"falva":14045,"oubli":14046,"Ã©vez":14047,"ĠFuentes":14048,"Bellaire":14049,"Monticelli":14050,"DrÄĥgo":14051,"KÃ¼Ã§":14052,"KÃ¼snacht":14053,"Lieben":14054,"ĠTomÃ©":14055,"ÅĻÃŃÄįÃŃ":14056,"Hunter":14057,"Huntsville":14058,"Yelan":14059,"yevskiy":14060,"yevskaya":14061,"ĠBanÄ«":14062,"Charlton":14063,"StraÃŁ":14064,"Clarksville":14065,"ĠLeonards":14066,"Litchfield":14067,"Vesel":14068,"vÃ¡ros":14069,"Ã¹ng":14070,"ĠMelbourne":14071,"Smithville":14072,"Pouilly":14073,"iÈĻoara":14074,"ĠBoston":14075,"ĠIxta":14076,"á»Ļt":14077,"ÄĥrÄĥÅŁti":14078,"ÄĥrÄĥÈĻti":14079,"Boulogne":14080,"Lynn":14081,"rubia":14082,"rubio":14083,"Chaumont":14084,"ĠTraun":14085,"Broadview":14086,"Bright":14087,"Rokyt":14088,"Ripley":14089,"ĠPascual":14090,"aydah":14091,"ÄĥmÃ¢n":14092,"Osteria":14093,"ĠQuemada":14094,"ĠInnkreis":14095,"Huehuet":14096,"Äĥsti":14097,"Guayabal":14098,"aqov":14099,"ĠCroix":14100,"ĠPlanes":14101,"Chandler":14102,"ĠTsuen":14103,"ittelfeld":14104,"Aleksandrov":14105,"Ulaan":14106,"Zamora":14107,"ouyÃ©":14108,"ĠMesnil":14109,"ĠPiauÃŃ":14110,"tophe":14111,"Marshfield":14112,"quarie":14113,"Mexico":14114,"Abram":14115,"Debre":14116,"Ljub":14117,"Morningside":14118,"ilyurt":14119,"ĠIndustri":14120,"Carboneras":14121,"Verkhniye":14122,"Pervomayskiy":14123,"BjÃ¶r":14124,"Tipton":14125,"adzor":14126,"ĠHerradura":14127,"ÄĥÅŁeÅŁti":14128,"enschwil":14129,"Novopokrovka":14130,"ĠNewton":14131,"Atotonilco":14132,"MÄĥrgin":14133,"Riach":14134,"Sugar":14135,"Zakr":14136,"glise":14137,"ĠMedio":14138,"Christophe":14139,"ĠRichmond":14140,"ĠJalÃ³n":14141,"ĠValdavia":14142,"Åļwier":14143,"CÃ¡i":14144,"Mikhay":14145,"Mikhaylovka":14146,"CabezÃ³n":14147,"Benson":14148,"FÃ¼rsten":14149,"Kendall":14150,"Peyr":14151,"Scotts":14152,"Winston":14153,"Wickham":14154,"ĠErmita":14155,"ĠImper":14156,"ĠChimalpa":14157,"Burnham":14158,"YeÅŁil":14159,"Johnston":14160,"Wattle":14161,"vieja":14162,"anbulag":14163,"ĠBrenner":14164,"ĠRegis":14165,"quipulas":14166,"Thalwil":14167,"ckenridge":14168,"Crosby":14169,"Compton":14170,"enegro":14171,"rocÅĤaw":14172,"ĠSummit":14173,"ĠAugusta":14174,"ĠHanÃ©":14175,"ĠChicago":14176,"Carlton":14177,"áº¿n":14178,"ÅĽciel":14179,"Sosnovka":14180,"Versailles":14181,"amangalam":14182,"ĠCortÃ©s":14183,"ĠStazione":14184,"ĠMargarethen":14185,"Bistri":14186,"Hickory":14187,"Phoenix":14188,"ĠSayago":14189,"Addison":14190,"Baisha":14191,"Wilhelm":14192,"ĠTepetitlÃ¡n":14193,"AhuacatlÃ¡n":14194,"Hidden":14195,"Nassau":14196,"Scarborough":14197,"Wysoka":14198,"mÃ¤ki":14199,"adelphia":14200,"ĠHuertas":14201,"ĠFilip":14202,"ĠÃģlvarez":14203,"Jastrz":14204,"Zarechnyy":14205,"Zacualpan":14206,"gÄĥului":14207,"viertel":14208,"ĠMondovÃ¬":14209,"ĠMureÅŁ":14210,"ĠTronto":14211,"Shorewood":14212,"Stamford":14213,"ĠWilliam":14214,"Manhattan":14215,"Tamazula":14216,"Cienegu":14217,"Cypress":14218,"Dnip":14219,"JoaquÃŃn":14220,"Rolling":14221,"Worthington":14222,"ĠCandelaria":14223,"ĠPavÃ³n":14224,"Leisure":14225,"Barcelona":14226,"ĠSalvatore":14227,"ÃĩamlÄ±":14228,"ĠConcordia":14229,"Imperial":14230,"ĠOrdaz":14231,"DrÄĥgÄĥneÅŁti":14232,"Tweed":14233,"Wentworth":14234,"ĠMezquit":14235,"ĠParanÃ¡":14236,"ĠRouge":14237,"ĠGonÃ§":14238,"ĠGÃ¡llego":14239,"ĠLecce":14240,"stream":14241,"Thompson":14242,"Brewster":14243,"Gallegos":14244,"Bogorodskoye":14245,"Komsomol":14246,"Bucium":14247,"HajdÃº":14248,"Voskres":14249,"ĠNativitas":14250,"Hinojosa":14251,"OÄŁuz":14252,"Qaryat":14253,"Tracy":14254,"Ã¡llÃ¡s":14255,"ĠBÃ¢rgÄĥului":14256,"ĠGloria":14257,"Antipolo":14258,"Stirling":14259,"ĠEighty":14260,"MontrÃ©al":14261,"Salvatierra":14262,"Spanish":14263,"Woodbine":14264,"ĠMazowiecki":14265,"Hippolyte":14266,"ERES":14267,"historical":14268,"miklÃ³s":14269,"mÃ¡rton":14270,"ĠCounty":14271,"ĠSÃ¡zavou":14272,"ĠTagliamento":14273,"ĠTajuÃ±a":14274,"ĠJimÃ©nez":14275,"Shrewsbury":14276,"ukÅ«mat":14277,"ĠChianti":14278,"Cartagena":14279,"ĠAlcÃ¡ntara":14280,"Torricella":14281,"Ãģyios":14282,"ĠReadaptaciÃ³n":14283,"Rutherford":14284,"KilÃ³metro":14285,"ĠEnmedio":14286,"ERESO":14287,"Aar":14288,"Ail":14289,"Ate":14290,"Ace":14291,"Aiz":14292,"Aten":14293,"Aga":14294,"Arac":14295,"Ahl":14296,"Bik":14297,"BÄ«":14298,"Biz":14299,"Bone":14300,"Bena":14301,"Boro":14302,"Bof":14303,"BÃ©n":14304,"Bila":14305,"Boug":14306,"Bomb":14307,"Banda":14308,"Betz":14309,"Bhar":14310,"Bondo":14311,"BÃ¢l":14312,"BÄģg":14313,"Cid":14314,"Cem":14315,"Cana":14316,"Coh":14317,"Clan":14318,"Cella":14319,"Cans":14320,"Cinc":14321,"CÃł":14322,"CÃ´":14323,"Criv":14324,"Crop":14325,"CÄĥt":14326,"Cáº§u":14327,"Cwm":14328,"Cáº©":14329,"Dm":14330,"Dv":14331,"Dit":14332,"Dand":14333,"DÃŃ":14334,"Dus":14335,"DÄĥ":14336,"Ders":14337,"Dend":14338,"Dey":14339,"Dord":14340,"Dass":14341,"Dern":14342,"Dala":14343,"Dond":14344,"Dind":14345,"DrÃ©":14346,"DÅĤ":14347,"Diano":14348,"Dist":14349,"Doll":14350,"Dank":14351,"Dole":14352,"Doma":14353,"Dih":14354,"Dzi":14355,"DÃ¢r":14356,"Dvor":14357,"DÃ¢mb":14358,"Eu":14359,"Eur":14360,"Eto":14361,"Eti":14362,"Ene":14363,"Eyn":14364,"Eix":14365,"Even":14366,"Eym":14367,"FB":14368,"Fas":14369,"Fak":14370,"Fai":14371,"Fale":14372,"Fark":14373,"Fey":14374,"Faj":14375,"Fuch":14376,"Fels":14377,"FlÃ©":14378,"Flav":14379,"Falls":14380,"Frontera":14381,"Gig":14382,"Gid":14383,"Gue":14384,"Gli":14385,"Gern":14386,"Geni":14387,"Gland":14388,"Gno":14389,"Gola":14390,"Gari":14391,"Gart":14392,"Gies":14393,"Gomb":14394,"Gann":14395,"Garl":14396,"Gales":14397,"Gatt":14398,"GÃ©r":14399,"GÃ¼r":14400,"Gbal":14401,"Gallo":14402,"GÃ³ra":14403,"Gantang":14404,"His":14405,"HÄģ":14406,"Hoc":14407,"Hond":14408,"Hly":14409,"Hess":14410,"Hany":14411,"Homb":14412,"Hole":14413,"HÄĥl":14414,"Hasan":14415,"Haine":14416,"HÃ¸r":14417,"Horgen":14418,"HÃ²a":14419,"Hubb":14420,"Ila":14421,"Ipp":14422,"Ibi":14423,"Iowa":14424,"Ibarra":14425,"Jers":14426,"Juc":14427,"Jord":14428,"Jup":14429,"Juch":14430,"Jank":14431,"JÄģm":14432,"Javier":14433,"Jssel":14434,"Kig":14435,"Kers":14436,"Kiy":14437,"Kny":14438,"Kins":14439,"Kany":14440,"Kys":14441,"Kitt":14442,"Komb":14443,"Kumb":14444,"Kuh":14445,"KÃ½":14446,"KÃ¼r":14447,"Kati":14448,"Koren":14449,"KÃ¤r":14450,"Klad":14451,"Krop":14452,"Kenne":14453,"KÄģnd":14454,"Lara":14455,"Laro":14456,"Lash":14457,"Lund":14458,"Lerr":14459,"Lion":14460,"Lane":14461,"LiÃ©":14462,"Lann":14463,"Leno":14464,"Ligny":14465,"Leland":14466,"Lunc":14467,"Lunga":14468,"LÃ¨ze":14469,"Mj":14470,"Mk":14471,"Mr":14472,"Ms":14473,"Mv":14474,"MÃ¡":14475,"Ment":14476,"Mub":14477,"Mord":14478,"MÃ¢":14479,"Mens":14480,"MÅ«":14481,"Maya":14482,"Mena":14483,"Mign":14484,"Muy":14485,"Mick":14486,"Miri":14487,"Miel":14488,"Mure":14489,"MÄģl":14490,"MÃ©r":14491,"MÃ¢r":14492,"Meth":14493,"Makh":14494,"Mango":14495,"Manga":14496,"Maha":14497,"MÃ¶l":14498,"Mills":14499,"Mamm":14500,"MÃ©nÃ©":14501,"MÃ¢nd":14502,"Má»¹":14503,"Nj":14504,"Ns":14505,"Nid":14506,"Nio":14507,"NÄĥ":14508,"NÃ¼":14509,"Nach":14510,"Nuc":14511,"NÃ¤":14512,"NÃº":14513,"Naro":14514,"Nien":14515,"Niang":14516,"Nick":14517,"Nanc":14518,"Nagar":14519,"Nyang":14520,"Norfolk":14521,"Oh":14522,"Ouan":14523,"Ons":14524,"Oua":14525,"Ocu":14526,"Oder":14527,"Odon":14528,"Ouss":14529,"Oriz":14530,"Ovoo":14531,"Oakhurst":14532,"Oregon":14533,"Pong":14534,"Pent":14535,"Pamb":14536,"Piz":14537,"Pei":14538,"Pep":14539,"Paro":14540,"PÅĤ":14541,"Pari":14542,"Pani":14543,"Puer":14544,"Parr":14545,"Piss":14546,"Pess":14547,"Pila":14548,"PÄģr":14549,"Pelle":14550,"Pank":14551,"Pomb":14552,"Patt":14553,"PÃ½":14554,"Preg":14555,"Piana":14556,"PÃ¶l":14557,"Passo":14558,"Penz":14559,"Prog":14560,"Progres":14561,"Pisc":14562,"Ponder":14563,"Qo":14564,"Qala":14565,"Quel":14566,"Reng":14567,"Rach":14568,"Rass":14569,"Rek":14570,"RÅ«":14571,"Rant":14572,"Rez":14573,"Rosa":14574,"Roug":14575,"Rye":14576,"Ruf":14577,"Roma":14578,"Ranc":14579,"Reth":14580,"Rieux":14581,"RÄĥc":14582,"RÃ¢m":14583,"Rinconada":14584,"Sde":14585,"Sri":14586,"Sti":14587,"Ska":14588,"SÄ«":14589,"Siz":14590,"Soch":14591,"Serm":14592,"Sita":14593,"Sign":14594,"Sve":14595,"Siss":14596,"Sess":14597,"Siri":14598,"Sinc":14599,"Sorg":14600,"SiÃ©":14601,"Scal":14602,"SÄģm":14603,"SÃ¶r":14604,"Slu":14605,"Saba":14606,"SÄĥc":14607,"SÄ«dÄ«":14608,"TÄģ":14609,"Tio":14610,"Tell":14611,"TÄĥ":14612,"TÃ¼":14613,"Tach":14614,"Tass":14615,"Talm":14616,"Tari":14617,"Tart":14618,"Tien":14619,"Tita":14620,"Tuy":14621,"TÃ©n":14622,"Tura":14623,"Toll":14624,"Turt":14625,"Toli":14626,"TÄģl":14627,"TÃ´":14628,"Takh":14629,"Treg":14630,"Tomas":14631,"Two":14632,"Tagu":14633,"Tats":14634,"Taver":14635,"Tacu":14636,"Towns":14637,"TÅĻeb":14638,"Ux":14639,"Uet":14640,"Uba":14641,"Uda":14642,"Uly":14643,"Upp":14644,"Umar":14645,"Vay":14646,"VÄĥ":14647,"Vot":14648,"Vard":14649,"Vli":14650,"Vip":14651,"Vib":14652,"Vala":14653,"VÅ¡":14654,"Viri":14655,"Vies":14656,"Voul":14657,"Vide":14658,"Vlas":14659,"Vigo":14660,"Wou":14661,"Wac":14662,"Wir":14663,"Wid":14664,"Wach":14665,"Wien":14666,"Werr":14667,"Wiet":14668,"Wann":14669,"Wawa":14670,"WÄħ":14671,"WÃ¶l":14672,"Welles":14673,"Wepp":14674,"Xic":14675,"Xix":14676,"Xoco":14677,"Yos":14678,"Yol":14679,"Yad":14680,"Yac":14681,"Yec":14682,"Yamp":14683,"Yark":14684,"Yek":14685,"Yuk":14686,"Yant":14687,"Yeb":14688,"Yep":14689,"Yao":14690,"Yonne":14691,"Yancheng":14692,"Yeghe":14693,"Yarmouth":14694,"Zon":14695,"Zas":14696,"Zit":14697,"Zach":14698,"Zuc":14699,"Ziz":14700,"Zona":14701,"Zoll":14702,"ZÃ©rÃ©":14703,"Zeytin":14704,"ail":14705,"aÄŁ":14706,"bh":14707,"bill":14708,"bÃ¶":14709,"billa":14710,"best":14711,"bich":14712,"bier":14713,"buk":14714,"buz":14715,"boh":14716,"biel":14717,"bide":14718,"bling":14719,"buen":14720,"blÃ©":14721,"baba":14722,"bÃ¼r":14723,"bbi":14724,"batu":14725,"cac":14726,"colo":14727,"cari":14728,"cart":14729,"cele":14730,"coli":14731,"ciago":14732,"catlÃ¡n":14733,"cayo":14734,"cÄĥneÅŁti":14735,"cÃ¼k":14736,"dom":14737,"die":14738,"down":14739,"dasht":14740,"east":14741,"fs":14742,"fig":14743,"fir":14744,"fak":14745,"fell":14746,"ferr":14747,"fish":14748,"fenbach":14749,"gs":14750,"gay":14751,"gab":14752,"goy":14753,"gast":14754,"gara":14755,"gung":14756,"gda":14757,"garo":14758,"gani":14759,"gata":14760,"giri":14761,"gendorf":14762,"glia":14763,"gÃ¶l":14764,"gowo":14765,"gorod":14766,"gazi":14767,"hia":14768,"hri":14769,"het":14770,"him":14771,"hÃ³":14772,"hot":14773,"hÄ«":14774,"hala":14775,"hari":14776,"hiri":14777,"hler":14778,"hÄģt":14779,"ione":14780,"iolo":14781,"iona":14782,"jes":14783,"jam":14784,"jec":14785,"jna":14786,"jica":14787,"jera":14788,"japa":14789,"jovice":14790,"jandro":14791,"kang":14792,"kÃ³":14793,"kab":14794,"kell":14795,"kens":14796,"kila":14797,"kÃ¶l":14798,"kylÃ¤":14799,"lers":14800,"lens":14801,"lui":14802,"lope":14803,"mÄģ":14804,"mag":14805,"mod":14806,"meni":14807,"mala":14808,"mant":14809,"maj":14810,"moz":14811,"miel":14812,"mons":14813,"marn":14814,"machi":14815,"mersheim":14816,"nton":14817,"nag":14818,"nong":14819,"nÃ³w":14820,"nja":14821,"nova":14822,"nÅ«r":14823,"nodoro":14824,"niewo":14825,"oeiro":14826,"pia":14827,"pul":14828,"pok":14829,"peng":14830,"puz":14831,"pala":14832,"pper":14833,"piÃ©":14834,"pillas":14835,"pampa":14836,"pÄģra":14837,"pazarÄ±":14838,"qal":14839,"qay":14840,"qÄ«n":14841,"rt":14842,"rara":14843,"rale":14844,"rent":14845,"rza":14846,"rine":14847,"ringen":14848,"rÄģn":14849,"rona":14850,"ruy":14851,"rÃł":14852,"rush":14853,"rumb":14854,"rise":14855,"rÃ³s":14856,"reros":14857,"ringham":14858,"rÃ¼ck":14859,"sat":14860,"sall":14861,"singen":14862,"swood":14863,"sari":14864,"spr":14865,"sbury":14866,"swell":14867,"sjÃ¶":14868,"til":14869,"tÃ³w":14870,"tura":14871,"tendorf":14872,"tÃºn":14873,"uu":14874,"uas":14875,"uti":14876,"uge":14877,"uÃ±":14878,"ubach":14879,"uera":14880,"uova":14881,"uapa":14882,"uway":14883,"uÃ±o":14884,"vay":14885,"voy":14886,"vei":14887,"vola":14888,"vario":14889,"villy":14890,"vecchio":14891,"wr":14892,"wit":14893,"wing":14894,"wak":14895,"wind":14896,"wali":14897,"werd":14898,"wisch":14899,"wÃ¶rth":14900,"xa":14901,"xte":14902,"yer":14903,"yal":14904,"yac":14905,"yue":14906,"yno":14907,"yurt":14908,"yakh":14909,"yÅĦ":14910,"yalla":14911,"yÃªn":14912,"yotl":14913,"zk":14914,"zv":14915,"zim":14916,"zap":14917,"zara":14918,"zna":14919,"zola":14920,"zago":14921,"zenbach":14922,"ÄĨ":14923,"Äı":14924,"Ìĩ":14925,"Ñĥ":14926,"Ġ&":14927,"Ġul":14928,"Ġcon":14929,"ĠÅģ":14930,"Ġvor":14931,"Ġcel":14932,"ĠÅ»":14933,"ĠÈĺ":14934,"Ġunter":14935,"ģn":14936,"osu":14937,"osco":14938,"osano":14939,"osovo":14940,"osÅĤaw":14941,"oszcz":14942,"anal":14943,"anac":14944,"anville":14945,"anhe":14946,"anera":14947,"anpur":14948,"anivka":14949,"anÃ§a":14950,"arb":14951,"aring":14952,"arec":14953,"arez":14954,"arica":14955,"arten":14956,"arÃ³w":14957,"arito":14958,"arama":14959,"argarh":14960,"erel":14961,"erka":14962,"erey":14963,"erlo":14964,"erskiy":14965,"erve":14966,"erbo":14967,"erfeld":14968,"erolles":14969,"erheide":14970,"inÃ©":14971,"inio":14972,"inne":14973,"ints":14974,"inja":14975,"enic":14976,"enio":14977,"enville":14978,"enec":14979,"enik":14980,"ents":14981,"enich":14982,"enivka":14983,"enskaya":14984,"enÃ§o":14985,"onÃ©":14986,"onara":14987,"once":14988,"oncillo":14989,"alim":14990,"alÃŃ":14991,"aloc":14992,"alva":14993,"aleda":14994,"alunga":14995,"orb":14996,"orla":14997,"orra":14998,"orino":14999,"orna":15000,"oreni":15001,"orien":15002,"orivka":15003,"orosso":15004,"elg":15005,"elou":15006,"elang":15007,"elÃ¢ndia":15008,"ilon":15009,"ilis":15010,"ilai":15011,"ilua":15012,"aston":15013,"aski":15014,"ashevo":15015,"eser":15016,"esio":15017,"esda":15018,"esdorf":15019,"esita":15020,"chon":15021,"chov":15022,"chie":15023,"chberg":15024,"chheim":15025,"cheri":15026,"chnoye":15027,"chwitz":15028,"uron":15029,"urou":15030,"urne":15031,"urey":15032,"urovo":15033,"amont":15034,"amÃ³n":15035,"amina":15036,"amatsu":15037,"deburg":15038,"dejo":15039,"deira":15040,"laj":15041,"laz":15042,"lada":15043,"lapa":15044,"layan":15045,"lef":15046,"leg":15047,"leh":15048,"lej":15049,"levo":15050,"letown":15051,"atos":15052,"atun":15053,"atau":15054,"atÃ³n":15055,"atli":15056,"atuan":15057,"atica":15058,"atore":15059,"atown":15060,"atsi":15061,"Sans":15062,"Santer":15063,"Sanjiang":15064,"oui":15065,"ouar":15066,"ouer":15067,"ouen":15068,"oule":15069,"ouma":15070,"ouze":15071,"ouillet":15072,"olos":15073,"olen":15074,"olim":15075,"olop":15076,"olÅ£":15077,"isz":15078,"isville":15079,"island":15080,"isario":15081,"taÅŁ":15082,"tagi":15083,"ĠCel":15084,"ĠCov":15085,"ĠCir":15086,"ĠCong":15087,"ĠCano":15088,"ĠCard":15089,"ĠCeb":15090,"ĠCien":15091,"ĠCelle":15092,"ĠCedro":15093,"ĠCali":15094,"ĠCliff":15095,"ĠCinco":15096,"ĠCaterina":15097,"adin":15098,"aden":15099,"adle":15100,"adana":15101,"adores":15102,"aduey":15103,"adavia":15104,"itat":15105,"itic":15106,"itro":15107,"itio":15108,"itama":15109,"itÃł":15110,"itinga":15111,"itlalpan":15112,"rets":15113,"reja":15114,"reuil":15115,"ovik":15116,"ovana":15117,"ovaya":15118,"ovlje":15119,"ovgrad":15120,"oviÄĩi":15121,"ingin":15122,"ingal":15123,"inges":15124,"ingrad":15125,"iah":15126,"iak":15127,"iaco":15128,"iapo":15129,"rae":15130,"raq":15131,"raje":15132,"raben":15133,"ĠMc":15134,"ĠMi":15135,"ĠMom":15136,"ĠMau":15137,"ĠMul":15138,"ĠMend":15139,"ĠMula":15140,"ĠMath":15141,"ĠMiss":15142,"ĠMess":15143,"ĠMella":15144,"ĠMiel":15145,"ĠMango":15146,"ĠMack":15147,"ĠMota":15148,"ĠMÃ³nica":15149,"ĠMÃ¼rz":15150,"tet":15151,"tead":15152,"teira":15153,"teaga":15154,"icon":15155,"icano":15156,"icara":15157,"icello":15158,"icella":15159,"icchio":15160,"ĠPou":15161,"ĠPast":15162,"ĠPall":15163,"ĠPek":15164,"ĠPint":15165,"ĠPico":15166,"ĠPost":15167,"ĠPanc":15168,"ĠPuj":15169,"ĠPros":15170,"ĠPorte":15171,"ĠPinos":15172,"ĠPesc":15173,"ĠPavese":15174,"angas":15175,"ayang":15176,"ayne":15177,"unj":15178,"unia":15179,"unna":15180,"undorf":15181,"roÃŁ":15182,"Äģsi":15183,"Äģvar":15184,"Äģrak":15185,"Ã¡huac":15186,"ĠSy":15187,"ĠSag":15188,"ĠSot":15189,"ĠSuc":15190,"ĠShu":15191,"ĠSpa":15192,"ĠSasso":15193,"ĠSlov":15194,"ĠSonn":15195,"ĠShui":15196,"ĠSesia":15197,"ĠSutton":15198,"rix":15199,"rien":15200,"riet":15201,"riÃ³n":15202,"riÃł":15203,"etan":15204,"etal":15205,"etch":15206,"etere":15207,"Lax":15208,"Lach":15209,"Laun":15210,"Lagar":15211,"Lapin":15212,"Lazar":15213,"ĠBl":15214,"ĠBes":15215,"ĠBir":15216,"ĠBus":15217,"ĠBara":15218,"ĠBass":15219,"ĠBug":15220,"ĠBari":15221,"ĠBerr":15222,"ĠBella":15223,"ĠBust":15224,"ĠBush":15225,"ĠBris":15226,"ĠBuey":15227,"ĠBrava":15228,"ĠBaja":15229,"ĠBarros":15230,"ĠBáº£":15231,"igar":15232,"iganj":15233,"igao":15234,"igbeu":15235,"igueira":15236,"tonda":15237,"agr":15238,"agas":15239,"agay":15240,"agni":15241,"aggi":15242,"aggio":15243,"agram":15244,"omy":15245,"omen":15246,"omano":15247,"omey":15248,"omonte":15249,"omatlÃ¡n":15250,"illard":15251,"illera":15252,"illero":15253,"illington":15254,"illya":15255,"illert":15256,"illoux":15257,"illermo":15258,"imat":15259,"imit":15260,"imÃ¡n":15261,"imore":15262,"imbo":15263,"imilco":15264,"Chy":15265,"Chon":15266,"Chay":15267,"Chig":15268,"Chah":15269,"Chop":15270,"Chey":15271,"Chass":15272,"Chuk":15273,"Chart":15274,"Chico":15275,"Chiri":15276,"ChÃª":15277,"Choi":15278,"auc":15279,"aug":15280,"aum":15281,"auville":15282,"audi":15283,"ĠAto":15284,"ĠAce":15285,"ĠAire":15286,"ĠAtla":15287,"Ã³a":15288,"Ã³g":15289,"Ã³st":15290,"Ã³var":15291,"aces":15292,"acam":15293,"acra":15294,"acÄĥ":15295,"accia":15296,"Ġdin":15297,"Ġdello":15298,"tois":15299,"toya":15300,"toky":15301,"abis":15302,"abÃ³n":15303,"abuan":15304,"abito":15305,"iram":15306,"irana":15307,"irli":15308,"iranga":15309,"andÃ©":15310,"ÃŃd":15311,"ÃŃl":15312,"ÃŃtsa":15313,"edy":15314,"edal":15315,"edas":15316,"edom":15317,"edge":15318,"edÃ¨s":15319,"thÃ©":15320,"thaca":15321,"thofen":15322,"throp":15323,"thouse":15324,"aky":15325,"akot":15326,"skill":15327,"skem":15328,"ains":15329,"ĠTi":15330,"ĠTu":15331,"ĠTos":15332,"ĠTar":15333,"ĠTou":15334,"ĠTay":15335,"ĠTun":15336,"ĠTap":15337,"ĠTong":15338,"ĠTum":15339,"ĠTaw":15340,"ĠThu":15341,"ĠTha":15342,"ĠTrÃ©":15343,"ĠThan":15344,"ĠTula":15345,"ĠTuy":15346,"odos":15347,"odon":15348,"odia":15349,"ĠHal":15350,"ĠHed":15351,"ĠHai":15352,"ĠHaw":15353,"ĠHagen":15354,"ĠHá»ĵ":15355,"ĠHernÃ¡ndez":15356,"ĠHouyÃ©":15357,"ĠRon":15358,"ĠRus":15359,"ĠRav":15360,"ĠRai":15361,"ĠRight":15362,"Alz":15363,"Alun":15364,"Allan":15365,"Albor":15366,"Allende":15367,"uld":15368,"ulpa":15369,"ĠGau":15370,"ĠGord":15371,"ĠGrim":15372,"ĠGoi":15373,"ahin":15374,"ahon":15375,"ahia":15376,"ahama":15377,"ĠVo":15378,"ĠVr":15379,"ĠVin":15380,"ĠVil":15381,"ĠVig":15382,"ĠViv":15383,"ĠValm":15384,"ĠVaras":15385,"idul":15386,"idoro":15387,"idona":15388,"ieck":15389,"iegos":15390,"ongj":15391,"avon":15392,"avas":15393,"avac":15394,"avita":15395,"avichy":15396,"tipan":15397,"neb":15398,"nev":15399,"new":15400,"neus":15401,"neÈĻti":15402,"coiu":15403,"anoy":15404,"kao":15405,"bers":15406,"bergo":15407,"ueca":15408,"ueve":15409,"umet":15410,"umbur":15411,"ĠLan":15412,"ĠLad":15413,"ĠLun":15414,"ĠLet":15415,"ĠLem":15416,"ĠLey":15417,"ĠLine":15418,"ĠLoz":15419,"ĠLock":15420,"ĠLiri":15421,"ĠLee":15422,"ĠLinh":15423,"ĠLuka":15424,"ĠLÃ¢m":15425,"ĠLhota":15426,"Elb":15427,"Elster":15428,"hea":15429,"hee":15430,"hey":15431,"heir":15432,"ellos":15433,"ellano":15434,"Äĥce":15435,"otang":15436,"otÃŃ":15437,"otti":15438,"otino":15439,"otts":15440,"otera":15441,"otnica":15442,"otitÃ¡n":15443,"otenango":15444,"tere":15445,"tery":15446,"terton":15447,"terbach":15448,"ĠJan":15449,"ĠJum":15450,"ĠJust":15451,"ĠJunta":15452,"ĠJusto":15453,"ĠJizer":15454,"ecera":15455,"emar":15456,"emans":15457,"Marz":15458,"Marta":15459,"Marac":15460,"Marip":15461,"Marche":15462,"Marston":15463,"ĠNob":15464,"ĠNep":15465,"ĠNied":15466,"ĠNagar":15467,"ĠNÄģÅŁ":15468,"ĠNisou":15469,"owra":15470,"owai":15471,"okan":15472,"oker":15473,"okum":15474,"okout":15475,"okoi":15476,"ĠFÃ©":15477,"ĠFul":15478,"ĠFranca":15479,"ĠFermo":15480,"ÅŁr":15481,"ersen":15482,"ersel":15483,"ersfeld":15484,"erstetten":15485,"ogh":15486,"ogong":15487,"ogee":15488,"ogarh":15489,"ikk":15490,"ikam":15491,"Ã¶he":15492,"Ã¶tt":15493,"Ã¼ng":15494,"Ã¼tten":15495,"Ã¼tte":15496,"onts":15497,"shal":15498,"shat":15499,"shun":15500,"shoy":15501,"shaw":15502,"shaf":15503,"shchina":15504,"enger":15505,"engah":15506,"engstringen":15507,"ocan":15508,"obas":15509,"obes":15510,"obia":15511,"obamba":15512,"Shab":15513,"Shed":15514,"Shiv":15515,"Short":15516,"Sheldon":15517,"azÃº":15518,"azapa":15519,"ally":15520,"allur":15521,"allÅ«r":15522,"ĠDan":15523,"ĠDin":15524,"egi":15525,"egon":15526,"egre":15527,"egui":15528,"egua":15529,"stÃŃ":15530,"statt":15531,"strana":15532,"Ark":15533,"Aral":15534,"Arco":15535,"ArÄ±":15536,"Arroy":15537,"ampi":15538,"ampang":15539,"inola":15540,"Ä«na":15541,"Ä«jÄģn":15542,"Ã³ni":15543,"Ã³nas":15544,"ardon":15545,"ardia":15546,"ardiel":15547,"quay":15548,"quara":15549,"quier":15550,"querÃ³n":15551,"estan":15552,"estin":15553,"esten":15554,"esting":15555,"Anch":15556,"Anac":15557,"Anda":15558,"anaju":15559,"eval":15560,"eves":15561,"evci":15562,"opf":15563,"opil":15564,"opoli":15565,"ĠMarg":15566,"ĠMarzo":15567,"ĠMarsi":15568,"ĠMarques":15569,"ĠMarcel":15570,"ĠMargherita":15571,"ĠMarquÃ©s":15572,"lian":15573,"liang":15574,"alejos":15575,"geest":15576,"entis":15577,"entidueÃ±a":15578,"ucio":15579,"endel":15580,"endrecht":15581,"inaw":15582,"ĠKon":15583,"ĠKÃ¶":15584,"ĠKut":15585,"ĠKry":15586,"ĠKÅĤ":15587,"ĠKÅį":15588,"ĠKlang":15589,"ĠKhao":15590,"ĠKiat":15591,"ĠKidul":15592,"Stand":15593,"StÄĥ":15594,"Stella":15595,"Strad":15596,"Stutt":15597,"Stuart":15598,"arki":15599,"guo":15600,"zhany":15601,"zhanka":15602,"eye":15603,"eyer":15604,"ubon":15605,"ubay":15606,"ubey":15607,"uten":15608,"utal":15609,"utter":15610,"utlu":15611,"Neul":15612,"Neco":15613,"NeochÃ³ri":15614,"eken":15615,"ĠEra":15616,"ĠEng":15617,"ĠEdu":15618,"ĠEufemia":15619,"ipac":15620,"surg":15621,"ĠIng":15622,"ĠIbor":15623,"ĠIgles":15624,"iyo":15625,"iysk":15626,"iyÅ«r":15627,"Ã¨le":15628,"Ã¨ge":15629,"Ã¨ves":15630,"Leim":15631,"Leesburg":15632,"awat":15633,"Ã¢y":15634,"caia":15635,"cajo":15636,"cita":15637,"ugas":15638,"uges":15639,"ugat":15640,"ughe":15641,"oure":15642,"oural":15643,"ourala":15644,"upang":15645,"upleu":15646,"ibi":15647,"ibah":15648,"ibli":15649,"ibago":15650,"ibouo":15651,"ĠOg":15652,"ĠOriz":15653,"ĠOteros":15654,"ensberg":15655,"ensleben":15656,"ukou":15657,"uket":15658,"goa":15659,"gota":15660,"Monk":15661,"Monreal":15662,"ĠCher":15663,"ĠChum":15664,"ĠChica":15665,"ĠChiesa":15666,"ianos":15667,"ianka":15668,"Barm":15669,"Bars":15670,"Barac":15671,"Barranca":15672,"Barrington":15673,"Ä±nd":15674,"Ä±lÄ±":15675,"nyi":15676,"Å«Åį":15677,"ĠWar":15678,"ĠWis":15679,"ĠWong":15680,"ĠWell":15681,"ĠWorth":15682,"ĠWalk":15683,"ĠWhit":15684,"ĠWarren":15685,"Guer":15686,"Guas":15687,"Guap":15688,"Guess":15689,"Guild":15690,"Guijo":15691,"inea":15692,"inez":15693,"Carre":15694,"Carab":15695,"Carav":15696,"Carson":15697,"Carmo":15698,"Carleton":15699,"Carrizal":15700,"Brind":15701,"Brze":15702,"Broughton":15703,"daia":15704,"hude":15705,"huala":15706,"hualtepec":15707,"alajara":15708,"antic":15709,"antÃ¡n":15710,"ezze":15711,"ndi":15712,"Colchester":15713,"Colorado":15714,"Colombe":15715,"ĠLac":15716,"ffÃ©":15717,"ohr":15718,"ÈĻului":15719,"ÈĻtea":15720,"nien":15721,"nial":15722,"niÃ³w":15723,"niÃ¨re":15724,"ryan":15725,"ryany":15726,"izd":15727,"izy":15728,"izra":15729,"izonte":15730,"izavet":15731,"ajar":15732,"ajay":15733,"ajiang":15734,"ozor":15735,"ozas":15736,"ornoye":15737,"Thy":15738,"Thum":15739,"Thann":15740,"ThÃ©r":15741,"fiel":15742,"tene":15743,"eby":15744,"eben":15745,"Villac":15746,"noe":15747,"uelle":15748,"lohe":15749,"loff":15750,"Schil":15751,"Schell":15752,"Schwan":15753,"Schwer":15754,"Quit":15755,"Quero":15756,"Quiri":15757,"Quinto":15758,"Quáº£ng":15759,"leston":15760,"lestown":15761,"Ã¤ck":15762,"Ã¤ki":15763,"Amar":15764,"Amal":15765,"Ames":15766,"Amur":15767,"Ambar":15768,"sse":15769,"ssi":15770,"sser":15771,"hail":15772,"haur":15773,"haun":15774,"lanta":15775,"olah":15776,"olato":15777,"Villard":15778,"Villarr":15779,"Villares":15780,"Villase":15781,"Villaman":15782,"ynia":15783,"ynove":15784,"GrÃ¼":15785,"oches":15786,"ochtitlÃ¡n":15787,"ĠAlc":15788,"ĠAlgar":15789,
[...]
