#version: 0.2
o s
e os
a n
a r
e r
i n
e n
o n
a l
o r
e l
i l
a s
e s
c h
u r
a m
d e
l a
l e
a t
S an
o u
o l
Ã ©
i s
t a
Ġ C
a d
i t
r e
o v
in g
Ġ de
i a
r a
Ġ M
t e
i c
Ġ P
an g
a y
u n
r o
Ä ģ
Ã ¡
Ġ S
r i
e t
L a
Ġ B
i g
t on
a g
o m
il l
i m
C h
a u
Ġ A
Ã ³
a c
Ġ d
t o
a b
i r
an d
Ã Ń
e d
t h
a k
s k
a in
Ġ T
o d
Ġ H
Ġ R
A l
a p
u l
Ġ G
a h
Ġ V
i d
u s
i o
i e
il le
on g
a v
t i
n e
c o
b a
an o
k a
b er
u e
u m
S ain
Ġ L
E l
v ille
Sain t
h e
el l
Ä ĥ
o t
i v
â Ģ
t er
Ġ J
e c
e m
o y
M ar
Ġ N
as t
o w
o k
Ġ F
Å Ł
er s
o g
r an
i k
Ã ¶
il la
Ã ¼
on t
s h
en g
a ch
San ta
o c
o b
a i
Ġd el
S h
a z
al l
Ġ D
e g
s t
Ã¡ n
A r
am p
in o
Ä «
Ã³ n
ar d
q u
es t
A n
or f
b ur
an a
e v
u d
o p
ĠM ar
t s
ar a
l i
al e
g e
âĢ Ļ
n a
en t
u c
en d
in a
Ġ K
i ch
S t
ar k
g u
z h
e y
ic e
u b
or t
el d
or d
u t
N e
as s
e k
r es
Ġ E
i p
er n
s ur
Ġ I
i y
Ã ¨
L e
a w
Ã ¢
c e
c a
c i
u g
o ur
u p
k e
i b
i er
u an
Ġ O
en s
Ã ±
u k
g o
ov o
M on
en i
ber g
ĠC h
i an
B ar
z a
Ä ±
o od
n y
Å «
Ġ W
G u
in e
C ar
un g
or th
B r
u z
le y
d a
bur g
h u
al a
an t
e z
n d
ba ch
C ol
Ġ La
f f
o h
at e
Ġ (
l and
È Ļ
am b
n i
r y
n g
ay a
i z
a j
it y
he im
oy e
o z
on d
or n
ic a
Ġ la
T h
f i
d orf
e i
er a
ing en
t en
V al
e b
er o
) <
V illa
n o
C ast
ĠP ark
ig h
u el
l o
e p
h am
S ch
San t
Q u
l es
Ã ¤
A m
v a
âĢ ĺ
s s
in d
h a
l an
o la
ou th
V ill
ĠC ity
ÃŃ a
y n
G r
ÅŁ ti
o ch
B el
ing ton
Ġd i
ĠA l
Ã³ w
M ont
er m
Ã º
ĠH ill
on e
fi eld
s en
ad a
in t
w n
q ue
en a
ou n
O r
w ood
p ur
Å ¡
al m
s e
v o
or e
ar o
ol o
W est
as h
or o
r Ã©
g h
M an
Ġ San
Å Ĥ
a f
Ã §
Äģ n
ar i
S al
B er
u ch
B e
Ã £
an i
f ord
i j
o f
Ne w
ar t
d en
P r
h an
c k
u er
l y
p r
os s
ÃŃ n
i en
N ov
M al
M or
un d
ĠV al
j o
ta d
H u
g a
at a
in s
ĠJ os
Å £
b r
ill o
C al
B al
N orth
Ä į
i ta
ing s
te p
i ra
k h
it o
to wn
sk iy
B u
Ġ Z
j a
K r
ar r
C or
it z
á ¸
K h
b y
E s
Ã£ o
u i
ig n
C as
Ã «
os a
er r
ĠC r
S e
b e
l Ã¡n
s on
y a
z o
v e
ĠH e
O l
T or
k i
is h
B ur
i ang
r ov
B o
m a
b o
am a
M a
G re
P ar
u la
or a
T r
l en
m an
A d
s te
i ano
Ġ l
S outh
á »
on a
ÈĻ ti
A b
i ed
P er
u y
w a
Ġ Y
ch en
Ã© n
Ã Ł
on te
sk oye
at h
ic k
ell o
á º
is t
B or
an j
K ar
ĠA r
p a
is s
l in
ran c
C on
L os
es s
ĠA n
z e
ĠB e
oc k
u x
v er
on ia
ic o
ri d
M e
i x
n s
i on
ov a
an y
iv ka
igh ts
B a
il a
M er
i ri
en te
al d
C o
E ast
el la
C amp
ĠHe ights
B ad
D e
el e
at o
u a
an s
ĠJ uan
ch e
P al
Äģ r
au sen
z y
ar e
is ta
b or
Mon te
el le
R e
t t
ur a
n es
B ro
ed ro
ĠBe ach
A s
M o
S p
S ar
ou g
is co
ĠJos Ã©
B an
R o
oun t
er e
f eld
L as
i es
m e
in c
L ong
Ã ł
t or
Ã¡ r
Ġ am
ĠS h
B re
p er
an e
ci Ã³n
ĠLa ke
i re
tep ec
A g
H e
end orf
os t
el s
ol l
Ġ /
ar m
ĠI s
Ġ U
ad o
r on
A k
au l
E r
Äģ d
C er
I s
P ort
l or
y s
Ġd o
ÃŃ o
ĠP o
I n
V er
j e
C ap
y e
ig uel
C an
a o
i el
Z h
Ã¡ s
us t
K al
ou l
ag o
R os
i et
an k
k t
B ay
P et
M at
p e
ur t
ĠV illa
ĠMar ÃŃa
g ar
w e
ol d
it t
Ã¨ s
ranc isco
p an
us h
ĠB ay
om b
B en
G ro
ĠP edro
ie w
tad t
c u
ol i
O ber
s a
ur e
T e
or g
i de
Å į
C r
M ag
ra c
ĠHill s
ĠCr uz
h o
i u
l ing
u ang
Ġd er
ue va
P l
r en
Ä Ł
An d
i Ã©
rid ge
el a
es ter
Ã ī
ov ka
ia go
sk aya
ĠM iguel
K ir
o le
b ro
c al
r ad
Å ŀ
m er
u f
Ã ģ
an n
P or
Ã ¸
Ġ al
ap a
Col onia
at er
C l
en e
bur y
Ġ an
an ch
om a
i h
Äģ b
C ab
P o
d u
k ro
on s
re z
um b
ow n
d ale
es e
ĠS pr
ton io
Å« r
A v
F or
V el
ar l
ar n
un a
La ke
Ã¢ n
Ġl os
M ount
P e
i f
it e
O s
c ia
al es
at t
ran de
A t
C am
Ã ª
âĢĻ <
Sant iago
G ra
im a
m en
Å Ļ
Äģ l
E n
S te
ĠF rancisco
ĠVal ley
ĠVilla ge
a ir
ĠG u
iv er
ĠMar t
uer to
m ont
L es
W e
z i
Äģ m
B ou
H ar
s ch
ing o
B la
K am
L ang
P la
g n
p p
d o
p ort
t la
u en
h ausen
ch i
id a
Ã± a
F r
M il
M ur
W h
g i
ĠS al
M in
T al
ĠAn tonio
P h
S k
U r
z ano
Ä Ļ
Ã¶ r
L u
in i
San to
ue vo
G en
l u
et t
ĠV ic
Cast el
E m
L o
k s
S er
g en
Ġ in
G ar
S Ã£o
j i
Al b
Ã¨ res
Kr as
ĠSpr ings
d er
Å ¾
G e
K o
M ad
k en
m ar
Äĥ r
o a
Ã© r
ev o
ĠE st
C i
H ol
il e
Mar t
zh en
Ã¢ r
A c
M as
T ar
d es
l l
en o
ov e
ĠE s
B ag
e e
u h
y r
ill as
th e
id o
p o
an c
ĠM or
ed a
T er
t z
ĠC re
C om
S am
a x
s ton
San kt
ad al
au x
B ri
S ol
Ä ĩ
Ġ el
er i
en n
ĠC amp
gu an
B on
k o
Ã ´
ĠL e
St r
h i
k ir
n ad
ny y
ĠPo int
B ol
p ol
b en
l Ã©
È Ľ
Ã¨ re
et h
ĠG rande
Ã¶ n
á¸ ¨
C u
W il
W ood
t r
ur i
ou gh
rov e
M el
M ac
k er
B at
w ell
ar y
it h
ri m
U n
d t
l ia
v i
et s
ĠB ar
D on
H or
P ol
d on
i ber
el o
oug ou
P uerto
r al
y ah
en ter
Gre en
A sh
C a
n oye
u j
Ã ¥
is e
ak h
K ou
S a
l er
Ã ½
Ã ĩ
la v
ang e
ro y
ab a
ĠCre ek
P as
i am
u Ã¡
w ay
Å Ħ
re g
ang o
and a
ĠK h
á¸ ©
i ro
m b
y an
er al
it lÃ¡n
ue b
up e
T s
T ur
v en
in es
Ch Ã¢
eng guan
An g
G or
H er
b an
Ä Ľ
le t
ow ice
ier ra
F ort
P alm
w ar
w orth
ar io
al i
Ã© s
ac a
ĠT r
A y
Ã ¯
ang a
et o
ah a
ĠCh engguan
ĠChengguan zhen
M id
N av
n ik
s ville
Ã© d
ĠT h
B ra
H am
P ont
w il
E d
W al
Ġ im
ch eng
ov ice
Sain te
P an
r os
en berg
re is
ig ny
aw a
l Ã¨s
Ä ħ
Ġ Q
or te
ĠS t
G l
c ar
ĠR e
us s
ie u
ec k
ers dorf
ts i
B l
S il
i ana
y l
al o
as a
le u
ĠA nd
all s
Gro ÃŁ
L y
O ak
am ar
ag a
Tor re
adal upe
M ay
S u
s dorf
ĠC ol
ĠG i
gu a
zh ou
T a
T re
v an
am ba
ta g
Al t
Äĥ l
F air
W in
b oro
ou s
ia o
ag ar
ĠG rove
k es
Ġ nad
ar es
ap an
Ã¼ r
A z
F re
N or
S ab
c os
h l
at i
D r
D ob
R om
g an
p h
er t
la y
at lÃ¡n
A p
D ol
M u
b ar
b our
Å ł
on i
ou Ã©
Ã³ r
Ä« yah
Gr and
B as
I l
b al
n ica
t ten
os h
or en
ĠC on
un n
Ä« n
d al
y k
Ġ El
ed o
ah u
Ã¶ l
P at
R ed
m o
s i
es a
ch a
ĠC al
ig li
ard o
B Ã©
J e
N ar
ig u
ac i
Äĥ ne
uÃ¡ rez
N ied
b i
d i
k ou
sk a
ĠR o
sh an
ci on
ĠW est
Ġl as
D el
F u
H a
M ol
P in
S ta
V il
c z
l io
u il
ou t
Ã© m
ov er
ĠV er
Vill an
L im
M ir
S pr
W ill
l Ä±
r as
ra h
ri o
ri ch
ill y
ul l
M ah
V ic
n h
ri v
Ã³ s
av en
K a
N i
T am
b ei
i as
u is
v iew
Ġ X
San d
ĠS ec
ri g
ĠL uc
ass o
A ss
F ran
G al
K e
M ed
S el
S au
b on
k ov
l ingen
t y
y ang
is on
ĠC ast
re d
ĠP la
et z
om as
ac k
eg a
of en
K or
L ou
R ad
T ab
V ar
V ol
Å Ľ
an z
im o
Ch er
Ã¤ r
D ong
K at
R am
T ra
b u
t al
in as
et te
ac o
sk i
A le
B il
B og
D un
G o
K ur
Ġ Qu
Ġ âĢĺ
ĠM onte
te in
ic ol
Ch ar
ĠT e
ĠT or
id ge
ĠI n
B ir
K on
h ar
es h
Äĥ u
D ar
H o
L in
V ille
u v
w ang
en h
ay o
Ġd a
ne y
Å£ a
B ang
S un
f la
g io
t an
Å ¼
or es
il i
ta in
ĠC ar
ill s
sk e
S c
r ou
v al
La g
ĠG ard
P a
X in
e h
i ers
p ing
la d
ol f
ĠC or
av a
ĠD om
uc k
ign ano
Äģb Äģd
kir chen
H al
I r
I z
K ol
P ad
S m
T em
W a
r is
t el
w an
w ick
Ġ bei
en z
at es
ou a
ri e
id al
bur n
ĠMar e
Be au
tor ia
D al
R oc
R ich
T ep
W ar
e ÅŁti
Ä Ĳ
am o
ay an
ĠB lan
ĠR os
Al m
Ã¼ n
D am
G ran
G len
O st
P ueb
R u
R iv
p in
r am
el and
ÃŃ s
ak i
ĠR ÃŃo
ĠJ uÃ¡rez
ĠF or
uc a
ien to
Spr ing
G a
O t
S im
S ul
V i
c on
x i
in sk
ang an
ro g
ĠN orth
St ar
B ul
G er
K u
O u
P od
P ot
S v
S in
S id
m p
n er
w al
la t
co urt
ud ad
K ings
S to
U m
el os
ra g
ĠP h
ĠP alm
un t
ber t
ĠL oren
A h
B ud
M ak
N ag
o j
w in
Ä Į
ou d
ag en
ĠF alls
uel a
rÃ© s
G h
Q ue
S z
S ur
S om
b Ã©
al co
le v
ĠM on
et to
ce p
D en
L am
en bach
or i
as e
le m
Äģ h
ĠS outh
ak a
ĠH ar
ip e
bro ok
B h
B ell
D o
K reis
M os
P on
l ov
m ond
r ia
v ar
Ä Ģ
an za
as co
ĠM a
ĠR osa
ow o
ĠE ast
Val le
bor ough
H igh
N g
P en
m i
p ec
r u
en cia
ou ss
ĠC enter
Äģ s
Ã¡ z
ton e
ĠT own
ĠR iver
oy a
Kras n
F lor
N a
S um
Ġ Ãģ
er d
er g
as ti
ou x
ĠC u
ra y
ro m
ĠA g
ab o
th al
ot t
Ä« r
Ä± n
ĠIs land
Ci udad
M az
S av
f t
w o
Ä ĵ
or sk
ĠA m
ĠA na
ach i
idal go
ĠLoren zo
B all
C at
F l
I m
L l
L uc
N Ã©
l as
v es
Å ģ
is ch
ag e
ag u
ul ui
ell es
ĠN uevo
og o
Gen eral
ĠVic ente
B our
D om
K il
N y
P u
T om
V all
V ale
it s
re m
ri ba
ĠT er
ow a
oc a
zh uang
ĠSh ah
C ent
D a
L and
M c
O b
f a
y sh
os o
ur o
ur st
am iento
um a
uk h
B ab
B ak
F rac
K om
L an
R a
T an
V en
j ido
k y
on es
ĠM ag
Ã± o
A ra
B in
K ap
N an
P i
P ark
S i
j iang
Ã ²
Å ĳ
Ġ á¸¨
at u
ro p
ĠS us
ĠR idge
co t
ter s
ev er
end a
ei ra
oun tain
E g
K l
M ill
P ier
R ock
a el
j u
p en
s z
Ġ Santa
er os
al la
or s
at s
ou m
and o
ĠF el
Bu en
cion amiento
C os
L Ã©
P om
R io
R ÃŃo
S o
T o
T la
U ni
c an
z en
ar c
ar an
id ro
ste in
ĠAr riba
Frac cionamiento
G ol
J al
K an
S he
U s
V in
b ridge
g er
o i
Å ½
en ne
il er
le ton
ad i
ĠM an
un c
au t
ong o
av er
ĠMar ia
ĠMart ÃŃn
cep ciÃ³n
G Ã¼
I t
L ar
P Ã©
T he
m ore
r at
s burg
y i
en ce
on n
on ne
ĠM ad
te a
Äģ t
ag n
ĠG re
ik ro
ond o
Mart in
A la
C ur
J in
L iv
M ass
N uevo
O k
c om
el i
el en
ing ham
ĠM e
ill os
im b
ac io
ĠO r
Gu adalupe
ĠIs idro
F ar
H an
R y
k Ã¶
l ar
l al
w ater
Ġ -
ur u
it i
ing a
ra v
Äģ j
Ch ang
ul i
ĠV ie
Ne u
hu a
Villan ueva
L i
N o
T ak
U l
Z ar
y m
z an
ch er
am an
ĠC at
re e
od a
ĠV ista
eng o
ung a
Cast ell
Kir ch
C ro
C av
C amb
D an
I nd
K ot
L ip
S or
S ou
S Ã©
S em
T el
p i
Ġ 1
en burg
ĠS ierra
ri ed
ak ro
ĠH idalgo
ie c
Bla ck
pol is
Mid d
ĠAnd rÃ©s
A u
D z
G Ã¶
P il
P res
P oz
f ort
y y
Æ °
in h
ĠC an
un e
La ur
ĠB art
av ista
ĠN orte
ik h
Vill ar
ĠSec ciÃ³n
D ub
K ok
M Ã©
M au
P ri
P ed
S ok
S int
W ang
Y ang
c as
e a
h r
l ong
p ar
Å ļ
Ġ s
it as
Ch i
ĠA ir
ĠR om
ĠN icol
qu es
ens tein
ij k
gar h
Wh ite
Ge org
Äĥne ÅŁti
ĠDom ingo
B ah
D u
E jido
M and
S en
W ind
g em
j ar
m es
n ic
n ice
ad or
ĠM at
te au
ĠS eb
et ta
ig a
ab lo
ĠO l
Bro ok
ĠEst ate
Nied er
Vale a
D or
I ta
J os
J ar
P re
T y
h ol
j an
l is
o x
o ta
r ero
s ter
un ta
ĠR ey
ĠN e
Camp o
Ver kh
Por to
A gu
B y
B os
I x
K le
L ub
M it
N am
O g
O p
P le
P it
T u
T ro
j as
s tadt
Ã ĸ
el es
Äģ pur
ac u
Al f
ĠL uis
iv tsi
Mar c
ers on
Ar g
á» ĭ
anch o
B et
B uc
E st
G b
K os
M Ã¼
M ez
S at
T ri
n ing
ar ia
er as
in os
ĠC l
ĠC am
ĠC ent
ĠP e
ĠE n
iy a
Val de
ĠZ ap
B ob
D i
I g
K y
N ovo
N ueva
O d
U p
V e
n itz
ĠC o
Ch amp
au s
ĠH u
id ad
Ã± as
ate pec
Bel le
erm e
ĠVal le
br unn
G i
M i
O n
W ater
Y an
c io
g os
h ou
j ia
p s
on z
or od
ch t
am m
le z
ĠP ol
ĠP ablo
ig o
ill on
Ch ap
ev ka
ĠLa kes
land s
ste dt
áº ¥
ĠSeb asti
C our
D ay
F al
H il
M ang
P onte
T ang
l ob
l ington
p u
s to
ar s
at on
San g
ich i
af ael
Un ter
D j
D ur
H oh
H orn
L un
P iet
T ai
T op
d an
g anj
p el
in y
al an
as an
ov skiy
ag an
ĠF lor
ent es
C orn
H ay
K as
K ab
M ap
P ur
P ul
R og
R ob
R ud
T i
T ay
c y
Æ ¡
on o
ch io
le ben
ĠC arl
ra z
ri z
ie ux
ik on
az ar
qu i
Ber g
Ãª n
Pier re
B ac
F ont
K er
L ind
M ou
O c
P ine
T ol
T im
W ald
b ara
e f
e o
k in
s heim
v or
v el
Ġ of
or ia
ou o
is a
ov en
ĠP in
sk o
Al l
ĠD on
Ä± r
Nov a
gn acio
Fran k
ĠGard ens
rog res
B ut
B ern
D ou
G erm
H om
K in
K amp
P op
R en
T en
b ek
p at
ill es
Ch ak
ie go
Mar k
eg g
St an
ci ano
Am b
we iler
Ste in
Pueb lo
Ġs ul
B Äĥ
C op
G ard
K af
L or
L ib
L itt
P ra
R em
S y
W es
d ar
u le
Ġ Sant
in skiy
on ta
or y
la h
Ã© rÃ©
re t
ov an
ia c
ra k
ĠM ate
un da
ĠA c
he ad
qu il
hu ac
iber tad
Je an
B ug
C la
D es
D um
I b
I ng
K um
M es
M un
P ie
P og
R od
S ag
S ev
S ib
e ch
g r
i ÅŁ
Ä °
Ġ y
en to
al u
ad ow
ĠP al
ill er
ÃŃ as
us e
ba jo
he m
ec a
ik i
sh i
all o
Ä± k
zy ce
Cer ro
ĠVic toria
ĠMor elos
ĠGre en
ĠVie jo
ĠCarl os
A ub
B ai
K em
T ec
Y ong
Z Ã¼
b in
i Ã¨re
m on
v ale
y o
z Ã³w
Ã ¬
or p
as i
ch ester
it u
re a
ĠM il
ĠM ont
au d
ĠA bajo
ell s
iv a
ran ca
st r
amp ton
Ä« d
qu an
li ano
ent ino
uel o
den as
ĠCr ist
Ol d
Bo is
ago za
ĠCamp os
ĠTr áº¥
B ed
B od
C z
C and
D h
F eng
H el
L en
L is
M Äĥ
M ich
Q ing
R ib
R och
W at
v in
y at
Ã ħ
Å Į
as ca
as ant
ol om
Ã© e
ĠC arm
Ã¡ t
ĠB r
ĠB ur
ag h
ĠT la
ie m
amp a
op e
Th á»ĭ
ĠZ ar
be ek
Sid i
ĠShah ri
rogres o
ĠTráº¥ n
A ur
B un
B ain
K en
M ab
M og
P ap
R iver
S ap
T in
T ap
T ong
W o
c el
e u
e ÈĻti
k Ã³w
l am
n ÃŃ
s ous
w er
Ġ ÄĲ
al le
es c
ĠC a
ĠC ap
it la
Äģ y
ĠS ab
Ch in
ĠA b
ĠA z
ir as
ti on
An n
li ff
Å« d
amb o
Ã¡r denas
ĠU ni
Wh it
ĠEst ates
ĠVer de
ĠFel ipe
ZÃ¼ rich
B is
F er
F il
H Ã¶
J am
K is
M y
M ot
P ro
P ac
P aul
T on
T ag
T our
W all
d r
f or
g in
k an
m in
m ark
n iy
n agar
p et
q iao
y uan
Å ¢
es te
ol n
ta y
it os
ay e
ĠS er
ab r
ir chen
ĠR afael
ul co
ĠG r
ah r
ĠV ale
ok o
ai re
An t
Ãº s
Es ta
Gre at
inc Ã³n
ChÃ¢ teau
ĠAg ust
B i
B ass
C re
H ad
K ad
L em
L ev
M en
M ul
P ang
R on
R ancho
T ul
b at
k ar
k ino
m el
m outh
s an
u zh
u ovo
w ald
ta i
ing e
ĠS te
ĠS ul
La c
ĠB er
ĠB en
ĠB el
ĠR ock
Al de
ell i
ĠO ak
Bar rio
For est
ĠGu adalupe
Ca Ã±
Litt le
B and
C ed
D er
K oz
L lan
P ing
R oss
T av
Z ap
j os
k el
k ovo
n ia
z on
Å Ń
er Ã³n
en heim
il o
as o
ta v
it an
ĠP et
ro d
ĠS ur
Al c
ĠG uer
ong a
ue y
ĠJ o
sh ausen
our t
ĠCh ap
Å« n
ĠAl to
ash i
ÅĤ aw
per anza
ĠCamp o
NÃ© a
Buen avista
ĠMate o
B Ã¼
E ss
G ri
N ik
P el
P ied
R ou
U st
c er
f eng
k al
n ov
n au
o is
er y
am i
de m
la ch
ad as
ra va
te m
ĠP iet
et on
ĠB on
Ch al
od i
ti er
Cas al
Ã« r
Bur g
Ã©n Ã©
Zh ong
ĠBlan ca
Ä±n ar
A f
B ig
C ot
E v
H as
M am
O x
R eg
S ak
b el
b Ã¼
i Å¡
i Äĩ
r ic
s town
u Ã©
u th
v ik
w ich
Å »
an te
or ado
es ta
ou in
ou kro
is o
ra b
ĠP az
ro w
et own
ĠB ern
ag ua
Ã³ polis
us a
um p
ers heim
Sh uang
ĠMar cos
tep e
ver de
bour ne
dal ena
ĠRos ario
D Ã©
G il
G un
K ay
K op
L inc
P ak
P lan
R i
R an
h t
h ill
h urst
v ed
w Äģ
Å ı
ar ina
il iano
de p
la g
at z
is c
ĠC Ã¡rdenas
ov ac
ov sk
Ã¡ l
Ch e
ĠR am
ĠV iew
oy o
op ol
Mon ter
se e
oss o
Bor go
ĠGi ovan
Midd le
ĠNicol Ã¡s
ĠSebasti Ã¡n
ĠGiovan ni
B us
B uch
C ass
E x
F res
G n
G ur
G ou
H erm
H art
L og
M ach
N at
N ow
O z
P av
P ut
S ay
V it
V ila
W ei
W olf
b ad
b ey
f en
g y
g on
h Äģ
Ġ a
in to
el y
is ton
ra ch
ĠM ol
te dt
un o
ri el
ig en
Ch a
Ã³ bal
Äĥ d
Ar c
amp o
ĠW iel
Col le
Vill al
Hu ang
err ato
Se ine
áº ¡
roy o
ĠPiet ro
A pp
C ou
G ul
H in
K ul
L oma
M et
N d
N ong
N eg
S ir
S us
S ong
T ou
T res
Y ar
l ang
n an
n Ã¡
r in
Ã ¦
an ka
er en
al pa
or k
am e
le a
at an
ĠC as
it sa
ĠP r
ĠP ar
Äģ nd
ĠS a
Ã³ m
and i
ain e
Äĥ c
ot s
ter a
ter n
em a
ach e
ud a
ts ville
âĢĻ -
Car r
Ã§ a
iri e
aul t
the im
ston e
ÈĽ a
Lag una
Ã¡z aro
C ad
C ra
D em
E ng
F el
G orn
H arr
J a
L ad
L ing
M us
O m
P os
R oy
S eg
T ir
V r
V ig
W ell
X ia
c s
c es
g re
i Ã¨res
l yn
p al
w s
á ¹
Ġ 2
ch es
ur n
ta u
ĠC er
ic i
ay l
ĠS e
ĠS ol
La b
om p
ĠA gua
sk ie
ĠT ep
ĠT erme
ĠG e
ah an
id en
ue z
ob o
ĠD e
Ar n
gu es
aw an
Ã§ u
ste tten
lin ton
gi ore
Lo ire
igli ano
Ni zh
Uni on
kÃ¶ y
ĠBart olom
ĠZap ata
A gua
B es
B lan
C res
C ant
D av
F e
G ab
H aw
I k
J ac
M b
S uk
V o
W ol
Y e
f er
g es
p Ã©
p ino
r ÃŃ
s or
u ÅŁ
v as
y t
z yn
an h
an es
ar u
en ton
al t
ch ia
ur ch
la c
ĠC ab
ĠP or
Ch ic
Ã³ p
ĠH aven
ĠG ar
iv e
Ã¼ k
ĠD u
Ar m
ut la
ass a
ern o
ĠO b
Val d
Cast le
Sch w
Vill am
ĠMart ino
aci enda
Bain s
ĠGuer rero
Linc oln
A ch
C le
G od
H at
H au
H ong
K un
L at
L ug
V ir
W an
h ofen
w i
z in
Ġ p
an u
er b
en za
il ia
il ton
is i
re y
Ã¡ d
La k
La p
au tla
ĠA y
av an
Äĥ t
ot te
ok ro
ach o
qu in
ev a
ĠMar ina
Ã± os
ga on
Å£ i
Ã¸ r
ĠHar bor
A j
A th
A ber
D ing
F ul
H ir
J es
J oh
K n
K Ã¶
K ob
L um
M aj
M ira
R h
R oh
V a
d ad
f o
f u
g g
g al
m it
s o
t te
z al
z el
in te
on y
or io
el t
Ã© g
Ã© gu
it en
ov skaya
ra p
ĠM ills
un i
ĠS eg
La v
ĠB or
ĠA d
th or
ĠV en
ers ville
og a
end ale
ass e
ip p
Pr ov
ĠSh ores
Bay t
eri ore
Ã¯ n
Will iam
Kaf r
ĠCrist Ã³bal
ĠZar agoza
K ang
K az
L ow
L ich
N ap
P es
P ag
P ir
S eb
V ern
W en
c ord
h Ã©
i os
i al
i ka
o to
s ide
t ar
t as
t re
u co
w itz
w ijk
z ana
Ġ c
er ne
al b
or ge
il co
as ter
ch o
ch y
le d
Ã© k
Ã© l
ĠM ountain
ĠP a
ĠP ort
ĠB a
ab ad
ain t
ĠR io
ĠR iv
Mar s
all i
ier z
eni i
ni es
ins ter
Ma ur
Con cepciÃ³n
ĠCarm en
ĠUni Ã³n
ĠAgust ÃŃn
A ri
B oy
B lo
C ul
C lay
D y
D ie
F arm
G an
G ang
G ir
H ou
J u
J ab
J uan
J iang
K im
N ord
R as
S ec
S Ã¢n
V or
X ing
f ar
k owice
m Ã¼
x ing
x tla
Ä Ĺ
in ka
il s
de z
ou se
ĠP er
Äģ z
ĠS ch
et i
Ch am
ed es
ak e
ap e
ti an
Mar ia
ÅŁ a
ers h
og orsk
az z
ĠD ol
qu er
ern ando
ug h
Br ad
Col umb
aj o
ten berg
ash ington
Nov os
ign Ã©
Tr in
ks and
ĠRe al
Rich mond
unc tion
Kle in
Germ ain
Esta ciÃ³n
erÃ³n imo
dep end
' s
B au
B ot
F rancisco
G y
H em
I v
I van
J er
K i
K ry
L et
L ob
M is
N ieu
P ok
P unta
R Ã¶
R Äģm
S ut
Y a
b le
b ank
c r
c in
d ing
f r
f ton
g ra
g ate
k am
l on
l ie
l ow
m s
s berg
u ta
u ka
v at
z ar
Ġ Åŀ
an ia
an ce
at ta
Ã© b
ad s
ĠM o
ay y
Äģ w
ĠB o
ĠB ra
ill Ã©
Ch il
ak o
Al p
ĠV ega
us ta
ĠJ erÃ³nimo
ĠN ov
ÅŁ u
Ã¼ ck
sh a
sh am
ĠD iego
st Ã¤
Ä« m
ts ch
Ã¢ nd
nd orf
ish i
ze w
Bro wn
feld en
Sil ver
ĠCon cepciÃ³n
Bour g
ĠCat arina
Jos Ã©
A Ã¯n
B ow
B oc
B ish
C ac
C og
C oc
C enter
K ing
M od
M end
M ih
N og
O v
P au
P ian
S ed
T is
V as
W arr
Z ag
b ah
c or
d y
d z
f el
j in
k on
n am
p leu
u o
u ve
y d
Ã ľ
os to
es ville
Ã© kro
Ġde i
ĠM al
ĠM ich
ĠB al
ĠB ro
om o
Ch ern
Ch ester
th am
ul o
ĠV e
ĠV all
av e
ne z
ow ns
Ġdel la
Sh ar
Sh er
ĠI I
ĠI l
iy e
ug a
ĠO c
ĠO ro
Sch Ã¶n
Qu int
ĠAl b
Ol iv
Te x
org io
ÈĽ i
Ll ano
Hoh en
Ced ar
A st
B az
C iv
D orf
E b
F ern
G all
J an
K aw
M ai
R ab
R ot
R oz
S ie
Z a
Z ac
] <
b orn
c un
k Ã©
l os
p ang
s bach
t in
t ur
t to
x and
Ã ®
Ã µ
Ã ļ
Ġ [
an as
al ia
re cht
Äģ na
ĠS ar
ĠS au
La w
ĠB ase
ig an
Ch eng
he in
ok aha
ik o
Sh el
eg u
Ar d
est re
hu i
ĠLa g
ff en
ng eles
und o
á¸ ĳ
ign an
Mer c
ald o
ĠU n
Pl ou
Cl ar
Ã´ ne
Pas o
Ã¤r vi
Georg es
Up per
Æ¡ n
A w
B ran
C ard
H y
H en
H um
H az
H uan
I gnacio
J i
J o
L ud
L uk
M ountain
P y
P ay
P Äģ
P ob
P amp
R av
R um
R ev
S on
S ing
S ig
S ey
S amb
T et
T ot
T ub
W y
W ester
b es
h ai
m ers
o e
r um
s ar
v ill
v ern
w eg
an os
an ca
er ville
el u
ch an
ch ang
ou la
ol m
is to
it Ã¡n
ov ci
te ÅŁti
ĠP rogreso
ĠB uen
ĠR a
ĠR ita
ul u
ba o
ĠL ibertad
ĠN eg
ers burg
og ne
Ä« l
ich e
Ã¢ l
our a
Bar ra
Gu Ã©
ha o
New port
ign ac
Kir k
Bag n
ĠGi orgio
Vic toria
Sto ck
ĠFlor es
Frank lin
ĠBra vo
B uk
B ridge
C au
C Äĥ
C ond
D ev
E k
G uan
H on
H ill
H av
H err
H ills
I ll
K el
K ro
L om
L Ã¼
L oc
N u
N ak
P em
R ay
R ac
S os
S ad
S ob
T ian
T anj
U d
V ad
W it
Y ou
Z av
Z hu
b io
d in
e ville
f e
l ano
m or
m ad
n et
p am
p le
r Ã¡
z z
Å º
È ĺ
en as
al Ã¡
at ion
ou an
Ã© lÃ©
is ar
ĠM er
ĠP ueb
un s
Äģ ri
Äģ á¸©
ri gh
ĠB ou
ig lio
ag na
ag ui
ĠA t
ĠA le
Ã³ ri
ab el
ĠR od
ĠG ab
us z
ĠJ oh
ok h
ÅŁ i
Sh ang
Sh ah
ard s
Mon ta
burg h
Vill as
erm osa
Ãº n
Es c
Cas as
Se a
ste ad
bor g
Ben ito
ene uve
Em iliano
Ã¶n ig
Ang elo
nik i
tag ne
igli one
ĠLuc as
ack son
Roc ca
wal de
Cent ral
Æ° á»
A ug
B ia
B ok
B oh
B oz
B eth
C ord
H ur
H ud
H acienda
J ing
K ong
M ain
M ant
M oh
N au
N icol
O ur
P ara
R at
R ub
S w
S ac
S Äĥ
S ung
T amb
V an
Y un
c ast
d ong
f al
k u
m at
m ere
p as
w is
y ne
Å Ī
Ġ i
os e
ar ra
en k
en y
en ka
on da
el ia
as c
am or
le ur
le igh
ou b
Ã© v
ĠC om
ĠC orn
ad os
ra ce
ĠP ra
ĠP uerto
Äģ la
ĠB ran
ag le
om e
Ch ich
ĠA gu
Ġd os
ĠT ri
ĠH a
ĠR anch
Al ber
av i
av ese
ĠL ar
Mar ina
ĠN a
ĠN ou
ĠN ueva
ĠF u
illa c
sh ui
az a
Ar royo
Ä« s
qu it
Ne us
ek e
Ã¢ m
ung an
Br and
iz e
aj a
Th orn
Val ley
Ã¤ s
Vill eneuve
Bel la
Mont ic
Nov i
Äį e
Ã©n ou
áº ĸ
ist r
Ro th
ons o
Castel n
ĠEs peranza
war z
Dr Äĥ
Dol nÃŃ
Ale xand
olf o
ÃŃs o
ĠPalm a
High land
A tt
B eni
C ub
C linton
F a
F i
F in
F ra
K ra
K od
K Ã¼
L ov
L ie
L amb
M eng
P ic
R et
R us
R ec
R Ã¼
R incÃ³n
S op
T ok
V y
W er
W ai
b ol
b ia
b eck
g or
g at
h n
l ik
n io
p Ä±nar
s ay
t eni
w u
z ec
in ce
en ay
al tepec
el ey
il ar
de c
la u
la ke
Ã© ri
ta k
ĠC ove
ov skoye
ay or
ĠS aint
ton g
im e
im an
Ch el
ab al
ÃŃ r
th ur
ĠT om
ĠH und
Al ten
ĠF e
ik ha
Ã¶ s
st al
ud i
ass i
ip a
ĠO ne
berg en
ĠW ood
Th a
Cast ro
ĠAl ta
Man s
ij a
ĠJos e
Bal d
ns dorf
cu aro
ÅĻ ÃŃ
ĠMart in
ros e
Äĥne ÈĻti
ĠRo que
Fu ente
ĠIn f
ĠFor ce
ĠMad ero
ĠCl ara
ĠCent ro
onta ine
Pie ve
ĠHund red
C el
C ob
D os
D id
F ri
G and
G em
H un
H ard
H unt
J as
J ackson
K ah
L al
L uz
L iber
M ut
M iss
O le
R Äĥ
S ov
S ton
S Ã¼
S oc
T ah
U g
U ng
V is
W el
W ay
Y el
Y ak
g el
g ang
g au
h or
h all
i qu
n on
n ach
o o
p or
q i
s y
s ta
u it
v ador
y ev
os ter
ar am
en de
al s
al ina
il d
il h
es to
ch in
la do
ta c
ĠC ourt
ia g
ĠP rim
Ã¡ m
ĠS ee
ĠB an
Ch arl
ac e
to k
ĠT ec
Al to
co tt
ÅŁ Ä±
Ar t
uc i
St ra
ord o
ier a
iz z
Villa f
uel as
âĢĺ <
que z
uer ta
Ã« vo
áº Ń
Pet it
Cl ark
Ã´ ng
ĠLe on
ĠLe ft
ĠSte f
Tanj ung
B ard
C e
C ov
C ir
C um
C ran
C ort
D in
D ig
D ag
F ay
F oss
G os
G old
I d
J ul
K ut
L it
L ok
L ut
L Ã¡zaro
N ing
N ot
O ri
P oc
P rim
R es
R ap
S ub
T at
V es
W or
W ashington
i at
k aha
o te
o ara
s u
v et
v Ã¡r
w ice
x co
z ell
Ã ¹
Ġ Åļ
ar h
on k
al am
ch ing
ou k
ol es
ol les
is k
is han
ov i
ov ec
ra in
ĠM el
ĠM ill
ĠP aul
Äģ q
ag no
Ch at
Ch ev
ĠH or
ap ur
ĠG arc
he vo
ot to
ĠJ unction
Mar ie
Mar ne
az zo
op p
ass ou
res s
Ä± z
hu aca
ff erson
Qu in
Å¡ t
se a
ÅĤ Ã³w
uch eng
Pr os
Per v
Con cord
ĠAn t
ns ter
Re ich
ole dad
Po iana
ÅĻ ice
lu ff
Ko ta
Villan ova
Sm ith
ĠBlan co
Pueb la
Kings ton
Ple asant
ouin Ã©
Ã³m ez
C is
D ul
D ah
E ber
F ried
H all
H of
J ia
K p
K it
K ak
L us
L omas
M eg
N er
N es
N ab
N ev
P ou
R and
S tep
T un
T ig
T ac
T ob
T rÃ©
T af
T err
V id
b os
b as
f j
f ran
g as
h en
h el
i ÈĻ
j al
l v
l ice
n ano
r z
t u
t le
v re
x iang
Ä ©
Å ĵ
Ġ e
an cia
en ta
al k
el n
il es
ch ard
ch uan
de ÅŁti
ol s
ad ia
ov oye
ĠM az
ic ola
ĠP an
ĠP ed
Äģ ra
ri que
La u
ĠB os
ĠB as
ĠB ridge
Ch ip
ĠA s
Ã³ d
Ã³ ra
ed ale
ak an
ĠG h
ĠG ran
ĠV el
id i
ĠL u
ĠL ig
ter o
ĠJ es
em b
ĠF er
ĠF ernando
Ã¶ y
Sh i
st en
Ã¡n y
qu ÃŃn
op a
ĠE nd
ĠE ste
ip ur
ĠI x
ce a
ny a
Gu ar
ei ro
igh t
Bel mont
ĠAl m
Ã§ Ã£o
uch i
New ton
arr os
á» Ļ
áº £
áº §
tt el
Pe Ã±
Lang en
Kras nyy
Mad ison
Äĥr Äĥ
ven ir
ĠTr in
ĠLuc ÃŃa
Char les
Um m
Den is
its y
ĠChap elle
Nieu w
ĠGab riel
B om
B ec
B oul
B ever
C ont
D im
D ab
G am
G ag
G amb
I ss
K av
K ib
L yn
M iguel
M Ã©d
N as
N ie
O y
O ce
O jo
P f
P ia
P un
R Äģj
S lob
T ek
T roy
T ierra
U z
V ie
W u
W ies
X och
Y en
Y ork
c ol
f els
f orte
k ins
l ou
r ub
t ang
v ers
Ġ 3
er ton
in da
in skoye
on de
on ville
al ta
de a
at la
ĠM u
ĠM ur
ĠM ayo
ĠP ot
ro de
Äģ f
Äģ k
Ch au
Ã³ j
th er
ak ovo
ĠT ra
ĠH all
ul an
ĠG or
ĠG Ã³r
id s
us co
av ia
co te
um e
ĠL im
El l
El m
Äĥ n
ĠJ ac
Mar se
Mar kt
ok i
ĠF arm
ers t
ran a
Sh a
eg o
st orf
Ã¡n d
uc an
ĠK al
ens ee
uk i
uk u
Mon s
ff i
Ã¤ n
och e
ash t
ĠCr oss
Ol m
á» ĵ
Con st
Bro ad
ush i
bro ek
gn ano
Bri gh
kir ch
ough ton
Fair view
ĠTor re
ĠTor res
Roc c
ĠCan avese
Laur ent
ĠAir es
Wind sor
ĠAc res
ĠOak s
ĠJo Ã£o
Blo om
Bish op
Hud son
B ill
B ord
C in
C ay
C od
C az
C li
C uc
D ia
D ra
D iv
D iet
E agle
F err
G as
G la
H od
H ow
J ag
K Ã¡
K ai
K ara
K ost
K Ã¶nig
L eg
M ok
M Ã¶
N ur
N ang
N ed
N az
O w
O ss
O ver
P aw
P ant
P ry
P ira
R ak
R ok
R ip
R iz
S l
S it
S Ã¶
S ud
S uc
T au
T iÃ©
W ad
X i
Z e
Z u
Z w
b re
c liff
f errato
h al
h of
j Ã³n
k ent
l Äħ
n ell
r ada
t os
u gu
z u
Ì ±
Ġ on
ar g
in j
en nes
en ango
al y
al to
al apa
ch or
ch el
ur g
at Ã¡n
Ã© t
Ã© li
ĠM ir
ĠP as
ang u
ay d
Äģ v
Äģ ng
Ã¡ k
ĠS am
ĠB Ã¡r
ag giore
ab eth
ab amba
th a
ĠT ir
Al d
Al co
Al ba
ĠV ern
us han
ie ÈĻti
ti p
ĠL uz
Äĥ m
ot itlÃ¡n
ran za
Sh Äģh
ĠD owns
qu a
ts ia
ĠE m
ĠI gnacio
Ã¢ mp
ug an
Ã± ez
ĠCh ico
ĠW an
ine ÅŁti
ant es
ez zo
Col l
ep h
Am p
Vill ers
och a
Pr inc
Cor on
Es p
Ma e
Ad da
ron tera
Cer v
Is le
Is ola
In depend
Ã¡s z
ÄŁ Ä±
ĠSpr ing
Os ter
Ser ra
ĠQ ue
Bl ue
bour g
Will ow
Lou is
ĠIn n
ĠGard en
Beau mont
ĠTer esa
ĠBart olo
Day r
Wei ÃŁ
ĠWiel k
ĠBartolom Ã©
Casteln uovo
ĠStef ano
A ir
B ey
B ond
B Äĥl
B oca
C aj
C Äĥl
D ec
E le
F ur
G ad
H ig
H ue
H och
H oll
J un
K and
L eng
L amp
L op
L up
M ing
M ong
M ug
P aj
S ah
S err
S tadt
T uc
T ib
T Ã¢r
V l
W end
X iang
Y am
b s
b ell
d ington
f ug
f ingen
h agen
i á»
j ev
n aya
o ka
q ing
s er
u to
v ka
w ard
Ã »
Ġ na
Ġ ash
Ġ the
os ta
ar ta
er on
in z
in ha
al da
el bach
il an
am s
la k
le asant
at al
is y
ad y
ad ero
ad ougou
re to
ĠP at
ĠP leasant
Äģ g
Äģ sh
ĠS Æ¡n
ĠB u
ag ne
om ay
Ch ir
au ht
ÃŃ k
ĠT re
ĠH am
ĠR u
ĠG en
av ier
co la
co tepec
ba ÅŁÄ±
um ba
ĠL oma
ĠL lano
Äĥ s
Äĥ Å£
oy ang
ĠN ova
Ã¼ l
ach a
az i
all es
eg em
Ä« t
ud o
ts y
ent in
ent al
ut t
ib o
ens e
ny aya
Gu ay
ung en
ff ord
iz abeth
ond on
ten bach
les s
Gr os
Or ange
ÅĤ a
Sal em
rov ka
iss a
ess a
els heim
els dorf
Bay an
Ãī ti
Pla in
Ham ilton
Ed ge
Fu entes
riv ka
ĠCast illo
Spring field
ĠMon ferrato
Ind ian
Lun ca
Ã¬ nh
Jes Ãºs
fel de
ĠLag una
ĠPra irie
Not re
ĠGarc ÃŃa
ĠLig ure
Marse ille
ĠBÃ¡r bara
B ov
B ei
B uck
C im
C ern
D oug
E t
F our
F orn
F ranc
G av
G iv
G ood
H ag
J ust
K w
L Ã¶
L anc
L ibertad
M ey
P and
P ec
P ly
P edro
Q ar
R ov
R ic
R im
R ey
R ied
S amp
S ek
S aw
S ierra
V ent
V inc
V ega
Z o
Z ab
a q
c illo
c zy
c ingo
f an
g om
h aven
i Ã±o
j on
l ant
l itz
m as
r zy
t ic
v is
y b
Ġ ob
an ne
er k
al ong
or Ã©
il ing
ur eni
ol t
ol le
ĠC ro
ad io
ov Ã¡
ĠM ain
ĠM esa
te ÈĻti
ĠP lan
ĠP ied
Äģ li
ĠS il
ĠS up
ri ano
ig i
om ba
Ch and
ac Ã¡n
ab e
sk irchen
ĠT s
ul t
ul la
ĠG reg
ĠV ill
id encia
ĠL ong
ot z
ĠJ oa
em ont
Mar ch
ĠN or
Ã¶ ren
Ã¼ hl
Sh im
ard i
ĠK n
ĠK han
Ne uk
iy ang
up a
ens burg
Bar b
Å« l
oz o
Cast iglione
ind i
ola y
ĠSan to
Ã§ ay
ien te
Äį a
len de
Kar l
Me adow
iri m
Pal o
Zh ang
Ros e
itt el
Cr uz
Mag dalena
Ãª t
yan ka
Fair field
mo or
Je fferson
aci Ã³n
Sau ve
ĠPla ins
Ale ksand
ĠCar ranza
ĠFor est
ĠÃģ ngeles
ĠMe adow
ĠRey es
MÃ¼ hl
Jam es
ĠBen ito
bÃ¼ ttel
Roh r
ĠBro ok
Montic ello
ĠÅļ lÄħ
fug io
A x
A hu
A yn
B it
B ark
B uz
B amb
C s
C ong
C ow
C och
D over
D rag
E as
E den
G el
G at
G ib
G ura
H eng
H op
K la
K ast
K all
L ig
L ian
M oz
R is
R aj
R uss
S as
S ot
S af
T od
T ran
T all
T lal
U la
V ik
V ien
W ah
Z am
Z ell
b Ã¡
c ro
g ow
g li
h um
j Ã¤rvi
k reis
m u
m ed
m inster
n ac
r s
s el
u te
w ah
w ala
w iller
x ton
x ington
z io
z za
z zo
Ä ĳ
an Ã³w
ar al
ar Ã©
ar re
ar ro
in en
il io
ch Åį
am es
ou y
ou nd
Ã© z
ĠC arr
ad illa
it al
ĠM es
ĠM ic
ic an
ĠP ia
ay n
ay r
un gu
Ã¡ za
ĠS p
ri es
et la
ĠB end
ĠB uri
ig nies
ton a
ag lia
im as
Ch or
Ch im
Ġd u
to g
to p
ĠT a
ĠH ol
ĠR ap
Al g
ĠV od
ĠV ito
id d
id el
us ti
co b
El izabeth
he ide
iv ers
Mar sh
ĠN ar
ĠN eck
ik ou
ĠD ÃŃ
Ä« sh
qu ar
qu illa
qu era
ts ya
St ary
ĠI r
ĠO ber
ens tadt
ĠCh ar
Car men
ez i
Col d
ero de
erm o
erm an
pur a
ash en
ari ta
oss a
Nov yy
uy o
Me x
ount ry
ĠIs abel
Mil ton
Mil ford
ĠSal vador
Ph il
ÄĻ b
ĠEs c
Bri e
ets u
ChÃ¢ t
ĠRe fugio
Win ter
Ã©m oc
Dam e
Pu ente
Gol den
ĠMan or
agn ano
ĠRom ano
Georg etown
onz Ã¡
sto ck
Horn ÃŃ
Æ¡ ng
Wes ton
Pog gio
ĠPor venir
Ã³p ez
ĠDu ero
thor pe
Ã¢nd ia
ĠAle gre
áºŃ n
Oce an
ĠVern on
auht Ã©moc
Sauve ur
A re
A ÅŁ
A ran
A br
A kh
B aj
B ij
C all
C err
D re
D od
D eb
E p
E is
G ong
G az
G oh
H end
H eb
H ampton
I sh
J on
K es
K re
K ush
L j
L ys
M ik
M ud
M orn
M und
M ata
O ch
O ff
P is
P enn
R ath
S ass
S lav
T il
Y ing
Y urt
Z or
Z ou
Z elen
c l
d ere
f urt
f ors
h er
l ic
l Ã¡
n Ã©
r b
r ug
r illo
w en
y p
y ar
z es
z cz
Ã °
os hi
an an
an illa
ar as
ar olo
en al
en au
en sk
on an
al ang
al pan
or u
el aria
il y
le wood
is ter
is bury
ĠC he
ĠC err
re ws
te g
ĠP od
ĠP ob
ĠP ara
ro t
Äģ gh
ĠS u
ĠS im
ĠB at
ag i
om bo
Ch av
Ch amb
ĠA v
Ġd as
ab ro
ir os
ĠT ur
ĠR incÃ³n
ul in
ĠG al
ĠV it
ti k
co p
ka z
ka wa
ber ry
ĠL o
El k
ot la
ĠJ u
ĠJ ad
em e
Mar g
ĠN u
ĠF ort
ers bach
og or
ik e
eng a
ob od
Sh en
Ar b
Ar z
ard a
est r
ev e
ale jo
zh i
ĠI nd
Ã¢ u
ug g
Å« s
Car bon
ÈĻ i
Qu ar
Qu er
yn tsi
erm ont
int la
Sal v
Mor ris
Hu ai
Cal d
Bu ena
ign on
be u
son ville
Ma x
Tr z
Ab b
ix tla
Co al
De er
He il
ank ro
Pet rov
Cr oss
And rÃ©
Ãī v
Po int
Cam ar
Gra b
En c
Min es
akh on
ChÃ¢ tel
ĠSt ation
ĠCol orado
Tep e
Sul z
Do ÄŁ
ĠTer race
ĠMag dalena
Cos ta
Uni Ã³n
Æ° Æ¡ng
Sok ol
hol m
Verkh niy
Hil aire
Tay lor
ĠDon au
Kamp ung
huac Ã¡n
Bed ford
ĠCa Ã±
CaÃ± ada
Harr is
Roy al
Nizh niy
ĠOb reg
Sut ton
ĠOc ampo
Sung ai
cast le
Ä±z Ä±
Perv omay
ĠEste ban
Ãīti enne
ĠSup eriore
ĠGreg orio
ĠDÃŃ az
onzÃ¡ lez
A ta
A qu
A Å£
B j
B Ã¶
B orn
B att
B lÃ©
C es
C ut
D Ã¼
D aw
E ure
F ou
F ol
F ig
F ir
G om
G ond
H im
H ab
H aj
I p
K ri
K ens
K oh
K ond
L ay
M oy
M Ã¼n
N ou
N em
N oy
O ula
O tt
P rÃ©
P rogreso
R au
R id
S ter
S ai
S ep
S uch
S aul
S yl
T ie
T um
T ip
T up
T ung
V ed
V iv
V end
V ista
V ys
Z al
b ec
c en
c at
c zyce
d am
d ingen
g ol
h on
h out
i Ã¡
i Äį
j Ã¶
k ow
k ivtsi
l og
l Ã¼
n ay
r el
r ington
t es
t ou
t itlÃ¡n
v y
w ies
z ac
an ta
ar Ã¡
in ville
in ci
in ovo
in ho
ch amp
ch ez
ur en
am on
de k
de o
la va
le e
at rava
ol ÃŃ
Ã© ny
ta ch
ad z
it on
it ang
re ville
ĠM as
ĠM ac
ic u
ĠP u
ĠP rov
un k
Ã¡ ri
ĠS c
ĠS el
ĠS ic
ĠS op
La go
ĠB re
ig no
ag li
im p
sk Ã¡
ĠH el
ĠH ad
ĠH err
ĠR em
ap est
ie ÅĦ
ĠL od
Äĥ ÅŁ
ot en
ot lÃ¡n
iv an
Mar y
Mar ion
ĠF re
ĠF rontera
sh ofen
Sh u
az h
li er
ent re
ich eng
gu i
zh a
Ne uf
Le on
Le xington
ug o
our g
ĠO s
ens ch
Ã± Ã³n
ĠCh ai
Bar n
ni ta
ond ale
ei x
ten co
ten ango
lo ch
Sch Ã¶
Sch warz
och Ã³ri
Bel lev
Mont es
Man chester
Äģn Ä«
Sal t
Sal isbury
Nov op
ins ville
Kh ar
Ã« l
á» ĳ
Per ry
ĠY a
ath er
áº ķ
any on
Ãł nh
org en
cal o
cal Ã¡
Vel y
gi os
Em p
ĠLe Ã³n
Wil d
ker ke
Green ville
iam i
ChÃ¢ tea
amar ca
Fre der
Dol ores
igu era
Vic tor
Med ina
Ku ala
Bud apest
Som ers
ĠHar bour
Buen os
ĠNe w
Aub in
dr Ã³j
Åı n
Åı ng
Ġp ri
Low er
stÃ¤ dt
Æ°á» Ŀ
Neus tadt
Liber ty
ĠTrin idad
ĠObreg Ã³n
A to
A ud
A ff
B ach
B ek
B ib
B ung
B rid
B uss
C en
C oy
C ib
C ep
C rÃ©
D au
D ian
D iam
E ch
E ich
E ver
G w
G ed
G um
G ud
G our
G rim
H ul
H ob
H Ã¤
J im
J ard
J ian
J ones
K ill
K au
L on
L ic
L ed
L od
L oz
L och
L iang
L ans
M ec
M iy
M Äĥr
M yr
N ad
O ran
O ud
O ost
O pp
P ast
P ass
R Ã©
R ia
R Äģ
R ie
R ong
R ep
R Ã©m
S oy
S ug
S up
S ever
T ic
T Ã¡
T oc
T arn
V lad
W as
W ag
Y u
Z ak
Z ah
b ri
b au
b ak
d s
d orp
g l
g uez
j ak
k ot
k ern
l je
m al
n ou
n is
o co
r er
v ey
w y
w ig
y ch
y ye
Ì §
Ġ 0
Ġ as
Ġ ker
an to
an ica
an ova
ar de
in ese
or al
il in
ur s
de g
le b
le in
le ÅŁti
San ti
ol tepec
Ã© a
is po
ta h
re ÅŁti
ra j
ra u
ĠM ed
te tten
ĠP ier
un as
ro e
Ã¡ c
ĠS i
ri Ã¨res
ĠB arr
ĠB luff
ig ne
Ch ac
Ch ris
au li
ac an
ac ion
ir ano
and u
ed on
th en
od sk
ĠH ab
ĠH ermosa
ĠR oc
ĠR ich
ĠG all
id ian
ie ch
av ent
ber ton
El d
he v
ell en
Äĥ ÈĻ
iv o
ĠJ al
ec chio
oy an
Mar m
ĠF i
og na
Ã¼ let
sh ahr
oc tor
az u
ĠD a
ĠD am
eg as
amp ur
An tonio
li p
end o
end en
end on
ĠK a
St ara
gu Ã©
zh ausen
up o
ier i
ĠO z
Ä± ÅŁ
ant la
ez zano
ÈĻ u
ni Ã¨res
orn o
Val verde
Or ta
Å¡ ov
Å¡ ice
Å¡ Äĩ
Pr zy
Nov aya
ĠVal d
br ada
Cor ral
Cas a
Se e
ĠHe ad
ĠHe ath
Ab Å«
ist ol
anj e
inc on
ĠU no
ust in
kt y
ho e
ren ce
For Ãªt
Ac qu
Str at
iber a
Ã¥ s
Bra y
Sab ana
Rom an
ĠEl ena
Cher ry
Ram s
Riv ers
Que ens
Camb ridge
Au burn
Åļ w
hou se
Font an
bek e
Gard en
Mich el
Aur ora
ĠAz ul
for ma
ĠGr and
Band ar
ĠBern ardo
Cle ar
Ġc ity
Villaf ranca
Cli fton
KÃ¡ to
ChÃ¢t illon
Ġker Ã¼let
A in
A sk
B am
B ic
B id
B ast
B ara
B ath
B anj
B Ã¢r
B isch
C it
C ic
C Ã¡
C ue
C ai
C lev
D ed
D ib
E y
F o
F all
F uen
F ox
F leur
G us
G ord
H ain
H us
H Ã¼
H ope
I w
K och
K ash
M ano
M em
M ala
M ind
M oss
M ath
M ess
M ikh
N oc
O re
O nd
P io
P all
P uch
P uy
P riv
P fa
Q al
R ing
R ain
S n
S ik
S ard
S our
S ala
S ind
S und
S wan
T z
T ing
T ern
T Ã¢n
V os
V au
V ieux
W au
W ed
W ul
W ass
Y al
Y ur
a ÅŁ
b l
b ang
b od
b ello
c Ã©
c ov
c ell
c eni
h at
h len
h ren
h oven
i eni
j ing
k ur
k op
k ala
l oh
l ovka
m un
m ah
n ie
n Ã¤s
p oli
r us
r up
r ovo
t am
t ta
u de
v on
v eld
w ol
y on
z ent
Å ¥
an co
ar na
in n
en c
en ica
en skoye
al c
al at
el in
as u
es i
es o
es burg
ch au
ch urch
ur an
de f
ol la
ol ina
is se
ta ge
ĠC ad
ad r
it ou
ĠM ay
te k
ic ino
ĠP ic
un go
ĠS ac
ĠS tr
ĠS elo
ri k
La f
ĠB ri
ig e
ag lio
im i
im ar
Ch ong
Ch urch
ĠA ng
ab l
ab u
ÃŃ z
ĠT in
Al Ä«
ap o
ap leu
ĠG len
ĠG Ã³mez
ĠG onzÃ¡lez
id an
us i
ong an
ba i
ka w
ber to
ber land
ue Ã±a
um i
ĠL Ã³pez
ĠJ avier
Mar i
ĠN at
ĠN oi
ok e
ĠF r
ers ch
sh eng
Sh ir
ĠD el
eg h
Ar s
qu ÃŃ
qu illo
ev skaya
ts a
ich y
St or
St re
zh ai
ub an
ord a
Ne uh
ĠI on
Ã¨ ne
aw r
ca de
up on
ens tedt
Mon d
Br us
hu ang
hu et
Col omb
ff a
ni Å£a
iz en
aj i
oz ia
Th ree
Val encia
uel os
yn ivka
Bel m
ĠAl lende
Ã³w ka
ÅĤ o
Ã§ o
New town
br onn
Cal v
ings ton
Es peranza
ign es
Ã« z
Tor res
ish t
Ad el
Ad am
ÈĻti i
áº ¯
ess o
che id
Ã¡r amo
ĠSh ar
Ãģ gios
Cab ez
Av on
Cam den
Alb any
Hol ly
Str ath
Un ivers
Green field
Green wood
Ash land
Åł t
ĠCal atrava
Fu ent
Sta v
Sand y
ĠLuc ia
ĠTor inese
Riv iÃ¨re
ĠPalm as
atu ba
aut ista
com be
Kirch berg
GÃ¶ k
une uf
Laur el
ÅŃ p
Ox ford
rÃŃ guez
Warr en
ĠMich ele
Law rence
ĠPueb lo
ĠInf eriore
Jul ien
lv aro
Ä© nh
Brigh ton
Vinc ent
ĠRap ids
ĠVod Äĥ
ĠSop ra
Bellev ue
ChÃ¢tea uneuf
B av
B eg
B res
B ens
B iel
C ala
C ry
C omb
D ad
D ro
D iÃ©
F on
F un
F uk
F ren
F Ã¼r
F ontaine
G on
G ob
G rande
G Ã¶l
H os
H ov
H ey
J h
K ov
K ud
K end
K ey
K up
K eb
L ur
L oh
M Äģ
M ell
M oc
M af
M ouss
N el
N et
N and
N ob
P am
P ow
P ey
P ola
P ost
P oll
R un
R aw
S is
S cot
T Ã¶
T ort
T ux
U k
V Ã©
V and
W i
W ak
W he
W ins
W ick
X ian
Y uan
Z ha
c za
e j
f ax
g rad
h ue
j ah
k ol
k Ã¡
k iv
k owo
l ivka
m ur
m ing
m Ã¡n
m art
n ar
n in
n el
p io
r ing
s p
s et
u Å¡
v ens
w el
w all
x ia
y g
y Äģ
y ana
y evo
z heim
z ada
z owice
Ġ Ã
os lav
er es
in et
en ci
en feld
on na
al ay
al ac
el ez
ch nyy
de en
la in
at or
at Ã¡
at itlÃ¡n
ou kou
ou fla
ol ino
ol lo
ta b
it ch
re u
re do
Ġde gli
ia i
ĠM anz
ĠM inas
ĠP ines
ang el
un fo
Ã¡ ki
ĠS oledad
ĠS calo
ri ÅŁ
et sk
La z
La kes
om an
Ch r
Ch u
ĠA p
ak aha
ĠT am
ĠT lal
ĠH igh
ul es
ĠG ia
ĠV es
ie k
ĠL as
ĠL omas
ell ina
Mar l
ĠN av
ĠN ine
ĠN iÃ±o
ow ie
ĠF ar
ÅŁ ani
ÅŁ eh
eng e
Sh al
Sh il
az zano
all as
ĠD os
ĠD un
st ra
Ar ch
ard ino
qu ia
qu im
An ne
Ne uen
ĠE r
ĠI m
Ã¨ ze
Mon aster
ĠCh im
ian i
Å« b
ĠW al
Gu ang
Br Äĥ
ez z
ĠLa b
ĠLa go
aj u
Th or
Th ur
Villa ge
Cast elle
lo o
ep p
ham a
Qu áºŃn
erm a
Ber ez
Be aver
Pr ad
Mal ab
Hu ay
Bu ff
Bur n
Par ad
ula g
ĠY ar
Kar ak
Con s
ze wo
De h
Äģr Ä«
Bro d
As p
As ti
Can ton
oul Ã©
ure ba
org es
We il
zi one
Kam en
Pla ge
Ph Ãº
Ã¶r th
Don ji
Sa Ã´ne
reg al
mb re
Oak land
Alt am
Mu ara
igu es
out ou
Ny ÃŃr
Pres id
Pit ts
ĠCam eros
Belle ville
Map le
Roch e
ĠPet er
Log an
Villal ba
ĠGe orge
Ye ÅŁ
Ġp od
Joh ns
Clay ton
Columb us
Ãµ es
Nicol Ã¡s
ĠBran ch
Alexand ria
ĠWood s
Fay ette
á»Ļ c
ĠJac into
Coron el
ĠMeadow s
Æ°á»Ŀ ng
kty abr
A ig
A gh
B ub
B ier
B ian
B ez
B Äģn
B ess
C io
C ity
C ountry
D as
D at
D ach
D ud
D ax
D Ã¼r
D octor
E nd
E pp
F la
F av
G in
G au
G und
G Ã¢r
H es
H Ã©
H ai
I I
J or
J ur
J at
J aw
K oc
K ass
K uk
K uz
K uy
K enn
K far
L our
L ock
M uk
M alm
M uang
M yk
N ic
N Äģ
N amb
O ro
O ne
O ng
P im
P ai
P end
P iano
Q ian
R ang
R ag
R az
R idge
S la
S oh
S ÅĤ
S tone
T os
T ch
T amp
T uz
T orn
U b
U t
V og
V iz
V oz
V Ã¢n
W att
W aver
Y i
Y as
Z im
Z em
Z drÃ³j
a de
b ing
c one
c edo
e x
e te
e ir
f il
f ing
f ang
f onte
g rove
h in
h as
h orn
i i
j en
k ivka
k ovice
l j
l od
m ern
n oy
n ut
p t
p ac
p ed
p ice
r ano
r Ä«
r est
s tad
t Ã©
v ie
w on
w est
x ian
y am
y Ã¼k
z Ã©
z Ã¼
z eg
Ã Ħ
Ä ª
Å ¯
Ġ Å¢
Ġ upon
os i
os ki
an b
ar ak
ar ai
ar ele
er v
er berg
in an
en hausen
en thal
al Ã©
al Ä±
or st
or ada
el ec
il or
as ta
es heim
am in
de t
de y
la ir
la wn
at y
at ur
at ti
at ico
is te
is heim
is sen
ad an
ad ing
it Ã©
re ÈĻti
re uth
ov ille
ov ica
ing dale
ra i
ĠM un
ĠM ai
te z
ic z
ĠP ad
ĠP ass
Ã¡ ch
ri go
et er
ĠB ah
ĠB ren
ĠB ureba
ig ui
om be
im ba
Ch it
Ã³ l
to la
ir ia
and ra
and ro
ak ou
ĠT en
ĠT op
od oro
ĠH ouse
ĠR eg
ĠR ibera
Al am
ap i
ĠG har
ĠV ol
us to
io la
av illa
ti v
co y
ba j
ber ts
ĠL am
ĠL om
ĠL omb
ĠL ima
Äĥ ra
Äĥ ÈĽ
ĠJ ar
ĠJ ul
ĠJ oya
Mar e
Mar iano
ĠN ord
ast ro
ow iec
Ġdel le
Sh an
Sh ib
Ar lington
ard en
qu is
qu ip
An na
ev iew
ale y
gu t
zh an
zh ong
ut u
ĠE d
Ã¨ ve
Le ban
Le wis
Ã¢ ne
ier re
ĠO cot
Mon tag
ĠCh Ã¢u
Bar g
Å« m
Br as
Br ou
Br ent
ry n
Th al
Cast ello
ep ec
Qu inc
Ã¤ ng
ind o
Gr am
och eng
Or t
ash an
ĠSan g
New castle
ck en
pr Ã¼
und u
ins on
br Ã¼ck
ita ge
Es ch
Bur ton
Bo j
Bo x
Par is
ste d
ÃŁ en
Bor g
are jo
Monte c
Re h
Mo os
Ro i
ies a
Bre iten
Bre tagne
Is la
Kal in
Ros ario
Cr os
rac ia
ho o
Pl um
ole do
Ã¸ d
For m
Vel ika
Vel kÃ©
Ãª s
Gra y
Pla ya
ett ingen
Com p
Ãĩ ay
Mid way
nik ovo
ĠTh ong
Äħ b
Torre c
Mu Ã±
Vic ente
ĠCast le
ĠCast ello
ĠPla ce
ĠTe j
Ho og
Sun ny
val le
rie ux
ÃŃs ima
ĠPalm ar
Ball y
ĠMag giore
Eg g
Pom p
ĠMan uel
com o
lal pan
Neu ville
No ord
Poz o
Brook lyn
Mit ter
ĠCent ral
Lind en
ĠMont es
ved ere
wÄģ ra
Fres no
ĠWiel ka
Carr oll
Aber deen
Ġc entre
Maur ice
Äģz Äģr
Columb ia
cr est
Tis z
Ek iti
righ t
ĠRod rÃŃguez
ĠJoh n
ĠPrim ero
uci Ã³n
Riz al
Princ eton
ĠWielk ie
usti ano
ĠPara ÃŃso
Kens ington
avent ura
Univers ity
ÅŁeh ir
Leban on
A ul
B le
B ong
B ent
B any
B oll
C et
C ost
D ang
D ak
D ap
D Ã¶
D amp
D und
E arl
E aton
F eld
F ate
F ish
F uj
G es
G Äĥ
G ut
H ot
H oy
I ch
K et
K ag
K us
K ell
K ent
K ip
K ham
K han
K Äģl
K Ä±zÄ±
L ey
L iu
L umb
M av
M aw
M amb
M oul
M omb
M Ã¶n
N k
N on
N aw
O oster
P az
P ala
R Ã¡
R ah
R ut
R eb
R af
S iv
S ale
S uz
S alm
S tad
S Äĥl
T oy
T eg
U ch
V et
V ac
V ey
V Ã¢r
W and
W ij
W arm
W iel
W itt
Y uzh
Z el
b ou
b ay
b og
b uch
c le
c ina
c ani
c ester
c elles
d ol
d ia
e in
e ta
g ur
g ou
h ard
h Ã¡za
i ba
k l
k et
k ul
k amp
l ig
l Ã³
l ovo
l ock
m os
m ac
m ent
m ero
n it
n Äģ
o Ãº
p y
p ina
q q
r g
r Äģ
r and
r Ã³n
r Ã³w
s chen
t lÃ¡n
u ÃŃ
v ia
v eni
w at
w yn
x c
Ġ en
Ġ le
an de
an ueva
er u
er up
er ÃŃa
in co
en eg
es ton
ch it
ur d
de v
de gem
at ro
ol u
ol co
ta j
ta o
ĠC ac
ĠC ec
ĠC lem
ĠC errato
ĠC Ã¢mp
ad h
ra de
ĠM in
ĠM ata
ĠM Ã¼hl
te d
ĠP en
ĠP om
ĠP ino
ĠP res
ĠP Ã¡ramo
ang en
un y
un ciÃ³n
ro c
ĠS in
ĠS um
ĠS oc
ĠS otto
ri j
ri er
ri ana
et u
ĠB Ã¬nh
ĠB autista
ig lia
ag ue
ag ny
om i
im in
im il
Ch en
Ch es
Ch ia
Ch um
Ch em
Ch oc
ĠA ug
ĠA tz
ab an
ab ia
ir an
ir es
ĠT an
ĠT em
od z
ĠH an
ĠH ope
ĠR hein
Al be
Al calÃ¡
ap u
ĠG uz
ah ua
ĠV ar
io t
ie z
ille t
ne c
ne e
ne u
um o
um en
ĠL ang
ĠL Ã¡zaro
ter sdorf
oy ar
ĠN Ãº
ĠF ran
ĠF res
ĠF ranc
og an
og rad
Ã¶ v
eng en
ach Åį
Sh am
Sh aw
ĠD ar
ĠD es
ĠD orf
st orp
Ä« b
qu et
An j
An s
op an
ĠMar itt
end i
ĠK ar
ĠK ha
ey a
ub i
ut z
ass Ã©
ass ikro
Le w
up p
go la
Mon ti
ĠCh ic
ĠW at
Car l
Car m
oh o
oh rad
ond er
Th omas
no x
Sant ana
Bel Ã©n
ĠAl f
Mont el
Å¡ ka
Man zan
ÅĤ owice
Äģn pur
Pr at
Pr ince
uer te
oss ou
br Äĥ
Äį any
Kr um
arr al
arr ub
Kh or
ve en
ĠHe ads
Bur lington
man n
man ns
uy an
áº ¿
anj ang
Kar ang
iss y
Me er
bor ne
Re in
Sp en
Ro x
ĠSh ore
Ag ÃŃa
Äģd Ä«
lor es
ye h
ye ong
Pet r
old s
Cr is
Cr est
And rea
ĠGu ay
Bla g
do ba
Tal is
Ur b
ÄĻ d
Lu is
Em m
Ge is
Äĥr eni
Äĩ i
Bon ne
Un idad
ÅĦ sk
Nav a
Nav al
Ã©d ougou
Wal nut
ĠSt re
Gl as
Gl endale
ĠCol le
Win chester
ĠSec a
ĠCast ro
ÅĽ ci
Iz vo
Tem ple
Tep et
Ot ter
Star aya
Sv et
Sv eti
Sz cz
Krasn aya
Flor ence
Åģ ÄĻ
Ã² a
Zar agoza
ĠCat alina
Pil ar
Pres ton
Ix ta
Water loo
sto w
Kamp ong
Sev en
Cand elaria
Roch ester
Mot ta
Ev ans
iÄĩ i
Harr ison
Well ington
thor ne
Center ville
ĠBuen avista
Bridge port
Sos n
You ng
amor os
ĠLar go
ĠTom Ã¡s
Mans field
Miss ion
Sov et
Concord ia
ĠFer ry
Slob ozia
á»ĵ ng
cliff e
iá» ĩ
Doug las
Lanc aster
Ply mouth
gom ery
Neuk irchen
ĠCaÃ± ada
ĠPu ente
Cry stal
ĠGia como
A it
A ro
B eng
B li
B alm
B oss
C ah
C us
C ip
C oz
C ly
C Ã¢r
D et
D ok
D ik
D ash
F ara
F ord
F ry
G ai
G ouÃ©
H ac
H ino
H ut
H ern
H Ã¶r
H idalgo
H uey
I gu
J ol
J ay
J ed
J ak
J em
J ud
K Äģ
K ed
K ard
K ind
K ha
K Åį
L ent
L ek
M p
M ia
M om
M ort
M ei
M och
M etz
N al
N il
N ia
N gu
N ash
O sh
O ut
P ov
P ell
R Ã¢
R ug
R ij
R hein
S es
S ell
S ach
S ukh
T w
T Ã©
T ad
T ug
T ez
T iz
T omb
T ann
V ou
V ers
V ysh
W ey
W eb
W ola
W ake
Y er
Y Ãªn
Z i
Z an
b eni
c ou
c ul
c Ã¡n
d ers
d ens
d ougou
f le
f ontaine
g ia
h orod
j erg
k ap
k um
k aya
l uk
l Äĥu
m our
m ada
m und
n or
n ah
n ock
s b
s by
u ya
v il
v ou
v ila
w ei
y ra
y any
Ã İ
Ġ 4
an na
ar p
ar ne
ar pur
ar gues
er ia
er ra
in ec
in skaya
al ar
al ak
al ba
or ro
or ne
el as
il u
il as
es ch
ch u
ur ay
am ang
at em
ol z
ol sheim
is an
is io
ta p
ĠC os
ĠC ort
ĠC ald
it ella
re i
ov y
ing h
te ga
ic eni
ĠP ur
ĠP ri
ĠP iano
ang er
ro z
Äģ ÅŁ
Äģ ni
Ã¡ la
ĠS ta
ĠS av
ĠS ai
ri b
et ti
La val
ĠB y
ig Ã¼
ig ua
ag ro
om ar
ill i
Ch an
Ch ur
Ch un
Ch ik
Ch ep
Ã³ t
ac as
Ġd es
to w
ab as
and y
and ale
ÃŃ m
ÃŃ os
sk y
ĠT au
ĠT ul
ĠH o
ĠH Ãł
ĠR i
ĠR ay
ĠR un
ĠR ob
ap ia
us an
us en
ie ÅĽ
av ille
co e
ber a
ber n
ue a
ue il
ue ira
um an
ĠL ou
ĠL and
ĠL lan
ot ton
iv ia
ter os
ec chia
Mar a
ĠN o
og u
sh u
sh ip
ach t
ĠD ub
st ant
Ã¡n dez
Ã¡n chez
Ar men
Ä« k
An ton
ev en
ev skoye
op old
ĠMar gar
ts tadt
ale ana
ĠK o
ĠK ham
ĠK unda
ich a
St ol
St ro
St ari
ey ville
eld on
Ne uv
Ã¢ ng
our ou
ier o
ens dorf
Bar re
Å« q
Gu in
Gu ad
Gu ard
Car n
Br at
Br istol
amb i
iz o
ond i
Th ung
ten heim
Val s
Villa g
Am and
lan e
Bel a
Mont re
Mont gomery
Ãº j
Ãº car
Or d
Sal inas
Mor av
br uck
Äį ice
ita cion
tep a
Kr zy
Kh al
Cas te
Tor ri
Bur ns
Bur gos
rov skoye
ula k
man s
man nsdorf
Ad j
á» ©
á» ¹
ĠY ai
ĠY uen
ist ric
ess el
ux i
Me h
ix i
Camp os
zy l
Bro ck
Sp as
Sar the
Bre z
Ag ata
He ath
In t
In ver
Ver d
Cap e
Mat s
ling e
Lake wood
att an
ĠMart ÃŃ
Bou ss
Fr as
Fr ont
Fr uit
ĠEst ancia
Hol t
uh Ã©
anc y
Ã´ n
kir k
eth er
Hor od
Ã¥ r
Ã©d Ã©
May field
Ta ur
Tre b
Dob r
Ã³r doba
ĠCal era
aci os
ĠRo ad
Mir anda
ĠPla ta
Xin cheng
Pad ang
Gran ite
ĠPh ra
Bud a
ÄĮ es
Que brada
ats u
LÃ© ger
hol z
Mit ch
Tro it
Äģpur am
ĠPe Ã±a
Ky zyl
Day ton
iÅŁ oara
Hel ena
gin ia
Pied ra
tepe que
Middle town
Now e
Neg r
Ã¦ r
ĠSe co
Joh n
Ã©gu hÃ©
ĠSeg undo
Farm ington
Trin idad
Fried rich
fj ord
ĠJes Ãºs
áº§ u
Pia zza
KÃ¶nig s
ĠJoa quÃŃn
James town
Russ ell
ĠPia ve
Heb ron
Vys ok
wies en
incon ada
Rivers ide
Pfa ff
ĠCad ore
Belm onte
Fren ch
Castelle tto
Spen cer
istric t
A ut
B ant
B och
B ien
B ist
B ust
B ÅĻ
B ull
C Ã©
C un
C ell
C up
C oss
C oul
C yr
D ri
D ow
D eg
D ale
D ip
D ry
D ep
D ick
E c
E z
E ff
F ro
F ab
F und
F onte
F Ã¢n
G ia
G im
G ub
G ala
G ao
G lad
G bÃ©
G onz
H v
H et
H and
H ed
H ap
H amp
H ass
H ip
H ick
H aut
H aus
I le
K ow
K oul
L er
L ot
L ond
M ers
M all
M ian
M ish
M ost
M oll
M Ã¶r
M uss
M iami
N ac
N iam
N azar
O j
O ra
O ise
O ktyabr
P s
P id
P ach
P eg
P ud
P uc
P hu
P lo
P art
P ins
P ula
P ho
R ow
R ush
R anch
S le
S ia
S od
S ip
S art
S ien
S ix
S Ã¡r
S ett
T es
T it
T ill
T ow
T az
T ud
T ut
T win
U j
V ul
V ran
V est
V erm
V Äĥl
V Ä©nh
W on
W ing
X al
Y in
Y on
Z Ã©
Z ang
Z aw
b ir
b li
b amba
c ur
c ap
c ara
c les
c ello
c eda
d el
d ra
f orth
g ad
g ne
g orn
h ain
h ara
h erst
i ff
j Äģn
j Åį
j Ã¸
j oki
k or
k un
k om
k au
k ove
k Ã½
l im
l ine
m il
m ington
m ount
n os
n as
n at
n ed
n ich
n ogorsk
o de
o th
p ay
p ara
r ino
s un
s om
s ac
s ley
v era
x ter
x cal
y evka
z Ã³n
z ate
Ã ĺ
Ġ 6
Ġ Å½
os se
os han
an Ã¡
ar ÃŃ
ar ts
er h
er ie
er bach
er uela
on al
al ag
al pur
el ton
il tepec
as z
ch at
ch ina
am al
am as
de ÈĻti
la o
la de
at ar
at ra
at te
at ay
ol as
Ã© rez
is ano
is dorf
ĠC i
ĠC ur
ĠC ay
ĠC od
ĠC ue
ĠC op
ĠC anyon
it ra
it uciÃ³n
ĠM Ã©
ĠM ak
ic al
ic es
ĠP el
ĠP es
ay al
ay kh
un an
ro th
Ã¡ p
Ã¡ da
Ã¡ ly
ĠS ay
ĠS qu
ĠS erd
La kh
ĠB i
ĠB ÄģzÄģr
ig g
om pa
im er
im Ã©
Ch is
Ch ad
Ch ab
Ch ai
Ch ant
Ch orn
ĠA sh
Ã³ k
ac Ã¡
Ġd ell
to y
ir y
and ougou
ÃŃ t
ÃŃ ba
th on
ĠT omas
ĠT ree
ĠT ajo
od ar
od en
od ol
ĠH en
ĠH ue
ĠH ondo
ĠR es
ĠR et
ĠR oche
Al la
ap at
ap Ã¡n
ul ce
ĠG il
ĠG ri
ĠG rad
ĠG ordo
ah d
ah e
ah n
ĠV i
id u
id es
id ougou
ne a
ne m
ne ch
ber nad
ue ang
um s
ĠL or
ĠL uang
El s
ell an
ter thur
em p
ĠN uovo
ĠN icola
ÅŁ eni
ers town
og no
Ã¶ m
sh agen
oc in
ob e
ob an
ai x
ai ra
Sh in
Sh ell
Sh ip
Sh ij
Sh ahr
az o
az Ä±
eg no
eg gio
qu ite
An k
An th
An se
bur ton
ev skiy
ĠMar co
ts evo
ge ÅŁti
ent ina
ĠK r
ĠK ey
St ud
zh d
ord an
Ne um
ek h
ĠE jido
iy at
Le h
Le u
ce i
ci u
our o
ke e
ib e
ib u
ĠO j
Mon roe
ny e
ĠW ells
Br Ã©
Br is
Br un
uz zo
ĠLa ur
ff el
iz zano
aj e
ond s
Th anh
Cast il
igh ton
ep pe
ham n
Sch e
Sch o
Vill iers
Bel o
Bel vedere
Mont al
Mont rose
Or m
Å¡ Å¥
alm a
aro o
gh er
Man uel
ÅĤ y
af la
Ã§ on
Ber gen
Be ach
ij o
und i
und er
Hu ar
Hu itz
Es cal
Cas ale
ĠCr uc
Ad d
ĠAr royo
iss o
ess ou
Ba is
ila o
Co ok
Camp bell
Pal os
Re ch
Sp e
Sar Ä±
Ban Ä«
Ro que
tor i
Bre it
ire ÅŁti
Port land
oul t
iew o
Ober n
Cr ist
Pl op
bro ke
Åŀ te
Ãģ lvaro
ann on
Por ts
anch a
anch eng
Vel yk
Pla t
Pla ine
ĠSal z
Alb ion
ĠEs pino
po ol
po int
ĠMor eno
Ã´ nio
Wil son
Wil hel
Wood ville
mb aro
Palm a
Palm ar
Mid land
ĠTh Ãłnh
yl ivka
Ly on
Ly ub
Nor ton
Dob ro
Rom ain
Ã³r ia
Mol ino
cz yn
rig g
ĠPla in
Lou p
Ale ks
Go bernad
ĠIn depend
enh ofen
Å¼ y
Lag un
ĠGard a
ĠFor k
Sul pice
Sto ke
ĠPh Ãº
Mos elle
pec t
Sum ber
Sum mer
ĠCu auhtÃ©moc
Im eni
Cent en
LÃ© on
Mass a
Han over
Ry b
ĠNicol as
ĠOl iv
Jos eph
Agu as
By st
Marc el
ĠCl ub
ĠHu itz
Piet ra
Mou nd
Pra irie
quil pan
str up
ĠUni on
ĠRock s
Nik ol
Gun ung
Hart ford
Gorn ji
ĠCer ro
ĠTep et
ĠGe orgen
ĠCab all
Vir ginia
wi ÄĻ
ĠAy ala
Rh Ã´ne
gal ant
ĠPa olo
ĠVall Ã¨s
Quint ana
Shel by
Haz el
Pob lado
vill iers
uns wick
Beth el
Nicol as
ĠCorn er
ĠCorn ers
ĠTri unfo
Hunt ington
Ston y
ĠAnt Ã´nio
ffi eld
ĠPied ra
bÃ¡ Ã±ez
cro ft
Marsh all
ĠNu ova
Oula d
Lago a
Vely ka
ĠHab itacion
Strat ford
Cue vas
ĠBri anza
GÃ¶k Ã§
Buff alo
Fate h
ĠClem ente
ĠMÃ¼hl kreis
ĠGuz mÃ¡n
ĠSerd Ã¡n
A q
A al
A co
A ba
A ka
A huac
B ie
B ev
B af
B und
B ato
B ush
B ott
C ag
C ec
C of
C ock
D io
D og
D az
D aj
D omb
D umb
D ÄĻb
E j
F en
F le
F ang
F Äĥ
F ron
F ush
F isch
G ill
G ain
G he
G res
G ry
G eb
G ÅĤ
G Ã¶r
H r
H id
H ell
H ers
H ind
H Ã©r
H iguera
I st
I ns
J il
J ind
J ama
K ain
K ran
K amb
K of
K ita
K ish
K ula
K rem
K Ä±r
L il
L Äĥ
L ark
L Ã¸
L una
L ido
M ic
M im
M our
M iz
M ire
M old
M uh
M ÄĽ
M enz
M unt
N z
N in
N ich
N ass
N ine
N eck
O la
O co
O ke
O uen
P ah
P ich
P ek
P ern
P oh
P och
P han
P ath
P Ã©r
Q i
R z
R ol
S all
S ern
S ier
S aj
S Ã¤
S ole
S car
S oledad
T and
T ina
T sur
T oul
T umb
T ax
T Ã¼r
T riv
T Äĥt
T oledo
V ez
W ur
W et
W ern
W ys
W ierz
Y ay
Y av
Z er
Z nam
a ur
a ia
b il
b ano
c ab
c ino
c ana
c ke
c ala
c era
d re
f ur
f ra
f ino
g Ã©
g un
g ir
g ado
g ueva
h ills
h ermosa
i Å£a
j ara
j iao
k at
k ay
k ah
k ale
k han
k endorf
l la
l it
l oc
l ino
m y
m ak
m Ã¤
m ida
m ith
n u
n al
n il
o ba
p l
p ata
r ice
r ÃŃa
r one
r ick
r ella
r ado
r ales
s c
s um
s aw
s worth
t ara
t Ã¢n
u in
u ÈĻ
v res
v ington
w ed
w ai
w ara
w Äģn
w art
w old
x in
z ig
z em
z no
Ã ĵ
Ġ 7
Ġ u
Ġ ÄĢ
Ġ Ãļ
an ton
an ovo
an ya
ar ana
in al
in ta
in ca
en j
en ice
on ay
al p
al ai
il iÃ©
as in
es ia
ch os
ch ar
ch il
am u
am os
am ay
am ac
de e
la b
le by
le ÈĻti
at ec
ou ville
ou na
ol ia
Ã© bo
Ã© jar
is ka
is ai
is lav
is wil
ta va
ĠC av
ĠC ont
ad el
ad es
it ar
re ch
re ira
ov Ã«
ing an
ing don
ia gu
ĠM ix
te ca
ic ia
ic ourt
ĠP i
ĠP au
ĠP ir
ĠP ug
ĠP ilar
ay evo
ay ette
ro ck
Äģ da
Äģ rah
Äģ garh
Ã¡ v
Ã¡ polis
ĠS or
ĠS ad
ĠS ha
ri os
et y
et ano
La i
ĠB il
ĠB ol
ĠB ia
ĠB ang
ĠB ell
ĠB ank
ĠB erg
ig heim
ag ra
om ing
ill an
ill ing
ill ia
ill ip
Ch et
Ch up
Ch iang
ĠA ur
ĠA br
ĠA mar
ac al
ac Ä±k
ab ar
ab at
ab erg
ir Ã©
and er
ÃŃ na
ÃŃ ni
th age
ak lÄ±
ain a
ĠT l
ĠT o
ĠT ol
ĠT ig
ĠT ot
od o
od u
od ougou
ĠH om
ĠH au
ĠH erm
ĠH uer
Al h
Al v
Al le
Al ta
Al ma
Al der
Al bert
ul ia
ĠG ate
ĠG Ã³ra
ah o
id z
id os
id ay
id ence
us ch
ie mbre
av ou
ti z
ti ers
ne ÅŁti
ne ux
ano wice
ber ge
ber sdorf
ĠL os
ĠL amb
ĠL una
ot y
ot es
Mar ano
ĠF il
ĠF ri
ĠF lat
ers berg
ers leben
ran e
ran s
ik Ã³
Ã¼ nd
sh Ã¶
az za
ĠD orado
Ä« rah
Ä« yeh
An to
ana o
ev ac
op o
li u
li ch
ent os
ina o
ĠK il
ĠK ur
ĠK am
ĠK ou
ĠK ra
ĠK ok
ich o
ich es
zh u
ey s
ub e
eld orf
Ne k
Ne un
ĠE ul
ĠE bro
ip i
ip an
ĠI z
Le b
Ã¢ mb
ce ÅŁti
ci ana
up ing
ĠO st
ens en
Mon c
Mon to
ĠCh iqu
Ä± m
Å« t
ĠW in
ĠW ind
ĠW ater
Gu il
Br z
Br am
uz e
nd on
ng el
iz er
oz y
Th ir
ten au
Cast rillo
Sch we
va is
ind en
Gr Ã¼n
Mont f
Mont s
Mont igny
Ãº a
Or b
Or g
Or ge
Å¡ k
alm outh
gh etto
ĠSan nio
Ber kel
uch e
Pr ato
ck er
ly a
ly k
pr Ã¨s
Nov Ã©
Nov om
Mal i
Mal u
Mal vern
Mor gan
Mor elos
Hu am
North field
Äį ina
Äį ki
arr at
Cor te
Es pin
ui Ã©
Ã« n
err ero
ish che
rov sk
Tr enton
len bach
á» §
á» ³
Ab as
uy u
uy ang
ĠY Ãªn
Con f
Con cei
ver ton
Ba ÅŁ
Co le
Co ol
Co op
che on
Mo or
tor p
Ag n
oll ar
Zh elez
Ben ton
Te j
Cr uc
ÄŁ a
cal co
Cl ermont
Cab a
Cab an
arl Ä±
arl ington
Pe Ã±a
if e
if t
if orn
ÅĻ eb
Mil an
Min eral
Ph ra
Gen eva
ĠVic entino
Ge orge
oa ia
Hol z
Mas on
ll ar
ĠEs cob
ĠEs gueva
Ã´ me
Mel rose
ral ba
Ã¥ g
roy os
Her z
let te
Nav as
ĠRe ina
ĠRe forma
yl Ã¤
Torre m
ĠCol onia
Ta ÅŁ
Nor wood
Sab ang
Dr uzh
Äĥne asa
cz Ã³w
rig ny
Fran ken
Rad om
Kon stant
wang en
Å¼ e
Hal f
Ou ed
Pot rer
Ã¡z ar
ĠÃģ l
Äĵ l
Ll ang
aman ca
Cro ix
Dan ville
Poz z
inh os
ĠMat amoros
Ita p
Verkh nyaya
ĠPe Ã±
Water ford
ĠPol yana
Chap el
riz al
Font enay
ĠPin ar
Wes th
quil es
Cla ir
Dum brÄĥ
Rib eira
Wo ol
ĠSer ra
Ron co
Tav ern
Pied ras
Cot ton
ump ang
ĠRam Ã³n
opol is
opol ski
Ã¦ k
Cra ig
Vr b
ĠBartolom eo
Lak eland
Lak eview
Ath ens
William s
Novos el
Trin ity
ĠVe chi
Dorf kern
ĠUn ter
ĠMer c
Æ°á» Ľ
ĠBran co
ĠLar ga
Thorn ton
Bald win
Ole ksand
Charl otte
Cum berland
Pros pect
Lau ter
MÃ©d oc
ĠMu Ã±
ĠPot rero
ĠFarm s
Ned er
Ã©li x
Independ ence
Dec atur
TÃ¢r gu
ĠGen eral
less is
ĠCro ce
Vien ne
ĠNar anj
ĠChar les
ĠEsc ond
Hend erson
Salv acion
Eure ka
champ s
ĠLod ge
Somers et
RÃ©m y
Clev eland
ĠShar q
ĠHigh lands
ĠLab em
fonte in
ĠGhar b
Torrec illa
ĠWat ers
Izvo arele
ĠSqu are
ĠIndepend encia
ĠHabitacion al
Concei Ã§Ã£o
A i
B ing
B end
B Ã¢
B ala
B iss
B Äģr
B eck
C ang
C eb
C air
C ull
C Ã¢mp
D ov
D eng
D uc
D ug
D uk
D oh
D orn
D ix
D Äģr
D Äħ
E in
E sk
E ns
F an
F am
F Ã©
F ed
F arr
F arn
G j
G ov
G ay
G og
G oss
G ost
H ak
H ast
H ok
H ont
H eg
H ek
H af
H ato
H ann
H ack
H agen
H ugh
I f
J en
J au
J ast
J ob
J ug
J iu
J Ã¤r
J Ã¡sz
K Ã©
K oy
K og
K ant
K Äģn
K uch
K ann
L ec
L oy
L ens
L ant
L land
L uch
L omb
M w
M uz
M oro
M Ã©n
M ix
N om
N ah
N um
N ey
N ish
N icola
O ly
P oy
P Ã¶
P eng
P ino
P ard
P ug
P les
P ÅĻ
P rig
P rav
P esc
Q in
Q ir
R he
R up
R afael
S og
S eng
S ull
S atu
S unga
S esto
T l
T as
T ia
T aw
T ry
T aj
T ula
T uf
T own
T amar
U c
U y
U ri
U sh
U nd
U tt
U ll
V im
V Ã¤
W im
W Ã¤
W iang
W arn
W etz
W oj
Y ap
Y eni
Z and
Z Äĥ
Z ub
Z amb
Z ÅĤ
Z are
Z acu
b un
b ong
b ok
b ella
b ouÃ©
b bs
c q
c am
c ano
c Ã³n
c ent
c ut
d or
e iras
f l
f in
f re
f lores
g ul
g Äĥ
h y
h le
h ad
h it
h ra
h un
h au
h ir
h av
h isar
j un
j ie
j Ã¡n
k as
k av
k oye
k ha
l iv
l Ã¸
m Ã©
m et
m ir
m ach
n en
n ak
n um
n je
n ÄĽ
o or
o Å¡
o ÄŁ
p on
p Ã¡n
q in
r ang
r era
r Ã³d
s in
s ang
s he
s ey
t ing
t un
t im
t Ã³
u ba
u tsch
v ad
v ier
v Ã¡s
w ill
w ey
w ane
x heim
y u
y in
y re
y ville
z or
z ah
z kÃ³w
Ì Ħ
Ñ Ģ
Ġ 5
Ġ Santiago
Ġ Åł
os z
an ov
ar at
ar ang
ar th
ar ah
er le
er ing
er ano
er na
er dale
in ari
in nes
in je
en ham
en zo
al em
el heim
el fingen
il ah
as en
es ar
es boro
ch ino
ch ich
ch Ã©n
ch etta
ch Ã³ri
ur y
ur as
ur es
ur ai
de b
de ville
de ga
le i
at inga
San ch
ou da
ol k
ol y
ol an
ol ot
ol ok
is u
is son
ta wa
ĠC ond
ad ena
ad ura
it epec
re ek
ov eni
ra ga
ĠM ah
ĠM ond
ĠM ora
ĠM ure
ĠM ayor
ic as
ic ay
ĠP is
ĠP ha
ĠP aso
ang ar
Äģ i
Äģ p
Äģ th
Äģ Å£
Äģ kh
Ã¡ pam
ĠS he
ĠS ung
ĠS ham
ĠS uÃ¡rez
ri an
ri gn
ri Ã¨re
La j
La ud
ĠB ut
ĠB aj
ĠB rad
ĠB ene
ĠB ajo
ig as
ig na
ig iano
ton i
ag Ã¼
ag ung
ag iri
im achi
Ch o
Ch Ã©
Ch ill
Ch eb
Ch arm
au an
ĠA ra
ĠA rag
ĠA ngeles
Ã³ v
ac on
ac ay
ac ker
ab y
ab uri
ÃŃ c
ÃŃ cuaro
ed in
ed en
ak ar
ĠT ro
ĠT ak
ĠT av
ĠT oro
ĠT ron
ĠH oll
ĠR at
ĠR ad
ĠR ed
ĠR ub
ĠR ica
ĠR ÃŃos
Al s
Al len
Al Äģq
ap h
ap Ã©
ul ong
ĠG er
ĠG erm
ĠG ora
ĠG raz
ĠV ir
ĠV id
ĠV era
id ing
id io
us o
ie ta
av iva
ti f
ti Ã©r
ne ville
ne ga
ano a
ĠL ev
ĠL ub
ĠL ondon
ĠL á»Ļc
ot ou
ot ta
ĠJ am
ĠJ uli
em ia
Mar qu
ĠN am
ow e
ĠF a
ĠF l
ĠF ont
ÅŁ eÅŁti
ers hausen
og e
og n
Ã¶ hr
Ã¼ tz
ach en
ai de
Sh un
Sh ore
Sh ira
Sh akh
az Ã¡n
ĠD o
Ar en
Ar cos
Ä« pur
qu ir
qu ila
est ina
ĠMar ta
ĠMar ys
ts town
St al
St am
ark t
gu hÃ©
ub b
ut an
Ne f
Ne ud
ek i
ern Ã¡ndez
iy ya
Ã¨ vre
aw k
ci al
ug n
up u
ier mark
ĠO n
ens ac
Ã± gan
Mon tagne
ĠCh ang
Bar ton
ny ye
ny tsia
Å« Å£
ĠW o
ĠW ill
Gu at
ine ÈĻti
Car p
Br um
Br uck
Br unswick
hu ela
hu izen
ez d
ĠLa ch
ff e
land a
ÈĻ ani
ÈĻ eÈĻti
amb e
ng a
aya o
iz u
oz i
oz al
Th om
eb ro
eb ir
ero a
Villa verde
ep e
ep ort
Sch le
Am an
yn ohrad
Gr ad
Gr ov
ĠAl d
ĠAl ba
ĠAl tos
Ã³w ek
Mont m
oun ou
Or s
Or ne
Å¡ te
vo ir
olo tepec
Man h
ĠSan d
Ã§ i
Ã§ an
Ber k
Ber ri
Ber lin
uch o
han y
ck i
uer as
ien ica
Nov Ã¡
Nov ob
Mal p
Mor a
ĠVal t
Hu a
Hu ach
Äį ov
Äį ÃŃ
Äį ka
Bu la
ĠZ ac
á¸ Ĳ
Kh long
ui x
Cas ta
Ã« m
Ã« s
ĠCr isto
Se af
be e
Tr as
Ad olfo
ied l
ĠY ork
chen sk
ranc as
Con cep
Ba Ã±os
Mer idian
iri o
zy na
Monte m
Re al
nes ville
Sp in
Sp arta
Ro berts
Ãł s
per t
els bach
ĠIs la
Ak su
Er b
Cer es
Cer reto
Is land
ys ville
ĠPo le
In n
Ver g
Cap p
Cap it
Zh ou
Pet er
gar ten
we il
Ben n
mer ald
Cl over
Po ien
Po inte
Pe ch
At z
Ãª que
Äģl Ä«
Äģl pur
ĠGu ad
We is
We it
sch au
ĠSal inas
Em b
gen land
Gar b
Kras no
Å¾ ice
uh l
Ter re
Ter ra
Äĩ e
Bon ny
Str as
eth en
Wood stock
tr am
Don ja
Kou adio
roy don
ÅĦ ski
Ts aga
Palm as
Ay d
Ã¯ t
Ham burg
Wal ton
Bl ang
Nor man
Dr um
Nar anj
Mir amar
Ka Å¡
Tam az
ĠX ian
Sel va
kov skiy
ĠQu ir
ĠTor mes
Bir ken
Ville fran
Sc or
Roc chetta
Ã¼n de
Ost rov
Nag y
Lam bert
ĠMa uro
Flor ida
ĠÃģ vila
ĠCu esta
ĠShah r
Cent ro
Kom ar
Ra de
Ven ustiano
Kl oten
Rock y
sz ent
ĠFel ice
GÃ¼ mÃ¼
Liv ingston
kÃ¶ ping
Kirch heim
ried en
Ped ra
Bah ÃŃa
Jar galant
hol t
Agu ilar
MÃ¼ nster
Mez Åĳ
ĠCent re
Fal ken
Top ol
Font ana
Frank fort
But ler
Mark et
Lor eto
ĠSant os
Ing en
Sev ern
ĠMil an
Ä«d ah
ĠCrist ina
MÄĥ g
Rib eir
ĠBur genland
ĠCap o
ĠSab ino
Chin ch
mark t
ĠAgust in
Alde anueva
ĠJo an
ÅĤaw ice
BÃ¼ yÃ¼k
tem pan
iÅ¡ te
ĠBern ardino
Now y
Colle ge
Hin ter
Fel ipe
á¹ Ń
Blan ken
ĠBa Ã±os
ĠRiv ers
stÃ¤ tten
Mih Äĥ
Nog ent
ĠIl def
Quint anilla
Civ itella
Hy de
vill ers
ĠBuen aventura
Stock ton
Herr era
Hills boro
Pem broke
Vad u
Aug usta
Bia ÅĤ
Chel sea
ĠPaul ista
Å¡t ÄĽ
Bever ly
ĠLim Ã³n
Const ant
Bloom field
How ard
ĠTir ol
Edge wood
otz ingo
Eas ton
ĠPob la
ĠSim Ã³n
Trz eb
MÃ¼n ch
Rid g
Syl van
ĠProv idencia
ĠHel ena
ather ine
Freder ick
Brid g
Santi bÃ¡Ã±ez
Gord on
aÅŁ r
Presid ente
VÃ¢n Äĥ
Brent wood
Carroll ton
ĠNÃº mero
Talis ay
Wake field
á»© c
John son
FÃ¢n tÃ¢n
ahd ÄģrÄ«
Gobernad or
ĠPug lia
Berkel ey
iforn ia
ĠEscob edo
Æ°á»Ľ c
AlÄģq ahdÄģrÄ«
tiÃ©r rez
GÃ¼mÃ¼ ÅŁ
ĠIldef onso
FÃ¢ntÃ¢n ele
A Ã±
A da
A quiles
B Ã¡
B iv
B ies
B ih
B Ã¼r
C ach
C ud
C ien
C ao
C urt
C ax
C rem
C yp
D n
D il
D zh
D ung
D iang
D har
D allas
E ben
F os
F ag
F ell
F rÃ©
F itz
F Äĥr
G le
G lan
G Ã©n
G oul
G ott
H j
H ep
H und
H ost
H ank
H umb
H enn
H aver
H oughton
I ron
J ou
J and
J ah
J av
J oa
J agu
J unction
K v
K id
K ik
K ung
K ep
K oro
K ÅĤ
K ani
K ank
K hao
L el
L la
M t
M uc
M ek
M ier
M ittel
N t
N is
N ant
N iz
N aj
N af
N owa
N akhon
O berg
O les
O br
P Ã³
P Äĥ
P ik
P ip
P oul
P ush
P anc
P uj
Q or
Q ia
R amb
R oll
R iet
R ank
R aven
R ouss
S r
S ic
S ne
S ara
S of
S ira
S oul
S Äĥr
S ax
S enn
S onn
S cott
T us
T ara
T ord
T ind
T ash
T uch
T ess
T ix
T iel
T yr
U ss
V u
V la
V od
V eg
V ier
V ine
V aux
V ynohrad
W ard
W orth
W yn
W ÅĤ
W oll
W ells
Y at
Y au
Y ue
Y em
Y ok
Z v
Z in
Z ay
Z af
Z ales
Z sch
Z lat
b and
b ow
b lan
b ona
b jerg
c av
c Ä±
c ito
d ah
f ia
f red
g am
g len
h os
h io
h rad
i q
j d
k r
k os
k ra
k ey
k up
l g
l um
l eng
l berg
l ovice
l Ã¶v
m am
m au
m ano
m Äģn
m ita
n ang
n bach
o he
o ire
p f
p pe
q a
r n
r ar
r il
r ina
r osa
s as
s es
s den
s boro
t ra
t ana
t ingen
u ar
u al
v ino
v igny
v estre
w m
w and
w agan
x e
x ley
x ico
y ing
y ant
z at
z ra
z ÄĻ
Ä ¾
Å ©
Å ª
Å ĺ
Ġ v
Ġ and
os c
an on
an ou
an zo
an ico
ar f
ar en
ar ch
ar ap
ar ka
ar ino
er de
er au
in ch
in de
in burg
on os
on et
on ac
al en
al as
al ÃŃa
al bo
al Å«r
or skiy
el ice
il ey
es z
es en
es se
ch iv
ch owice
ur ia
am Ã©
am ento
de gg
de tto
la p
la ya
la tt
le do
at ina
ou de
ou akro
ol Ã©
ol ong
ol zh
Ã© la
Ã© fla
is ti
ta da
ĠC and
ĠC ob
ĠC aj
ĠC oll
ĠC osta
ad ar
ad ji
it er
it re
it Ã¡
it land
ov ia
ov ets
ing er
ing hem
ia pa
ra w
ĠM en
ĠM ang
ĠM ass
ĠM aj
te c
te uil
ic Ã³
ĠP on
ĠP av
ĠP ont
ĠP ozo
ĠP Ã©rez
ay s
ay u
ay ong
un ay
ro da
ro bo
Äģ war
Ã¡ rio
ĠS o
ĠS on
ĠS om
ĠS ev
ĠS Ã£o
ĠS ide
ĠS oto
ĠS Ã¡nchez
ri y
ri Ã¡n
ri da
ĠB ad
ĠB ag
ĠB all
ĠB uk
ĠB uz
ĠB las
ĠB ranca
ig er
ig uan
ton ilco
ag on
ag awa
om iya
im s
im on
im ont
Ch h
Ch iv
Ch ann
ĠA k
ĠA nita
ac co
ac alco
to be
ab b
ab i
ab Ã©
ab ah
ab ana
ab li
ab ela
ir s
ÃŃ ng
ÃŃ rez
ÃŃ lia
ed d
ed s
ed onia
th i
sk Ã©
ĠT al
ĠT ab
ĠT our
ĠT ung
ĠT Ã¢n
ĠH at
ĠH ang
ĠH um
ĠH Ã²a
ĠR oy
ĠR aw
ĠR ib
ĠR ico
ĠR oca
ĠR ancho
Al ice
ap ol
ul as
ĠG ra
ĠG rou
ĠG orda
ĠG aleana
ĠV l
us ter
us eppe
ie j
av era
av illas
ne k
co a
co le
ba is
ka i
ka j
ĠL ung
ĠL ind
ĠL iber
ĠL lob
he iro
ot in
ot al
ot illo
iv ar
ter en
Mar in
Mar co
ast el
ok ou
ÅŁ tea
ers tadt
ers ee
og on
og ue
ik en
Ã¶ d
Ã¶ ck
Ã¼ t
sh o
Sh o
Sh ch
Sh at
Sh ik
az e
az an
ĠD ra
ĠD ef
ĠD istrict
eg he
Ar r
Ar am
Ar gen
Ar enas
Ä« f
qu Ã©
An ts
An gu
ev i
ev sk
op al
op ing
op leu
ĠMar y
ts u
li on
ale ja
end am
end ingen
ich en
ich ang
ich Åį
St ur
gu er
gu as
gu ila
ey evo
ub o
eld en
ord en
ut y
ut ton
Ne p
Ne er
Ne ub
ass in
ass ing
ĠE x
iy uan
iy ivka
Le e
Le i
Le z
Le is
Le opold
ce ville
ce ÈĻti
ug nano
our i
ĠO este
ens ville
Ã± ar
uk an
eni x
ĠCh ich
ĠCh uen
ian e
ian y
Bar t
Bar cel
ny k
Å« f
Å« k
ĠW y
ĠW ai
ĠW ashington
ĠW ieÅĽ
Gu a
Gu al
Car ri
Car ter
Car ras
Car lis
Car los
Car thage
Br Ã¼
Br unn
hu atlÃ¡n
ez e
nd ale
oh ar
ÈĻ eni
amb ra
ni ÈĽa
ry ville
eb o
eb ad
Villa v
Cast ille
Cast illo
Sch m
Sch li
Qu il
Qu art
Qu entin
Am er
ss a
lan s
yn ÄĽ
Gr en
Gr on
Gr at
Gr Äĥ
Gr Ã¤
Gr oss
Bel aya
Bel lav
ĠAl am
ĠAl ban
Ãº r
Ãº na
one ta
que ira
Or chard
Å¡ iÄĩ
alm i
alm imil
vo is
ore jo
West wood
Man j
Man or
Sal z
Ber l
Be ech
Ã£ es
ij e
ij iang
New ark
den burg
Pr ud
Nov ok
Mor r
Mor ro
Mor ales
ĠVal de
br on
Äį in
Äį ko
ira h
Kr on
arr as
Kh olm
Es par
ign ana
Cas ar
Cas ti
be au
son s
Ol sz
Tor r
Tor ralba
Ma as
á» į
Ab u
ied o
Per t
uy ama
ÃŁ nitz
Kar ab
ĠAr g
ĠAr royos
pa ÅŁa
Me use
Me chan
Ba ia
Ba ÄŁ
Co x
Camp illo
Bad en
De al
De utsch
ans ville
che e
Pal acios
tt es
As c
Sar at
Ban ks
Ro de
me ad
Ãł ng
arm ey
ĠU r
ĠU rb
Äģd i
ĠPo inte
In vern
Can n
Zh en
old o
omb re
Ober sch
Mag n
Mag liano
iÃ© nega
Ãī c
Ãī p
rad ÃŃa
uf emia
ene x
if ic
Os iek
Os ped
At lant
Gra fen
En field
Ste vens
Bla ir
Fr am
Wh itt
ĠSal vat
Min as
Min am
Ur u
Ur z
ett es
Lo ir
Alb an
Ã©r ia
Ci or
ĠEs pin
anc ingo
Cu au
Cu auhtÃ©moc
Wil ton
Wood bury
Mel chor
Bat u
ĠBar u
uj illo
Ã¥ ng
Ãĩ am
ÅĦ ska
ÅĦ skie
Her b
Wal ker
ĠQ al
ĠSt an
Ly man
Oak wood
ĠCol orada
ĠGi useppe
Fre i
ert Ã©
bar u
bar ra
ĠCon cord
Red wood
ĠCal iente
ĠCal abro
Sta zione
Ke w
bon ne
ĠCast ell
Var ennes
ÅĽ l
Tra ian
ĠQu int
Bir ch
Äĥu ÈĽi
Bang or
Sun set
ĠDom ing
ĠDom ÃŃng
Hal le
Sm ol
Tem p
Wa im
Beau fort
Rich land
Alm ol
Gran ville
Gran ada
Spring dale
Sim pang
Ger vais
mp ton
ÄĮ ern
Que zon
Sz ent
lov skaya
Krasn ok
Krasn og
Sav igny
Fl ore
Im per
Ġá¸¨ am
So to
To to
Us ter
It u
ĠOr d
ĠVie ja
Castell ar
Ġ1 0
Midd el
Poz uelo
ĠNicol Ã²
lis wil
Lub uk
Alf redo
Mez z
ĠCam ino
orod ok
Mou lay
Ten ango
pat ti
Ġsul la
ule ÈĻti
Cz er
Cz ern
iem onte
Mab ini
ĠSab ina
mark et
ĠSer ena
Bass e
Gri es
ĠBon ita
atz ingo
Che ong
bey li
Ġa an
Äĥd eni
áº¡ nh
Äĥc Äĥ
Äĥc eni
Gorn ja
Nizh ne
Vald el
Ful ton
Hir sch
rap pa
William stown
ĠRio ja
mÃ¼ nster
usta vo
ĠNov iembre
Brown sville
ĠVe che
Shar on
Oliv eira
ĠSau ces
Merc edes
Rav ens
Sey mour
ĠRa ab
Cond Ã©
ĠJoh ns
Para ÃŃso
ĠNou Äĥ
istr ica
DrÄĥ g
Fi um
Jas per
Ung ureni
Way ne
yev sk
ilh ac
Chat ham
apur am
Taf t
bos ch
ĠPed regal
ĠJes us
áº£ ng
áº§ n
Charles town
Yen ice
ĠGÃ³r ne
Zu id
ĠEm iliano
Cerv era
Rey n
Rohr bach
ĠÅļlÄħ skie
ĠCarr illo
ĠMic Äĥ
ĠNeck ar
Phil ip
Ã° ur
abro ok
Ãīv Ãªque
Pervomay skoye
Vlad im
Bisch of
Laf ayette
mart in
Parad ise
SÅĤ up
Voz nes
Waver ly
Quinc y
KÄ±zÄ± l
ĠCÃ¢mp ie
Albe ÅŁti
ĠFres no
ĠMaritt ima
Lew iston
ĠStre et
Cly de
dens wil
Ãİ le
Caste jÃ³n
Mitch ell
BÅĻ ez
Aleks ey
LÃ©on ard
ĠCaball eros
Fush Ã«
ĠMix tepec
ĠBia gio
Hast ings
Qir yat
WÃ¤ denswil
ĠArag Ã³n
ĠAld ama
Concep cion
Villefran che
Carlis le
Bellav ista
Mechan ic
Osped al
ĠDomÃŃng uez
A is
A ca
A uz
A uch
A ix
A ÄŁ
A pol
B em
B aw
B ock
B rac
B ett
B iber
B Ã©d
C ri
C ale
C aw
C uy
C ess
C elle
C umb
C aux
C roydon
D is
D ic
D amb
D ani
D own
D Ã¶r
D mit
E ck
E tt
F us
F og
F li
F ier
F oug
F lat
F almouth
G Ã©
G io
G ow
G ers
G amp
G op
G oz
G arr
G ole
G osh
G oud
H ing
H ang
H ei
H ock
H urst
H uerta
I ra
I br
J el
J ad
J ang
J eb
J Ã¤
K ie
K ach
K ale
K ub
K ort
K Ä±
K ala
K aj
K art
K ly
K und
K els
K Ã¶r
K yr
K osh
K imb
K nox
L ille
L ik
L ier
L uan
L ung
L one
L iss
L ima
L ondon
M ov
M ob
M ana
M ine
M ate
M ash
M ula
M ist
M aul
M ys
M ets
M Æ°á»Ŀng
N Ã¡
N ig
N iv
N ij
N anj
N anch
N Äģá¸©
O ul
O cot
P Ã¡
P ab
P ers
P uk
P ind
P oli
P ater
P ax
P ith
P red
P ampa
Q aÅŁr
R ies
R Ã¸
R uh
R over
R etz
S et
S end
S ond
S akh
S red
S iem
T ov
T ain
T iv
T og
T ik
T ier
T ala
T erm
T oro
T we
T Åį
T rim
T ambo
U it
V at
V re
V ell
V ec
V oy
V ai
V ij
V ign
V Ã¡r
V iana
V Ã¶l
V osto
V Ã¢l
W is
W ie
W av
W ent
W ash
W art
W ied
W ÄĻ
W Ã¼l
X ind
X iao
Y Ã©
Y om
Y anj
Z b
Z d
Z y
Z han
Z gorn
a ff
a Å£
b ra
b et
b oy
b ala
b ly
c il
c id
c ie
c zew
c abamba
d d
d as
d ow
d ieu
d ijk
e ur
e de
e za
f ast
f our
f oss
f ling
f alu
g ue
g um
g ell
g na
g les
h ong
h Ã¶
h Äģr
h ope
j er
j Ã©
j ay
j ani
j evo
k il
k re
k ie
k enstein
l d
l le
l ass
l Ã³s
m ou
m ain
m az
m ana
m berg
m ingen
n og
n ant
o q
o ia
p es
p ad
p ark
r ong
r illa
r ud
r Ã¨
r ate
s v
s al
s cheid
t om
t ÃŃ
u eng
u Ã¢n
u Ã±a
v Ã©
v ig
v ent
w au
w ij
w Äģr
x o
y Ã©
y st
y na
z os
z er
z one
z ele
Ã į
Ã Ĳ
Ä ¼
È ļ
Ð µ
Ð ¾
Ġ nel
an ay
an che
an cu
an court
ar ton
ar ag
ar ovo
ar no
ar ivka
ar ese
in k
in court
in Ã³polis
en que
en Ã§
en zano
en fels
on j
on ou
on ik
on ese
al in
al ing
al ah
al oya
or m
or de
or re
or ama
el v
el de
il t
il am
il sk
il ovo
il han
il apan
il ento
as io
as par
es co
es ca
es bury
ch Ã©
ch Ã³w
ch evo
ur ra
ur ga
am el
am ora
am Ã©kro
la w
le to
le da
le hem
at en
at ÃŃ
at ka
at ino
San c
ou ng
ol pan
Ã© kou
ta f
ĠC id
ĠC ons
ĠC lair
ĠC ilento
ad er
ad on
ad ian
it sch
re c
re h
re al
re ich
ov it
ov ce
ov ichi
ing ue
ia wa
ia kro
ra que
ra ve
ĠM am
ĠM et
ĠM og
ĠM ach
ĠM ina
ĠM ez
ĠM oh
ĠM ira
ĠM ile
ĠM ÄĽ
ĠM ias
ĠM á»¹
te i
te aux
ic y
ic ar
ic un
ic io
ĠP os
ĠP ro
ĠP ong
ĠP ine
ĠP han
ĠP rad
ĠP lay
ĠP ardo
ĠP aran
ĠP lessis
ĠP iemonte
ang es
ang un
ang arh
ay uca
ay evka
ro b
ro it
Ã¡ li
ĠS v
ĠS un
ĠS ap
ĠS ah
ĠS ib
ĠS ep
ĠS ola
ĠS han
ri p
La us
La uf
ĠB ab
ĠB az
ĠB olÃŃ
ton go
ag y
ag er
om or
om ulco
om aggiore
im en
Ch ag
Ch ul
Ch ian
au ga
ĠA h
ĠA la
ĠA th
ac ons
to c
to t
to ke
ab er
ab ac
ab lan
ab ly
ir d
ir u
and an
and en
ed i
ed orf
ed ios
ak am
ak ent
ĠT et
ĠT ai
ĠT era
ĠT icino
od y
ĠH ig
ĠH och
ĠH ora
ĠH acienda
ĠR ou
ĠR ov
ĠR ain
ĠR och
ĠR inconada
Al i
Al ia
Al ess
Al gar
Al men
Al con
ap Ã¡
ul am
ul eni
ul lo
ul les
ul ÃŃn
ĠG on
ĠG ul
ĠG Ã¡l
ĠG rappa
ĠV as
ĠV ille
id ong
id ueÃ±a
us ha
io g
ie ÅŁti
ie ve
ie mi
av ka
ne i
ne uk
ber k
ber ley
ue Ã±as
ĠL i
ĠL y
ĠL ec
ĠL eg
ĠL our
El wood
El kh
El gin
ot l
ĠJ er
ĠJ orge
ĠJ ames
ec ik
em er
em be
oy uan
Mar ÃŃa
Mar ien
Mar kaz
ĠN ang
ĠN ap
ĠN aran
ow y
ok ee
ĠF al
ĠF Ã©lix
ĠF ertÃ©
ÅŁ ar
Ã¶ ll
sh ire
ob os
Ġdel s
Sh um
ĠD ur
ĠD av
ĠD ob
ĠD ulce
eg na
st re
Ã¡n h
Ar qu
Ar kh
Ar bo
Ar thur
Ar enal
amp s
amp leu
Ã³n a
qu el
qu illas
An ta
ud u
ĠMar sh
ĠMar iano
ĠMar ket
li b
li et
ale a
ent y
uc e
uc u
uc cio
end er
ĠK ings
ĠK rem
St all
St are
zh ao
ub en
eld a
ord ino
ass el
ek er
ĠE tla
ern heim
ĠI xtla
iy n
Ã¨ che
aw l
aw ay
up i
ib or
ĠO d
ĠO t
ĠO x
ĠO ri
ĠCh i
ĠCh an
ian ello
Bar ro
Bar ran
Å« rah
ĠW il
Gu is
Gu ing
Car b
Car de
Car pin
Car mel
Br on
Br ice
Br yn
da o
da ÄŁ
hu apan
ant as
ant ang
ant ina
ez o
Col Ã³n
oh a
ÈĻ a
ÈĻ ca
ÈĻ teni
aj ac
ond Ã³n
Th ou
Th Ã©
Th omp
ei ba
ten burg
ten ham
Val la
Val der
Val ence
eb e
no le
Cast rov
Cast els
lo f
ham mad
Sch war
Ã¤ Ã¤
Am herst
ss o
ss el
ind er
ind ale
Vill arejo
yn ske
Gr u
och i
Bel in
ĠAl l
Mont alb
Ãº t
field s
aro en
West minster
gh Ä©
Man k
ĠSan nita
ÅĤ d
Äģn ah
Äģn agar
Sal it
uch a
Be ch
Be aul
ij i
ij on
ij Ã¤rvi
Pr est
Pr ata
Pr ado
Nov od
Nov yye
Mal in
Hu y
Hu ac
Hu ix
ins heim
Å£ eÅŁti
Cal zada
Cal ifornia
Bal aton
Äį ani
Äį evo
ings ide
ira c
Bu h
arr en
arr am
itz sch
Es per
Cas elle
Cas cade
ĠCr est
Se f
be j
bo a
Ma is
Par am
Tr on
Tr Ãªs
á» £
Per th
uy Ãªn
ĠY bbs
ist or
ĠAr enal
ĠAn n
Me in
Me ch
Ba il
Ba ie
ele one
Pal ai
Äģr Äģ
are o
Monte bello
Re jon
Mo j
Sp er
Sar an
Sar ay
Ãł n
Ã¡r t
Bre w
ane ta
He us
els berg
oll s
arm outh
ĠIs le
ĠU l
Äģd h
Ver t
Ver ona
Can ale
Kal am
Ros eb
Ros edale
iet ta
Pet ite
Pet rop
ush ima
iew ice
Ober ndorf
ren to
And over
iÃ© kro
bro wa
mer alda
Por tage
Ã¸ bing
Cl Ã©
ene ÅŁti
ih r
Av en
Av ondale
Vel ik
Vel iko
if la
Cam eron
Gra v
Gra fton
En t
Ste en
zi ers
zi Ã¨res
Äģm pur
pp o
tla huaca
ĠSal to
Min er
Ph illip
Gar g
Hol land
Hol iday
ile ÅŁti
Ac ton
Com te
Com mer
Sol nech
eri or
enn is
Str zel
ÈĽ eÈĻti
Wood land
Wood lawn
Bat ang
ĠBar ra
Hor ad
uj ia
Pas eos
reg at
ĠKh Äĵl
yan sk
Her itage
ÄĽ ÅĻice
Palm ira
Palm illas
Palm yra
anga on
Bra un
Ed g
Wal la
ros o
Äħ s
uss ac
Sil v
ĠAnd rews
Ly nd
Ly ons
Oak dale
Alt Ä±n
Fair fax
Win field
Sab an
Dob ra
Rom e
ph ur
ĠCon st
yk ovo
ahu alco
Nied ern
bi ate
Sta fford
ĠVer cell
rig al
Gal le
kov ac
Cher em
Bog d
Bog orod
Ho ok
enh agen
Iz vor
Wa ik
War saw
ÄĲ áº¡
Ã¼n z
Dam es
Gran t
Glen wood
Ost rÃ³w
Riv a
Sul tan
Vi Å¡
Pod g
Ah ue
Que en
Pon ta
lov sk
var dey
ÄĢ s
ĠMa ÅĤ
ĠMa á¸©
Ã¡z quez
ĠTown ship
Sum mit
ĠÃģ guila
ĠCu au
agu as
Da ÄŁ
Land es
Kom som
Ven ta
ĠMag Ã³n
Ara p
enda al
ors tadt
She v
She ffield
Neu illy
Zar z
Kirch dorf
Cav e
Cav all
Tel uk
Midd leton
Æ° ng
ĠCan ton
Dub lin
ĠRom ero
Mand al
ĠMat eos
ĠOl ona
Bos ton
Bos co
Op at
Buc i
Sat urn
ĠEn rique
Di oul
Champ s
Mi ÄĻd
Water town
ĠPol je
Cour t
Tai ping
ĠFlor ida
Pur ÃŃsima
azar Ä±
vel ines
Hom er
Stan ley
iÅŁ tea
Lis bon
Mich a
ĠCarm el
River dale
lam os
nÃŃ k
Fil ip
HÃ¶ ch
Alde a
Llan f
ĠRam os
ĠRam ÃŃrez
ĠMol ino
Arc adia
Gul f
ĠPr ado
Dem ir
Eng lewood
Arn old
Nizh nyaya
Cant al
ĠPor to
ĠOb ispo
Villam ayor
Hau te
isi Ã³n
ĠSeg ura
ĠVen eto
Prov idencia
William sburg
Vern on
ĠRiv iÃ¨re
Jab ÅĤ
Sec tor
ĠSch warz
azz olo
Brad ford
fr ont
gra ve
Mih ai
Vas il
Chester field
Tex cal
Fern dale
Sie g
Ã® t
ĠSar abia
Bagn olo
Hill crest
Hills borough
Ray mond
ĠPueb la
righ ton
Beth lehem
ĠFu ente
Brand on
Ã©nou fla
istr itz
DrÄĥ gu
Fra uen
say say
Jackson ville
hor st
sy th
Cov ington
Cort es
Prim ero
fran co
ĠAs unciÃ³n
áº£ i
Charles ton
ĠGÃ³r na
ĠCross ing
Diet ikon
ĠMir ador
ShÄģh pur
Coll insville
Independ encia
Serra valle
Louis ville
ĠWielk opolski
Hig ash
jev ac
ĠBu ena
ĠRu iz
Franc avilla
Ric ardo
Drag om
Stary y
ĠIr pino
ĠPod las
ĠJad Ä«dah
ogor skiy
Abb ots
Heil ig
Haj d
Ster ling
ĠSel va
ĠSic ilia
ĠHerr era
Myr tle
ĠDa eng
Orta kÃ¶y
Cit rus
Fleur y
Vos k
ĠNat iv
Neuh aus
ĠIon io
áº¯ k
Åłt ÄĽ
Nel son
ĠManz ana
Lakes ide
Fayette ville
Cio c
Å¯ v
ĠLom ellina
ĠLomb ardo
MÃ¶n ch
ĠSoc ial
Hino j
Kha ir
Nash ville
Web ster
VÄĥl eni
ĠMÃ© xico
ĠHen ares
gher ita
Cof radÃŃa
Dumb rava
Neck ar
ĠAur ora
ĠTl almimil
ĠTig re
ĠFri uli
ĠEul alia
ÄŁa Ã§
Caba Ã±as
Cotton wood
Oleksand rivka
Nicola e
lÃ¸ se
ĠBene detto
ĠHoll ow
ebir ge
KaÅ¡ tel
ĠMilan ese
Ribeir Ã£o
VÃ¢nÄĥ tori
ĠGrou nd
ĠLlob regat
ĠAlban ese
Invern ess
ĠBolÃŃ var
neuk irchen
ĠNaran jo
ghÄ© a
Petrop av
ĠVercell ese
MiÄĻd zy
ĠTlalmimil olpan
' <
A ou
A pr
A ve
A pa
A ux
A cu
B Äģ
B ÃŃ
B Å«
B Ã¤
B ola
B oun
B ani
B ly
B ata
B ick
B Ã¡r
B old
B Äģl
B Äĥr
B akh
B iga
B luff
B Ã¬nh
C ig
C ano
C ik
C ara
C ey
C lo
C ola
C int
C oro
C aul
C itt
C uen
C liff
C anyon
C Ã³rdoba
D ell
D our
D alm
D ies
D ren
D ouÃ©
D arlington
D ijon
E merald
F ow
F ind
F aul
F ountain
F orges
G et
G ap
G ie
G ot
G ach
G ent
G aw
G lo
G org
G arn
G ban
G Ã³r
G unn
G illes
G Ã³mez
H l
H ale
H ausen
H els
H Ã¸
H att
H Ã¢r
H alls
I li
I gar
J Ã³
J ir
J od
J ap
J um
J Ã¼
J amb
J ouy
K our
K hu
K iz
K ari
K oll
K org
K ÄĻ
K si
K riv
K hem
L ia
L id
L end
L ass
L int
L ath
L ess
L ux
L ies
L uf
L ith
L amar
L odi
M Ä«
M ung
M err
M ied
M elle
M ies
M ago
M Ã¢n
M ett
M igli
M ull
M Ä«r
M ukh
N ay
N un
N im
N ell
N ok
N ai
N ib
N any
N Å«r
N yk
N ancy
O de
O ta
O th
O sk
O ÄŁ
O rop
P ain
P Ã¡n
P ana
P ez
P olo
P anj
P ion
P iÃ©
P ole
P Äģl
P yr
P ias
P yat
P Äĥd
P izz
Q uan
Q ary
R op
R Äģn
R ish
R ick
R ans
R ost
R ust
R ott
S ina
S ola
S Äģn
S ui
S ied
S we
S old
S Åį
S ÄĻ
S lat
S Æ¡n
T v
T id
T eng
T hu
T eb
T lan
T of
T iang
T rac
T rez
T imb
U lan
V ag
V oh
V ire
V Äĥr
V ignes
W r
W am
W ain
W em
W eg
W ud
W uy
W Ã¶r
W ith
W Ã¶rth
W right
W ÄģdÄ«
X un
Y ag
Y az
Y erm
Y ash
Y ax
Y agu
Y velines
Z ur
Z ir
Z eg
Z ug
Z eb
Z ump
Z hao
a á¸©
a illes
b is
b ic
b ag
b us
b itz
b iano
b ane
b ulag
b Ã¦k
c ong
c ka
c ada
c Äĥu
c atepec
c Ä±k
c reek
d le
d ou
d ri
d ock
e w
e ul
f ou
f ont
f lingen
g od
g ong
g art
g iano
g Äĥu
h m
h ur
h la
h ay
h Ã¼
h uan
h ingen
h art
h wa
i ale
j ur
j at
j ou
j ov
j Ä«
j ian
k ad
k ÃŃ
k ek
k iz
k owa
k alan
l ÃŃ
l oy
l ug
l Ã¤
l ish
l ona
l ons
l Åĳ
l ikon
m is
m ay
m ec
m els
m ado
n od
n iv
n ai
n ate
n ess
n ago
o ti
o ff
o tepec
p la
p it
p ak
p ell
p ont
p ero
p rÃ©
p ole
p ils
p ital
q iu
r ol
r ill
r oss
r ath
s Ã¡
s ak
s und
s ele
s Ã¸
t ol
t ne
t orf
u ay
u art
u wa
v ir
v Ã¡n
v ez
v aux
v iller
w ana
w ley
w ani
w oude
y z
y as
y te
y ro
y ak
y sk
y ny
z ob
z bach
z zano
Ä §
Ä Ń
Å Ĩ
Ġ ed
Ġ les
Ġ á¸Ĳ
Ľ i
an ar
an Ã©
an town
an ello
an nes
an lÄ±
ar in
ar le
ar Ã¡n
ar ney
ar idel
er io
er ev
er ich
er field
in ia
in ki
en ch
en cio
en Ã§a
on on
on to
on ica
on nes
al on
al de
al om
al Ã¡n
or os
or an
or on
or ano
or ga
el ing
el ong
el are
el ange
il ong
il eni
as k
as ia
as na
as ide
es an
es ana
es ina
es ine
ch un
ch ach
ch Ã¢
ch burg
ch ingen
ch ies
am il
am at
am Ã¡
am onte
la i
le c
at Ã©
at ia
at to
at ovo
at ley
at yn
at lÄ±
at enango
at chee
San he
ou lo
ou ane
ou sa
ol in
ol od
ol ph
ol inos
ol tern
Ã© nd
Ã© ko
Ã© oua
is ko
is zÃ³w
is ÅĤaw
is ellen
ta pa
ta ciÃ³n
ta zar
ĠC ed
ĠC oc
ĠC ai
ĠC our
ĠC ant
ĠC ave
ad ale
ad illo
ad eros
ad hoo
it ta
it te
it ingen
it ha
it ello
re b
re w
re ta
re ia
re jo
ov yy
ov Ã¬
ov ÄĥÅ£
ing u
ing gi
ia v
ĠM Ã©n
ĠM ans
ĠM ount
ĠM uang
ĠM andi
ĠM endo
te y
te gem
ic os
ic Ã«
ic ias
ĠP ul
ĠP oc
ĠP op
ĠP oz
ĠP olo
ĠP ere
ĠP reto
ĠP anjang
ang b
ay ac
un es
Ã¡ i
Ã¡ Å¾
Ã¡ ll
ĠS at
ĠS ak
ĠS ud
ĠS aw
ĠS uch
ĠS tep
ĠS tein
ĠS atu
et noye
La gu
La bu
ĠB un
ĠB od
ĠB ul
ĠB ec
ĠB og
ĠB oc
ĠB ud
ĠB Ã¢r
ĠB Äĥl
ĠB rod
ĠB righton
ig al
ig ang
ton ville
ton do
ag uer
ag uÃ¡
om on
om Ã©
im ito
im onte
im eno
Ch as
Ch all
Ch ina
Ch ats
Ch ef
Ch ois
Ch Äģnd
au ss
ĠA j
ĠA ch
ĠA li
Ã³ ÅĤ
ac ao
to ck
ab on
ab ag
ir k
ir m
ir t
ir ang
and s
and ar
ÃŃ jar
ed u
ed illa
ed Ã³n
th ill
th orn
ak Ã©
ak hi
sk ov
sk oy
sk Ã½
ain es
ain ville
ĠT el
ĠT il
ĠT res
ĠT enango
ĠT apia
od ian
ĠH er
ĠH in
ĠH ay
ĠH art
ĠH ampton
ĠR ic
ĠR ab
ĠR ec
ĠR aya
ĠR oa
Al ang
Al ton
Al amo
Al tav
Al tona
Al lier
Al tstadt
ap elle
ap hum
ul ing
ul ung
ul iano
ul tepec
ĠG a
ĠG ap
ĠG lor
ĠG allo
ĠG racia
ĠG ustavo
ah i
ah ar
ah io
ah ui
ah oe
ĠV og
ĠV inc
ĠV illas
ĠV ecchio
ĠV egas
us u
us tadt
io ka
ie i
ong e
av es
av et
av ino
av aram
ti h
ti fla
ti kon
ne h
ne ja
ne ve
ne ye
ne uf
co ck
ba z
ue ta
um al
ĠL iv
ĠL amp
ĠL ip
ĠL up
ĠL ario
El ena
El ler
he ta
ell in
ell Ã©
ot u
iv i
ĠJ a
ĠJ e
ĠJ il
ĠJ ara
oy i
Mar d
Mar o
Mar ly
Mar ietta
ĠN og
ĠN akhon
ĠN acion
ow ska
ok rovka
ĠF err
ĠF igu
ers ton
og es
og uhÃ©
ran ce
ik u
ik ovo
Ã¶ g
Ã¶ ss
Ã¶ zÃ¼
Ã¼ nster
sh ine
sh oye
ob u
ob li
Sh ou
Sh ap
Sh ub
Sh iz
Sh iro
Sh annon
ĠD al
ĠD or
ĠD ale
ĠD ios
eg e
eg y
eg lio
st el
Ar gu
Ar ena
Ar ma
ino asa
Ä« ra
Ã³n ica
qu io
qu ina
qu ita
qu ira
est el
est ra
An ak
An tip
op s
op Ã³
ĠMar tha
ts ovo
ts burg
li Ã¨res
ale e
ge e
ent ro
end r
end al
ĠK ir
ĠK uj
St en
St ill
St ir
St ry
zh ang
zh yn
zh nyy
ice ÅŁti
ass en
ass et
ĠE igh
ip o
ip ing
iy am
iy Äģ
iy ah
Ã¨ n
Ã¨ vres
Le ut
ce ola
ug li
ug ao
our s
up an
up ur
ke by
ib ar
ib re
ier zyce
ĠO co
Ã± or
Mon ast
Mon forte
ĠCh al
ĠCh am
ĠCh ase
ĠCh aroen
ian u
Bar i
ny ch
ny tsya
Å« h
Å« j
Å« kh
ĠW all
ĠW ald
ĠW ild
Gu y
Br y
Br uch
uz i
Col on
Col oni
Col inas
ĠLa f
ĠLa wn
ĠLa ja
ĠLa jas
oh l
ate a
ate pÃ©
iz an
iz on
iz zo
iz zi
oz Ã«r
Th ames
fi or
Val para
eb i
eb u
Villa hermosa
no la
lo i
ep y
Sant os
Ã¤ ll
Am bro
Gr as
Gr um
Gr ind
Gr ove
Gr ange
ĠAl bert
ĠAl tas
Mont an
Mont rÃ©
Mont alto
Ãº c
Ãº l
Ãº chil
one ÅŁti
sen burg
sen heim
Or lov
Å¡ a
Å¡ ovice
se h
se ebad
vo o
West ville
West field
rÃ© e
Man i
Man n
Man ning
ÅĤ ÄĻ
ÅĤ owo
Sal as
Sal to
Sal vat
Sal vador
Ber z
Ber Ã«z
uch Ã³w
Be j
Be acons
ly an
oss i
ÃŃn os
ien iec
Nov ov
Mor in
ĠVal verde
Hu al
Hu aj
Hu ayl
ga o
Å£ u
br uk
Cal ab
Bal la
Äį ÃŃn
ita i
ings tedt
kh ovo
kh oz
Bu j
Bu eng
Bu ge
ĠZ hen
Kr al
Cor b
Cor s
Cor ozal
á¸ ı
Kh ok
Es te
Es chen
Ã« t
Se abrook
be uf
son ia
son zo
Ol iva
Gre g
Gre ci
Gre ens
Gre ater
Gre if
Par edes
Tr ud
Ad i
Ad liswil
ste de
á» Ľi
Ab ad
ĠY ang
ĠY elt
ÃŁ e
ÃŁ bach
Bor is
Bor ov
Bor ghetto
ĠAr en
ĠAr ena
ĠAr cos
iss ac
Con de
Con way
ĠAn ton
ock et
Me ad
Me hr
ix co
ion i
ion al
Ba ille
Ba Ã±
Mer ri
ald i
Camp ol
De alu
ua x
ua Ã§u
ans i
zy ca
are Ã±a
are jos
bor k
Monte v
Re is
Re ed
Bro m
Sp an
Ban at
Ro os
Ro ÃŁ
me er
Long quan
Ã¡r d
ĠSh o
ĠSh aykh
Bre d
Bre uil
Bre aza
He im
He idel
ĠU m
Ak Ã§
Er n
Er lenbach
Is Ã¨re
In h
In z
Cap ri
Cap itÃ¡n
ye on
Zh eng
ust ri
ust ine
Kal k
Ros h
iet o
Pet ro
Pet ersburg
we in
old t
cu al
cu autla
Ober s
org he
Cr Äĥ
Mag saysay
rac ÃŃn
rac use
ho ta
Pl oun
Pl oug
Pl aridel
ela ar
Ãī t
Ãī pin
Kir chen
ole to
Ãģ no
ann ing
ann ah
Por te
Ã¸ nd
ene ta
Cab o
Cab ra
Å«r u
Pe arl
Os ceola
At la
Gra f
Gra ven
Äģl Ä«yah
En tr
Ste inh
We in
Kam enka
Fr um
Mur ph
Ph on
Ur s
Em mer
Lo ing
Ser re
Alb ar
Kras noye
Å¾ a
Mad rid
Mad Ä«n
Äĥr m
Äĥr ului
Hol y
Mart ens
Mart ÃŃn
Ac c
ll er
ĠEs p
tz en
tz ingo
Com o
Bon n
Bon if
Str Ã¡Å¾
Ã¶n Ã¼
Wil mington
Wood b
Mel bourne
ker k
vi Å£a
ĠBar co
ĠBar rio
don k
Ash ton
akh urst
Kou assi
lav ice
reg on
Gor od
war th
Nav arre
Äħ Å¼
yl iv
ĠAnd res
Oak ley
Tre v
Win n
Ã¼r z
Fre mont
Fre eport
ph is
bour n
Ã³r z
Grand view
ahu asi
ahu acÃ¡n
mo os
igli ana
BÃ© th
kou a
Del ta
Ha ag
Pin illa
Vil anova
ĠVer onese
Lim on
Will iston
Mah m
riv ia
ĠX och
Med ford
kov ci
kov skaya
ĠPla ine
Lou d
ÅĽ nica
anz uela
Ram at
Tra p
bu ena
Char le
ĠIn Ã©s
Kon an
har pur
Lin ton
Lin ares
enh ora
Sun shine
Å¼ a
ĠCar lo
rou x
ĠCor ral
Ir v
Pad re
Wa id
enz uela
rie u
Dal ton
Roc cas
Tep etz
War wick
ÄĲ áº¯k
ĠRos as
Ost seebad
ram ento
Ga ur
Vi iÅŁoara
Star Ã©
Star Ã¡
Bul i
Sid ney
mp ia
wal k
oj ia
ĠMon ta
Den ton
lem ent
ria ga
Pen ns
ouss e
Flor es
ĠÃģ ngel
asti de
ĠAm aro
ĠShah arch
ysh che
Park er
ters heim
alla h
ando ah
Tla cotepec
Gol ub
onn ay
agn Ã©
ĠOr lic
ĠOr tega
kÃ¶ prÃ¼
Li ub
zan Ã³w
Ind re
Kot el
Sou k
Ġ1 1
Pres s
ikh om
Mau ges
Sok o
White hall
Sen eca
nic eni
ĠMat as
ĠOl d
Agu il
By ron
Og lio
Arg el
ning e
ĠCam acho
ĠPe Ã±Ã³n
Valde m
ps wich
amm ad
ĠPol vor
ĠSebasti Ã£o
Dur ham
Piet r
Piet ro
qui Ã¨res
Oc ampo
But t
Bern ard
Hom e
egg ia
Stan ton
Stein bach
onta ines
Des ert
Kem p
Tec om
Ä«d Ä«
Cz arna
Ãħ r
ÅĮ m
River ton
River view
wer der
ĠÄĲ á»©c
ĠCap illa
ĠAb Å«
Tour aine
Wall er
ĠGr ange
ĠSte iermark
Zap otitlÃ¡n
ÅŃ ng
tav ou
ĠChap el
Ess ex
ĠBon ito
bÃ¼ ren
ĠRam on
Cass ano
áº¡ c
Lad y
ces cu
Blan c
Dav id
Haw thorne
Ik ot
Jac ob
Chic on
Hat field
Kob y
Mira flores
tte ville
ĠBor mida
Prov ence
Low ell
Nap les
led as
ĠRiv era
ĠRiv iera
Hou ston
Xing long
ÄĹ s
Cham ber
ÅŁa ÄŁÄ±
ĠDol na
ĠDol ores
Brad ley
gra ben
Äģw ah
tsch ach
ĠMich ael
Sher wood
Sher idan
SchÃ¶n au
ĠAlb ans
Ãļ j
Clar ence
Clar emont
Hum ber
Jo Ã£o
Luk av
Py h
Samb re
Wy oming
ĠNeg ro
Bridge water
Rac ovi
ĠJoh ann
Cord ova
ÅĪ any
ĠAgu as
ÃŃr itu
Did ier
Fri end
Soc orro
nach t
iag ara
ĠLeon ardo
ĠLeon hard
Pros per
Smith field
Rand olph
ĠMaz owie
ĠGran ada
ĠVel ha
itsy no
Boul der
Uz un
Vie ille
Ã¡nd aro
ĠKal Äģn
Bloom ingdale
Cin co
Naz aire
Suc re
bre it
Alco lea
WeiÃŁ en
Jun ÃŃn
Gros se
Edge water
Pand an
adio kro
ĠPied ras
olay ivka
ĠÅļlÄħ ski
Vien na
ĠHol ly
Cerr ito
Cerr itos
Kre uz
Lj ung
ĠCerr ito
ĠJad raque
Shen andoah
Cald as
ixtla huaca
Heil igen
Enc inas
DoÄŁ an
Harris burg
Batt le
ĠSc rivia
ĠLod igiano
SchÃ¶ ne
Vely ki
Wild wood
Diam ond
Hob art
TÃ¡ pi
bau m
Chris ti
ĠRoc co
iech Ã³w
Eld orado
ÄĥÈĻ eni
ĠKa eo
Ä±ÅŁ la
Å¡Äĩ e
Acqu aviva
Banj ar
Wass er
wol de
ĠSac atepÃ©
ĠStr ada
áº¯ c
Nob le
enci ado
Neuen kirchen
Altam ira
Lour des
ĠPad re
Mare uil
ĠOcot lÃ¡n
ĠCec ilia
ĠAtz ompa
arrub ia
Glas gow
Hac Ä±
fle et
ĠPur ÃŃsima
ĠRay Ã³n
ĠLou is
Neuv y
Montre uil
ĠMartÃŃ nez
Ã¥r d
Glad stone
Hip pol
Pula u
Sett imo
ĠCi udad
ĠCay etano
Neum arkt
ĠOj eda
ĠLaur el
ĠCruc es
Åŀte fan
Ports mouth
Lagun illas
Fateh pur
Jama ica
Menz el
ĠLamb ro
Anto ine
Nek ras
Neun kirchen
ĠWin terthur
ĠWind sor
Espin osa
Abas olo
ift lik
Druzh ba
Konstant in
Potrer illos
ĠMuÃ± oz
ĠNaranj os
ĠEscond ido
ĠSharq Ä«yah
DÄħ browa
Sull ivan
Wetz ikon
ĠBut te
Seaf ord
Krasno armey
Ayd Ä±n
Humb oldt
ĠVl tavou
ĠLiber ty
Schli eren
Atlant ic
ĠDoming os
Krasnog vardey
Vladim ir
Ospedal etto
NÄģá¸© iyat
ĠMÄĽ sto
ĠMias to
Beaul ieu
ĠConst ituciÃ³n
Izvor u
ÄĲáº¡ i
Shev chen
Saturn in
Dioul asso
ĠMendo za
ĠBÄĥl cescu
ĠNacion al
ĠFigu eroa
ĠKuj aw
Beacons field
ĠYelt es
Heidel berg
MadÄ«n at
ĠShaharch asi
ĠOrlic ÃŃ
ĠSacatepÃ© quez
A id
A us
A ti
A ich
A ci
A ya
A ver
A ust
A uv
A ustin
A ÅŁaÄŁÄ±
B ers
B est
B ale
B ich
B land
B eb
B ind
B erm
B olo
B Ã¶r
B yr
B osh
B Ã¤r
B esh
B Ä«r
B aud
B ajo
B ress
B áº¯c
C ie
C eg
C ev
C uz
C alm
C ash
C af
C uch
C ire
C Äĥr
C ava
C ott
C Ã¡rdenas
C acho
C iÃ©nega
D ai
D ard
D ek
D res
D ier
D Å«
D hu
D era
D ari
D han
D Ã©s
D unn
D oum
E R
E S
E a
E re
E sh
E aux
F j
F au
F ah
F oy
F Ã¼
F oz
F ond
F lo
F eh
F lem
F lag
F ive
F ontaines
G ok
G ev
G ara
G ey
G eld
G aj
G af
G hi
G Äĥl
G bon
G wang
G ates
H w
H ra
H ec
H ark
H ort
H ung
H amb
H ita
H ans
H Ãł
I c
I j
I on
I sk
I gh
I tz
I mb
I sonzo
J et
J ie
J ev
J ut
J uv
J uli
J ordan
K ne
K he
K uan
K orn
K int
K alm
K oss
K ira
K len
K iss
K lin
K ih
K ÅĻ
K Äģm
K rom
K rak
L ÃŃ
L ard
L iz
L of
L ama
L ist
L ix
L lor
L Äģl
L iver
L uck
L enz
M op
M ale
M ina
M eld
M ola
M ore
M Äģn
M uch
M ij
M Ãª
M iro
M esa
M ogo
M its
M Äģnd
M Ã¤n
M ueang
N h
N os
N ol
N est
N ana
N ort
N ip
N ian
N ott
N iem
N Ã¸r
N arros
N ether
N iagara
O f
O os
O no
O hl
O tten
O di
P ill
P ue
P our
P oro
P err
P ick
P ust
P ann
P Ã¢r
P Ã´
P Ã¨re
P iro
P esh
P Äĥu
P rag
P unt
P rom
P rem
P Ä±nar
P ersh
P usz
P uerta
Q as
R ur
R ast
R ai
R uc
R Ã¤
R ion
R Ã¸d
S f
S re
S ill
S co
S ei
S ula
S ath
S umb
S Ã¢r
S uh
S Ã©m
S over
S lov
S ym
S ÅĤaw
S ault
S Å«q
S Ã¨vre
T ille
T sh
T ard
T ana
T ark
T uk
T oh
T ond
T Ã¤
T och
T ij
T ama
T ank
T anc
T enn
T Ã½
T ull
T ando
T lam
U ta
U re
U th
U na
V ara
V ord
V ass
V ian
V int
V oss
V ish
V ico
V aul
V akh
V oj
V ult
W ig
W ap
W ong
W ob
W ich
W ier
W ess
W are
W agen
W righ
X o
X il
X Ã£
Y v
Y ab
Y um
Y ell
Y osh
Z m
Z un
Z ong
Z um
Z ev
Z arr
a an
b Äģ
b ab
b ul
b ot
b oc
b ana
b ina
b ark
b ug
b ian
b ani
b endorf
b old
b ush
b ougou
b isch
c im
c ate
c ÃŃa
c Ã³w
c ze
c illas
d ang
d ir
d ach
d ham
d ney
e au
e ka
e ÅŁ
f es
f Ã©
f im
f ah
f ers
f ouÃ©
f eh
f ried
f low
g il
g ov
g et
g ai
g nies
h il
h ang
h ak
h us
h erm
h oun
h war
h aus
h ampton
h istor
i or
i Ã³n
i za
i que
i osa
j el
j Ã³
j ac
j Ã«
k ill
k em
k ok
k ut
k heim
k oro
k ofen
l Äģ
l Äĥ
l Ä«
l ana
l ina
l eni
l ung
l bach
l Äģn
l ÃŃn
l und
l ito
l arn
l uca
m ig
m ot
m ik
m ez
m Ã¡r
m ersdorf
m iao
n av
n ow
n ard
n ovo
n ine
n ava
n itsa
n imas
p os
p il
p ro
p ano
p he
p ilco
p ierre
q Äģ
q ah
q ian
r or
r uz
r ico
r uck
r eras
s ol
s ing
s feld
s dale
s nacht
t w
t at
t Äģ
t us
t na
t ina
t ub
t yn
t ree
u ed
u sk
u que
u ja
u ÅĦ
v ol
v id
v ec
v illa
v ard
v est
v ant
v aro
v Äģn
v ari
v ald
v oll
v eno
v liet
w ez
w oud
w ards
w ihr
x u
x as
x pan
x iu
y de
y ay
y un
y ri
y th
y ers
y ÅĽl
z d
z ab
z ka
z ach
z ingen
z olo
z ki
z endorf
Ä ¡
Ð °
Ð ¸
Ù Ĭ
Ġ ar
Ġ at
Ġ ad
os ÃŃ
os ha
an ap
an ci
ar on
ar te
ar ay
ar ri
ar et
ar av
ar co
ar ano
ar Ã³n
ar ca
ar ella
er z
er in
er ta
er re
er zh
er ke
er ata
er ies
in ar
in am
in ou
in and
in th
in ice
in aldo
en ov
en ia
en ac
en ti
on ah
on io
on ice
on ovo
on era
on ico
al illo
al Ã©n
al oa
or z
or il
or to
or ong
or he
el j
el m
el berg
el ieu
el gem
il j
il en
il at
il ou
il ov
il ac
il pan
il do
as te
as aki
as ota
es tone
ch as
ch ain
ch em
ch ev
ch ug
ch yn
ch field
ch iano
ch any
ur is
ur ÃŃ
am ur
am and
am ish
am eca
de te
le an
le go
le tt
at l
at re
at ham
at pur
at ÃŃo
at itla
San gar
ou z
ou ch
ou ta
ou ba
ou ine
ou cester
ol on
ol un
ol engo
Ã© on
Ã© ra
Ã© ville
Ã© go
Ã© ni
Ã© llar
is en
is le
is ou
is ca
is berg
is ten
is nes
is hui
ta go
ta yan
ta ble
ĠC e
ĠC es
ĠC oy
ĠC res
ĠC ip
ĠC ount
ĠC ost
ĠC umb
ĠC arn
ĠC orte
ĠC erd
ĠC lar
ĠC abr
ĠC omp
ĠC ountry
ĠC Ã³rdoba
ad d
ad ap
it ia
it rov
re o
re ux
ov u
ov ell
ov ei
ing ford
ia p
ia u
ia ca
ra ine
ra we
ĠM us
ĠM em
ĠM ant
ĠM old
ĠM inh
ĠM otte
ĠM irim
ĠM iami
te o
ic co
ic ana
ic ina
ĠP il
ĠP ac
ĠP ap
ĠP ly
ĠP ira
ĠP onte
ĠP ath
ĠP eral
ĠP unta
ang ue
ay ag
ay ama
un us
un ter
ro ya
Äģ sa
Äģ ganj
Ã¡ cuaro
ĠS m
ĠS Ã¡
ĠS ong
ĠS ob
ĠS ub
ĠS tadt
ĠS Ã¡z
ĠS ever
ĠS lob
ĠS oria
ĠS idi
ri ÈĻ
et ro
et Ã¡
La h
La o
La ut
La uz
La jas
ĠB oh
ĠB ua
ĠB ois
ĠB Äģgh
ĠB Ã©jar
ig ou
ig rad
ag ara
ag udo
om in
om ac
om and
om ice
om ut
om era
om ero
om achi
om ÄĽÅĻice
ill ers
ill Ã¡n
im es
im ah
im iento
Ch ol
Ch Äģ
Ch od
Ch io
Ch ot
Ch az
Ch ino
Ch ib
Ch ala
Ch ry
Ch erm
Ch ish
Ch ick
Ch alo
Ch iesa
Ch á»£
au f
au la
au gh
ĠA st
ĠA pp
ĠA pol
ĠA lem
Ã³ c
Ã³ f
ac ab
ac oy
ac Ã³n
ac ena
Ġd en
to pol
ab ang
ab ella
ir in
ir it
ir sk
and illa
ÃŃ ra
ÃŃ var
ed er
th o
th ana
th ier
ak k
ak er
ak in
ak en
ak oro
sk yi
ain en
ĠT on
ĠT es
ĠT at
ĠT im
ĠT hi
ĠT ule
ĠT agli
ĠT aju
ĠT errero
od at
od io
od eni
ĠH ou
ĠH ong
ĠH ot
ĠH oyo
ĠH ome
ĠH uerta
ĠR ei
ĠR oma
Al ar
Al ic
Al im
Al mar
Al ler
Al can
Al tay
ap ura
ap ampa
ap Ä±nar
ul m
ul en
ĠG o
ĠG ol
ĠG he
ĠG Ã¼
ĠG uan
ĠG iang
ĠG orodok
ĠG aspar
ĠV is
ĠV ed
ĠV ers
ĠV ino
ĠV ent
ĠV tor
ĠV lad
ĠV orstadt
id ia
id ero
id onia
us hu
io ara
ie b
ie f
ie v
av ak
av od
av eral
av allo
av odsk
ti y
ti ch
ti Ã¨re
ne g
ne x
ne uil
co ch
co ur
co ta
ba ÄŁ
ano ke
ano wo
ka ch
ka way
um ont
um berland
ĠL in
ĠL es
ĠL ÃŃ
ĠL lor
ĠL ox
El len
he il
he ath
ell as
ell Ã³
ell ino
Äĥ ng
Äĥ ÅŁti
Äĥ teÅŁti
ot an
ot yn
iv en
iv es
iv is
ter t
ter ing
ter ville
ter son
ter shausen
ĠJ un
ĠJ ard
ĠJ ud
ĠJ ord
ĠJ imÃ©
ec ac
ec co
ec ca
em o
em an
em et
oy ne
Mar ian
Mar gar
Mar ks
Mar ble
Mar gate
Mar ysville
Mar avillas
ĠN g
ĠN ic
ĠN ie
ĠN ong
ĠN ik
ĠN ovo
ĠN inh
ĠN oria
ĠN ghÄ©a
ast re
ast ra
ow er
ow ay
ok u
ĠF am
ĠF ra
ĠF ab
ĠF our
ĠF air
ĠF oo
ĠF uerte
ÅŁ e
ÅŁ in
ÅŁ ia
ÅŁ teni
ers ham
og nes
ik an
Ã¶ b
Ã¶ ng
Ã¼ zÃ¼
ont itlÃ¡n
sh y
sh ang
sh ah
sh Ä«
sh aya
ach apa
oc e
oc on
oc un
oc co
ob y
ob re
ob oua
ob bio
ob rz
ai ri
Sh or
Sh ing
Sh eng
Sh af
Sh ire
Sh ady
Sh rews
az m
az y
ĠD j
ĠD ong
ĠD ion
ĠD ru
ĠD ennis
eg en
eg al
eg ra
eg lia
Ã¡n ya
Ar j
Ar ar
Ar ra
Ar ba
Ar les
Ar den
Ar pa
Ä« la
Ä« ya
Ã³n io
ard t
qu en
qu ero
qu ena
qu ito
qu ista
qu itlÃ¡n
qu Ã©s
An c
An ast
orf olk
bur ne
ud as
ĠMar i
ĠMar ino
ĠMar kt
ts tein
ara ja
li one
ale u
na w
na is
ent ry
uc co
end as
end onk
ĠK ing
ĠK amp
ĠK arl
St ub
St aro
St rom
ark s
gu ang
zh ay
zh ne
zh eng
ey li
ey tin
ub u
ub ok
eld s
ut ri
Ne ed
ass er
ek ro
ĠE p
ĠE ss
ĠE mp
ip u
ern dorf
ern ales
ĠI tz
ĠI tal
Le p
Le de
aw i
aw ang
Ã¢ na
ca Ã±
ug i
up y
up er
ib an
ib ou
ier e
ĠO jo
ĠO ula
ĠO cotepec
ens te
ens tetten
uk o
uk ay
uk ovo
uk Å«
Mon mouth
ĠCh a
ĠCh o
ĠCh or
ĠCh ol
ĠCh au
ĠCh ir
ĠCh ian
Bar c
Bar r
Bar u
Bar ri
Bar ber
Bar ns
Bar row
Bar rancas
ĠW a
ĠW e
ĠW en
ĠW ang
ĠW ein
Gu ach
Gu adal
Car c
Car tag
Car olina
Br en
Br ass
Br gy
uz o
da de
hu ay
ant ino
ez en
Col li
Col ling
Col men
Col lado
Col fax
ĠLa w
ĠLa bor
ff in
ate pe
amb re
ry sh
iz io
orn ik
Th i
Th o
Th iers
ei u
ten ay
no is
Cast ron
lo e
lo on
Sch ar
Sch er
Sch ne
Sch itu
Sant iagu
Qu es
Qu ir
Qu ip
Qu att
Ã¤ ff
Am a
Am or
Am ag
Am bo
ss ou
ha e
yn n
yn Ã³w
Gr is
Gr ass
och noye
och itlÃ¡n
Bel fast
ĠAl tam
ĠAl cÃ¡n
Mont c
Mont en
Mont eleone
erm es
Ãº la
Or le
Or ba
Or land
Or me
wood s
Å¡ i
alm e
se o
se ong
olo apan
West port
West lake
ash at
gh i
gh an
Man z
Man zana
ĠSan ds
ÅĤ m
ÅĤ ud
ÅĤ kowice
Ã§ ek
ari Ã¡
Sal cedo
Sal amanca
Ber d
Ber wick
uch t
Be a
Be e
Be h
Be uv
Be xley
New market
art ÃŃn
art ida
den ham
Pr in
Pr am
Pr ing
Pr ados
ck s
uer bach
ly y
ien ne
Nov Ã½
Mal k
Mal v
Mal ak
Mor ton
Mor aleja
ĠVal s
jo a
tad o
Hu at
Hu Ã©
Hu az
Hu Ã©r
ins berg
ĠJos eph
br as
Cal at
Cal der
Cal edonia
Bal i
Bal ta
Bal ogo
Äį ica
Äį ovice
kh od
ĠZ a
ĠZ en
ĠZ em
ĠZ amora
Cor c
Cor al
Cor bi
itz endorf
Kh on
Kh Äģ
Kh ir
Kh and
ui eni
Ã« v
Ã« vka
Se en
Se aside
be ach
ve h
Tor ric
Tor rel
Bur la
Bo a
Bo th
Bo ÄŁ
bo le
Ma ure
Gre ensburg
ula h
ula o
Tr Ãł
Tr ujillo
len z
Ad ams
South ern
South port
Ab d
Ab ou
Per iy
uy Ã¨res
wa ÅĤd
ĠY uc
ÃŁ ling
áº ©
ist lÃ¡n
Bor de
anj iang
Con n
Con nell
ze a
ze f
ĠBe Äį
ver e
ver t
ver ne
rid or
Me j
Me hl
Ba un
Ba Ã¯
Ba xter
Co atepec
Camp an
Camp of
Bad ia
are a
Re it
tt ingen
nes boro
Bro ek
As cot
As unciÃ³n
Mo is
Mo ore
Sar m
Sar ai
oug es
Ban k
Ro Å¾
Ro anoke
ane jo
He in
He ad
He id
Ak ron
Äģd ah
Is a
ys z
ys hevo
Can ter
Zh ur
Kal i
Kal ten
Ros iÃ¨res
Ros lyn
Ros eville
we is
old ing
Ben av
Gro ot
Ober w
ure a
ure ÅŁti
org an
Cr ic
Mag h
Mag all
Mag ny
ho ek
Pl Ã©
And erson
And rews
Ãī g
Ãī ch
Ãī cole
rad es
uf eng
Ãģ r
Ãģ gua
Ãģ yi
ater ina
Äģb ah
umb ia
Av es
Av oca
For rest
Vel illa
Vel kÃ¡
Ã¢n c
Pe ar
if eng
At ti
Cam al
ÅĻ any
ÅĻ ovice
ĠGu tiÃ©rrez
ĠGu areÃ±a
Les noy
Bou c
Bou z
Har p
Har bor
Har vey
sch lag
Kam enn
Lang ley
Pla ins
gn ac
Mur o
Mur ray
gi ate
ĠSal itre
ÄĻ ba
ini ÅŁ
Castel o
Castel nau
Em in
Lo os
ks ton
Ser g
Kras ne
Å¾ i
Ko to
Ko ff
Ko ÅĤ
Mad h
mar ie
Ã©r ica
Ci uc
Hol m
Hol den
Ac atlÃ¡n
Tar as
des heim
ĠEs per
Bag ong
ĠMor ales
ĠMor ris
Ter ran
ĠCre m
enn ingen
Bon net
ko ta
Str el
Str um
Bol ivar
ÈĽ eni
Ã¶n n
Cu ba
Wood ford
Wood bridge
tr ud
Mel gar
ĠBar bara
Hor ton
Ash ford
Ca Ã±as
Sa al
ler ville
Ãĩ ak
Ãĩ atal
Pas ir
Pas adena
way n
ĠKh Äģs
á¸© ah
mb ar
Gor nyy
ÄĽ Å¾
let ta
let to
Palm er
Ã¯ a
Ã©d i
ĠTh or
Wal tham
Äħ cz
ĠQ an
ĠSt ar
Gl end
Gl oucester
ĠRe ch
ĠRe adap
uss y
alo te
ĠAnd reu
May o
Su vor
ĠCol or
Tre m
tag lia
Alt os
Fre d
Fre ud
ph ia
ph erd
osh ima
Ä«n ah
ĠEl m
ahu ac
ahu atlÃ¡n
Ã¶l d
Red iu
ĠCal ab
ĠCal zada
BÃ© l
BÃ© ziers
ĠRo deo
Ha ÃŁ
Mol in
over y
ias co
ĠX X
ĠX uÃ¢n
ĠX uyÃªn
rig lia
Fran ce
Ke far
Med ve
Sau k
ĠPla za
Lou tr
Tab on
ÅĽ na
anz as
inas co
Ale g
Ale m
Dun dee
Kur ort
ĠTe xcal
Bir nin
Ho i
Ho op
Lin jiang
ĠCar rizal
Sc ur
Sc and
ĠCor ona
ĠCor neja
Iz um
Pad erno
tel vi
enz ell
enz ana
ÄĲ á»ĵng
ĠBlan cas
Glen coe
Ost ro
Ost row
Ru ff
Ru ther
ĠFor ks
Ot tawa
Sul t
Vi ÅŁ
Vi Ã±
con es
Star ok
Sin j
ĠPh isai
Mak ar
win kel
ÄĮ er
Gh er
Sur d
Som erville
ĠMon ica
var ez
ÄĢ b
ÄĢ d
ÄĢ q
ĠMa ur
ouss a
ouss ou
Äģs pur
Krasn oyar
Flor ent
ĠCu aut
Fl ora
Im m
Luc as
Luc ena
Åģ ub
Kil Ã³m
Ny zh
Vall Ã©e
Cent reville
Mc Kin
ukh ov
ukh ovo
Tan ah
Ara k
Pi atra
Åĳ d
ters wil
Eg linton
Kl im
Rock ville
Rock ford
Tla co
Uni rea
She k
She m
She pherd
Us pen
unc eston
It ur
rat en
ĠMad rid
Ala c
Jin cheng
Jin shan
Liv ez
ĠMe x
ĠOr chard
Cro ok
Sor rento
Sou q
Ġ1 2
Black burn
Dz Ã¼
MÃ© ziÃ¨res
Pri est
Wang en
cas ter
ĠRom Ã¡n
nic ÃŃ
etta i
Brook field
Brook haven
Dor oban
ĠNe ustadt
Agu ada
Tro is
Ãĸ l
Arg ent
á»ĭ nh
Bet hany
Est ancia
MÃ¼ ll
ĠEn med
ĠZap otitlÃ¡n
Up ton
Ve inte
ĠCo atlÃ¡n
onz alo
ĠPol esine
Cour celles
Fal con
Rob led
Oc na
Tim ber
Germ antown
Pop eÅŁti
Stan ford
BÄĥ ile
Gard ner
Pra ia
Rem e
Wes ley
ule ÅŁti
Cla ude
Mun ster
Ä° n
Tec ol
mon ton
str ingen
Bod en
Len inskiy
MÄĥ d
Qing yuan
Ãħ s
ĠBr and
ĠBur gos
ĠCap ulÃŃn
itla pilco
Pac ific
este ad
Pang kalan
Ron c
ĠBel bo
Forest ville
Ross ville
ĠPet ers
Alc ub
Nik ola
Pel ham
Pied mont
Rou ge
Rou nd
ĠBon fil
Zhong shan
Cot tage
bÃ¼ hl
iÅ¡ t
iÅ¡ ov
ĠBern ard
Shuang he
Shuang long
Ran ce
Ran tau
Che ÅĤm
oyo tepec
Monter ey
Buch anan
Ex eter
Fres n
ĠMol ina
App le
App leton
Hin ton
Yar oslav
lang en
ĠCas as
ĠPar is
Well sville
á¹ ¯
ayl ovka
Lab astide
Dav yd
Fe istritz
Haw ai
Haw thorn
rÃŃ cola
anes ville
Ã³p oulo
Schw ab
anu ova
ĠSeg unda
Prov idence
Kaz an
Lich ten
Wen quan
led ge
Ã©k aha
Gir ard
Jiang kou
SÃ¢n m
Kry m
Pok rovskoye
RÄģm nagar
ĠBo edo
ĠNov arese
Ä«m ah
zew ice
Brown s
Bow ling
Cog on
Warr enton
Ãľ ber
ĠBal ka
ĠVe it
Civ ita
tur no
Clar endon
Bran t
Hen ry
Lud wig
Pamp as
weg o
CÄĥ p
Hills ide
Bia ÅĤa
Para je
fal va
oub li
Ã©v ez
ĠFu entes
Bella ire
Montic elli
DrÄĥ go
KÃ¼ Ã§
KÃ¼ snacht
Lie ben
ĠTom Ã©
ÅĻÃŃ ÄįÃŃ
Hun ter
Hun tsville
Yel an
yev skiy
yev skaya
ĠBan Ä«
Charl ton
Stra ÃŁ
Clark sville
ĠLeon ards
Lit chfield
Ves el
vÃ¡r os
Ã¹ ng
ĠMel bourne
Smith ville
Pou illy
iÈĻ oara
ĠBos ton
ĠIx ta
á»Ļ t
ÄĥrÄĥ ÅŁti
ÄĥrÄĥ ÈĻti
Boul ogne
Lyn n
rub ia
rub io
Chau mont
ĠTra un
Broad view
Brigh t
Rok yt
Rip ley
ĠPas cual
ayd ah
Äĥm Ã¢n
Oster ia
ĠQue mada
ĠInn kreis
Hue huet
Äĥs ti
Guay abal
aq ov
ĠCro ix
ĠPlan es
Chand ler
ĠTs uen
ittel feld
Aleksand rov
Ula an
Zam ora
ouy Ã©
ĠMes nil
ĠPia uÃŃ
top he
Marsh field
quar ie
Mex ico
Abr am
Deb re
Lj ub
Morn ingside
ily urt
ĠInd ustri
Carbon eras
Verkhniy e
Pervomay skiy
Bj Ã¶r
Tip ton
adz or
ĠHerr adura
ÄĥÅŁ eÅŁti
ensch wil
Novop okrovka
ĠNew ton
Ato tonilco
MÄĥr gin
Ria ch
Sug ar
Zak r
gl ise
ĠMed io
Chris tophe
ĠRich mond
ĠJal Ã³n
ĠVald avia
Åļw ier
CÃ¡ i
Mikh ay
Mikh aylovka
Cabez Ã³n
Bens on
FÃ¼r sten
Kend all
Pey r
Scot ts
Wins ton
Wick ham
ĠEr mita
ĠIm per
ĠChim alpa
Burn ham
YeÅŁ il
Johns ton
Watt le
vie ja
anb ulag
ĠBren ner
ĠReg is
quip ulas
Thal wil
cken ridge
Cros by
Comp ton
eneg ro
roc ÅĤaw
ĠSum mit
ĠAug usta
ĠHan Ã©
ĠChic ago
Carl ton
áº¿ n
ÅĽci el
Sosn ovka
Vers ailles
amang alam
ĠCort Ã©s
ĠSta zione
ĠMargar ethen
Bist ri
Hick ory
Pho enix
ĠSay ago
Add ison
Bais ha
Wilhel m
ĠTepet itlÃ¡n
Ahuac atlÃ¡n
Hid den
Nass au
Scar borough
Wys oka
mÃ¤ ki
adel phia
ĠHuer tas
ĠFil ip
ĠÃģl varez
Jast rz
Zare chnyy
Zacu alpan
gÄĥ ului
vier tel
ĠMond ovÃ¬
ĠMure ÅŁ
ĠTron to
Shore wood
Stam ford
ĠWill iam
Manh attan
Tamaz ula
Cien egu
Cyp ress
Dn ip
Joa quÃŃn
Roll ing
Worth ington
ĠCand elaria
ĠPav Ã³n
Leis ure
Barcel ona
ĠSalvat ore
Ãĩam lÄ±
ĠConcord ia
Imper ial
ĠOrd az
DrÄĥg ÄĥneÅŁti
Twe ed
Went worth
ĠMez quit
ĠParan Ã¡
ĠRou ge
ĠGon Ã§
ĠGÃ¡l lego
ĠLec ce
stre am
Thomp son
Brew ster
Galle gos
Bogorod skoye
Komsom ol
Buci um
Hajd Ãº
Vosk res
ĠNativ itas
Hinoj osa
OÄŁ uz
Qary at
Trac y
Ã¡ll Ã¡s
ĠBÃ¢r gÄĥului
ĠGlor ia
Antip olo
Stir ling
ĠEigh ty
MontrÃ© al
Salvat ierra
Span ish
Woodb ine
ĠMazowie cki
Hippol yte
ER ES
histor ical
mik lÃ³s
mÃ¡r ton
ĠCount y
ĠSÃ¡z avou
ĠTagli amento
ĠTaju Ã±a
ĠJimÃ© nez
Shrews bury
ukÅ« mat
ĠChian ti
Cartag ena
ĠAlcÃ¡n tara
Torric ella
Ãģyi os
ĠReadap taciÃ³n
Ruther ford
KilÃ³m etro
ĠEnmed io
ERES O
A ar
A il
A te
A ce
A iz
A ten
A ga
A rac
A hl
B ik
B Ä«
B iz
B one
B ena
B oro
B of
B Ã©n
B ila
B oug
B omb
B anda
B etz
B har
B ondo
B Ã¢l
B Äģg
C id
C em
C ana
C oh
C lan
C ella
C ans
C inc
C Ãł
C Ã´
C riv
C rop
C Äĥt
C áº§u
C wm
C áº©
D m
D v
D it
D and
D ÃŃ
D us
D Äĥ
D ers
D end
D ey
D ord
D ass
D ern
D ala
D ond
D ind
D rÃ©
D ÅĤ
D iano
D ist
D oll
D ank
D ole
D oma
D ih
D zi
D Ã¢r
D vor
D Ã¢mb
E u
E ur
E to
E ti
E ne
E yn
E ix
E ven
E ym
F B
F as
F ak
F ai
F ale
F ark
F ey
F aj
F uch
F els
F lÃ©
F lav
F alls
F rontera
G ig
G id
G ue
G li
G ern
G eni
G land
G no
G ola
G ari
G art
G ies
G omb
G ann
G arl
G ales
G att
G Ã©r
G Ã¼r
G bal
G allo
G Ã³ra
G antang
H is
H Äģ
H oc
H ond
H ly
H ess
H any
H omb
H ole
H Äĥl
H asan
H aine
H Ã¸r
H orgen
H Ã²a
H ubb
I la
I pp
I bi
I owa
I barra
J ers
J uc
J ord
J up
J uch
J ank
J Äģm
J avier
J ssel
K ig
K ers
K iy
K ny
K ins
K any
K ys
K itt
K omb
K umb
K uh
K Ã½
K Ã¼r
K ati
K oren
K Ã¤r
K lad
K rop
K enne
K Äģnd
L ara
L aro
L ash
L und
L err
L ion
L ane
L iÃ©
L ann
L eno
L igny
L eland
L unc
L unga
L Ã¨ze
M j
M k
M r
M s
M v
M Ã¡
M ent
M ub
M ord
M Ã¢
M ens
M Å«
M aya
M ena
M ign
M uy
M ick
M iri
M iel
M ure
M Äģl
M Ã©r
M Ã¢r
M eth
M akh
M ango
M anga
M aha
M Ã¶l
M ills
M amm
M Ã©nÃ©
M Ã¢nd
M á»¹
N j
N s
N id
N io
N Äĥ
N Ã¼
N ach
N uc
N Ã¤
N Ãº
N aro
N ien
N iang
N ick
N anc
N agar
N yang
N orfolk
O h
O uan
O ns
O ua
O cu
O der
O don
O uss
O riz
O voo
O akhurst
O regon
P ong
P ent
P amb
P iz
P ei
P ep
P aro
P ÅĤ
P ari
P ani
P uer
P arr
P iss
P ess
P ila
P Äģr
P elle
P ank
P omb
P att
P Ã½
P reg
P iana
P Ã¶l
P asso
P enz
P rog
P rogres
P isc
P onder
Q o
Q ala
Q uel
R eng
R ach
R ass
R ek
R Å«
R ant
R ez
R osa
R oug
R ye
R uf
R oma
R anc
R eth
R ieux
R Äĥc
R Ã¢m
R inconada
S de
S ri
S ti
S ka
S Ä«
S iz
S och
S erm
S ita
S ign
S ve
S iss
S ess
S iri
S inc
S org
S iÃ©
S cal
S Äģm
S Ã¶r
S lu
S aba
S Äĥc
S Ä«dÄ«
T Äģ
T io
T ell
T Äĥ
T Ã¼
T ach
T ass
T alm
T ari
T art
T ien
T ita
T uy
T Ã©n
T ura
T oll
T urt
T oli
T Äģl
T Ã´
T akh
T reg
T omas
T wo
T agu
T ats
T aver
T acu
T owns
T ÅĻeb
U x
U et
U ba
U da
U ly
U pp
U mar
V ay
V Äĥ
V ot
V ard
V li
V ip
V ib
V ala
V Å¡
V iri
V ies
V oul
V ide
V las
V igo
W ou
W ac
W ir
W id
W ach
W ien
W err
W iet
W ann
W awa
W Äħ
W Ã¶l
W elles
W epp
X ic
X ix
X oco
Y os
Y ol
Y ad
Y ac
Y ec
Y amp
Y ark
Y ek
Y uk
Y ant
Y eb
Y ep
Y ao
Y onne
Y ancheng
Y eghe
Y armouth
Z on
Z as
Z it
Z ach
Z uc
Z iz
Z ona
Z oll
Z Ã©rÃ©
Z eytin
a il
a ÄŁ
b h
b ill
b Ã¶
b illa
b est
b ich
b ier
b uk
b uz
b oh
b iel
b ide
b ling
b uen
b lÃ©
b aba
b Ã¼r
b bi
b atu
c ac
c olo
c ari
c art
c ele
c oli
c iago
c atlÃ¡n
c ayo
c ÄĥneÅŁti
c Ã¼k
d om
d ie
d own
d asht
e ast
f s
f ig
f ir
f ak
f ell
f err
f ish
f enbach
g s
g ay
g ab
g oy
g ast
g ara
g ung
g da
g aro
g ani
g ata
g iri
g endorf
g lia
g Ã¶l
g owo
g orod
g azi
h ia
h ri
h et
h im
h Ã³
h ot
h Ä«
h ala
h ari
h iri
h ler
h Äģt
i one
i olo
i ona
j es
j am
j ec
j na
j ica
j era
j apa
j ovice
j andro
k ang
k Ã³
k ab
k ell
k ens
k ila
k Ã¶l
k ylÃ¤
l ers
l ens
l ui
l ope
m Äģ
m ag
m od
m eni
m ala
m ant
m aj
m oz
m iel
m ons
m arn
m achi
m ersheim
n ton
n ag
n ong
n Ã³w
n ja
n ova
n Å«r
n odoro
n iewo
o eiro
p ia
p ul
p ok
p eng
p uz
p ala
p per
p iÃ©
p illas
p ampa
p Äģra
p azarÄ±
q al
q ay
q Ä«n
r t
r ara
r ale
r ent
r za
r ine
r ingen
r Äģn
r ona
r uy
r Ãł
r ush
r umb
r ise
r Ã³s
r eros
r ingham
r Ã¼ck
s at
s all
s ingen
s wood
s ari
s pr
s bury
s well
s jÃ¶
t il
t Ã³w
t ura
t endorf
t Ãºn
u u
u as
u ti
u ge
u Ã±
u bach
u era
u ova
u apa
u way
u Ã±o
v ay
v oy
v ei
v ola
v ario
v illy
v ecchio
w r
w it
w ing
w ak
w ind
w ali
w erd
w isch
w Ã¶rth
x a
x te
y er
y al
y ac
y ue
y no
y urt
y akh
y ÅĦ
y alla
y Ãªn
y otl
z k
z v
z im
z ap
z ara
z na
z ola
z ago
z enbach
Ä Ĩ
Ä ı
Ì ĩ
Ñ ĥ
Ġ &
Ġ ul
Ġ con
Ġ Åģ
Ġ vor
Ġ cel
Ġ Å»
Ġ Èĺ
Ġ unter
ģ n
os u
os co
os ano
os ovo
os ÅĤaw
os zcz
an al
an ac
an ville
an he
an era
an pur
an ivka
an Ã§a
ar b
ar ing
ar ec
ar ez
ar ica
ar ten
ar Ã³w
ar ito
ar ama
ar garh
er el
er ka
er ey
er lo
er skiy
er ve
er bo
er feld
er olles
er heide
in Ã©
in io
in ne
in ts
in ja
en ic
en io
en ville
en ec
en ik
en ts
en ich
en ivka
en skaya
en Ã§o
on Ã©
on ara
on ce
on cillo
al im
al ÃŃ
al oc
al va
al eda
al unga
or b
or la
or ra
or ino
or na
or eni
or ien
or ivka
or osso
el g
el ou
el ang
el Ã¢ndia
il on
il is
il ai
il ua
as ton
as ki
as hevo
es er
es io
es da
es dorf
es ita
ch on
ch ov
ch ie
ch berg
ch heim
ch eri
ch noye
ch witz
ur on
ur ou
ur ne
ur ey
ur ovo
am ont
am Ã³n
am ina
am atsu
de burg
de jo
de ira
la j
la z
la da
la pa
la yan
le f
le g
le h
le j
le vo
le town
at os
at un
at au
at Ã³n
at li
at uan
at ica
at ore
at own
at si
San s
San ter
San jiang
ou i
ou ar
ou er
ou en
ou le
ou ma
ou ze
ou illet
ol os
ol en
ol im
ol op
ol Å£
is z
is ville
is land
is ario
ta ÅŁ
ta gi
ĠC el
ĠC ov
ĠC ir
ĠC ong
ĠC ano
ĠC ard
ĠC eb
ĠC ien
ĠC elle
ĠC edro
ĠC ali
ĠC liff
ĠC inco
ĠC aterina
ad in
ad en
ad le
ad ana
ad ores
ad uey
ad avia
it at
it ic
it ro
it io
it ama
it Ãł
it inga
it lalpan
re ts
re ja
re uil
ov ik
ov ana
ov aya
ov lje
ov grad
ov iÄĩi
ing in
ing al
ing es
ing rad
ia h
ia k
ia co
ia po
ra e
ra q
ra je
ra ben
ĠM c
ĠM i
ĠM om
ĠM au
ĠM ul
ĠM end
ĠM ula
ĠM ath
ĠM iss
ĠM ess
ĠM ella
ĠM iel
ĠM ango
ĠM ack
ĠM ota
ĠM Ã³nica
ĠM Ã¼rz
te t
te ad
te ira
te aga
ic on
ic ano
ic ara
ic ello
ic ella
ic chio
ĠP ou
ĠP ast
ĠP all
ĠP ek
ĠP int
ĠP ico
ĠP ost
ĠP anc
ĠP uj
ĠP ros
ĠP orte
ĠP inos
ĠP esc
ĠP avese
ang as
ay ang
ay ne
un j
un ia
un na
un dorf
ro ÃŁ
Äģ si
Äģ var
Äģ rak
Ã¡ huac
ĠS y
ĠS ag
ĠS ot
ĠS uc
ĠS hu
ĠS pa
ĠS asso
ĠS lov
ĠS onn
ĠS hui
ĠS esia
ĠS utton
ri x
ri en
ri et
ri Ã³n
ri Ãł
et an
et al
et ch
et ere
La x
La ch
La un
La gar
La pin
La zar
ĠB l
ĠB es
ĠB ir
ĠB us
ĠB ara
ĠB ass
ĠB ug
ĠB ari
ĠB err
ĠB ella
ĠB ust
ĠB ush
ĠB ris
ĠB uey
ĠB rava
ĠB aja
ĠB arros
ĠB áº£
ig ar
ig anj
ig ao
ig beu
ig ueira
ton da
ag r
ag as
ag ay
ag ni
ag gi
ag gio
ag ram
om y
om en
om ano
om ey
om onte
om atlÃ¡n
ill ard
ill era
ill ero
ill ington
ill ya
ill ert
ill oux
ill ermo
im at
im it
im Ã¡n
im ore
im bo
im ilco
Ch y
Ch on
Ch ay
Ch ig
Ch ah
Ch op
Ch ey
Ch ass
Ch uk
Ch art
Ch ico
Ch iri
Ch Ãª
Ch oi
au c
au g
au m
au ville
au di
ĠA to
ĠA ce
ĠA ire
ĠA tla
Ã³ a
Ã³ g
Ã³ st
Ã³ var
ac es
ac am
ac ra
ac Äĥ
ac cia
Ġd in
Ġd ello
to is
to ya
to ky
ab is
ab Ã³n
ab uan
ab ito
ir am
ir ana
ir li
ir anga
and Ã©
ÃŃ d
ÃŃ l
ÃŃ tsa
ed y
ed al
ed as
ed om
ed ge
ed Ã¨s
th Ã©
th aca
th ofen
th rop
th ouse
ak y
ak ot
sk ill
sk em
ain s
ĠT i
ĠT u
ĠT os
ĠT ar
ĠT ou
ĠT ay
ĠT un
ĠT ap
ĠT ong
ĠT um
ĠT aw
ĠT hu
ĠT ha
ĠT rÃ©
ĠT han
ĠT ula
ĠT uy
od os
od on
od ia
ĠH al
ĠH ed
ĠH ai
ĠH aw
ĠH agen
ĠH á»ĵ
ĠH ernÃ¡ndez
ĠH ouyÃ©
ĠR on
ĠR us
ĠR av
ĠR ai
ĠR ight
Al z
Al un
Al lan
Al bor
Al lende
ul d
ul pa
ĠG au
ĠG ord
ĠG rim
ĠG oi
ah in
ah on
ah ia
ah ama
ĠV o
ĠV r
ĠV in
ĠV il
ĠV ig
ĠV iv
ĠV alm
ĠV aras
id ul
id oro
id ona
ie ck
ie gos
ong j
av on
av as
av ac
av ita
av ichy
ti pan
ne b
ne v
ne w
ne us
ne ÈĻti
co iu
ano y
ka o
ber s
ber go
ue ca
ue ve
um et
um bur
ĠL an
ĠL ad
ĠL un
ĠL et
ĠL em
ĠL ey
ĠL ine
ĠL oz
ĠL ock
ĠL iri
ĠL ee
ĠL inh
ĠL uka
ĠL Ã¢m
ĠL hota
El b
El ster
he a
he e
he y
he ir
ell os
ell ano
Äĥ ce
ot ang
ot ÃŃ
ot ti
ot ino
ot ts
ot era
ot nica
ot itÃ¡n
ot enango
ter e
ter y
ter ton
ter bach
ĠJ an
ĠJ um
ĠJ ust
ĠJ unta
ĠJ usto
ĠJ izer
ec era
em ar
em ans
Mar z
Mar ta
Mar ac
Mar ip
Mar che
Mar ston
ĠN ob
ĠN ep
ĠN ied
ĠN agar
ĠN ÄģÅŁ
ĠN isou
ow ra
ow ai
ok an
ok er
ok um
ok out
ok oi
ĠF Ã©
ĠF ul
ĠF ranca
ĠF ermo
ÅŁ r
ers en
ers el
ers feld
ers tetten
og h
og ong
og ee
og arh
ik k
ik am
Ã¶ he
Ã¶ tt
Ã¼ ng
Ã¼ tten
Ã¼ tte
ont s
sh al
sh at
sh un
sh oy
sh aw
sh af
sh china
eng er
eng ah
eng stringen
oc an
ob as
ob es
ob ia
ob amba
Sh ab
Sh ed
Sh iv
Sh ort
Sh eldon
az Ãº
az apa
all y
all ur
all Å«r
ĠD an
ĠD in
eg i
eg on
eg re
eg ui
eg ua
st ÃŃ
st att
st rana
Ar k
Ar al
Ar co
Ar Ä±
Ar roy
amp i
amp ang
ino la
Ä« na
Ä« jÄģn
Ã³n i
Ã³n as
ard on
ard ia
ard iel
qu ay
qu ara
qu ier
qu erÃ³n
est an
est in
est en
est ing
An ch
An ac
An da
ana ju
ev al
ev es
ev ci
op f
op il
op oli
ĠMar g
ĠMar zo
ĠMar si
ĠMar ques
ĠMar cel
ĠMar gherita
ĠMar quÃ©s
li an
li ang
ale jos
ge est
ent is
ent idueÃ±a
uc io
end el
end recht
ina w
ĠK on
ĠK Ã¶
ĠK ut
ĠK ry
ĠK ÅĤ
ĠK Åį
ĠK lang
ĠK hao
ĠK iat
ĠK idul
St and
St Äĥ
St ella
St rad
St utt
St uart
ark i
gu o
zh any
zh anka
ey e
ey er
ub on
ub ay
ub ey
ut en
ut al
ut ter
ut lu
Ne ul
Ne co
Ne ochÃ³ri
ek en
ĠE ra
ĠE ng
ĠE du
ĠE ufemia
ip ac
sur g
ĠI ng
ĠI bor
ĠI gles
iy o
iy sk
iy Å«r
Ã¨ le
Ã¨ ge
Ã¨ ves
Le im
Le esburg
aw at
Ã¢ y
ca ia
ca jo
ci ta
ug as
ug es
ug at
ug he
our e
our al
our ala
up ang
up leu
ib i
ib ah
ib li
ib ago
ib ouo
ĠO g
ĠO riz
ĠO teros
ens berg
ens leben
uk ou
uk et
go a
go ta
Mon k
Mon real
ĠCh er
ĠCh um
ĠCh ica
ĠCh iesa
ian os
ian ka
Bar m
Bar s
Bar ac
Bar ranca
Bar rington
Ä± nd
Ä± lÄ±
ny i
Å« Åį
ĠW ar
ĠW is
ĠW ong
ĠW ell
ĠW orth
ĠW alk
ĠW hit
ĠW arren
Gu er
Gu as
Gu ap
Gu ess
Gu ild
Gu ijo
ine a
ine z
Car re
Car ab
Car av
Car son
Car mo
Car leton
Car rizal
Br ind
Br ze
Br oughton
da ia
hu de
hu ala
hu altepec
ala jara
ant ic
ant Ã¡n
ez ze
nd i
Col chester
Col orado
Col ombe
ĠLa c
ff Ã©
oh r
ÈĻ ului
ÈĻ tea
ni en
ni al
ni Ã³w
ni Ã¨re
ry an
ry any
iz d
iz y
iz ra
iz onte
iz avet
aj ar
aj ay
aj iang
oz or
oz as
orn oye
Th y
Th um
Th ann
Th Ã©r
fi el
ten e
eb y
eb en
Villa c
no e
uel le
lo he
lo ff
Sch il
Sch ell
Sch wan
Sch wer
Qu it
Qu ero
Qu iri
Qu into
Qu áº£ng
les ton
les town
Ã¤ ck
Ã¤ ki
Am ar
Am al
Am es
Am ur
Am bar
ss e
ss i
ss er
ha il
ha ur
ha un
lan ta
ola h
ola to
Vill ard
Vill arr
Vill ares
Vill ase
Vill aman
yn ia
yn ove
Gr Ã¼
och es
och titlÃ¡n
ĠAl c
ĠAl gar
ĠAl cor
ĠAl berto
Mont l
Mont fort
Mont esc
Mont orio
Mont aldo
Mont enegro
erm ore
Ãº polis
Ãº jar
Ãº poli
one e
wn iki
que ville
que mada
ena is
Or ch
pur i
Å¡ ica
Å¡ kov
se x
vo a
vo orde
ore a
West mor
oro a
gh ar
gh ah
Man an
ĠSan kt
Ã§ os
Ã§ am
Ã§ osa
Ã§ Ãł
Äģn Äģ
ari i
ari Ã±o
Sal d
Sal in
Sal ine
Sal cia
Ber ro
Ber eg
Ber ek
Ber gh
Be ar
Be il
Be as
Be id
Be ÅŁ
Be ek
Be ÅĤ
Be aur
ij n
ij uela
of a
of eng
New ington
New burgh
Pr z
Pr un
han e
ck ley
uer ga
ly ar
pr on
pr ise
Nov y
Nov ot
Nov og
Mal o
Mal ac
Mal aya
Mal inao
Mor i
Mor Ã³n
Mor tagne
ĠVal der
ĠVal encia
jo cote
ins ch
ins burg
Å£ eni
Å£ Äģn
Å£ Å£
br ou
br ia
br and
br ug
br uch
Cal as
Cal am
Cal era
Cal vi
Cal verton
Cal umpang
Bal as
Bal ang
North wood
North west
Äį nÃ¡
ings dorf
kh i
kh al
kh iv
Bu xton
Bu yant
ĠZ o
ĠZ or
ĠZ eno
ĠZ illert
Kr up
Kr zes
Cor r
Cor be
Cor bu
itz intla
Kh at
Kh ad
Kh un
Kh Äģn
Es ter
Es cu
Es car
ui u
ign at
ign ago
Cas tag
err at
Se h
Se ac
be ville
be uren
ve ar
Ol t
Ol iver
Bur ley
Bur gh
Bur bank
iang an
Bo de
Bo one
Bo iss
Bo onville
Bo iling
ma is
bo ta
Ma ÅŁ
Ma iden
Gre y
Gre ven
Gre tna
Par an
Par ac
Par que
Par ma
Par acu
Par alÃŃa
ula c
Tr am
Tr ent
len burg
Ad ige
ste ig
ste tt
South gate
á» ĩ
á» ķ
Ab s
Ab ra
Ab ong
Ab bey
Ab beville
Per u
Per ales
wa ard
ĠY ao
chen skiy
Ã©n il
ÃŁ heim
ÃŁ dorf
Bor s
Bor od
anj i
anj an
ĠAr t
ĠAr ista
ĠAr zob
pa Ã±
iss i
iss an
iss Ã©
iss iÃ¨re
lin es
Con ch
ĠAn ne
ĠAn alco
ux iang
ux tla
Me ta
ix ing
any i
any ar
Ba ir
Mer rim
ente jo
Co to
Co ÅŁ
ella ch
Camp estre
De ux
De xter
ele ine
ua o
ans as
che ville
Pal ag
Pal au
Pal omas
Pal azzo
Pal estina
Pal azzolo
Äģr pur
zy d
zy ÅĦ
zy Å¼
are e
Monte jo
Monte cal
Monte agudo
Re u
Re forma
Re ading
Bro dy
As ton
Mo ara
Mo ose
Sp ots
Sp arks
Sar g
Sar re
Sar Ä±k
Ro ÈĻi
Ro deo
ies e
me de
me ÅŁti
me adow
Long ue
Long tan
Long feng
Long xing
Ãł i
ĠSh i
ĠSh Äģh
Bre tteville
Bre ckenridge
per k
Ag b
Ag ri
Ag ios
He ber
He iden
ost ura
ĠU s
Er d
Er p
Äģd ri
Äģd Ä«yah
Cer c
Cer k
ys ter
In c
In v
Cap el
Cap ra
Cap illa
Cap ula
Can al
Can et
Can illas
Can tag
Can non
Zh ir
Ros eland
Bay ou
Bay view
Pet ri
Mat t
gar de
old er
ush ino
ush ki
Ben e
Ben o
Ben im
Ben ne
Gro dz
Ober hausen
Ober win
Te te
Te hu
Cr um
ho a
ling ham
Pl u
Pl as
Pl ant
ren bach
ÄŁ Ã¼t
And Ã©
And ri
Ãī tang
Ãī glise
cal i
Åŀ im
Åŀ ir
Ãģ l
Ãģ guas
ann is
Por ta
Por venir
Cl Ã©m
ene ÈĻti
ih ue
ih ai
ih ara
Äģb ol
Äģb ganj
Po ÅĤ
du Ã±a
umb ayan
Av re
Av ignon
Av ellan
Vel iki
Vel theim
Vel kÃ½
arn ia
Ã¢n ia
if a
if ax
Os man
att le
At ten
At kins
Cam in
Gra ham
Gra ves
men au
ÅĻ e
ÅĻ ov
En n
En tre
En cin
Ste tt
ĠGu adal
ĠMart ins
We id
We iler
We hr
zi i
Äģm ah
Bou s
Har bour
Bla h
Kam yanka
Kam ieÅĦ
Pla y
Pla is
chi ara
Fr ÃŃas
Fr assin
Mil ag
Mur i
Wh yalla
ĠSal em
ĠSal entino
Min ne
Tal la
Ph al
Ur d
ÄĻ c
ÄĻ cz
ÄĻ Å¼
Ã¶r de
Ã¶r ing
Ã¶r Ã°ur
Lu o
Lu ba
Lu ocheng
ini Ã¨re
Gen oa
lu o
ett lement
Castel vet
Castel franco
Lo ta
Lo oc
ks ville
ks tad
Ser p
Ser eb
Gar onne
Alb al
Alb ano
Ko ffi
Mad onna
ken heim
mar ca
ĠEst rada
ĠEst rella
Ci uper
Hol brook
ile u
Mas al
Tar az
ĠEs meralda
Bag u
Bag an
Bag umbayan
po ort
po ala
anc Ä±
Ter ry
Ter race
Com m
Sam o
Sam ar
ax tla
Bri x
Sol on
ĠCamp ania
ĠLe wis
ĠLe itha
Str Ã¶
Bol ton
ÈĽ u
Ã¶n au
á¸¨ al
á¸¨ ab
á¸¨ aw
Cu za
Cu aut
Cu esta
Wil den
Wil der
Wood side
tr and
tr Ã¡n
ough by
Mel ville
Mac a
Mac quarie
ker t
ker que
Bat al
Bat ur
well s
ith Ã©a
lia ciÃ³n
Don skoye
Don ald
Hor s
Hor ia
Hor se
Ca imito
Ã¥ l
Ã¥ ker
ise au
Kou m
Kou ass
Kou assikro
Sa el
Ãĩ el
Ãĩ iftlik
way s
reg aciÃ³n
ĠKh Äģn
á¸© ammad
yan ovo
Ts ov
Tur nu
ven to
ChÃ¢ u
Ang el
Her ne
ÄĽ t
let ar
Fort una
Palm erston
war tier
Ay l
Ã¯ d
Nav alm
Ã©d ia
ĠTh ani
ĠTh omas
ĠTh á»į
ĠTh áº¡nh
Bra ine
Bra ye
Ham mer
Ham mond
Ham mam
Pont y
Ed ward
Wal k
Pan tai
Äħ t
ĠQ ur
ĠQ ad
Gl ass
Bl Äĥ
Sil iÅŁtea
ĠAnd rÃ©
GroÃŁ b
Ly p
Torre jÃ³n
May skiy
May sville
ĠCol Ã³n
ĠCol oma
ĠCol ony
ĠGi ust
ĠGi uliano
tag na
Alt Ä±
Alt dorf
Fair mont
Fair mount
Win throp
Az zano
Nor m
Dob re
Dob rov
Rom ans
ph en
ph orien
Mu ir
Mu sk
Mu hammad
Åł ent
ouÃ© bo
Bas i
ĠCon de
ĠEl isa
Ã¶l z
Pat os
Pat terson
Nar as
Nied ersch
ĠRo jo
Del eni
Del hi
Fu ji
Ha ar
Ha id
Mol ina
Mol inos
Pin et
Sta in
ĠVer des
Lim er
rich t
nh of
Ka is
Ka eng
ias i
ĠX al
ĠSec tor
ĠLuc ano
ĠLuc ania
Ass Ã©
Fran kston
Gal at
Gal ena
Ke ilor
Sel by
kov ec
Kor s
Lou v
Rad z
Rad uzh
Tab o
Vol k
Cher okee
Dong cheng
Dong shan
Kat s
Kat z
Ram on
Tra v
Tra un
Tra pp
Tra vers
Bog dan
Dun can
Dun kirk
Go de
Go th
ĠQu ang
ĠQu etz
ĠTe x
ĠIn let
Bir m
esh war
Äĥu Å£i
Dar ling
uv re
wang i
enh ain
enh orn
enh orst
tan os
tain ville
Lag os
Xin hua
ĠCor on
ĠCor ti
ĠCor rales
ĠCor ridor
Hal ifax
Kol on
Sm ed
Tem b
Tem ir
tel ek
rie ta
Beau voir
Rich field
Rich wood
Rich elieu
amo to
ĠRos e
ĠRos al
ĠRos ales
Alm end
Ã¼n chen
Gran ja
Ost r
Spring ville
Ot rad
Ot ters
Sim p
Vi iÈĻoara
Ou led
Pot rero
ner y
wal bach
lat ÄģbÄģd
Sto w
rag on
ĠPh Æ°á»Ľc
unt as
Ah mad
Bud d
Nag yk
oj iang
Sz ig
Sur f
bÃ© ri
bÃ© lÃ©
Den ver
ĠHar z
brook e
Do ber
Do orn
Pon n
Pon to
lov Ã©
lov skoye
ÄĢ m
High lands
Ã¡z nÄĽ
Krasn os
ĠÃģ lvaro
ĠÃģ nimas
erg us
ĠCu atro
ĠCu Ã©llar
rom onte
ĠAg ordino
ĠAg rÃŃcola
Sav annah
orsk ie
ĠAm mers
NÃ© o
Bour ne
Bour bon
Pu ig
its u
rem bo
Cent re
fa il
ukh iv
Kom ysh
Kom mun
Lan de
Ven ice
Ara b
Kap elle
Kap pel
Pi Ã±
Park ville
Ã² s
Åĳ r
Ġá¸¨ aw
Ġá¸¨ asan
ters bach
Mill ers
Mill brook
Rock port
pen heim
oum ba
ĠFel iu
Cos teÅŁti
LÃ© z
Tla hu
Tla cu
zen au
zen heim
arc Ã³n
Vin ey
Vin ograd
GÃ¼ l
Lar en
PÃ© ron
ĠMad he
ĠOr t
ĠOr ange
Far ra
iti ba
Äģj pur
Neu burg
Neu hausen
Zar za
Cro w
Cro wn
Cav al
Dan bury
Lip nica
Dz erzh
GÃ¶ z
Pil ot
Pres cott
inh as
Kok k
Ped rosa
Ped ernales
Sok oura
Ġs ull
Chi us
Bah Ã§
nic u
ĠMat ÃŃas
iga on
ster dam
unta i
Bos c
Ix tlahuaca
Mit te
Og den
Pit ogo
Alf onso
Bet ania
Mez zana
ĠCam inos
Ve j
ĠCo ast
Champ agne
aus wagan
Gi ff
On t
Water ville
jia zhuang
ps ey
Chap elle
ĠSebasti an
Cour s
Hil ton
Tai he
ĠFlor esta
Hay es
Pul o
Rog ers
Rob b
Rud a
qui za
Ker k
Pine ville
Pine hurst
Tol os
vel de
ĠPin to
ĠDon ato
Hom estead
Pop lar
Amb oh
Stein feld
Cop p
Lib as
Rem y
Sy ch
Sy racuse
Sy dney
Bug a
Mun k
Sev illa
Ä° s
Ä° kiz
Kem er
Yong ning
itu o
itu ba
ĠMil ford
Cand el
Feng cheng
Feng shan
Len inskoye
MÄĥ n
Qing long
Ã¡t es
ĠTla cotepec
Bain bridge
Ken ton
ĠÄĲ iá»
esc usa
ĠCa Ã±as
Äģy Äģ
Äģy ak
ĠAb ad
ĠAb dal
Ann andale
Whit esboro
Bis c
Bis kup
Fer ry
Pro letar
Ton al
Ton alÃ¡
ĠSer io
Bass ano
Mul berry
ĠBer lin
CaÃ± averal
Der ry
Der by
tav ka
Alc ant
Gri gn
Pel ican
Pied imonte
cer es
tem ir
Casal etto
iÅ¡ Äĩe
Å» ur
Shuang jiang
ht ar
ved ra
ovsk oy
Monter osso
Monter rey
Fres h
Herm itage
Herm eneg
Nat al
Now og
Pav livka
Vit ry
Wolf s
gy Ã¶r
ĠMol inos
Cha oyang
Sus eni
Sus sex
ĠPr inc
Carr illo
Cad en
Ling cheng
Roy ston
Seg ura
Tir up
gre en
á¹ £
á¹ ¬
á¹ Ł
ayl ivka
ĠSe acÄĥ
ĠSol ÃŃs
Lab uan
Cres cent
Dav is
Gab riel
Jac ques
Ye ong
yt rivka
ĠCab ez
Chic ago
Villam or
Lug o
Äĥt eni
Jes enice
KÃ¶ prÃ¼
Va il
fo ot
fu entes
ĠVen ta
ĠVen ustiano
Lich tenberg
Pes ch
Pag li
Seb asti
ika wa
chy na
Ã©k rou
Blo em
Dy Ã©
Die z
Gir onde
mÃ¼ nd
ĠPer th
ape ta
ape ake
ĠDol ne
Bau m
Gy Ã¶ng
Ivan ovka
Kry va
RÃ¶ th
cr oss
fr ÃŃo
ĠÅŀ al
Ã©b li
Alp ine
stÃ¤ tt
Silver ton
Boc age
Mend eley
Nog ales
Ov acÄ±k
Tis za
Vas ylivka
Zag or
cor vino
uo ka
Ãľ Ã§
ĠBal tazar
ĠVall es
ĠOc tub
ĠAlb is
Oliv et
Zac ap
ĠSau ceda
á¸ĳ ah
Merc ato
Plou gu
Card ona
Hen ri
Hen ley
PÄģ tan
Pamp lona
Tet la
Tub od
bes i
sar ay
isto ye
ĠRa im
Kirk by
Hon chÅį
Hav el
Loc ust
Sos nov
Sob ara
Zav od
rÃ¡ dek
Åº no
Åº nica
Shah rak
Esc aut
Aug ustin
Hur ley
Chich ic
ĠRanch os
ĠFu entidueÃ±a
quit epec
Rec ea
RÃ¼ m
RÃ¼ ti
bol u
Alten markt
Hard wick
Sov khoz
Way nesboro
izz olo
Clark ston
Cran bourne
Cort land
Ori ente
Prim orsk
Tat ar
Wor cester
iat yn
ĠMill Ã¡n
agno la
ĠAnt Ã³nio
Reich enbach
Dul ce
Eber sbach
iÈĻ tea
jal va
Åĵ uf
ĠBos co
ĠBos que
ĠBas to
Chip ping
ĠLu Å¾
Lyn chburg
MÃ©d ard
Pia zz
RÄģj garh
Wies en
York town
kins ville
Chau ss
ĠGÃ³r ny
Elm wood
Olm os
Const ituciÃ³n
Bloom ington
Bord j
Gla tt
Pira p
SÃ¶ der
Xi ong
zu olo
Cerv antes
ĠQue mado
CÄĥl Äĥra
Hue j
Lop ez
Vl Äĥ
Vl Äĥdeni
ĠPat ria
ĠHam let
Plain field
Plain view
Qar ah
Saw ang
ĠTs ui
ĠJoa quin
ĠNor ton
Shim en
ĠKn ittelfeld
olay evka
Meadow brook
Zhang jia
MÃ¼hl dorf
MÃ¼hl hausen
Cong regaciÃ³n
Gib son
Sot illo
ĠTa unus
Elizabeth town
ĠIr pina
Cold water
Are v
Mik ul
Morn ington
ĠBat taglia
ĠVit toria
ĠVit Ã³ria
ĠJu ana
ĠFort una
Morris ville
Cald well
Sulz bach
Harris ville
DÃ¼ bendorf
Daw son
Him mel
Sep t
Zal iz
cat l
icu autla
igno la
ĠHel ens
ĠRem edios
Schwarz ach
Salt illo
Freder ik
Aud ubon
Aff oltern
Ever green
Jard im
Jones boro
Lic enciado
Lans ing
Sup erior
ĠBarr ington
ĠBluff s
ĠFi or
ĠOz olotepec
Rams au
Rams ey
Queens town
Bath urst
Cai ro
Mem phis
Mind en
Noc era
Ore khovo
Ring wood
Sn ow
Swan sea
alc Ã³
Church ill
ĠFr ÃŃa
Shir ley
Cabez as
Strath more
Fuent el
Bres se
FÃ¼r st
Tux pan
inet y
angel ista
Chr ist
ĠNav iglio
stra ÃŁe
Monaster olo
ĠWal de
Altam ont
Pitts field
Roche fort
YeÅŁ ilyurt
Johns town
Dax ing
II I
Jaw or
Myk olayivka
Ã³l ka
ĠTop lice
ĠVol turno
ĠJul io
Ã¢ne ÈĻti
Montag ue
ĠSang ro
Sunny side
Damp ierre
Feld kirchen
Naw Äģbganj
Yuzh nyy
xc ontitlÃ¡n
ĠPen edÃ¨s
ĠPres a
rij k
Ches apeake
ĠAug ustine
ires cu
ĠTan aro
ĠMaritt imo
Prince ville
Crest wood
Urb ana
Svet lyy
ÅģÄĻ ki
Ixta pa
Evans ton
Sovet skiy
iá»ĩ p
Ngu ess
Tiz i
ĠBy str
ĠHo ok
ĠRob le
ĠLand ing
ĠLlan os
ĠLlan ito
Armen ia
ĠKo ÅĽciel
Guard ia
Ãºj falu
Krzy Å¼
Khal lat
Verd un
Fras er
ÄĮes kÃ¡
ÄĮes kÃ½
Troit skoye
Pfaff enhofen
Bust illo
Ec cles
Hap py
Hamp stead
Most y
Sle epy
Sien iawa
Ã¡ly i
ĠHue huet
ĠGri jalva
zhd est
Crist Ã³bal
Åŀte f
Velyk yi
Centen nial
Shelby ville
Bund aberg
Gain esville
Phan om
Qi ong
fur th
wed el
ĠCont reras
ĠTot oltepec
ĠHau te
ĠHerm oso
ĠKou assikro
Å¡k ÄĹs
Coop er
Zhelez nodoro
Herz og
Torrem ocha
ĠÃģl amo
Novosel ivka
ĠMerc ed
Dix on
Hugh es
Prig orod
ZÅĤ ot
ÌĦ <
ĠPis uerga
ĠGerm ano
ĠLev el
ĠJuli Ã¡n
Neud orf
Malp artida
Stras burg
ĠQuir ico
Pedra za
Falken berg
Ingen iero
MÄĥg ura
Sylvan ia
FÄĥr ca
PÃ³ voa
Zaf ar
Å© ng
ĠSev ern
ĠRoy al
apol is
Sho al
Carras c
Castille jo
GrÄĥ di
Sarat oga
ĠUrb ano
Magn olia
ĠEspin al
Almol oya
Krasnok am
Aleksey evka
Caw ayan
Gosh en
Ocot lÃ¡n
Pater na
VÃ¡r zea
WÃ¼l flingen
Xind ian
dow ne
kre uz
wau kee
ĠPos ad
ĠPong au
ablan ca
ĠGul ly
ĠLour enÃ§o
ĠNap oli
ĠKrem s
Heus den
Miner vois
Commer ce
ĠCuau h
Dragom ireÅŁti
ĠPodlas ki
ÅłtÄĽ pÃ¡n
Cuen ca
JÃ³ zef
PÄĥd ureni
Swe et
ĠMÃ©n dez
Altav illa
ĠVinc enzo
ĠLiv enza
ĠJe fferson
ĠJil oca
Coloni al
Valpara ÃŃso
Buge y
Campol ongo
ĠPolvor osa
TÃ¡pi Ã³s
Krasnogvardey skoye
ĠKujaw ski
Dari en
NÃ¸r re
SÃ¢r bi
Sym phorien
Wob urn
flow er
ĠCabr era
ĠSlob oda
Chalo em
ĠApol onia
ĠVlad im
ĠLox icha
ĠDion isio
ĠItal ia
Colmen ar
Santiagu ito
Ã¤ff ikon
ĠAltam irano
Khir bat
BoÄŁ az
Zhur av
ĠCrem asco
Ãĩak Ä±r
ĠRech ka
ĠColor adas
Fred onia
Aleg ria
Robled illo
Reme tea
iÅ¡t ÄĽ
Hawai ian
KÃ¼Ã§ Ã¼k
ÄĥmÃ¢n teni
Riach Ã£o
ĠGonÃ§ alo
Cáº© m
Dm ytrivka
Geni Ã¨s
Hubb ard
Laro que
Ìĩ ÌĦ<
Ġul icy
ĠBust os
ĠJizer ou
shaf en
ĠMarques ado
Stutt gart
ĠAlgar ro
ĠValder aduey
ĠZillert al
ĠArzob ispo
RoÈĻi ori
Oberwin terthur
ClÃ©m ent
ĠAmmers ee
Hermeneg ildo
GyÃ¶ng y
ĠOctub re
CÄĥlÄĥra ÅŁi
A o
A un
A um
A uc
A go
A den
A ja
A be
A bo
A yah
A igu
A bert
A rom
A riz
A á¸ĳ
A áºĸ
A igues
B ana
B ort
B Ã¨
B ate
B ni
B ada
B ore
B ira
B len
B ans
B aul
B ago
B iÃ©
B Ã©r
B ougou
B asa
B etto
B Äģs
B azar
B onga
B omp
B Äģq
B ÄĥrÄĥ
B Äĥneasa
B istrica
C il
C ill
C Ã³
C erm
C Ãº
C one
C ui
C ama
C ath
C ux
C iri
C ato
C ane
C ove
C lav
C oud
C rom
C elles
C Ã¢m
C riÅŁ
C atherine
C áº§n
C ERESO
D ill
D ac
D ue
D oy
D ran
D all
D Ä«
D ara
D eni
D olo
D uch
D art
D ien
D ess
D ron
D ao
D rac
D arn
D ett
D enn
D aven
D omas
D esh
D ray
D iec
D ashi
D isc
D osso
D rach
D rap
D asht
D Äĥm
D ettingen
D anao
D ollar
D Äĥrm
E f
E ar
E il
E au
E ul
E id
E us
E ÅŁ
E uc
E ib
E sen
E tz
E rie
E ps
E ching
E hren
E ufemia
F y
F is
F Ã¡
F ac
F and
F um
F az
F ich
F ug
F land
F erm
F rid
F ies
F omb
F ons
F Ã©r
F ax
F enn
F reis
F yl
F Ã¤r
F erd
F ray
F raz
F Ã©rÃ©
F abr
F oster
F uyu
G Ã¡
G Ã³
G eng
G eg
G est
G ian
G ama
G anj
G lin
G iri
G oli
G Åį
G ali
G ull
G Ã¼n
G ogo
G onn
G Ã¢l
G aleana
H ach
H ana
H ero
H uel
H outh
H alm
H ash
H ald
H ere
H itt
H Åį
H arl
H ales
H lu
H yl
H Ã¼r
H oud
H ru
H Ä«r
H ats
H Äģj
H ernando
H assi
H Æ°Æ¡ng
H ugo
H ahn
H Æ°ng
H rÃ¡dek
I a
I ba
I ts
I ge
I ly
I po
I tan
I mp
I pswich
J ic
J ano
J og
J Ã¡n
J ub
J ib
J ung
J ep
J ij
J ess
J ales
J enn
J iao
J uÃ¡rez
J ezi
K ÃŃ
K ont
K Ä«
K li
K ark
K ord
K ek
K ern
K ei
K ola
K oun
K olo
K itz
K wa
K ath
K ist
K iri
K iel
K urt
K iÃ©
K uf
K air
K uj
K Ã¥
K unn
K lingen
K anz
K esh
K ott
K rap
K Ã©k
K pang
K sar
K Ã©t
K auswagan
L h
L w
L ol
L Ã¡
L ast
L ord
L ingen
L Ã¤
L ari
L oss
L uy
L ank
L arn
L ough
L ieu
L oren
L anz
L ikh
L ampa
L omp
L Ã³pez
L ermont
L erma
L Ã¥ng
M g
M l
M ro
M ig
M ie
M ow
M amp
M ino
M ood
M int
M olo
M ÅĤ
M ama
M ion
M ila
M oug
M els
M ush
M ene
M Äĥl
M iao
M Ã¼r
M osh
M ias
M Ã¤r
M lad
M angan
M oya
M ott
M sz
M unc
M Ã¡t
M aine
M okh
M rg
M Ã¡la
N en
N ir
N ain
N od
N ul
N ec
N amp
N ud
N op
N ara
N go
N oh
N ga
N ere
N ank
N iÃ©
N ih
N Ã¶r
N ett
N oa
N ax
N Ãµ
N Ä«l
N ossa
N arlÄ±
N ombre
N ÄģrÄģ
O q
O ar
O el
O is
O te
O to
O li
O ca
O ny
O uz
O ni
O se
O kh
O me
O sa
O do
O po
O tr
O ph
O rio
O Å¼
O con
O uro
O jos
O ffen
O yster
P t
P us
P iv
P Ã¼
P Ä«
P ev
P li
P ale
P ung
P orth
P ley
P aya
P ond
P orn
P ero
P ij
P ish
P ico
P iri
P isco
P ies
P anch
P Äĥl
P ati
P ull
P ili
P uck
P ray
P rop
P sz
P agn
P azar
P Ã«r
P ÅĻÃŃ
P isk
Q am
Q ara
R r
R or
R it
R Ã³
R ÃŃ
R ue
R ik
R zh
R ens
R ian
R ind
R ada
R ings
R uy
R ann
R eno
R enn
R uis
R ogo
R Å«d
R Äĥd
R zec
R olle
R incon
S io
S illa
S ino
S est
S ort
S iy
S ci
S uan
S ny
S olo
S ari
S ij
S kh
S ki
S ion
S ila
S ura
S ire
S itt
S ih
S ons
S Äģl
S iver
S yr
S ven
S aga
S ahu
S Ã¶l
S aco
S ori
S rem
S oum
S onne
S ambo
S Ã¸r
S Ã®
S alles
S Ã¢mb
S zyd
T ev
T ey
T ant
T ei
T yn
T se
T ata
T ald
T Äģr
T oug
T ire
T ys
T ao
T oma
T ih
T if
T ite
T sch
T Äĥr
T Äĥl
T osh
T uck
T anza
T oum
T ilton
T Ã©t
T Ã¢y
U e
U h
U ra
U ro
U ts
U ff
U den
U ze
U lu
U var
U gg
U her
V ur
V am
V ov
V ia
V Ã¡
V av
V ev
V ich
V uk
V era
V ind
V ath
V ado
V iew
V arn
V air
V Ã©r
V iro
V esh
V aud
V esc
V Äĥd
V ersh
W om
W ille
W Ã¼
W ip
W oh
W iss
W els
W anch
W ett
W ax
W amba
W emb
W ushan
W uster
W Ã³lka
X h
X on
X uan
X iu
X ox
X ilin
Y o
Y and
Y ed
Y ah
Y ob
Y ai
Y ard
Y uc
Y Ä±
Y ung
Y amb
Y ushan
Y ulin
Z il
Z ad
Z Ã¡
Z he
Z oy
Z ok
Z all
Z ip
Z ern
Z ier
Z ala
Z ep
Z bor
Z oug
Z iel
Z Äĥr
Z Ã©b
Z eph
a e
a Äį
b b
b w
b la
b ac
b ed
b id
b ie
b eg
b Ã³n
b uc
b ingen
b rÃ©
b ij
b iss
b Ä«n
b lingen
b ray
b age
b ells
b etsu
b Ã³rz
c ra
c um
c ey
c ero
c ena
c aro
c ora
c omb
c iler
c chio
c elli
d il
d ur
d eng
d Ä«
d eni
d ian
d Ä±r
d recht
e an
e well
e ight
f k
f ol
f ro
f id
f Ã¼
f ai
f Ä«
f ranc
f old
f kirchen
f agn
f leur
f outou
f onds
f Ã¶ld
g is
g ro
g ap
g ot
g Ã¶
g ino
g ard
g ge
g aw
g ala
g era
g und
g ane
g gen
g ert
g wang
g gio
g Ä«r
g liano
g ouinÃ©
g Ã¥rd
h om
h ac
h and
h ach
h ma
h ove
h ely
h lau
h ÅĻÃŃ
i ar
i ol
i zh
i ern
i Ã±
i ala
i ari
i Ãł
i Å¾
j il
j ol
j Äģ
j and
j av
j ub
j ib
j ala
j ares
j ezd
k v
k ak
k od
k ong
k ip
k va
k oun
k Äģn
k lin
k lingen
k rou
l s
l un
l ton
l op
l ala
l ins
l ama
l ick
l ova
l Ã¡r
l Äģm
l Ä«yah
m ul
m ie
m av
m eg
m ina
m ei
m ari
m ani
m itz
m ona
m ines
m alle
m Å«n
m ayl
m ayor
m yeon
n ig
n ok
n ers
n az
n Ä«
n berg
n ington
n ath
n ick
n elle
n iew
n stein
n jan
o an
o ani
p re
p un
p ton
p ag
p ir
p ÃŃ
p ot
p illa
p ich
p ut
p ek
p eni
p ine
p ham
p olo
p ire
p ezi
p Ã¤Ã¤
q am
q ala
r h
r un
r Ã¡n
r ass
r uk
r Ã¤
r ata
r ama
r oli
r illas
r ange
r Ã³polis
r hein
r Äģla
s ong
s ek
s ala
s field
s Äģn
s ito
s borough
s water
s leben
t ch
t ro
t ice
t ug
t uk
t land
t ry
t itÃ¡n
t lalpan
t Ãºr
u w
u ur
u id
u Ã¡n
u ts
u ke
u Ã§
u han
u illo
u ÃŁ
u Ã©s
u alco
u ikro
v ic
v Ã¡
v ÃŃ
v od
v io
v ast
v all
v ica
v illo
v ion
v ista
v ieu
v insk
v ray
v ogo
v ault
v ÃŃk
v alles
v Ã¥g
v Ã¨le
v angelista
w as
w Ã¡
w ab
w ong
w eng
w ari
w Äģd
w awa
w Ã³r
w Äģh
w iec
w ÄģlÄ«
x an
x ar
x el
x ie
y v
y os
y el
y ur
y et
y Äģn
y ama
y ush
y don
y aka
y acu
z am
z ing
z ay
z un
z et
z id
z ie
z Äĥ
z ow
z ek
z Ã¨
z enberg
z uelo
z Ã©e
z kowice
± ng
Ì ²
Ð ²
Ð ½
Ñ Ĥ
Ñ ĩ
Ġ 8
Ġ 9
Ġ az
Ġ wa
Ġ Äª
Ġ under
Ġ auf
os os
os no
an is
an et
an eng
an ino
an zano
ar z
ar ar
ar ac
ar to
ar ville
ar ik
ar za
ar ny
ar ei
ar lo
ar one
ar Ã«
ar man
ar ns
ar evo
ar anda
ar onne
ar ados
ar adougou
er ay
er ro
er sk
er ow
er ina
er land
er by
er wijk
in u
in er
in ing
in ac
in og
in na
in ero
in Ã³w
in aro
in Å£
in Ã«
in ella
in elle
in tepec
in etto
en am
en skiy
en ko
en bÃ¼ttel
on no
on Ã³w
on zo
on fla
on court
al j
al ur
al th
al um
al ik
al eng
al ino
al uc
al ca
al up
al aya
al ica
al vo
al ito
al ora
al ivka
al onga
al tenango
al egre
or ov
or Äģ
or ÃŃ
or ak
or ie
or ba
or og
or ine
or Ã³w
or ski
el f
el er
el co
el ot
el ok
el ek
el son
el ies
el ette
il ad
il ian
il da
il Ã¤
il pur
il worth
il Ã¢ndia
as un
as ak
as ai
as ha
as cal
as eca
as topol
es el
es es
es sen
es ford
es zi
es mes
ch ay
ch et
ch ac
ch ak
ch ow
ch ik
ch eg
ch uk
ch ero
ch ao
ch ase
ch anka
ch inson
ch ogue
ur in
ur ak
ur ana
ur ug
ur no
ur ile
ur the
ur Äĳ
am is
am ad
am ud
am ata
am Äĵ
de w
de ÅŁ
la ar
la ur
la is
la th
la us
la co
la ka
la go
la ine
la ciÃ³n
la ire
la pan
la ines
le de
le man
le asa
le iten
at ou
at ol
at ang
at ak
at ale
at ha
at ello
at ons
at eno
at uro
at akro
at cong
San k
San l
San de
San gu
San ger
San born
ou li
ou ni
ou ver
ou di
ou alÃ©
ou tiers
ol ing
ol id
ol ano
ol um
ol ara
ol ice
ol uk
ol ÃŃn
ol ito
ol son
ol len
ol ona
ol uca
ol lado
Ã© p
Ã© ry
Ã© ron
Ã© oa
Ã© yo
Ã© pÃ©
Ã© nez
is m
is es
is ing
is au
is ne
is ke
is burg
is ham
is ha
is chen
is ky
ta ya
ta uf
ĠC le
ĠC ou
ĠC im
ĠC ot
ĠC iv
ĠC az
ĠC ord
ĠC amb
ĠC ep
ĠC ima
ĠC Ã´
ĠC Ã©s
ĠC asa
ĠC amar
ĠC lay
ĠC ase
ĠC abo
ĠC riÅŁ
ĠC anoa
ĠC eiba
ad j
ad u
ad Ã³
ad ell
ad ok
ad ino
ad da
ad iye
it in
it or
it es
it to
it ong
it ara
it ung
it lan
it ske
re te
re au
re ci
re da
re mont
re iros
re ttes
re tikon
ov ar
ov in
ov al
ov Ã©
ov is
ov ÃŃ
ov illas
ov ÄĥÈĽ
ing ay
ing town
ing borough
ing uÃ©
ing arten
ia z
ia ba
ia gui
ra a
ra o
ra za
ra ya
ĠM os
ĠM ell
ĠM all
ĠM ud
ĠM ug
ĠM ine
ĠM aya
ĠM ash
ĠM ita
ĠM ost
ĠM oya
ĠM esto
ĠM ound
ĠM awr
ĠM ezz
ĠM ueang
ĠM Ã¡rt
ĠM Äĥrului
ĠM yers
ĠM oussa
ĠM á»Ļt
te ia
te ville
te ana
te do
te gi
ic at
ic ah
ic Ã¡n
ic eto
ĠP l
ĠP y
ĠP ag
ĠP ak
ĠP ell
ĠP eg
ĠP och
ĠP uy
ĠP arm
ĠP iel
ĠP ho
ĠP ert
ĠP rat
ĠP alan
ĠP iac
ĠP ampa
ĠP uerta
ĠP ilas
ĠP onds
ĠP ÄĥmÃ¢nteni
ang ui
ang shan
ay os
ay Ã¡n
un ton
un ino
un lu
ro a
ro es
ro ch
ro om
ro io
ro man
ro hr
ro eville
Äģ gar
Äģ lah
Äģ á¸ĳ
Äģ tah
Ã¡ in
Ã¡ ta
Ã¡ ka
Ã¡ Å¡
Ã¡ lia
Ã¡ cs
ĠS r
ĠS os
ĠS es
ĠS ou
ĠS ing
ĠS ir
ĠS id
ĠS ip
ĠS ala
ĠS car
ĠS ea
ĠS ayy
ĠS ound
ĠS agra
ĠS toke
ĠS enhora
ĠS ettlement
ri on
ri ta
ri za
ri kro
et Ã©
et ice
et skiy
La is
La up
La uch
La br
La ure
La pp
La uen
La uro
ĠB Ã©
ĠB is
ĠB et
ĠB ak
ĠB ast
ĠB ow
ĠB ale
ĠB ier
ĠB lo
ĠB ish
ĠB ist
ĠB rid
ĠB old
ĠB oa
ĠB reg
ĠB ous
ĠB atu
ĠB rav
ĠB alt
ĠB ourg
ĠB aix
ĠB esar
ĠB istrica
ig y
ig ul
ig io
ig em
ig ni
ig lo
ig bo
ig awa
ig bÃ©
ig arh
ag es
ag at
ag ai
ag ata
ag nes
ag rande
om l
om er
om ia
om uc
om field
om ierz
ill ies
ill argues
im ani
im skiy
im pa
im Ä«yah
im bi
Ch ou
Ch om
Ch id
Ch ow
Ch ach
Ch ud
Ch uc
Ch ek
Ch ita
Ch ign
Ch ula
Ch ao
Ch itt
Ch arn
Ch oj
Ch alla
Ch uru
Ch kal
Ch hÄģ
Ch avan
Ch lum
Ch miel
au a
au tepec
au con
au qua
ĠA u
ĠA x
ĠA ran
ĠA ca
ĠA hu
ĠA rÃ©
ĠA tt
ĠA me
ĠA mb
ĠA uto
ĠA FB
ĠA riza
Ã³ ch
Ã³ ia
Ã³ ti
Ã³ ka
ac res
ac ax
ac apan
ac atlÃ¡n
ac atepec
ac ocha
ac ancha
ac ruz
to d
to f
to ur
to gh
to we
to ft
to can
to wice
to titlÃ¡n
ab Ã¡
ab ong
ab ita
ab uco
ab eyli
ir on
ir Ã¡
ir st
ir ate
ir one
ir ty
and as
and es
and ay
and ÃŃ
and ala
ÃŃ kov
ed ia
ed era
th os
th ard
th ausen
th ills
th rie
th olom
th urn
ak ob
ak ha
ak ura
ak ert
ak kam
sk ine
ĠT w
ĠT ah
ĠT ort
ĠT ala
ĠT ez
ĠT iz
ĠT ei
ĠT aro
ĠT err
ĠT iang
ĠT Ã½
ĠT roy
ĠT eck
ĠT ever
ĠT oto
ĠT alat
ĠT ÅĻeb
ĠT inggi
ĠT engah
od an
od ina
ĠH il
ĠH ul
ĠH av
ĠH oy
ĠH ob
ĠH uan
ĠH aro
ĠH of
ĠH rad
ĠH uil
ĠH aus
ĠH aye
ĠH uey
ĠH onda
ĠH emp
ĠH uix
ĠH Ã³a
ĠR as
ĠR ang
ĠR Äģ
ĠR Ã³
ĠR ow
ĠR Ã¼
ĠR ev
ĠR up
ĠR eb
ĠR eno
ĠR ios
Al an
Al var
Al hama
ap ar
ap in
ap al
ap am
ap it
ap ul
ap illa
ul s
ul ar
ul on
ul us
ul ovo
ul ita
ĠG os
ĠG ur
ĠG and
ĠG um
ĠG da
ĠG amb
ĠG orn
ĠG era
ĠG uel
ĠG han
ĠG ua
ĠG rav
ĠG olfo
ĠG raj
ĠG lade
ĠG ebirge
ah ay
ah alli
ĠV a
ĠV y
ĠV or
ĠV ia
ĠV ell
ĠV aro
ĠV oda
ĠV Äĥn
ĠV Ã¡zquez
ĠV eneta
ĠV etere
id j
id or
id as
id ou
id ah
id ovo
id da
id one
id pur
us el
us zÃ³w
us ayn
us itang
us alem
us alÃ©n
ie te
ie vo
ie ja
ie ben
ong on
ong ong
av n
av uÅŁ
ti al
ti at
ti Ã©
ti ano
ti va
ti que
ti pur
ti ft
ti zan
ti vka
ne p
ne burg
ne ham
ne vo
ne chnyy
co w
ba Ã¯
ber e
ber ia
ber ville
ber ly
ber Ã©ny
um m
um in
um ala
um ani
um br
um seh
ĠL er
ĠL la
ĠL at
ĠL is
ĠL it
ĠL ic
ĠL op
ĠL ib
ĠL eb
ĠL ido
ĠL ler
ĠL inda
ĠL ande
ĠL ynn
El y
El ia
El ton
El sa
El lio
El lis
El tham
El beuf
Saint es
he h
he ve
he gy
ell ana
ell ÃŃn
ell ese
Äĥ na
Äĥ reÅŁti
ot il
ot as
ot ÃŃn
ot skoye
iv al
iv sk
iv ske
iv inice
ter as
ter ia
ter dingen
ter prise
ĠJ aw
ĠJ Ãºcar
ĠJ ordan
ec q
ec ea
ec rest
em s
em ba
em bo
em ini
oy d
oy u
oy uca
Mar ic
Mar az
Mar ino
Mar ib
Mar ine
Mar ath
Mar igny
Mar iana
Mar ech
Mar low
Mar guer
ĠN h
ĠN i
ĠN on
ĠN ad
ĠN au
ĠN est
ĠN gu
ĠN ek
ĠN ava
ĠN arc
ĠN ombre
ĠN inety
ast an
ast ic
ast ÃŃ
ow skie
ok k
ok y
ĠF eld
ĠF eb
ĠF urn
ĠF ernÃ¡ndez
ĠF irst
ÅŁ ca
ers e
ers field
ers wil
ers lev
ers tone
ers tedt
og bo
og lia
og lio
ran i
ik t
ik ino
ik Ã¶y
Ã¶ k
Ã¶ p
Ã¶ t
Ã¶ z
Ã¶ ster
Ã¶ hren
illa y
Ã¼ zi
Ã¼ Ã©s
ont la
sh ou
sh ill
sh ore
ach im
ach ka
oc u
oc ca
oc chi
ob ar
ob ra
ob ly
ob ello
ob orsk
ob ampo
ai ch
ai pur
Sh ad
Sh ak
Sh iy
Sh ank
Sh ima
Sh imo
Sh cher
Sh erman
Sh aykh
Sh yro
az as
az Ã©
az no
az zi
all os
ĠD i
ĠD ay
ĠD ec
ĠD eg
ĠD ep
ĠD ora
ĠD ua
ĠD iam
ĠD alam
ĠD Æ°Æ¡ng
ĠD alay
ĠD ouro
ĠD ueÃ±as
eg or
eg ro
eg ate
eg liano
st y
st ur
st ing
st all
Ã¡n i
Ã¡n tÃ³
Ar p
Ar os
Ar ta
Ar ad
Ar ic
Ar ri
Ar th
Ar no
Ar sen
Ar ns
Ar anda
Ar tem
Ar bia
Ar cade
amp le
ino le
Ä« Äģn
Ä« ganj
Ä« lah
qu o
qu ille
qu ib
qu iz
qu Ã©n
qu eda
qu eras
qu ipa
est orf
est ine
est Äģn
An am
An te
An and
An ah
An ci
An Å«
An inoasa
bur k
ev ÃŃ
ev ec
ev ica
ev elt
ud y
ud an
ud ia
ud ay
op i
op la
ĠMar a
ĠMar c
ĠMar ches
ĠMar anh
ts e
ts dorf
ts wil
ts tedt
ara a
ara f
ara o
li ÅŁ
ale igh
ge b
ge ia
ge au
ge org
na e
na wa
ent z
ent ano
ent ine
uc os
uc eni
uc chio
end re
ĠK l
ĠK er
ĠK is
ĠK re
ĠK au
ĠK ab
ĠK ong
ĠK oro
ĠK ly
ĠK ath
ĠK arm
ĠK ho
ĠK Ãª
ich er
ich em
ich na
ich uan
St Ã¶
St up
St ate
St ron
St ret
ark o
gu ia
gu era
gu iÃ©
gu illos
gu ijuela
zh y
zh ar
zh ik
zh skiy
zh dan
ey ama
ey ahualco
ice a
ice u
ice ÈĻti
ub y
ub ig
ub ÃŃ
ub ica
ub amba
ub lic
eld ange
ut at
ut sk
Ne x
Ne ut
ass an
ass ar
ass io
ass ee
ass uÃ©
res h
res te
res ma
ĠE f
ĠE j
ĠE ich
ĠE ug
ĠE vangelista
ĠE resma
ip at
ip azar
ip patti
ern es
ern ia
sur a
ĠI van
ĠI barra
ĠI Jssel
iy ama
iy yon
iy evskaya
Le ch
Le ad
Le it
Le Ã³n
Le ip
Le ib
Le uk
Le igh
Le by
Le ones
Le eu
aw e
aw ara
Ã¢ t
Ã¢ ta
ce aux
ci el
ug al
our Ã©
up it
up Ã¡
ib y
ib al
ib un
ib etsu
uan i
ĠO p
ĠO br
ĠO dr
ĠO ktyabr
ĠO hÅĻÃŃ
ens o
ens el
ens bach
Ã± al
Ã± ana
Ã± edo
uk ow
Mon a
Mon th
Mon tep
Mon cl
Mon roeville
berg a
ĠCh ia
ĠCh uk
ĠCh ung
ĠCh ien
ĠCh iem
Bar o
Bar an
Bar on
Bar at
Bar bar
Bar tle
za ff
Ä± ca
Ä± ÄŁ
ny ak
Å« ri
Å« ÅŁ
Å« sh
Å« lah
ĠW it
ĠW ay
ĠW ah
ĠW ard
ĠW ola
ĠW aver
ĠW ech
ĠW Ã¶rth
ĠW rocÅĤaw
Gu i
Gu ia
Gu ac
Gu id
Gu ip
Gu cheng
Gu tiÃ©rrez
Gu thrie
Car t
Car ac
Car riÃ¨res
ung i
Br u
Br in
Br ov
Br ill
Br est
Br uz
Br itt
Br ush
Br uss
Br oukro
Br uno
Br Ã¼ck
Br uyÃ¨res
uz en
uz ach
uz zi
ley ville
da ÄŁÄ±
hu u
hu at
hu is
hu ato
ant en
ez ia
ez za
Col om
Col mar
Col ler
Col ogna
ĠLa i
ĠLa u
ĠLa zio
ff ingen
ff ikro
oh i
land en
ÈĻ niÈĽa
amb u
amb ang
amb li
ni z
ni Äįki
ry anka
iz el
iz ia
iz ilapan
aj on
aj ima
oz d
oz ero
oz zo
oz inho
oz avodsk
ond ra
ica o
Th an
Th il
Th ap
Th ier
Th elle
Th áº¡nh
fi ern
ten a
Val f
Val lad
Val enÃ§a
ero la
Villa d
Villa z
Villa gar
Villa vieja
Villa escusa
no a
Cast eld
Cast rop
igh ofen
lo a
ep a
ep et
Sch a
Sch la
Sch Ã¼
Sch wa
Sch iff
Sant ander
Qu im
Qu atre
les ham
les ias
les tone
Ã¤ l
Am i
Am as
Am et
Am atlÃ¡n
Am bal
Am elia
ss en
ss ing
ind u
ha f
ha id
lan cingo
ola ivka
Vill en
Vill arm
Vill amar
yn sk
yn Ã¼k
Gr Ã¢
Gr und
Gr adi
Gr Äĥd
Gr anger
och o
och ee
Bel g
Bel ton
Bel Ã©m
Bel yy
Bel gra
Bel forte
Bel isario
ĠAl t
ĠAl z
ĠAl ber
ĠAl bury
ĠAl bar
ĠAl pi
ĠAl calÃ¡
ĠAl vear
ĠAl arcÃ³n
Mont ana
Mont pel
erm ere
Ãº z
Ãº ba
Ãº dia
one er
one zh
sen ada
sen hausen
ada ÄŁ
int ic
que te
que ux
ena de
Or n
Or ia
Or lea
pur am
Å¡ ina
Å¡ ÃŃn
Å¡ evo
Å¡ nica
Å¡ ky
alm Ã¡s
vo le
vo ort
aro a
olo te
West bury
ash ino
oro zh
gh Äģn
Man Ã©
Man ta
Man ly
ĠSan nit
ÅĤ ki
ÅĤ Äħ
af a
af e
af ou
af lor
af ranca
Ã§ it
Ã§ Ä±
Ã§ ois
ari f
ari as
Sal on
Sal Ã©
Sal ina
Sal ins
Ber e
Ber th
Ber ne
Ber ge
Ber ry
Ber ea
Be u
Be er
Be it
Be uz
ani el
ford ville
ij u
art y
art el
Pr Ã¡
Pr Äĥ
Pr ost
Pr zec
ck o
ck ie
uer tas
oss on
ÃŃn ia
ien ta
ien na
ien berg
ien nes
Nov e
Nov oye
Nov osh
Mal g
Mal it
Mal ang
Mor al
Mor at
Mor eira
Mor eton
und el
ĠVal dar
tad ero
ins dorf
ins ula
ins feld
ins dale
Å£ el
Å£ ay
Å£ ei
br u
br ad
br Ã¼
br ica
br ÃŃa
br ough
br adas
br ugg
Cal la
Cal im
Cal des
Cal amba
Cal ape
Cal houn
Cal umet
Bal an
Bal ag
Bal ak
Bal ne
Bal four
North umberland
Äį y
Äį ky
Äį anica
ita h
ita vou
ira bad
kh or
kh ov
kh ah
kh oy
kh ivka
kh orst
kh aylivka
ito a
Bu a
Bu f
Bu de
Bu lag
Bu deÅŁti
ĠZ ay
ĠZ ir
ĠZ ayd
ĠZ drÃ³j
ĠZ avod
Kr am
Kr est
Kr ug
Kr ish
Kr Ã¡s
Kr uis
arr Ã³n
Cor m
Cor de
Cor ne
Cor ona
Cor me
Cor ps
Cor into
Cor rales
á¸ ¥
Kh ur
Kh ud
Kh ark
Kh uan
Kh ry
Kh Äģna
by s
Es co
Es pe
Es tero
Es quipulas
ign el
ign one
Cas e
Cas or
Cas ap
Cas ola
Cas illas
Cas anova
err il
Se x
Se is
Se ville
Se eb
Se aca
Se edorf
be ÅŁti
be ÈĻti
son a
ya o
ya ung
zo le
ve er
ve te
ve ÅŁti
ve ÈĻti
ĠHe il
Ol l
Ol de
Ol la
Ol ney
Ol teni
Tor ro
Tor ren
Tor raz
Tor rubia
ish chi
ish ofen
ish log
ish chevo
Bur j
Bur ri
Bo o
Bo os
Bo to
Bo ka
Bo issy
ma a
ma o
bo ieni
bo ledas
ama a
Ma an
Ma il
Ma un
Ma id
Ma ÅĤ
Ma itland
Gre b
Gre m
Gre z
Gre ene
Par ch
Par it
Par ang
Par ag
Par sons
Par edÃ³n
Par tizan
ula y
Tr os
Tr en
Tr ou
Tr it
Tr un
Tr uc
Tr ÃŃk
len ou
man z
man ovo
man lÄ±
man alco
Ġl ui
South side
á» ¥
á» ı
á» Ŀ
ied le
Per es
Per iv
Per che
Per alta
Per alejos
uy on
wa ag
ĠY eh
ĠY ancu
chen bach
Ã©n ac
Ã©n Ã©d
ath i
áº ±ng
ist an
ist Ã¡n
Bor gor
Kar g
Kar n
Kar p
Kar y
Kar as
Kar ay
Kar ac
Kar ap
ĠAr enas
ĠAr riaga
ĠAr boledas
iss ing
iss et
lin i
lin an
Con vers
Con sel
Con nor
Con jun
ess es
ze el
ze au
ze ÅŁti
ze ÅĦ
ĠBe ar
ux co
ux tepec
ver d
rid o
Me de
Me tepec
Me aux
Me zhd
Me urthe
ns boro
ion ka
any ang
Ba o
Mer e
Mer cer
Co j
Co on
Co ta
Co ahu
East wood
Camp agnola
Bad iÃ©
ans a
ans o
ĠJuan ito
Pal om
Pal az
Pal ud
Pal ermo
Pal enque
Äģr d
bor Ã³w
Monte f
Monte fal
Re id
Re ut
Re ine
tt endorf
Bro c
Bro k
Bro ken
ĠBeach es
As chau
Mo er
Mo on
Mo to
Mo ir
Mo ÅŁ
Mo oro
Mo ores
Sp od
Sar y
Ro ta
Ro bert
Ro ÅŁia
Ro zhdest
ere a
me h
Long cheng
Long shan
Long view
Long eville
Long gang
tor res
Ã¡r ia
ĠSh Äģm
Bre a
Bre ton
Bre men
Bre mb
Bre bu
ane a
ane e
ane o
ire y
Ag r
Ag li
Ag ost
Ag ban
Ag ogna
Ag arak
He w
He er
He ist
ost ela
els a
els tadt
ĠU k
ĠU pper
ron es
Ak k
Ak s
Ak ou
Ak im
Er g
Er m
Er z
Er ba
Er qu
Er den
Er dre
Er skine
Cer d
Cer t
Cer ezo
Is p
Is in
Is lington
Is lam
Is chia
ys burg
ĠPo ÅĤud
ĠPo ints
In k
In ter
In wood
In nis
Ver neuil
Ver acruz
je wo
Cap o
Cap ac
Cap pel
ao ka
iel os
Zh uk
Zh ushan
Kal Ã½
oul d
oul ou
Ros es
Ros em
Ros eto
iet ra
ank oro
ank Ã¶y
Bay as
Bay side
Bay swater
Mat ang
Mat ay
Mat illa
Mat tenbach
Mat vey
pe o
pe ta
we id
itt le
ush k
Ben et
Ben ed
Gro ton
cu ta
oli Ã¨res
Ober rieden
Ober engstringen
ure chensk
Te a
Te co
Te oc
Te ques
Te quis
Åį s
Åį ri
Cr and
Cr ick
Mag u
Mag nÃ©
ho ffen
uang o
uang an
ÄŁ an
ÄŁ lu
And ers
And rey
iÃ© kaha
ela is
ester os
Ãī ta
Ãī loi
ĠMiguel ito
Kir by
ole c
ole t
Åŀ e
Åŀ o
Åŀ en
Åŀ ieu
mer t
mer ing
mer ay
mer ton
mer ÃŃa
uf u
uf en
Ãģ gio
Por ter
Por tez
Por ÄĻba
Ã¸ ra
Cl on
Cl us
Cl oud
Cab uya
Cab rera
Cab eza
Po to
Po itou
rez uela
Av r
Av el
Av alon
For syth
arl unga
arn aciÃ³n
Ã¢n deÅŁti
Ã¢n ceni
Pe ta
Pe ach
if u
if ang
Os ada
att ana
At ar
At lanta
Ãª ra
En z
En cr
En terprise
Ste ele
Ste tten
Ste wart
ĠGu ar
ĠGu as
ĠGu Ã¡s
We iss
We aver
We iden
We ather
Bou d
Har per
Har lem
Har wich
Bla inville
Kam i
Kam y
Kam yany
Lang nau
Pla tan
gn eto
chi i
chi aro
Fr ick
Mur r
Mur at
Mur om
Mur illo
ĠSal le
ĠSal vo
Min n
Min ami
Tal ang
Tal ah
Tal avera
Ph ong
Ph Ã¹
Ph num
Sk y
Sk ar
Ur t
Ur dorf
Lu th
Lu oyang
Gen is
Gen evi
lu is
ĠVic entina
Castel m
Em u
Em erson
Em ilia
Em ilio
Lo on
Ser ge
gen to
gen thal
gen cy
Gar h
Gar Äĥ
Gar field
Gar gan
ji Äĩ
Alb ig
Alb alat
Kras nyye
Å¾ din
Ge er
Ko Åº
Ko ÅĽci
Mad ri
Mad era
Mad rigal
ken burg
ile a
ile ÈĻti
Mart an
Mart el
Mart ÃŃ
Mart insville
Ac ac
Ac atepec
ll as
ĠEs cal
Bag no
Bag acay
yr na
yr hills
po Ãº
anc io
anc ito
anc ouver
ĠMor av
ĠMor avou
Ter z
Ter es
Ter ek
tz ing
tz ingen
tz inco
ĠCre mon
Com ana
Bri g
Bri k
Bri ar
Sol ana
Sol nechnyy
Äĩ a
Äĩ an
eri ÅŁ
enn oye
Bon ito
ĠLe ith
ĠLe opold
Str ass
Str oud
Bol s
Bol es
Bol og
Bol ÃŃvar
ÈĽ Äĥ
Ã¶n en
á¸¨ Äģj
á¸¨ ukÅ«mat
Cu autla
Wil ber
tr ia
tr up
uri al
Mel ton
Mel ÃŃ
Mac on
Mac chia
ker esz
Bat esville
ary d
vi ka
vi ers
vi ÈĽa
ĠBar b
ĠBar at
ĠBar ro
ĠBar ranca
ĠBar rios
Hor ta
Hor cajo
Pol je
iber t
Green wich
Green bri
Ash ley
Ash burn
Ash burton
akh t
akh ovka
Kou t
Kou akro
Kou akou
Kou amÃ©
Sa ar
Sa á¸©
Sa illy
ler ton
Ã½ si
Ãĩ an
Ãĩ al
Ãĩ aÄŁ
aba an
Pas eo
ÅĦ sko
ĠKh ai
ĠKh iri
ĠKh Ãª
ĠKh urd
ĠKh Ã¡nh
á¸© ay
á¸© Äģ
mb Ã©
yan ovka
Ts z
Ts im
Ts ets
Ts agh
Tur gut
ChÃ¢ ten
ChÃ¢ teaux
Ang er
Gor zyce
Her c
Her guijuela
ÄĽ ÅĻ
let cher
Palm etto
Palm eira
war ra
Ã©s y
ĠTr ent
Ay g
Ay ot
Ay ge
Ay utla
Ã¯ da
nik on
ĠTh om
ĠTh ai
ĠTh aya
ĠTh irty
Bra k
Bra ck
Pont s
Ed in
Ed els
Ed ger
Ed gem
Ed inburg
Ed monton
Wal den
Pan ay
Pan ama
ĠQ ar
