{"<eos>":0,"<unk>":1,"<mask>":2,"!":3,"\"":4,"#":5,"$":6,"%":7,"&":8,"'":9,"(":10,")":11,"*":12,"+":13,",":14,"-":15,".":16,"/":17,"0":18,"1":19,"2":20,"3":21,"4":22,"5":23,"6":24,"7":25,"8":26,"9":27,":":28,";":29,"<":30,"=":31,">":32,"?":33,"@":34,"A":35,"B":36,"C":37,"D":38,"E":39,"F":40,"G":41,"H":42,"I":43,"J":44,"K":45,"L":46,"M":47,"N":48,"O":49,"P":50,"Q":51,"R":52,"S":53,"T":54,"U":55,"V":56,"W":57,"X":58,"Y":59,"Z":60,"[":61,"\\":62,"]":63,"^":64,"_":65,"`":66,"a":67,"b":68,"c":69,"d":70,"e":71,"f":72,"g":73,"h":74,"i":75,"j":76,"k":77,"l":78,"m":79,"n":80,"o":81,"p":82,"q":83,"r":84,"s":85,"t":86,"u":87,"v":88,"w":89,"x":90,"y":91,"z":92,"{":93,"|":94,"}":95,"~":96,"¡":97,"¢":98,"£":99,"¤":100,"¥":101,"¦":102,"§":103,"¨":104,"©":105,"ª":106,"«":107,"¬":108,"®":109,"¯":110,"°":111,"±":112,"²":113,"³":114,"´":115,"µ":116,"¶":117,"·":118,"¸":119,"¹":120,"º":121,"»":122,"¼":123,"½":124,"¾":125,"¿":126,"À":127,"Á":128,"Â":129,"Ã":130,"Ä":131,"Å":132,"Æ":133,"Ç":134,"È":135,"É":136,"Ê":137,"Ë":138,"Ì":139,"Í":140,"Î":141,"Ï":142,"Ð":143,"Ñ":144,"Ò":145,"Ó":146,"Ô":147,"Õ":148,"Ö":149,"×":150,"Ø":151,"Ù":152,"Ú":153,"Û":154,"Ü":155,"Ý":156,"Þ":157,"ß":158,"à":159,"á":160,"â":161,"ã":162,"ä":163,"å":164,"æ":165,"ç":166,"è":167,"é":168,"ê":169,"ë":170,"ì":171,"í":172,"î":173,"ï":174,"ð":175,"ñ":176,"ò":177,"ó":178,"ô":179,"õ":180,"ö":181,"÷":182,"ø":183,"ù":184,"ú":185,"û":186,"ü":187,"ý":188,"þ":189,"ÿ":190,"Ā":191,"ā":192,"Ă":193,"ă":194,"Ą":195,"ą":196,"Ć":197,"ć":198,"Ĉ":199,"ĉ":200,"Ċ":201,"ċ":202,"Č":203,"č":204,"Ď":205,"ď":206,"Đ":207,"đ":208,"Ē":209,"ē":210,"Ĕ":211,"ĕ":212,"Ė":213,"ė":214,"Ę":215,"ę":216,"Ě":217,"ě":218,"Ĝ":219,"ĝ":220,"Ğ":221,"ğ":222,"Ġ":223,"ġ":224,"Ģ":225,"ģ":226,"Ĥ":227,"ĥ":228,"Ħ":229,"ħ":230,"Ĩ":231,"ĩ":232,"Ī":233,"ī":234,"Ĭ":235,"ĭ":236,"Į":237,"į":238,"İ":239,"ı":240,"Ĳ":241,"ĳ":242,"Ĵ":243,"ĵ":244,"Ķ":245,"ķ":246,"ĸ":247,"Ĺ":248,"ĺ":249,"Ļ":250,"ļ":251,"Ľ":252,"ľ":253,"Ŀ":254,"ŀ":255,"Ł":256,"ł":257,"Ń":258,"os":259,"eos":260,"an":261,"ar":262,"er":263,"in":264,"en":265,"on":266,"al":267,"or":268,"el":269,"il":270,"as":271,"es":272,"ch":273,"ur":274,"am":275,"de":276,"la":277,"le":278,"at":279,"San":280,"ou":281,"ol":282,"Ã©":283,"is":284,"ta":285,"ĠC":286,"ad":287,"it":288,"re":289,"ov":290,"ing":291,"Ġde":292,"ia":293,"ra":294,"ĠM":295,"te":296,"ic":297,"ĠP":298,"ang":299,"ay":300,"un":301,"ro":302,"Äģ":303,"Ã¡":304,"ĠS":305,"ri":306,"et":307,"La":308,"ĠB":309,"ig":310,"ton":311,"ag":312,"om":313,"ill":314,"im":315,"Ch":316,"au":317,"ĠA":318,"Ã³":319,"ac":320,"Ġd":321,"to":322,"ab":323,"ir":324,"and":325,"ÃŃ":326,"ed":327,"th":328,"ak":329,"sk":330,"ain":331,"ĠT":332,"od":333,"ĠH":334,"ĠR":335,"Al":336,"ap":337,"ul":338,"ĠG":339,"ah":340,"ĠV":341,"id":342,"us":343,"io":344,"ie":345,"ille":346,"ong":347,"av":348,"ti":349,"ne":350,"co":351,"ba":352,"ano":353,"ka":354,"ber":355,"ue":356,"um":357,"Sain":358,"ĠL":359,"El":360,"ville":361,"Saint":362,"he":363,"ell":364,"Äĥ":365,"ot":366,"iv":367,"âĢ":368,"ter":369,"ĠJ":370,"ec":371,"em":372,"oy":373,"Mar":374,"ĠN":375,"ast":376,"ow":377,"ok":378,"ĠF":379,"ÅŁ":380,"ers":381,"og":382,"ran":383,"ik":384,"Ã¶":385,"illa":386,"Ã¼":387,"ont":388,"sh":389,"eng":390,"ach":391,"Santa":392,"oc":393,"ob":394,"ai":395,"Ġdel":396,"Sh":397,"az":398,"all":399,"ĠD":400,"eg":401,"st":402,"Ã¡n":403,"Ar":404,"amp":405,"ino":406,"Ä«":407,"Ã³n":408,"ard":409,"qu":410,"est":411,"An":412,"orf":413,"bur":414,"ana":415,"ev":416,"ud":417,"op":418,"ĠMar":419,"ts":420,"ara":421,"li":422,"ale":423,"ge":424,"âĢĻ":425,"na":426,"ent":427,"uc":428,"end":429,"ina":430,"ĠK":431,"ich":432,"St":433,"ark":434,"gu":435,"zh":436,"ey":437,"ice":438,"ub":439,"ort":440,"eld":441,"ord":442,"ut":443,"Ne":444,"ass":445,"ek":446,"res":447,"ĠE":448,"ip":449,"ern":450,"sur":451,"ĠI":452,"iy":453,"Ã¨":454,"Le":455,"aw":456,"Ã¢":457,"ce":458,"ca":459,"ci":460,"ug":461,"our":462,"up":463,"ke":464,"ib":465,"ier":466,"uan":467,"ĠO":468,"ens":469,"Ã±":470,"uk":471,"go":472,"ovo":473,"Mon":474,"eni":475,"berg":476,"ĠCh":477,"ian":478,"Bar":479,"za":480,"Ä±":481,"ood":482,"ny":483,"Å«":484,"ĠW":485,"Gu":486,"ine":487,"Car":488,"ung":489,"orth":490,"Br":491,"uz":492,"ley":493,"da":494,"burg":495,"hu":496,"ala":497,"ant":498,"ez":499,"nd":500,"bach":501,"Col":502,"ĠLa":503,"ff":504,"oh":505,"ate":506,"Ġ(":507,"land":508,"ÈĻ":509,"amb":510,"ni":511,"ry":512,"ng":513,"aya":514,"iz":515,"aj":516,"ity":517,"heim":518,"oye":519,"oz":520,"ond":521,"orn":522,"ica":523,"Ġla":524,"Th":525,"fi":526,"dorf":527,"ei":528,"era":529,"ingen":530,"ten":531,"Val":532,"eb":533,"ero":534,")<":535,"Villa":536,"no":537,"Cast":538,"ĠPark":539,"igh":540,"uel":541,"lo":542,"ep":543,"ham":544,"Sch":545,"Sant":546,"Qu":547,"les":548,"Ã¤":549,"Am":550,"va":551,"âĢĺ":552,"ss":553,"ind":554,"ha":555,"lan":556,"ola":557,"outh":558,"Vill":559,"ĠCity":560,"ÃŃa":561,"yn":562,"Gr":563,"ÅŁti":564,"och":565,"Bel":566,"ington":567,"Ġdi":568,"ĠAl":569,"Ã³w":570,"Mont":571,"erm":572,"Ãº":573,"ĠHill":574,"one":575,"field":576,"sen":577,"ada":578,"int":579,"wn":580,"que":581,"ena":582,"oun":583,"Or":584,"wood":585,"pur":586,"Å¡":587,"alm":588,"se":589,"vo":590,"ore":591,"aro":592,"olo":593,"West":594,"ash":595,"oro":596,"rÃ©":597,"gh":598,"Man":599,"ĠSan":600,"ÅĤ":601,"af":602,"Ã§":603,"Äģn":604,"ari":605,"Sal":606,"Ber":607,"uch":608,"Be":609,"Ã£":610,"ani":611,"ford":612,"ij":613,"of":614,"New":615,"art":616,"den":617,"Pr":618,"han":619,"ck":620,"uer":621,"ly":622,"pr":623,"oss":624,"ÃŃn":625,"ien":626,"Nov":627,"Mal":628,"Mor":629,"und":630,"ĠVal":631,"jo":632,"tad":633,"Hu":634,"ga":635,"ata":636,"ins":637,"ĠJos":638,"Å£":639,"br":640,"illo":641,"Cal":642,"Bal":643,"North":644,"Äį":645,"ita":646,"ings":647,"tep":648,"ira":649,"kh":650,"ito":651,"town":652,"skiy":653,"Bu":654,"ĠZ":655,"ja":656,"Kr":657,"arr":658,"Cor":659,"itz":660,"á¸":661,"Kh":662,"by":663,"Es":664,"Ã£o":665,"ui":666,"ign":667,"Cas":668,"Ã«":669,"osa":670,"err":671,"ĠCr":672,"Se":673,"be":674,"lÃ¡n":675,"son":676,"ya":677,"zo":678,"ve":679,"ĠHe":680,"Ol":681,"Tor":682,"ki":683,"ish":684,"Bur":685,"iang":686,"rov":687,"Bo":688,"ma":689,"bo":690,"ama":691,"Ma":692,"Gre":693,"Par":694,"ula":695,"ora":696,"Tr":697,"len":698,"man":699,"Ad":700,"ste":701,"iano":702,"Ġl":703,"South":704,"á»":705,"ona":706,"ÈĻti":707,"Ab":708,"ied":709,"Per":710,"uy":711,"wa":712,"ĠY":713,"chen":714,"Ã©n":715,"ÃŁ":716,"onte":717,"skoye":718,"ath":719,"ick":720,"ello":721,"áº":722,"ist":723,"Bor":724,"anj":725,"Kar":726,"ĠAr":727,"pa":728,"iss":729,"lin":730,"ranc":731,"Con":732,"Los":733,"ess":734,"ĠAn":735,"ze":736,"ĠBe":737,"ock":738,"ux":739,"ver":740,"onia":741,"ico":742,"rid":743,"Me":744,"ix":745,"ns":746,"ion":747,"ova":748,"any":749,"ivka":750,"ights":751,"Ba":752,"ila":753,"Mer":754,"iri":755,"ente":756,"ald":757,"Co":758,"East":759,"ella":760,"Camp":761,"ĠHeights":762,"Bad":763,"De":764,"ele":765,"ato":766,"ua":767,"ans":768,"ĠJuan":769,"che":770,"Pal":771,"Äģr":772,"ausen":773,"zy":774,"are":775,"ista":776,"bor":777,"Monte":778,"elle":779,"Re":780,"tt":781,"ura":782,"nes":783,"Bro":784,"edro":785,"ĠBeach":786,"As":787,"Mo":788,"Sp":789,"Sar":790,"oug":791,"isco":792,"ĠJosÃ©":793,"Ban":794,"Ro":795,"ount":796,"ere":797,"feld":798,"Las":799,"ies":800,"me":801,"inc":802,"Long":803,"Ãł":804,"tor":805,"Ã¡r":806,"Ġam":807,"ĠSh":808,"Bre":809,"per":810,"ane":811,"ciÃ³n":812,"ĠLake":813,"ire":814,"tepec":815,"Ag":816,"He":817,"endorf":818,"ost":819,"els":820,"oll":821,"Ġ/":822,"arm":823,"ĠIs":824,"ĠU":825,"ado":826,"ron":827,"Ak":828,"aul":829,"Er":830,"Äģd":831,"Cer":832,"Is":833,"Port":834,"lor":835,"ys":836,"Ġdo":837,"ÃŃo":838,"ĠPo":839,"In":840,"Ver":841,"je":842,"Cap":843,"ye":844,"iguel":845,"Can":846,"ao":847,"iel":848,"Zh":849,"Ã¡s":850,"ust":851,"Kal":852,"oul":853,"ago":854,"Ros":855,"iet":856,"ank":857,"kt":858,"Bay":859,"Pet":860,"Mat":861,"pe":862,"urt":863,"ĠVilla":864,"ĠMarÃŃa":865,"gar":866,"we":867,"old":868,"itt":869,"Ã¨s":870,"rancisco":871,"pan":872,"ush":873,"ĠBay":874,"omb":875,"Ben":876,"Gro":877,"ĠPedro":878,"iew":879,"tadt":880,"cu":881,"oli":882,"Ober":883,"sa":884,"ure":885,"Te":886,"org":887,"ide":888,"Åį":889,"Cr":890,"Mag":891,"rac":892,"ĠHills":893,"ĠCruz":894,"ho":895,"iu":896,"ling":897,"uang":898,"Ġder":899,"ueva":900,"Pl":901,"ren":902,"ÄŁ":903,"And":904,"iÃ©":905,"ridge":906,"ela":907,"ester":908,"Ãī":909,"ovka":910,"iago":911,"skaya":912,"ĠMiguel":913,"Kir":914,"ole":915,"bro":916,"cal":917,"rad":918,"Åŀ":919,"mer":920,"uf":921,"Ãģ":922,"ann":923,"Por":924,"Ã¸":925,"Ġal":926,"apa":927,"Colonia":928,"ater":929,"Cl":930,"ene":931,"bury":932,"Ġan":933,"anch":934,"oma":935,"ih":936,"Äģb":937,"Cab":938,"Po":939,"du":940,"kro":941,"ons":942,"rez":943,"umb":944,"own":945,"dale":946,"ese":947,"ĠSpr":948,"tonio":949,"Å«r":950,"Av":951,"For":952,"Vel":953,"arl":954,"arn":955,"una":956,"Lake":957,"Ã¢n":958,"Ġlos":959,"Mount":960,"Pe":961,"if":962,"ite":963,"Os":964,"cia":965,"ales":966,"att":967,"rande":968,"At":969,"Cam":970,"Ãª":971,"âĢĻ<":972,"Santiago":973,"Gra":974,"ima":975,"men":976,"ÅĻ":977,"Äģl":978,"En":979,"Ste":980,"ĠFrancisco":981,"ĠValley":982,"ĠVillage":983,"air":984,"ĠGu":985,"iver":986,"ĠMart":987,"uerto":988,"mont":989,"Les":990,"We":991,"zi":992,"Äģm":993,"Bou":994,"Har":995,"sch":996,"ingo":997,"Bla":998,"Kam":999,"Lang":1000,"Pla":1001,"gn":1002,"pp":1003,"do":1004,"port":1005,"tla":1006,"uen":1007,"hausen":1008,"chi":1009,"ida":1010,"Ã±a":1011,"Fr":1012,"Mil":1013,"Mur":1014,"Wh":1015,"gi":1016,"ĠSal":1017,"Min":1018,"Tal":1019,"ĠAntonio":1020,"Ph":1021,"Sk":1022,"Ur":1023,"zano":1024,"ÄĻ":1025,"Ã¶r":1026,"Lu":1027,"ini":1028,"Santo":1029,"uevo":1030,"Gen":1031,"lu":1032,"ett":1033,"ĠVic":1034,"Castel":1035,"Em":1036,"Lo":1037,"ks":1038,"Ser":1039,"gen":1040,"Ġin":1041,"Gar":1042,"SÃ£o":1043,"ji":1044,"Alb":1045,"Ã¨res":1046,"Kras":1047,"ĠSprings":1048,"der":1049,"Å¾":1050,"Ge":1051,"Ko":1052,"Mad":1053,"ken":1054,"mar":1055,"Äĥr":1056,"oa":1057,"Ã©r":1058,"evo":1059,"ĠEst":1060,"Ci":1061,"Hol":1062,"ile":1063,"Mart":1064,"zhen":1065,"Ã¢r":1066,"Ac":1067,"Mas":1068,"Tar":1069,"des":1070,"ll":1071,"eno":1072,"ove":1073,"ĠEs":1074,"Bag":1075,"ee":1076,"uh":1077,"yr":1078,"illas":1079,"the":1080,"ido":1081,"po":1082,"anc":1083,"ĠMor":1084,"eda":1085,"Ter":1086,"tz":1087,"ĠCre":1088,"Com":1089,"Sam":1090,"ax":1091,"ston":1092,"Sankt":1093,"adal":1094,"aux":1095,"Bri":1096,"Sol":1097,"Äĩ":1098,"Ġel":1099,"eri":1100,"enn":1101,"ĠCamp":1102,"guan":1103,"Bon":1104,"ko":1105,"Ã´":1106,"ĠLe":1107,"Str":1108,"hi":1109,"kir":1110,"nad":1111,"nyy":1112,"ĠPoint":1113,"Bol":1114,"pol":1115,"ben":1116,"lÃ©":1117,"ÈĽ":1118,"Ã¨re":1119,"eth":1120,"ĠGrande":1121,"Ã¶n":1122,"á¸¨":1123,"Cu":1124,"Wil":1125,"Wood":1126,"tr":1127,"uri":1128,"ough":1129,"rove":1130,"Mel":1131,"Mac":1132,"ker":1133,"Bat":1134,"well":1135,"ary":1136,"ith":1137,"rim":1138,"Un":1139,"dt":1140,"lia":1141,"vi":1142,"ets":1143,"ĠBar":1144,"Don":1145,"Hor":1146,"Pol":1147,"don":1148,"iber":1149,"elo":1150,"ougou":1151,"Puerto":1152,"ral":1153,"yah":1154,"enter":1155,"Green":1156,"Ash":1157,"Ca":1158,"noye":1159,"uj":1160,"Ã¥":1161,"ise":1162,"akh":1163,"Kou":1164,"Sa":1165,"ler":1166,"Ã½":1167,"Ãĩ":1168,"lav":1169,"ange":1170,"roy":1171,"aba":1172,"ĠCreek":1173,"Pas":1174,"iam":1175,"uÃ¡":1176,"way":1177,"ÅĦ":1178,"reg":1179,"ango":1180,"anda":1181,"ĠKh":1182,"á¸©":1183,"iro":1184,"mb":1185,"yan":1186,"eral":1187,"itlÃ¡n":1188,"ueb":1189,"upe":1190,"Ts":1191,"Tur":1192,"ven":1193,"ines":1194,"ChÃ¢":1195,"engguan":1196,"Ang":1197,"Gor":1198,"Her":1199,"ban":1200,"ÄĽ":1201,"let":1202,"owice":1203,"ierra":1204,"Fort":1205,"Palm":1206,"war":1207,"worth":1208,"ario":1209,"ali":1210,"Ã©s":1211,"aca":1212,"ĠTr":1213,"Ay":1214,"Ã¯":1215,"anga":1216,"eto":1217,"aha":1218,"ĠChengguan":1219,"ĠChengguanzhen":1220,"Mid":1221,"Nav":1222,"nik":1223,"sville":1224,"Ã©d":1225,"ĠTh":1226,"Bra":1227,"Ham":1228,"Pont":1229,"wil":1230,"Ed":1231,"Wal":1232,"Ġim":1233,"cheng":1234,"ovice":1235,"Sainte":1236,"Pan":1237,"ros":1238,"enberg":1239,"reis":1240,"igny":1241,"awa":1242,"lÃ¨s":1243,"Äħ":1244,"ĠQ":1245,"orte":1246,"ĠSt":1247,"Gl":1248,"car":1249,"ĠRe":1250,"uss":1251,"ieu":1252,"eck":1253,"ersdorf":1254,"tsi":1255,"Bl":1256,"Sil":1257,"iana":1258,"yl":1259,"alo":1260,"asa":1261,"leu":1262,"ĠAnd":1263,"alls":1264,"GroÃŁ":1265,"Ly":1266,"Oak":1267,"amar":1268,"aga":1269,"Torre":1270,"adalupe":1271,"May":1272,"Su":1273,"sdorf":1274,"ĠCol":1275,"ĠGi":1276,"gua":1277,"zhou":1278,"Ta":1279,"Tre":1280,"van":1281,"amba":1282,"tag":1283,"Alt":1284,"Äĥl":1285,"Fair":1286,"Win":1287,"boro":1288,"ous":1289,"iao":1290,"agar":1291,"ĠGrove":1292,"kes":1293,"Ġnad":1294,"ares":1295,"apan":1296,"Ã¼r":1297,"Az":1298,"Fre":1299,"Nor":1300,"Sab":1301,"cos":1302,"hl":1303,"ati":1304,"Dr":1305,"Dob":1306,"Rom":1307,"gan":1308,"ph":1309,"ert":1310,"lay":1311,"atlÃ¡n":1312,"Ap":1313,"Dol":1314,"Mu":1315,"bar":1316,"bour":1317,"Åł":1318,"oni":1319,"ouÃ©":1320,"Ã³r":1321,"Ä«yah":1322,"Grand":1323,"Bas":1324,"Il":1325,"bal":1326,"nica":1327,"tten":1328,"osh":1329,"oren":1330,"ĠCon":1331,"unn":1332,"Ä«n":1333,"dal":1334,"yk":1335,"ĠEl":1336,"edo":1337,"ahu":1338,"Ã¶l":1339,"Pat":1340,"Red":1341,"mo":1342,"si":1343,"esa":1344,"cha":1345,"ĠCal":1346,"igli":1347,"ardo":1348,"BÃ©":1349,"Je":1350,"Nar":1351,"igu":1352,"aci":1353,"Äĥne":1354,"uÃ¡rez":1355,"Nied":1356,"bi":1357,"di":1358,"kou":1359,"ska":1360,"ĠRo":1361,"shan":1362,"cion":1363,"ĠWest":1364,"Ġlas":1365,"Del":1366,"Fu":1367,"Ha":1368,"Mol":1369,"Pin":1370,"Sta":1371,"Vil":1372,"cz":1373,"lio":1374,"uil":1375,"out":1376,"Ã©m":1377,"over":1378,"ĠVer":1379,"Villan":1380,"Lim":1381,"Mir":1382,"Spr":1383,"Will":1384,"lÄ±":1385,"ras":1386,"rah":1387,"rio":1388,"rich":1389,"illy":1390,"ull":1391,"Mah":1392,"Vic":1393,"nh":1394,"riv":1395,"Ã³s":1396,"aven":1397,"Ka":1398,"Ni":1399,"Tam":1400,"bei":1401,"ias":1402,"uis":1403,"view":1404,"ĠX":1405,"Sand":1406,"ĠSec":1407,"rig":1408,"ĠLuc":1409,"asso":1410,"Ass":1411,"Fran":1412,"Gal":1413,"Ke":1414,"Med":1415,"Sel":1416,"Sau":1417,"bon":1418,"kov":1419,"lingen":1420,"ty":1421,"yang":1422,"ison":1423,"ĠCast":1424,"red":1425,"ĠPla":1426,"etz":1427,"omas":1428,"ack":1429,"ega":1430,"ofen":1431,"Kor":1432,"Lou":1433,"Rad":1434,"Tab":1435,"Var":1436,"Vol":1437,"ÅĽ":1438,"anz":1439,"imo":1440,"Cher":1441,"Ã¤r":1442,"Dong":1443,"Kat":1444,"Ram":1445,"Tra":1446,"bu":1447,"tal":1448,"inas":1449,"ette":1450,"aco":1451,"ski":1452,"Ale":1453,"Bil":1454,"Bog":1455,"Dun":1456,"Go":1457,"Kur":1458,"ĠQu":1459,"ĠâĢĺ":1460,"ĠMonte":1461,"tein":1462,"icol":1463,"Char":1464,"ĠTe":1465,"ĠTor":1466,"idge":1467,"ĠIn":1468,"Bir":1469,"Kon":1470,"har":1471,"esh":1472,"Äĥu":1473,"Dar":1474,"Ho":1475,"Lin":1476,"Ville":1477,"uv":1478,"wang":1479,"enh":1480,"ayo":1481,"Ġda":1482,"ney":1483,"Å£a":1484,"Bang":1485,"Sun":1486,"fla":1487,"gio":1488,"tan":1489,"Å¼":1490,"ores":1491,"ili":1492,"tain":1493,"ĠCar":1494,"ills":1495,"ske":1496,"Sc":1497,"rou":1498,"val":1499,"Lag":1500,"ĠGard":1501,"Pa":1502,"Xin":1503,"eh":1504,"iers":1505,"ping":1506,"lad":1507,"olf":1508,"ĠCor":1509,"ava":1510,"ĠDom":1511,"uck":1512,"ignano":1513,"ÄģbÄģd":1514,"kirchen":1515,"Hal":1516,"Ir":1517,"Iz":1518,"Kol":1519,"Pad":1520,"Sm":1521,"Tem":1522,"Wa":1523,"ris":1524,"tel":1525,"wan":1526,"wick":1527,"Ġbei":1528,"enz":1529,"ates":1530,"oua":1531,"rie":1532,"idal":1533,"burn":1534,"ĠMare":1535,"Beau":1536,"toria":1537,"Dal":1538,"Roc":1539,"Rich":1540,"Tep":1541,"War":1542,"eÅŁti":1543,"ÄĲ":1544,"amo":1545,"ayan":1546,"ĠBlan":1547,"ĠRos":1548,"Alm":1549,"Ã¼n":1550,"Dam":1551,"Gran":1552,"Glen":1553,"Ost":1554,"Pueb":1555,"Ru":1556,"Riv":1557,"pin":1558,"ram":1559,"eland":1560,"ÃŃs":1561,"aki":1562,"ĠRÃŃo":1563,"ĠJuÃ¡rez":1564,"ĠFor":1565,"uca":1566,"iento":1567,"Spring":1568,"Ga":1569,"Ot":1570,"Sim":1571,"Sul":1572,"Vi":1573,"con":1574,"xi":1575,"insk":1576,"angan":1577,"rog":1578,"ĠNorth":1579,"Star":1580,"Bul":1581,"Ger":1582,"Ku":1583,"Ou":1584,"Pod":1585,"Pot":1586,"Sv":1587,"Sin":1588,"Sid":1589,"mp":1590,"ner":1591,"wal":1592,"lat":1593,"court":1594,"udad":1595,"Kings":1596,"Sto":1597,"Um":1598,"elos":1599,"rag":1600,"ĠPh":1601,"ĠPalm":1602,"unt":1603,"bert":1604,"ĠLoren":1605,"Ah":1606,"Bud":1607,"Mak":1608,"Nag":1609,"oj":1610,"win":1611,"ÄĮ":1612,"oud":1613,"agen":1614,"ĠFalls":1615,"uela":1616,"rÃ©s":1617,"Gh":1618,"Que":1619,"Sz":1620,"Sur":1621,"Som":1622,"bÃ©":1623,"alco":1624,"lev":1625,"ĠMon":1626,"etto":1627,"cep":1628,"Den":1629,"Lam":1630,"enbach":1631,"ori":1632,"ase":1633,"lem":1634,"Äģh":1635,"ĠSouth":1636,"aka":1637,"ĠHar":1638,"ipe":1639,"brook":1640,"Bh":1641,"Bell":1642,"Do":1643,"Kreis":1644,"Mos":1645,"Pon":1646,"lov":1647,"mond":1648,"ria":1649,"var":1650,"ÄĢ":1651,"anza":1652,"asco":1653,"ĠMa":1654,"ĠRosa":1655,"owo":1656,"ĠEast":1657,"Valle":1658,"borough":1659,"High":1660,"Ng":1661,"Pen":1662,"mi":1663,"pec":1664,"ru":1665,"encia":1666,"ouss":1667,"ĠCenter":1668,"Äģs":1669,"Ã¡z":1670,"tone":1671,"ĠTown":1672,"ĠRiver":1673,"oya":1674,"Krasn":1675,"Flor":1676,"Na":1677,"Sum":1678,"ĠÃģ":1679,"erd":1680,"erg":1681,"asti":1682,"oux":1683,"ĠCu":1684,"ray":1685,"rom":1686,"ĠAg":1687,"abo":1688,"thal":1689,"ott":1690,"Ä«r":1691,"Ä±n":1692,"ĠIsland":1693,"Ciudad":1694,"Maz":1695,"Sav":1696,"ft":1697,"wo":1698,"Äĵ":1699,"orsk":1700,"ĠAm":1701,"ĠAna":1702,"achi":1703,"idalgo":1704,"ĠLorenzo":1705,"Ball":1706,"Cat":1707,"Fl":1708,"Im":1709,"Ll":1710,"Luc":1711,"NÃ©":1712,"las":1713,"ves":1714,"Åģ":1715,"isch":1716,"age":1717,"agu":1718,"ului":1719,"elles":1720,"ĠNuevo":1721,"ogo":1722,"General":1723,"ĠVicente":1724,"Bour":1725,"Dom":1726,"Kil":1727,"Ny":1728,"Pu":1729,"Tom":1730,"Vall":1731,"Vale":1732,"its":1733,"rem":1734,"riba":1735,"ĠTer":1736,"owa":1737,"oca":1738,"zhuang":1739,"ĠShah":1740,"Cent":1741,"Da":1742,"Land":1743,"Mc":1744,"Ob":1745,"fa":1746,"ysh":1747,"oso":1748,"uro":1749,"urst":1750,"amiento":1751,"uma":1752,"ukh":1753,"Bab":1754,"Bak":1755,"Frac":1756,"Kom":1757,"Lan":1758,"Ra":1759,"Tan":1760,"Ven":1761,"jido":1762,"ky":1763,"ones":1764,"ĠMag":1765,"Ã±o":1766,"Ara":1767,"Bin":1768,"Kap":1769,"Nan":1770,"Pi":1771,"Park":1772,"Si":1773,"jiang":1774,"Ã²":1775,"Åĳ":1776,"Ġá¸¨":1777,"atu":1778,"rop":1779,"ĠSus":1780,"ĠRidge":1781,"cot":1782,"ters":1783,"ever":1784,"enda":1785,"eira":1786,"ountain":1787,"Eg":1788,"Kl":1789,"Mill":1790,"Pier":1791,"Rock":1792,"ael":1793,"ju":1794,"pen":1795,"sz":1796,"ĠSanta":1797,"eros":1798,"alla":1799,"ors":1800,"ats":1801,"oum":1802,"ando":1803,"ĠFel":1804,"Buen":1805,"cionamiento":1806,"Cos":1807,"LÃ©":1808,"Pom":1809,"Rio":1810,"RÃŃo":1811,"So":1812,"To":1813,"Tla":1814,"Uni":1815,"can":1816,"zen":1817,"arc":1818,"aran":1819,"idro":1820,"stein":1821,"ĠArriba":1822,"Fraccionamiento":1823,"Gol":1824,"Jal":1825,"Kan":1826,"She":1827,"Us":1828,"Vin":1829,"bridge":1830,"ger":1831,"oi":1832,"Å½":1833,"enne":1834,"iler":1835,"leton":1836,"adi":1837,"ĠMan":1838,"unc":1839,"aut":1840,"ongo":1841,"aver":1842,"ĠMaria":1843,"ĠMartÃŃn":1844,"cepciÃ³n":1845,"GÃ¼":1846,"It":1847,"Lar":1848,"PÃ©":1849,"The":1850,"more":1851,"rat":1852,"sburg":1853,"yi":1854,"ence":1855,"onn":1856,"onne":1857,"ĠMad":1858,"tea":1859,"Äģt":1860,"agn":1861,"ĠGre":1862,"ikro":1863,"ondo":1864,"Martin":1865,"Ala":1866,"Cur":1867,"Jin":1868,"Liv":1869,"Mass":1870,"Nuevo":1871,"Ok":1872,"com":1873,"eli":1874,"elen":1875,"ingham":1876,"ĠMe":1877,"illos":1878,"imb":1879,"acio":1880,"ĠOr":1881,"Guadalupe":1882,"ĠIsidro":1883,"Far":1884,"Han":1885,"Ry":1886,"kÃ¶":1887,"lar":1888,"lal":1889,"water":1890,"Ġ-":1891,"uru":1892,"iti":1893,"inga":1894,"rav":1895,"Äģj":1896,"Chang":1897,"uli":1898,"ĠVie":1899,"Neu":1900,"hua":1901,"Villanueva":1902,"Li":1903,"No":1904,"Tak":1905,"Ul":1906,"Zar":1907,"ym":1908,"zan":1909,"cher":1910,"aman":1911,"ĠCat":1912,"ree":1913,"oda":1914,"ĠVista":1915,"engo":1916,"unga":1917,"Castell":1918,"Kirch":1919,"Cro":1920,"Cav":1921,"Camb":1922,"Dan":1923,"Ind":1924,"Kot":1925,"Lip":1926,"Sor":1927,"Sou":1928,"SÃ©":1929,"Sem":1930,"Tel":1931,"pi":1932,"Ġ1":1933,"enburg":1934,"ĠSierra":1935,"ried":1936,"akro":1937,"ĠHidalgo":1938,"iec":1939,"Black":1940,"polis":1941,"Midd":1942,"ĠAndrÃ©s":1943,"Au":1944,"Dz":1945,"GÃ¶":1946,"Pil":1947,"Pres":1948,"Poz":1949,"fort":1950,"yy":1951,"Æ°":1952,"inh":1953,"ĠCan":1954,"une":1955,"Laur":1956,"ĠBart":1957,"avista":1958,"ĠNorte":1959,"ikh":1960,"Villar":1961,"ĠSecciÃ³n":1962,"Dub":1963,"Kok":1964,"MÃ©":1965,"Mau":1966,"Pri":1967,"Ped":1968,"Sok":1969,"Sint":1970,"Wang":1971,"Yang":1972,"cas":1973,"ea":1974,"hr":1975,"long":1976,"par":1977,"Åļ":1978,"Ġs":1979,"itas":1980,"Chi":1981,"ĠAir":1982,"ĠRom":1983,"ĠNicol":1984,"ques":1985,"enstein":1986,"ijk":1987,"garh":1988,"White":1989,"Georg":1990,"ÄĥneÅŁti":1991,"ĠDomingo":1992,"Bah":1993,"Du":1994,"Ejido":1995,"Mand":1996,"Sen":1997,"Wind":1998,"gem":1999,"jar":2000,"mes":2001,"nic":2002,"nice":2003,"ador":2004,"ĠMat":2005,"teau":2006,"ĠSeb":2007,"etta":2008,"iga":2009,"ablo":2010,"ĠOl":2011,"Brook":2012,"ĠEstate":2013,"Nieder":2014,"Valea":2015,"Dor":2016,"Ita":2017,"Jos":2018,"Jar":2019,"Pre":2020,"Ty":2021,"hol":2022,"jan":2023,"lis":2024,"ox":2025,"ota":2026,"rero":2027,"ster":2028,"unta":2029,"ĠRey":2030,"ĠNe":2031,"Campo":2032,"Verkh":2033,"Porto":2034,"Agu":2035,"By":2036,"Bos":2037,"Ix":2038,"Kle":2039,"Lub":2040,"Mit":2041,"Nam":2042,"Og":2043,"Op":2044,"Ple":2045,"Pit":2046,"Tu":2047,"Tro":2048,"jas":2049,"stadt":2050,"Ãĸ":2051,"eles":2052,"Äģpur":2053,"acu":2054,"Alf":2055,"ĠLuis":2056,"ivtsi":2057,"Marc":2058,"erson":2059,"Arg":2060,"á»ĭ":2061,"ancho":2062,"Bet":2063,"Buc":2064,"Est":2065,"Gb":2066,"Kos":2067,"MÃ¼":2068,"Mez":2069,"Sat":2070,"Tri":2071,"ning":2072,"aria":2073,"eras":2074,"inos":2075,"ĠCl":2076,"ĠCam":2077,"ĠCent":2078,"ĠPe":2079,"ĠEn":2080,"iya":2081,"Valde":2082,"ĠZap":2083,"Bob":2084,"Di":2085,"Ig":2086,"Ky":2087,"Novo":2088,"Nueva":2089,"Od":2090,"Up":2091,"Ve":2092,"nitz":2093,"ĠCo":2094,"Champ":2095,"aus":2096,"ĠHu":2097,"idad":2098,"Ã±as":2099,"atepec":2100,"Belle":2101,"erme":2102,"ĠValle":2103,"brunn":2104,"Gi":2105,"Mi":2106,"On":2107,"Water":2108,"Yan":2109,"cio":2110,"gos":2111,"hou":2112,"jia":2113,"ps":2114,"onz":2115,"orod":2116,"cht":2117,"amm":2118,"lez":2119,"ĠPol":2120,"ĠPablo":2121,"igo":2122,"illon":2123,"Chap":2124,"evka":2125,"ĠLakes":2126,"lands":2127,"stedt":2128,"áº¥":2129,"ĠSebasti":2130,"Cour":2131,"Day":2132,"Fal":2133,"Hil":2134,"Mang":2135,"Ponte":2136,"Tang":2137,"lob":2138,"lington":2139,"pu":2140,"sto":2141,"ars":2142,"aton":2143,"Sang":2144,"ichi":2145,"afael":2146,"Unter":2147,"Dj":2148,"Dur":2149,"Hoh":2150,"Horn":2151,"Lun":2152,"Piet":2153,"Tai":2154,"Top":2155,"dan":2156,"ganj":2157,"pel":2158,"iny":2159,"alan":2160,"asan":2161,"ovskiy":2162,"agan":2163,"ĠFlor":2164,"entes":2165,"Corn":2166,"Hay":2167,"Kas":2168,"Kab":2169,"Map":2170,"Pur":2171,"Pul":2172,"Rog":2173,"Rob":2174,"Rud":2175,"Ti":2176,"Tay":2177,"cy":2178,"Æ¡":2179,"ono":2180,"chio":2181,"leben":2182,"ĠCarl":2183,"raz":2184,"riz":2185,"ieux":2186,"ikon":2187,"azar":2188,"qui":2189,"Berg":2190,"Ãªn":2191,"Pierre":2192,"Bac":2193,"Font":2194,"Ker":2195,"Lind":2196,"Mou":2197,"Oc":2198,"Pine":2199,"Tol":2200,"Tim":2201,"Wald":2202,"bara":2203,"ef":2204,"eo":2205,"kin":2206,"sheim":2207,"vor":2208,"vel":2209,"Ġof":2210,"oria":2211,"ouo":2212,"isa":2213,"oven":2214,"ĠPin":2215,"sko":2216,"All":2217,"ĠDon":2218,"Ä±r":2219,"Nova":2220,"gnacio":2221,"Frank":2222,"ĠGardens":2223,"rogres":2224,"But":2225,"Bern":2226,"Dou":2227,"Germ":2228,"Hom":2229,"Kin":2230,"Kamp":2231,"Pop":2232,"Ren":2233,"Ten":2234,"bek":2235,"pat":2236,"illes":2237,"Chak":2238,"iego":2239,"Mark":2240,"egg":2241,"Stan":2242,"ciano":2243,"Amb":2244,"weiler":2245,"Stein":2246,"Pueblo":2247,"Ġsul":2248,"BÄĥ":2249,"Cop":2250,"Gard":2251,"Kaf":2252,"Lor":2253,"Lib":2254,"Litt":2255,"Pra":2256,"Rem":2257,"Sy":2258,"Wes":2259,"dar":2260,"ule":2261,"ĠSant":2262,"inskiy":2263,"onta":2264,"ory":2265,"lah":2266,"Ã©rÃ©":2267,"ret":2268,"ovan":2269,"iac":2270,"rak":2271,"ĠMate":2272,"unda":2273,"ĠAc":2274,"head":2275,"quil":2276,"huac":2277,"ibertad":2278,"Jean":2279,"Bug":2280,"Cla":2281,"Des":2282,"Dum":2283,"Ib":2284,"Ing":2285,"Kum":2286,"Mes":2287,"Mun":2288,"Pie":2289,"Pog":2290,"Rod":2291,"Sag":2292,"Sev":2293,"Sib":2294,"ech":2295,"gr":2296,"iÅŁ":2297,"Ä°":2298,"Ġy":2299,"ento":2300,"alu":2301,"adow":2302,"ĠPal":2303,"iller":2304,"ÃŃas":2305,"use":2306,"bajo":2307,"hem":2308,"eca":2309,"iki":2310,"shi":2311,"allo":2312,"Ä±k":2313,"zyce":2314,"Cerro":2315,"ĠVictoria":2316,"ĠMorelos":2317,"ĠGreen":2318,"ĠViejo":2319,"ĠCarlos":2320,"Aub":2321,"Bai":2322,"Kem":2323,"Tec":2324,"Yong":2325,"ZÃ¼":2326,"bin":2327,"iÃ¨re":2328,"mon":2329,"vale":2330,"yo":2331,"zÃ³w":2332,"Ã¬":2333,"orp":2334,"asi":2335,"chester":2336,"itu":2337,"rea":2338,"ĠMil":2339,"ĠMont":2340,"aud":2341,"ĠAbajo":2342,"ells":2343,"iva":2344,"ranca":2345,"str":2346,"ampton":2347,"Ä«d":2348,"quan":2349,"liano":2350,"entino":2351,"uelo":2352,"denas":2353,"ĠCrist":2354,"Old":2355,"Bois":2356,"agoza":2357,"ĠCampos":2358,"ĠTráº¥":2359,"Bed":2360,"Bod":2361,"Cz":2362,"Cand":2363,"Dh":2364,"Feng":2365,"Hel":2366,"Len":2367,"Lis":2368,"MÄĥ":2369,"Mich":2370,"Qing":2371,"Rib":2372,"Roch":2373,"Wat":2374,"vin":2375,"yat":2376,"Ãħ":2377,"ÅĮ":2378,"asca":2379,"asant":2380,"olom":2381,"Ã©e":2382,"ĠCarm":2383,"Ã¡t":2384,"ĠBr":2385,"ĠBur":2386,"agh":2387,"ĠTla":2388,"iem":2389,"ampa":2390,"ope":2391,"Thá»ĭ":2392,"ĠZar":2393,"beek":2394,"Sidi":2395,"ĠShahri":2396,"rogreso":2397,"ĠTráº¥n":2398,"Aur":2399,"Bun":2400,"Bain":2401,"Ken":2402,"Mab":2403,"Mog":2404,"Pap":2405,"River":2406,"Sap":2407,"Tin":2408,"Tap":2409,"Tong":2410,"Wo":2411,"cel":2412,"eu":2413,"eÈĻti":2414,"kÃ³w":2415,"lam":2416,"nÃŃ":2417,"sous":2418,"wer":2419,"ĠÄĲ":2420,"alle":2421,"esc":2422,"ĠCa":2423,"ĠCap":2424,"itla":2425,"Äģy":2426,"ĠSab":2427,"Chin":2428,"ĠAb":2429,"ĠAz":2430,"iras":2431,"tion":2432,"Ann":2433,"liff":2434,"Å«d":2435,"ambo":2436,"Ã¡rdenas":2437,"ĠUni":2438,"Whit":2439,"ĠEstates":2440,"ĠVerde":2441,"ĠFelipe":2442,"ZÃ¼rich":2443,"Bis":2444,"Fer":2445,"Fil":2446,"HÃ¶":2447,"Jam":2448,"Kis":2449,"My":2450,"Mot":2451,"Pro":2452,"Pac":2453,"Paul":2454,"Ton":2455,"Tag":2456,"Tour":2457,"Wall":2458,"dr":2459,"for":2460,"gin":2461,"kan":2462,"min":2463,"mark":2464,"niy":2465,"nagar":2466,"pet":2467,"qiao":2468,"yuan":2469,"Å¢":2470,"este":2471,"oln":2472,"tay":2473,"itos":2474,"aye":2475,"ĠSer":2476,"abr":2477,"irchen":2478,"ĠRafael":2479,"ulco":2480,"ĠGr":2481,"ahr":2482,"ĠVale":2483,"oko":2484,"aire":2485,"Ant":2486,"Ãºs":2487,"Esta":2488,"Great":2489,"incÃ³n":2490,"ChÃ¢teau":2491,"ĠAgust":2492,"Bi":2493,"Bass":2494,"Cre":2495,"Had":2496,"Kad":2497,"Lem":2498,"Lev":2499,"Men":2500,"Mul":2501,"Pang":2502,"Ron":2503,"Rancho":2504,"Tul":2505,"bat":2506,"kar":2507,"kino":2508,"mel":2509,"mouth":2510,"san":2511,"uzh":2512,"uovo":2513,"wald":2514,"tai":2515,"inge":2516,"ĠSte":2517,"ĠSul":2518,"Lac":2519,"ĠBer":2520,"ĠBen":2521,"ĠBel":2522,"ĠRock":2523,"Alde":2524,"elli":2525,"ĠOak":2526,"Barrio":2527,"Forest":2528,"ĠGuadalupe":2529,"CaÃ±":2530,"Little":2531,"Band":2532,"Ced":2533,"Der":2534,"Koz":2535,"Llan":2536,"Ping":2537,"Ross":2538,"Tav":2539,"Zap":2540,"jos":2541,"kel":2542,"kovo":2543,"nia":2544,"zon":2545,"ÅŃ":2546,"erÃ³n":2547,"enheim":2548,"ilo":2549,"aso":2550,"tav":2551,"itan":2552,"ĠPet":2553,"rod":2554,"ĠSur":2555,"Alc":2556,"ĠGuer":2557,"onga":2558,"uey":2559,"ĠJo":2560,"shausen":2561,"ourt":2562,"ĠChap":2563,"Å«n":2564,"ĠAlto":2565,"ashi":2566,"ÅĤaw":2567,"peranza":2568,"ĠCampo":2569,"NÃ©a":2570,"Buenavista":2571,"ĠMateo":2572,"BÃ¼":2573,"Ess":2574,"Gri":2575,"Nik":2576,"Pel":2577,"Pied":2578,"Rou":2579,"Ust":2580,"cer":2581,"feng":2582,"kal":2583,"nov":2584,"nau":2585,"ois":2586,"ery":2587,"ami":2588,"dem":2589,"lach":2590,"adas":2591,"rava":2592,"tem":2593,"ĠPiet":2594,"eton":2595,"ĠBon":2596,"Chal":2597,"odi":2598,"tier":2599,"Casal":2600,"Ã«r":2601,"Burg":2602,"Ã©nÃ©":2603,"Zhong":2604,"ĠBlanca":2605,"Ä±nar":2606,"Af":2607,"Big":2608,"Cot":2609,"Ev":2610,"Has":2611,"Mam":2612,"Ox":2613,"Reg":2614,"Sak":2615,"bel":2616,"bÃ¼":2617,"iÅ¡":2618,"iÄĩ":2619,"ric":2620,"stown":2621,"uÃ©":2622,"uth":2623,"vik":2624,"wich":2625,"Å»":2626,"ante":2627,"orado":2628,"esta":2629,"ouin":2630,"oukro":2631,"iso":2632,"rab":2633,"ĠPaz":2634,"row":2635,"etown":2636,"ĠBern":2637,"agua":2638,"Ã³polis":2639,"usa":2640,"ump":2641,"ersheim":2642,"Shuang":2643,"ĠMarcos":2644,"tepe":2645,"verde":2646,"bourne":2647,"dalena":2648,"ĠRosario":2649,"DÃ©":2650,"Gil":2651,"Gun":2652,"Kay":2653,"Kop":2654,"Linc":2655,"Pak":2656,"Plan":2657,"Ri":2658,"Ran":2659,"ht":2660,"hill":2661,"hurst":2662,"ved":2663,"wÄģ":2664,"Åı":2665,"arina":2666,"iliano":2667,"dep":2668,"lag":2669,"atz":2670,"isc":2671,"ĠCÃ¡rdenas":2672,"ovac":2673,"ovsk":2674,"Ã¡l":2675,"Che":2676,"ĠRam":2677,"ĠView":2678,"oyo":2679,"opol":2680,"Monter":2681,"see":2682,"osso":2683,"Borgo":2684,"ĠGiovan":2685,"Middle":2686,"ĠNicolÃ¡s":2687,"ĠSebastiÃ¡n":2688,"ĠGiovanni":2689,"Bus":2690,"Buch":2691,"Cass":2692,"Ex":2693,"Fres":2694,"Gn":2695,"Gur":2696,"Gou":2697,"Herm":2698,"Hart":2699,"Log":2700,"Mach":2701,"Nat":2702,"Now":2703,"Oz":2704,"Pav":2705,"Put":2706,"Say":2707,"Vit":2708,"Vila":2709,"Wei":2710,"Wolf":2711,"bad":2712,"bey":2713,"fen":2714,"gy":2715,"gon":2716,"hÄģ":2717,"Ġa":2718,"into":2719,"ely":2720,"iston":2721,"rach":2722,"ĠMol":2723,"tedt":2724,"uno":2725,"riel":2726,"igen":2727,"Cha":2728,"Ã³bal":2729,"Äĥd":2730,"Arc":2731,"ampo":2732,"ĠWiel":2733,"Colle":2734,"Villal":2735,"Huang":2736,"errato":2737,"Seine":2738,"áº¡":2739,"royo":2740,"ĠPietro":2741,"App":2742,"Cou":2743,"Gul":2744,"Hin":2745,"Kul":2746,"Loma":2747,"Met":2748,"Nd":2749,"Nong":2750,"Neg":2751,"Sir":2752,"Sus":2753,"Song":2754,"Tou":2755,"Tres":2756,"Yar":2757,"lang":2758,"nan":2759,"nÃ¡":2760,"rin":2761,"Ã¦":2762,"anka":2763,"eren":2764,"alpa":2765,"ork":2766,"ame":2767,"lea":2768,"atan":2769,"ĠCas":2770,"itsa":2771,"ĠPr":2772,"ĠPar":2773,"Äģnd":2774,"ĠSa":2775,"Ã³m":2776,"andi":2777,"aine":2778,"Äĥc":2779,"ots":2780,"tera":2781,"tern":2782,"ema":2783,"ache":2784,"uda":2785,"tsville":2786,"âĢĻ-":2787,"Carr":2788,"Ã§a":2789,"irie":2790,"ault":2791,"theim":2792,"stone":2793,"ÈĽa":2794,"Laguna":2795,"Ã¡zaro":2796,"Cad":2797,"Cra":2798,"Dem":2799,"Eng":2800,"Fel":2801,"Gorn":2802,"Harr":2803,"Ja":2804,"Lad":2805,"Ling":2806,"Mus":2807,"Om":2808,"Pos":2809,"Roy":2810,"Seg":2811,"Tir":2812,"Vr":2813,"Vig":2814,"Well":2815,"Xia":2816,"cs":2817,"ces":2818,"gre":2819,"iÃ¨res":2820,"lyn":2821,"pal":2822,"ws":2823,"á¹":2824,"Ġ2":2825,"ches":2826,"urn":2827,"tau":2828,"ĠCer":2829,"ici":2830,"ayl":2831,"ĠSe":2832,"ĠSol":2833,"Lab":2834,"omp":2835,"ĠAgua":2836,"skie":2837,"ĠTep":2838,"ĠTerme":2839,"ĠGe":2840,"ahan":2841,"iden":2842,"uez":2843,"obo":2844,"ĠDe":2845,"Arn":2846,"gues":2847,"awan":2848,"Ã§u":2849,"stetten":2850,"linton":2851,"giore":2852,"Loire":2853,"igliano":2854,"Nizh":2855,"Union":2856,"kÃ¶y":2857,"ĠBartolom":2858,"ĠZapata":2859,"Agua":2860,"Bes":2861,"Blan":2862,"Cres":2863,"Cant":2864,"Dav":2865,"Fe":2866,"Gab":2867,"Haw":2868,"Ik":2869,"Jac":2870,"Mb":2871,"Suk":2872,"Vo":2873,"Wol":2874,"Ye":2875,"fer":2876,"ges":2877,"pÃ©":2878,"pino":2879,"rÃŃ":2880,"sor":2881,"uÅŁ":2882,"vas":2883,"yt":2884,"zyn":2885,"anh":2886,"anes":2887,"aru":2888,"enton":2889,"alt":2890,"chia":2891,"urch":2892,"lac":2893,"ĠCab":2894,"ĠPor":2895,"Chic":2896,"Ã³p":2897,"ĠHaven":2898,"ĠGar":2899,"ive":2900,"Ã¼k":2901,"ĠDu":2902,"Arm":2903,"utla":2904,"assa":2905,"erno":2906,"ĠOb":2907,"Vald":2908,"Castle":2909,"Schw":2910,"Villam":2911,"ĠMartino":2912,"acienda":2913,"Bains":2914,"ĠGuerrero":2915,"Lincoln":2916,"Ach":2917,"Cle":2918,"God":2919,"Hat":2920,"Hau":2921,"Hong":2922,"Kun":2923,"Lat":2924,"Lug":2925,"Vir":2926,"Wan":2927,"hofen":2928,"wi":2929,"zin":2930,"Ġp":2931,"anu":2932,"erb":2933,"enza":2934,"ilia":2935,"ilton":2936,"isi":2937,"rey":2938,"Ã¡d":2939,"Lak":2940,"Lap":2941,"autla":2942,"ĠAy":2943,"avan":2944,"Äĥt":2945,"otte":2946,"okro":2947,"acho":2948,"quin":2949,"eva":2950,"ĠMarina":2951,"Ã±os":2952,"gaon":2953,"Å£i":2954,"Ã¸r":2955,"ĠHarbor":2956,"Aj":2957,"Ath":2958,"Aber":2959,"Ding":2960,"Ful":2961,"Hir":2962,"Jes":2963,"Joh":2964,"Kn":2965,"KÃ¶":2966,"Kob":2967,"Lum":2968,"Maj":2969,"Mira":2970,"Rh":2971,"Roh":2972,"Va":2973,"dad":2974,"fo":2975,"fu":2976,"gg":2977,"gal":2978,"mit":2979,"so":2980,"tte":2981,"zal":2982,"zel":2983,"inte":2984,"ony":2985,"orio":2986,"elt":2987,"Ã©g":2988,"Ã©gu":2989,"iten":2990,"ovskaya":2991,"rap":2992,"ĠMills":2993,"uni":2994,"ĠSeg":2995,"Lav":2996,"ĠBor":2997,"ĠAd":2998,"thor":2999,"ĠVen":3000,"ersville":3001,"oga":3002,"endale":3003,"asse":3004,"ipp":3005,"Prov":3006,"ĠShores":3007,"Bayt":3008,"eriore":3009,"Ã¯n":3010,"William":3011,"Kafr":3012,"ĠCristÃ³bal":3013,"ĠZaragoza":3014,"Kang":3015,"Kaz":3016,"Low":3017,"Lich":3018,"Nap":3019,"Pes":3020,"Pag":3021,"Pir":3022,"Seb":3023,"Vern":3024,"Wen":3025,"cord":3026,"hÃ©":3027,"ios":3028,"ial":3029,"ika":3030,"oto":3031,"side":3032,"tar":3033,"tas":3034,"tre":3035,"uco":3036,"witz":3037,"wijk":3038,"zana":3039,"Ġc":3040,"erne":3041,"alb":3042,"orge":3043,"ilco":3044,"aster":3045,"cho":3046,"chy":3047,"led":3048,"Ã©k":3049,"Ã©l":3050,"ĠMountain":3051,"ĠPa":3052,"ĠPort":3053,"ĠBa":3054,"abad":3055,"aint":3056,"ĠRio":3057,"ĠRiv":3058,"Mars":3059,"alli":3060,"ierz":3061,"enii":3062,"nies":3063,"inster":3064,"Maur":3065,"ConcepciÃ³n":3066,"ĠCarmen":3067,"ĠUniÃ³n":3068,"ĠAgustÃŃn":3069,"Ari":3070,"Boy":3071,"Blo":3072,"Cul":3073,"Clay":3074,"Dy":3075,"Die":3076,"Farm":3077,"Gan":3078,"Gang":3079,"Gir":3080,"Hou":3081,"Ju":3082,"Jab":3083,"Juan":3084,"Jiang":3085,"Kim":3086,"Nord":3087,"Ras":3088,"Sec":3089,"SÃ¢n":3090,"Vor":3091,"Xing":3092,"far":3093,"kowice":3094,"mÃ¼":3095,"xing":3096,"xtla":3097,"ÄĹ":3098,"inka":3099,"ils":3100,"dez":3101,"ouse":3102,"ĠPer":3103,"Äģz":3104,"ĠSch":3105,"eti":3106,"Cham":3107,"edes":3108,"ake":3109,"ape":3110,"tian":3111,"Maria":3112,"ÅŁa":3113,"ersh":3114,"ogorsk":3115,"azz":3116,"ĠDol":3117,"quer":3118,"ernando":3119,"ugh":3120,"Brad":3121,"Columb":3122,"ajo":3123,"tenberg":3124,"ashington":3125,"Novos":3126,"ignÃ©":3127,"Trin":3128,"ksand":3129,"ĠReal":3130,"Richmond":3131,"unction":3132,"Klein":3133,"Germain":3134,"EstaciÃ³n":3135,"erÃ³nimo":3136,"depend":3137,"'s":3138,"Bau":3139,"Bot":3140,"Francisco":3141,"Gy":3142,"Hem":3143,"Iv":3144,"Ivan":3145,"Jer":3146,"Ki":3147,"Kry":3148,"Let":3149,"Lob":3150,"Mis":3151,"Nieu":3152,"Pok":3153,"Punta":3154,"RÃ¶":3155,"RÄģm":3156,"Sut":3157,"Ya":3158,"ble":3159,"bank":3160,"cr":3161,"cin":3162,"ding":3163,"fr":3164,"fton":3165,"gra":3166,"gate":3167,"kam":3168,"lon":3169,"lie":3170,"low":3171,"ms":3172,"sberg":3173,"uta":3174,"uka":3175,"vat":3176,"zar":3177,"ĠÅŀ":3178,"ania":3179,"ance":3180,"atta":3181,"Ã©b":3182,"ads":3183,"ĠMo":3184,"ayy":3185,"Äģw":3186,"ĠBo":3187,"ĠBra":3188,"illÃ©":3189,"Chil":3190,"ako":3191,"Alp":3192,"ĠVega":3193,"usta":3194,"ĠJerÃ³nimo":3195,"ĠNov":3196,"ÅŁu":3197,"Ã¼ck":3198,"sha":3199,"sham":3200,"ĠDiego":3201,"stÃ¤":3202,"Ä«m":3203,"tsch":3204,"Ã¢nd":3205,"ndorf":3206,"ishi":3207,"zew":3208,"Brown":3209,"felden":3210,"Silver":3211,"ĠConcepciÃ³n":3212,"Bourg":3213,"ĠCatarina":3214,"JosÃ©":3215,"AÃ¯n":3216,"Bow":3217,"Boc":3218,"Bish":3219,"Cac":3220,"Cog":3221,"Coc":3222,"Center":3223,"King":3224,"Mod":3225,"Mend":3226,"Mih":3227,"Nog":3228,"Ov":3229,"Pau":3230,"Pian":3231,"Sed":3232,"Tis":3233,"Vas":3234,"Warr":3235,"Zag":3236,"bah":3237,"cor":3238,"dy":3239,"dz":3240,"fel":3241,"jin":3242,"kon":3243,"nam":3244,"pleu":3245,"uo":3246,"uve":3247,"yd":3248,"Ãľ":3249,"osto":3250,"esville":3251,"Ã©kro":3252,"Ġdei":3253,"ĠMal":3254,"ĠMich":3255,"ĠBal":3256,"ĠBro":3257,"omo":3258,"Chern":3259,"Chester":3260,"tham":3261,"ulo":3262,"ĠVe":3263,"ĠVall":3264,"ave":3265,"nez":3266,"owns":3267,"Ġdella":3268,"Shar":3269,"Sher":3270,"ĠII":3271,"ĠIl":3272,"iye":3273,"uga":3274,"ĠOc":3275,"ĠOro":3276,"SchÃ¶n":3277,"Quint":3278,"ĠAlb":3279,"Oliv":3280,"Tex":3281,"orgio":3282,"ÈĽi":3283,"Llano":3284,"Hohen":3285,"Cedar":3286,"Ast":3287,"Baz":3288,"Civ":3289,"Dorf":3290,"Eb":3291,"Fern":3292,"Gall":3293,"Jan":3294,"Kaw":3295,"Mai":3296,"Rab":3297,"Rot":3298,"Roz":3299,"Sie":3300,"Za":3301,"Zac":3302,"]<":3303,"born":3304,"cun":3305,"kÃ©":3306,"los":3307,"pang":3308,"sbach":3309,"tin":3310,"tur":3311,"tto":3312,"xand":3313,"Ã®":3314,"Ãµ":3315,"Ãļ":3316,"Ġ[":3317,"anas":3318,"alia":3319,"recht":3320,"Äģna":3321,"ĠSar":3322,"ĠSau":3323,"Law":3324,"ĠBase":3325,"igan":3326,"Cheng":3327,"hein":3328,"okaha":3329,"iko":3330,"Shel":3331,"egu":3332,"Ard":3333,"estre":3334,"hui":3335,"ĠLag":3336,"ffen":3337,"ngeles":3338,"undo":3339,"á¸ĳ":3340,"ignan":3341,"Merc":3342,"aldo":3343,"ĠUn":3344,"Plou":3345,"Clar":3346,"Ã´ne":3347,"Paso":3348,"Ã¤rvi":3349,"Georges":3350,"Upper":3351,"Æ¡n":3352,"Aw":3353,"Bran":3354,"Card":3355,"Hy":3356,"Hen":3357,"Hum":3358,"Haz":3359,"Huan":3360,"Ignacio":3361,"Ji":3362,"Jo":3363,"Lud":3364,"Luk":3365,"Mountain":3366,"Py":3367,"Pay":3368,"PÄģ":3369,"Pob":3370,"Pamp":3371,"Rav":3372,"Rum":3373,"Rev":3374,"Son":3375,"Sing":3376,"Sig":3377,"Sey":3378,"Samb":3379,"Tet":3380,"Tot":3381,"Tub":3382,"Wy":3383,"Wester":3384,"bes":3385,"hai":3386,"mers":3387,"oe":3388,"rum":3389,"sar":3390,"vill":3391,"vern":3392,"weg":3393,"anos":3394,"anca":3395,"erville":3396,"elu":3397,"chan":3398,"chang":3399,"oula":3400,"olm":3401,"isto":3402,"itÃ¡n":3403,"ovci":3404,"teÅŁti":3405,"ĠProgreso":3406,"ĠBuen":3407,"ĠRa":3408,"ĠRita":3409,"ulu":3410,"bao":3411,"ĠLibertad":3412,"ĠNeg":3413,"ersburg":3414,"ogne":3415,"Ä«l":3416,"iche":3417,"Ã¢l":3418,"oura":3419,"Barra":3420,"GuÃ©":3421,"hao":3422,"Newport":3423,"ignac":3424,"Kirk":3425,"Bagn":3426,"ĠGiorgio":3427,"Victoria":3428,"Stock":3429,"ĠFlores":3430,"Franklin":3431,"ĠBravo":3432,"Buk":3433,"Bridge":3434,"Cau":3435,"CÄĥ":3436,"Cond":3437,"Dev":3438,"Ek":3439,"Guan":3440,"Hon":3441,"Hill":3442,"Hav":3443,"Herr":3444,"Hills":3445,"Ill":3446,"Kel":3447,"Kro":3448,"Lom":3449,"LÃ¼":3450,"Loc":3451,"Nu":3452,"Nak":3453,"Pem":3454,"Ray":3455,"Rac":3456,"Sos":3457,"Sad":3458,"Sob":3459,"Tian":3460,"Tanj":3461,"Ud":3462,"Vad":3463,"Wit":3464,"You":3465,"Zav":3466,"Zhu":3467,"bio":3468,"din":3469,"eville":3470,"fe":3471,"lano":3472,"mor":3473,"mad":3474,"net":3475,"pam":3476,"ple":3477,"rÃ¡":3478,"zz":3479,"Åº":3480,"Èĺ":3481,"enas":3482,"alÃ¡":3483,"ation":3484,"ouan":3485,"Ã©lÃ©":3486,"isar":3487,"ĠMer":3488,"ĠPueb":3489,"uns":3490,"Äģri":3491,"Äģá¸©":3492,"righ":3493,"ĠBou":3494,"iglio":3495,"agna":3496,"agui":3497,"ĠAt":3498,"ĠAle":3499,"Ã³ri":3500,"abel":3501,"ĠRod":3502,"ĠGab":3503,"usz":3504,"ĠJoh":3505,"okh":3506,"ÅŁi":3507,"Shang":3508,"Shah":3509,"ards":3510,"Monta":3511,"burgh":3512,"Villas":3513,"ermosa":3514,"Ãºn":3515,"Esc":3516,"Casas":3517,"Sea":3518,"stead":3519,"borg":3520,"Benito":3521,"eneuve":3522,"Emiliano":3523,"Ã¶nig":3524,"Angelo":3525,"niki":3526,"tagne":3527,"iglione":3528,"ĠLucas":3529,"ackson":3530,"Rocca":3531,"walde":3532,"Central":3533,"Æ°á»":3534,"Aug":3535,"Bia":3536,"Bok":3537,"Boh":3538,"Boz":3539,"Beth":3540,"Cord":3541,"Hur":3542,"Hud":3543,"Hacienda":3544,"Jing":3545,"Kong":3546,"Main":3547,"Mant":3548,"Moh":3549,"Nau":3550,"Nicol":3551,"Our":3552,"Para":3553,"Rat":3554,"Rub":3555,"Sw":3556,"Sac":3557,"SÄĥ":3558,"Sung":3559,"Tamb":3560,"Van":3561,"Yun":3562,"cast":3563,"dong":3564,"fal":3565,"ku":3566,"mat":3567,"mere":3568,"pas":3569,"wis":3570,"yne":3571,"ÅĪ":3572,"Ġi":3573,"ose":3574,"arra":3575,"enk":3576,"eny":3577,"enka":3578,"onda":3579,"elia":3580,"asc":3581,"amor":3582,"leur":3583,"leigh":3584,"oub":3585,"Ã©v":3586,"ĠCom":3587,"ĠCorn":3588,"ados":3589,"race":3590,"ĠPra":3591,"ĠPuerto":3592,"Äģla":3593,"ĠBran":3594,"agle":3595,"ome":3596,"Chich":3597,"ĠAgu":3598,"Ġdos":3599,"ĠTri":3600,"ĠHa":3601,"ĠRanch":3602,"Alber":3603,"avi":3604,"avese":3605,"ĠLar":3606,"Marina":3607,"ĠNa":3608,"ĠNou":3609,"ĠNueva":3610,"ĠFu":3611,"illac":3612,"shui":3613,"aza":3614,"Arroyo":3615,"Ä«s":3616,"quit":3617,"Neus":3618,"eke":3619,"Ã¢m":3620,"ungan":3621,"Brand":3622,"ize":3623,"aja":3624,"Thorn":3625,"Valley":3626,"Ã¤s":3627,"Villeneuve":3628,"Bella":3629,"Montic":3630,"Novi":3631,"Äįe":3632,"Ã©nou":3633,"áºĸ":3634,"istr":3635,"Roth":3636,"onso":3637,"Casteln":3638,"ĠEsperanza":3639,"warz":3640,"DrÄĥ":3641,"DolnÃŃ":3642,"Alexand":3643,"olfo":3644,"ÃŃso":3645,"ĠPalma":3646,"Highland":3647,"Att":3648,"Beni":3649,"Cub":3650,"Clinton":3651,"Fa":3652,"Fi":3653,"Fin":3654,"Fra":3655,"Kra":3656,"Kod":3657,"KÃ¼":3658,"Lov":3659,"Lie":3660,"Lamb":3661,"Meng":3662,"Pic":3663,"Ret":3664,"Rus":3665,"Rec":3666,"RÃ¼":3667,"RincÃ³n":3668,"Sop":3669,"Tok":3670,"Vy":3671,"Wer":3672,"Wai":3673,"bol":3674,"bia":3675,"beck":3676,"gor":3677,"gat":3678,"hn":3679,"lik":3680,"nio":3681,"pÄ±nar":3682,"say":3683,"teni":3684,"wu":3685,"zec":3686,"ince":3687,"enay":3688,"altepec":3689,"eley":3690,"ilar":3691,"dec":3692,"lau":3693,"lake":3694,"Ã©ri":3695,"tak":3696,"ĠCove":3697,"ovskoye":3698,"ayor":3699,"ĠSaint":3700,"tong":3701,"ime":3702,"iman":3703,"Chel":3704,"abal":3705,"ÃŃr":3706,"thur":3707,"ĠTom":3708,"ĠHund":3709,"Alten":3710,"ĠFe":3711,"ikha":3712,"Ã¶s":3713,"stal":3714,"udi":3715,"assi":3716,"ipa":3717,"ĠOne":3718,"bergen":3719,"ĠWood":3720,"Tha":3721,"Castro":3722,"ĠAlta":3723,"Mans":3724,"ija":3725,"ĠJose":3726,"Bald":3727,"nsdorf":3728,"cuaro":3729,"ÅĻÃŃ":3730,"ĠMartin":3731,"rose":3732,"ÄĥneÈĻti":3733,"ĠRoque":3734,"Fuente":3735,"ĠInf":3736,"ĠForce":3737,"ĠMadero":3738,"ĠClara":3739,"ĠCentro":3740,"ontaine":3741,"Pieve":3742,"ĠHundred":3743,"Cel":3744,"Cob":3745,"Dos":3746,"Did":3747,"Fri":3748,"Gand":3749,"Gem":3750,"Hun":3751,"Hard":3752,"Hunt":3753,"Jas":3754,"Jackson":3755,"Kah":3756,"Lal":3757,"Luz":3758,"Liber":3759,"Mut":3760,"Miss":3761,"Ole":3762,"RÄĥ":3763,"Sov":3764,"Ston":3765,"SÃ¼":3766,"Soc":3767,"Tah":3768,"Ug":3769,"Ung":3770,"Vis":3771,"Wel":3772,"Way":3773,"Yel":3774,"Yak":3775,"gel":3776,"gang":3777,"gau":3778,"hor":3779,"hall":3780,"iqu":3781,"non":3782,"nach":3783,"oo":3784,"por":3785,"qi":3786,"sy":3787,"sta":3788,"uit":3789,"vador":3790,"yev":3791,"oster":3792,"aram":3793,"ende":3794,"als":3795,"alina":3796,"ild":3797,"ilh":3798,"esto":3799,"chin":3800,"lado":3801,"tac":3802,"ĠCourt":3803,"iag":3804,"ĠPrim":3805,"Ã¡m":3806,"ĠSee":3807,"ĠBan":3808,"Charl":3809,"ace":3810,"tok":3811,"ĠTec":3812,"Alto":3813,"cott":3814,"ÅŁÄ±":3815,"Art":3816,"uci":3817,"Stra":3818,"ordo":3819,"iera":3820,"izz":3821,"Villaf":3822,"uelas":3823,"âĢĺ<":3824,"quez":3825,"uerta":3826,"Ã«vo":3827,"áºŃ":3828,"Petit":3829,"Clark":3830,"Ã´ng":3831,"ĠLeon":3832,"ĠLeft":3833,"ĠStef":3834,"Tanjung":3835,"Bard":3836,"Ce":3837,"Cov":3838,"Cir":3839,"Cum":3840,"Cran":3841,"Cort":3842,"Din":3843,"Dig":3844,"Dag":3845,"Fay":3846,"Foss":3847,"Gos":3848,"Gold":3849,"Id":3850,"Jul":3851,"Kut":3852,"Lit":3853,"Lok":3854,"Lut":3855,"LÃ¡zaro":3856,"Ning":3857,"Not":3858,"Ori":3859,"Poc":3860,"Prim":3861,"Res":3862,"Rap":3863,"Sub":3864,"Tat":3865,"Ves":3866,"Wor":3867,"Washington":3868,"iat":3869,"kaha":3870,"ote":3871,"oara":3872,"su":3873,"vet":3874,"vÃ¡r":3875,"wice":3876,"xco":3877,"zell":3878,"Ã¹":3879,"ĠÅļ":3880,"arh":3881,"onk":3882,"alam":3883,"ching":3884,"ouk":3885,"oles":3886,"olles":3887,"isk":3888,"ishan":3889,"ovi":3890,"ovec":3891,"rain":3892,"ĠMel":3893,"ĠMill":3894,"ĠPaul":3895,"Äģq":3896,"agno":3897,"Chat":3898,"Chev":3899,"ĠHor":3900,"apur":3901,"ĠGarc":3902,"hevo":3903,"otto":3904,"ĠJunction":3905,"Marie":3906,"Marne":3907,"azzo":3908,"opp":3909,"assou":3910,"ress":3911,"Ä±z":3912,"huaca":3913,"fferson":3914,"Quin":3915,"Å¡t":3916,"sea":3917,"ÅĤÃ³w":3918,"ucheng":3919,"Pros":3920,"Perv":3921,"Concord":3922,"ĠAnt":3923,"nster":3924,"Reich":3925,"oledad":3926,"Poiana":3927,"ÅĻice":3928,"luff":3929,"Kota":3930,"Villanova":3931,"Smith":3932,"ĠBlanco":3933,"Puebla":3934,"Kingston":3935,"Pleasant":3936,"ouinÃ©":3937,"Ã³mez":3938,"Cis":3939,"Dul":3940,"Dah":3941,"Eber":3942,"Fried":3943,"Hall":3944,"Hof":3945,"Jia":3946,"Kp":3947,"Kit":3948,"Kak":3949,"Lus":3950,"Lomas":3951,"Meg":3952,"Ner":3953,"Nes":3954,"Nab":3955,"Nev":3956,"Pou":3957,"Rand":3958,"Step":3959,"Tun":3960,"Tig":3961,"Tac":3962,"Tob":3963,"TrÃ©":3964,"Taf":3965,"Terr":3966,"Vid":3967,"bos":3968,"bas":3969,"fj":3970,"fran":3971,"gas":3972,"hen":3973,"hel":3974,"iÈĻ":3975,"jal":3976,"lv":3977,"lice":3978,"nano":3979,"rz":3980,"tu":3981,"tle":3982,"vre":3983,"xiang":3984,"Ä©":3985,"Åĵ":3986,"Ġe":3987,"ancia":3988,"enta":3989,"alk":3990,"eln":3991,"iles":3992,"chard":3993,"chuan":3994,"deÅŁti":3995,"ols":3996,"adia":3997,"ovoye":3998,"ĠMaz":3999,"icola":4000,"ĠPan":4001,"ĠPed":4002,"Äģra":4003,"rique":4004,"Lau":4005,"ĠBos":4006,"ĠBas":4007,"ĠBridge":4008,"Chip":4009,"ĠAs":4010,"Ã³d":4011,"Ã³ra":4012,"edale":4013,"akan":4014,"ĠGh":4015,"ĠGran":4016,"ĠVel":4017,"idi":4018,"ĠLu":4019,"ĠLig":4020,"tero":4021,"ĠJes":4022,"emb":4023,"ĠFer":4024,"ĠFernando":4025,"Ã¶y":4026,"Shi":4027,"sten":4028,"Ã¡ny":4029,"quÃŃn":4030,"opa":4031,"ĠEnd":4032,"ĠEste":4033,"ipur":4034,"ĠIx":4035,"cea":4036,"nya":4037,"Guar":4038,"eiro":4039,"ight":4040,"Belmont":4041,"ĠAlm":4042,"Ã§Ã£o":4043,"uchi":4044,"Newton":4045,"arros":4046,"á»Ļ":4047,"áº£":4048,"áº§":4049,"ttel":4050,"PeÃ±":4051,"Langen":4052,"Krasnyy":4053,"Madison":4054,"ÄĥrÄĥ":4055,"venir":4056,"ĠTrin":4057,"ĠLucÃŃa":4058,"Charles":4059,"Umm":4060,"Denis":4061,"itsy":4062,"ĠChapelle":4063,"Nieuw":4064,"ĠGabriel":4065,"Bom":4066,"Bec":4067,"Boul":4068,"Bever":4069,"Cont":4070,"Dim":4071,"Dab":4072,"Gam":4073,"Gag":4074,"Gamb":4075,"Iss":4076,"Kav":4077,"Kib":4078,"Lyn":4079,"Miguel":4080,"MÃ©d":4081,"Nas":4082,"Nie":4083,"Oy":4084,"Oce":4085,"Ojo":4086,"Pf":4087,"Pia":4088,"Pun":4089,"RÄģj":4090,"Slob":4091,"Tek":4092,"Troy":4093,"Tierra":4094,"Uz":4095,"Vie":4096,"Wu":4097,"Wies":4098,"Xoch":4099,"Yen":4100,"York":4101,"col":4102,"fels":4103,"forte":4104,"kins":4105,"lou":4106,"rub":4107,"tang":4108,"vers":4109,"Ġ3":4110,"erton":4111,"inda":4112,"inskoye":4113,"onde":4114,"onville":4115,"alta":4116,"dea":4117,"atla":4118,"ĠMu":4119,"ĠMur":4120,"ĠMayo":4121,"ĠPot":4122,"rode":4123,"Äģf":4124,"Äģk":4125,"Chau":4126,"Ã³j":4127,"ther":4128,"akovo":4129,"ĠTra":4130,"ĠHall":4131,"ulan":4132,"ĠGor":4133,"ĠGÃ³r":4134,"ids":4135,"usco":4136,"avia":4137,"cote":4138,"ume":4139,"ĠLim":4140,"Ell":4141,"Elm":4142,"Äĥn":4143,"ĠJac":4144,"Marse":4145,"Markt":4146,"oki":4147,"ĠFarm":4148,"erst":4149,"rana":4150,"Sha":4151,"ego":4152,"storf":4153,"Ã¡nd":4154,"ucan":4155,"ĠKal":4156,"ensee":4157,"uki":4158,"uku":4159,"Mons":4160,"ffi":4161,"Ã¤n":4162,"oche":4163,"asht":4164,"ĠCross":4165,"Olm":4166,"á»ĵ":4167,"Const":4168,"Broad":4169,"ushi":4170,"broek":4171,"gnano":4172,"Brigh":4173,"kirch":4174,"oughton":4175,"Fairview":4176,"ĠTorre":4177,"ĠTorres":4178,"Rocc":4179,"ĠCanavese":4180,"Laurent":4181,"ĠAires":4182,"Windsor":4183,"ĠAcres":4184,"ĠOaks":4185,"ĠJoÃ£o":4186,"Bloom":4187,"Bishop":4188,"Hudson":4189,"Bill":4190,"Bord":4191,"Cin":4192,"Cay":4193,"Cod":4194,"Caz":4195,"Cli":4196,"Cuc":4197,"Dia":4198,"Dra":4199,"Div":4200,"Diet":4201,"Eagle":4202,"Ferr":4203,"Gas":4204,"Gla":4205,"Hod":4206,"How":4207,"Jag":4208,"KÃ¡":4209,"Kai":4210,"Kara":4211,"Kost":4212,"KÃ¶nig":4213,"Leg":4214,"Mok":4215,"MÃ¶":4216,"Nur":4217,"Nang":4218,"Ned":4219,"Naz":4220,"Ow":4221,"Oss":4222,"Over":4223,"Paw":4224,"Pant":4225,"Pry":4226,"Pira":4227,"Rak":4228,"Rok":4229,"Rip":4230,"Riz":4231,"Sl":4232,"Sit":4233,"SÃ¶":4234,"Sud":4235,"Suc":4236,"Tau":4237,"TiÃ©":4238,"Wad":4239,"Xi":4240,"Ze":4241,"Zu":4242,"Zw":4243,"bre":4244,"cliff":4245,"ferrato":4246,"hal":4247,"hof":4248,"jÃ³n":4249,"kent":4250,"lÄħ":4251,"nell":4252,"rada":4253,"tos":4254,"ugu":4255,"zu":4256,"Ì±":4257,"Ġon":4258,"arg":4259,"inj":4260,"ennes":4261,"enango":4262,"aly":4263,"alto":4264,"alapa":4265,"chor":4266,"chel":4267,"urg":4268,"atÃ¡n":4269,"Ã©t":4270,"Ã©li":4271,"ĠMir":4272,"ĠPas":4273,"angu":4274,"ayd":4275,"Äģv":4276,"Äģng":4277,"Ã¡k":4278,"ĠSam":4279,"ĠBÃ¡r":4280,"aggiore":4281,"abeth":4282,"abamba":4283,"tha":4284,"ĠTir":4285,"Ald":4286,"Alco":4287,"Alba":4288,"ĠVern":4289,"ushan":4290,"ieÈĻti":4291,"tip":4292,"ĠLuz":4293,"Äĥm":4294,"otitlÃ¡n":4295,"ranza":4296,"ShÄģh":4297,"ĠDowns":4298,"qua":4299,"tsia":4300,"ĠEm":4301,"ĠIgnacio":4302,"Ã¢mp":4303,"ugan":4304,"Ã±ez":4305,"ĠChico":4306,"ĠWan":4307,"ineÅŁti":4308,"antes":4309,"ezzo":4310,"Coll":4311,"eph":4312,"Amp":4313,"Villers":4314,"ocha":4315,"Princ":4316,"Coron":4317,"Esp":4318,"Mae":4319,"Adda":4320,"rontera":4321,"Cerv":4322,"Isle":4323,"Isola":4324,"Independ":4325,"Ã¡sz":4326,"ÄŁÄ±":4327,"ĠSpring":4328,"Oster":4329,"Serra":4330,"ĠQue":4331,"Blue":4332,"bourg":4333,"Willow":4334,"Louis":4335,"ĠInn":4336,"ĠGarden":4337,"Beaumont":4338,"ĠTeresa":4339,"ĠBartolo":4340,"Dayr":4341,"WeiÃŁ":4342,"ĠWielk":4343,"ĠBartolomÃ©":4344,"Castelnuovo":4345,"ĠStefano":4346,"Air":4347,"Bey":4348,"Bond":4349,"BÄĥl":4350,"Boca":4351,"Caj":4352,"CÄĥl":4353,"Dec":4354,"Ele":4355,"Fur":4356,"Gad":4357,"Hig":4358,"Hue":4359,"Hoch":4360,"Holl":4361,"Jun":4362,"Kand":4363,"Leng":4364,"Lamp":4365,"Lop":4366,"Lup":4367,"Ming":4368,"Mong":4369,"Mug":4370,"Paj":4371,"Sah":4372,"Serr":4373,"Stadt":4374,"Tuc":4375,"Tib":4376,"TÃ¢r":4377,"Vl":4378,"Wend":4379,"Xiang":4380,"Yam":4381,"bs":4382,"bell":4383,"dington":4384,"fug":4385,"fingen":4386,"hagen":4387,"iá»":4388,"jev":4389,"naya":4390,"oka":4391,"qing":4392,"ser":4393,"uto":4394,"vka":4395,"ward":4396,"Ã»":4397,"Ġna":4398,"Ġash":4399,"Ġthe":4400,"osta":4401,"arta":4402,"eron":4403,"inz":4404,"inha":4405,"alda":4406,"elbach":4407,"ilan":4408,"ams":4409,"lak":4410,"leasant":4411,"atal":4412,"isy":4413,"ady":4414,"adero":4415,"adougou":4416,"reto":4417,"ĠPat":4418,"ĠPleasant":4419,"Äģg":4420,"Äģsh":4421,"ĠSÆ¡n":4422,"ĠBu":4423,"agne":4424,"omay":4425,"Chir":4426,"auht":4427,"ÃŃk":4428,"ĠTre":4429,"ĠHam":4430,"ĠRu":4431,"ĠGen":4432,"avier":4433,"cola":4434,"cotepec":4435,"baÅŁÄ±":4436,"umba":4437,"ĠLoma":4438,"ĠLlano":4439,"Äĥs":4440,"ÄĥÅ£":4441,"oyang":4442,"ĠNova":4443,"Ã¼l":4444,"acha":4445,"azi":4446,"alles":4447,"egem":4448,"Ä«t":4449,"udo":4450,"tsy":4451,"entin":4452,"ental":4453,"utt":4454,"ibo":4455,"ense":4456,"nyaya":4457,"Guay":4458,"ungen":4459,"fford":4460,"izabeth":4461,"ondon":4462,"tenbach":4463,"less":4464,"Gros":4465,"Orange":4466,"ÅĤa":4467,"Salem":4468,"rovka":4469,"issa":4470,"essa":4471,"elsheim":4472,"elsdorf":4473,"Bayan":4474,"Ãīti":4475,"Plain":4476,"Hamilton":4477,"Edge":4478,"Fuentes":4479,"rivka":4480,"ĠCastillo":4481,"Springfield":4482,"ĠMonferrato":4483,"Indian":4484,"Lunca":4485,"Ã¬nh":4486,"JesÃºs":4487,"felde":4488,"ĠLaguna":4489,"ĠPrairie":4490,"Notre":4491,"ĠGarcÃŃa":4492,"ĠLigure":4493,"Marseille":4494,"ĠBÃ¡rbara":4495,"Bov":4496,"Bei":4497,"Buck":4498,"Cim":4499,"Cern":4500,"Doug":4501,"Et":4502,"Four":4503,"Forn":4504,"Franc":4505,"Gav":4506,"Giv":4507,"Good":4508,"Hag":4509,"Just":4510,"Kw":4511,"LÃ¶":4512,"Lanc":4513,"Libertad":4514,"Mey":4515,"Pand":4516,"Pec":4517,"Ply":4518,"Pedro":4519,"Qar":4520,"Rov":4521,"Ric":4522,"Rim":4523,"Rey":4524,"Ried":4525,"Samp":4526,"Sek":4527,"Saw":4528,"Sierra":4529,"Vent":4530,"Vinc":4531,"Vega":4532,"Zo":4533,"Zab":4534,"aq":4535,"cillo":4536,"czy":4537,"cingo":4538,"fan":4539,"gom":4540,"haven":4541,"iÃ±o":4542,"jon":4543,"lant":4544,"litz":4545,"mas":4546,"rzy":4547,"tic":4548,"vis":4549,"yb":4550,"Ġob":4551,"anne":4552,"erk":4553,"along":4554,"orÃ©":4555,"iling":4556,"ureni":4557,"olt":4558,"olle":4559,"ĠCro":4560,"adio":4561,"ovÃ¡":4562,"ĠMain":4563,"ĠMesa":4564,"teÈĻti":4565,"ĠPlan":4566,"ĠPied":4567,"Äģli":4568,"ĠSil":4569,"ĠSup":4570,"riano":4571,"igi":4572,"omba":4573,"Chand":4574,"acÃ¡n":4575,"abe":4576,"skirchen":4577,"ĠTs":4578,"ult":4579,"ulla":4580,"ĠGreg":4581,"ĠVill":4582,"idencia":4583,"ĠLong":4584,"otz":4585,"ĠJoa":4586,"emont":4587,"March":4588,"ĠNor":4589,"Ã¶ren":4590,"Ã¼hl":4591,"Shim":4592,"ardi":4593,"ĠKn":4594,"ĠKhan":4595,"Neuk":4596,"iyang":4597,"upa":4598,"ensburg":4599,"Barb":4600,"Å«l":4601,"ozo":4602,"Castiglione":4603,"indi":4604,"olay":4605,"ĠSanto":4606,"Ã§ay":4607,"iente":4608,"Äįa":4609,"lende":4610,"Karl":4611,"Meadow":4612,"irim":4613,"Palo":4614,"Zhang":4615,"Rose":4616,"ittel":4617,"Cruz":4618,"Magdalena":4619,"Ãªt":4620,"yanka":4621,"Fairfield":4622,"moor":4623,"Jefferson":4624,"aciÃ³n":4625,"Sauve":4626,"ĠPlains":4627,"Aleksand":4628,"ĠCarranza":4629,"ĠForest":4630,"ĠÃģngeles":4631,"ĠMeadow":4632,"ĠReyes":4633,"MÃ¼hl":4634,"James":4635,"ĠBenito":4636,"bÃ¼ttel":4637,"Rohr":4638,"ĠBrook":4639,"Monticello":4640,"ĠÅļlÄħ":4641,"fugio":4642,"Ax":4643,"Ahu":4644,"Ayn":4645,"Bit":4646,"Bark":4647,"Buz":4648,"Bamb":4649,"Cs":4650,"Cong":4651,"Cow":4652,"Coch":4653,"Dover":4654,"Drag":4655,"Eas":4656,"Eden":4657,"Gel":4658,"Gat":4659,"Gib":4660,"Gura":4661,"Heng":4662,"Hop":4663,"Kla":4664,"Kast":4665,"Kall":4666,"Lig":4667,"Lian":4668,"Moz":4669,"Ris":4670,"Raj":4671,"Russ":4672,"Sas":4673,"Sot":4674,"Saf":4675,"Tod":4676,"Tran":4677,"Tall":4678,"Tlal":4679,"Ula":4680,"Vik":4681,"Vien":4682,"Wah":4683,"Zam":4684,"Zell":4685,"bÃ¡":4686,"cro":4687,"gow":4688,"gli":4689,"hum":4690,"jÃ¤rvi":4691,"kreis":4692,"mu":4693,"med":4694,"minster":4695,"nac":4696,"rs":4697,"sel":4698,"ute":4699,"wah":4700,"wala":4701,"willer":4702,"xton":4703,"xington":4704,"zio":4705,"zza":4706,"zzo":4707,"Äĳ":4708,"anÃ³w":4709,"aral":4710,"arÃ©":4711,"arre":4712,"arro":4713,"inen":4714,"ilio":4715,"chÅį":4716,"ames":4717,"ouy":4718,"ound":4719,"Ã©z":4720,"ĠCarr":4721,"adilla":4722,"ital":4723,"ĠMes":4724,"ĠMic":4725,"ican":4726,"ĠPia":4727,"ayn":4728,"ayr":4729,"ungu":4730,"Ã¡za":4731,"ĠSp":4732,"ries":4733,"etla":4734,"ĠBend":4735,"ĠBuri":4736,"ignies":4737,"tona":4738,"aglia":4739,"imas":4740,"Chor":4741,"Chim":4742,"Ġdu":4743,"tog":4744,"top":4745,"ĠTa":4746,"ĠHol":4747,"ĠRap":4748,"Alg":4749,"ĠVod":4750,"ĠVito":4751,"idd":4752,"idel":4753,"usti":4754,"cob":4755,"Elizabeth":4756,"heide":4757,"ivers":4758,"Marsh":4759,"ĠNar":4760,"ĠNeck":4761,"ikou":4762,"ĠDÃŃ":4763,"Ä«sh":4764,"quar":4765,"quilla":4766,"quera":4767,"tsya":4768,"Stary":4769,"ĠIr":4770,"ĠOber":4771,"enstadt":4772,"ĠChar":4773,"Carmen":4774,"ezi":4775,"Cold":4776,"erode":4777,"ermo":4778,"erman":4779,"pura":4780,"ashen":4781,"arita":4782,"ossa":4783,"Novyy":4784,"uyo":4785,"Mex":4786,"ountry":4787,"ĠIsabel":4788,"Milton":4789,"Milford":4790,"ĠSalvador":4791,"Phil":4792,"ÄĻb":4793,"ĠEsc":4794,"Brie":4795,"etsu":4796,"ChÃ¢t":4797,"ĠRefugio":4798,"Winter":4799,"Ã©moc":4800,"Dame":4801,"Puente":4802,"Golden":4803,"ĠManor":4804,"agnano":4805,"ĠRomano":4806,"Georgetown":4807,"onzÃ¡":4808,"stock":4809,"HornÃŃ":4810,"Æ¡ng":4811,"Weston":4812,"Poggio":4813,"ĠPorvenir":4814,"Ã³pez":4815,"ĠDuero":4816,"thorpe":4817,"Ã¢ndia":4818,"ĠAlegre":4819,"áºŃn":4820,"Ocean":4821,"ĠVernon":4822,"auhtÃ©moc":4823,"Sauveur":4824,"Are":4825,"AÅŁ":4826,"Aran":4827,"Abr":4828,"Akh":4829,"Baj":4830,"Bij":4831,"Call":4832,"Cerr":4833,"Dre":4834,"Dod":4835,"Deb":4836,"Ep":4837,"Eis":4838,"Gong":4839,"Gaz":4840,"Goh":4841,"Hend":4842,"Heb":4843,"Hampton":4844,"Ish":4845,"Jon":4846,"Kes":4847,"Kre":4848,"Kush":4849,"Lj":4850,"Lys":4851,"Mik":4852,"Mud":4853,"Morn":4854,"Mund":4855,"Mata":4856,"Och":4857,"Off":4858,"Pis":4859,"Penn":4860,"Rath":4861,"Sass":4862,"Slav":4863,"Til":4864,"Ying":4865,"Yurt":4866,"Zor":4867,"Zou":4868,"Zelen":4869,"cl":4870,"dere":4871,"furt":4872,"fors":4873,"her":4874,"lic":4875,"lÃ¡":4876,"nÃ©":4877,"rb":4878,"rug":4879,"rillo":4880,"wen":4881,"yp":4882,"yar":4883,"zes":4884,"zcz":4885,"Ã°":4886,"oshi":4887,"anan":4888,"anilla":4889,"aras":4890,"arolo":4891,"enal":4892,"enau":4893,"ensk":4894,"onan":4895,"alang":4896,"alpan":4897,"oru":4898,"elaria":4899,"ily":4900,"lewood":4901,"ister":4902,"isbury":4903,"ĠChe":4904,"ĠCerr":4905,"rews":4906,"teg":4907,"ĠPod":4908,"ĠPob":4909,"ĠPara":4910,"rot":4911,"Äģgh":4912,"ĠSu":4913,"ĠSim":4914,"ĠBat":4915,"agi":4916,"ombo":4917,"Chav":4918,"Chamb":4919,"ĠAv":4920,"Ġdas":4921,"abro":4922,"iros":4923,"ĠTur":4924,"ĠRincÃ³n":4925,"ulin":4926,"ĠGal":4927,"ĠVit":4928,"tik":4929,"cop":4930,"kaz":4931,"kawa":4932,"berry":4933,"ĠLo":4934,"Elk":4935,"otla":4936,"ĠJu":4937,"ĠJad":4938,"eme":4939,"Marg":4940,"ĠNu":4941,"ĠFort":4942,"ersbach":4943,"ogor":4944,"ike":4945,"enga":4946,"obod":4947,"Shen":4948,"Arb":4949,"Arz":4950,"arda":4951,"estr":4952,"eve":4953,"alejo":4954,"zhi":4955,"ĠInd":4956,"Ã¢u":4957,"ugg":4958,"Å«s":4959,"Carbon":4960,"ÈĻi":4961,"Quar":4962,"Quer":4963,"yntsi":4964,"ermont":4965,"intla":4966,"Salv":4967,"Morris":4968,"Huai":4969,"Cald":4970,"Buena":4971,"ignon":4972,"beu":4973,"sonville":4974,"Max":4975,"Trz":4976,"Abb":4977,"ixtla":4978,"Coal":4979,"Deer":4980,"Heil":4981,"ankro":4982,"Petrov":4983,"Cross":4984,"AndrÃ©":4985,"Ãīv":4986,"Point":4987,"Camar":4988,"Grab":4989,"Enc":4990,"Mines":4991,"akhon":4992,"ChÃ¢tel":4993,"ĠStation":4994,"ĠColorado":4995,"Tepe":4996,"Sulz":4997,"DoÄŁ":4998,"ĠTerrace":4999,"ĠMagdalena":5000,"Costa":5001,"UniÃ³n":5002,"Æ°Æ¡ng":5003,"Sokol":5004,"holm":5005,"Verkhniy":5006,"Hilaire":5007,"Taylor":5008,"ĠDonau":5009,"Kampung":5010,"huacÃ¡n":5011,"Bedford":5012,"ĠCaÃ±":5013,"CaÃ±ada":5014,"Harris":5015,"Royal":5016,"Nizhniy":5017,"ĠObreg":5018,"Sutton":5019,"ĠOcampo":5020,"Sungai":5021,"castle":5022,"Ä±zÄ±":5023,"Pervomay":5024,"ĠEsteban":5025,"Ãītienne":5026,"ĠSuperiore":5027,"ĠGregorio":5028,"ĠDÃŃaz":5029,"onzÃ¡lez":5030,"Ata":5031,"Aqu":5032,"AÅ£":5033,"Bj":5034,"BÃ¶":5035,"Born":5036,"Batt":5037,"BlÃ©":5038,"Ces":5039,"Cut":5040,"DÃ¼":5041,"Daw":5042,"Eure":5043,"Fou":5044,"Fol":5045,"Fig":5046,"Fir":5047,"Gom":5048,"Gond":5049,"Him":5050,"Hab":5051,"Haj":5052,"Ip":5053,"Kri":5054,"Kens":5055,"Koh":5056,"Kond":5057,"Lay":5058,"Moy":5059,"MÃ¼n":5060,"Nou":5061,"Nem":5062,"Noy":5063,"Oula":5064,"Ott":5065,"PrÃ©":5066,"Progreso":5067,"Rau":5068,"Rid":5069,"Ster":5070,"Sai":5071,"Sep":5072,"Such":5073,"Saul":5074,"Syl":5075,"Tie":5076,"Tum":5077,"Tip":5078,"Tup":5079,"Tung":5080,"Ved":5081,"Viv":5082,"Vend":5083,"Vista":5084,"Vys":5085,"Zal":5086,"bec":5087,"cen":5088,"cat":5089,"czyce":5090,"dam":5091,"dingen":5092,"gol":5093,"hon":5094,"hout":5095,"iÃ¡":5096,"iÄį":5097,"jÃ¶":5098,"kow":5099,"kivtsi":5100,"log":5101,"lÃ¼":5102,"nay":5103,"rel":5104,"rington":5105,"tes":5106,"tou":5107,"titlÃ¡n":5108,"vy":5109,"wies":5110,"zac":5111,"anta":5112,"arÃ¡":5113,"inville":5114,"inci":5115,"inovo":5116,"inho":5117,"champ":5118,"chez":5119,"uren":5120,"amon":5121,"dek":5122,"deo":5123,"lava":5124,"lee":5125,"atrava":5126,"olÃŃ":5127,"Ã©ny":5128,"tach":5129,"adz":5130,"iton":5131,"itang":5132,"reville":5133,"ĠMas":5134,"ĠMac":5135,"icu":5136,"ĠPu":5137,"ĠProv":5138,"unk":5139,"Ã¡ri":5140,"ĠSc":5141,"ĠSel":5142,"ĠSic":5143,"ĠSop":5144,"Lago":5145,"ĠBre":5146,"igno":5147,"agli":5148,"imp":5149,"skÃ¡":5150,"ĠHel":5151,"ĠHad":5152,"ĠHerr":5153,"ĠRem":5154,"apest":5155,"ieÅĦ":5156,"ĠLod":5157,"ÄĥÅŁ":5158,"oten":5159,"otlÃ¡n":5160,"ivan":5161,"Mary":5162,"Marion":5163,"ĠFre":5164,"ĠFrontera":5165,"shofen":5166,"Shu":5167,"azh":5168,"lier":5169,"entre":5170,"icheng":5171,"gui":5172,"zha":5173,"Neuf":5174,"Leon":5175,"Lexington":5176,"ugo":5177,"ourg":5178,"ĠOs":5179,"ensch":5180,"Ã±Ã³n":5181,"ĠChai":5182,"Barn":5183,"nita":5184,"ondale":5185,"eix":5186,"tenco":5187,"tenango":5188,"loch":5189,"SchÃ¶":5190,"Schwarz":5191,"ochÃ³ri":5192,"Bellev":5193,"Montes":5194,"Manchester":5195,"ÄģnÄ«":5196,"Salt":5197,"Salisbury":5198,"Novop":5199,"insville":5200,"Khar":5201,"Ã«l":5202,"á»ĳ":5203,"Perry":5204,"ĠYa":5205,"ather":5206,"áºķ":5207,"anyon":5208,"Ãłnh":5209,"orgen":5210,"calo":5211,"calÃ¡":5212,"Vely":5213,"gios":5214,"Emp":5215,"ĠLeÃ³n":5216,"Wild":5217,"kerke":5218,"Greenville":5219,"iami":5220,"ChÃ¢tea":5221,"amarca":5222,"Freder":5223,"Dolores":5224,"iguera":5225,"Victor":5226,"Medina":5227,"Kuala":5228,"Budapest":5229,"Somers":5230,"ĠHarbour":5231,"Buenos":5232,"ĠNew":5233,"Aubin":5234,"drÃ³j":5235,"Åın":5236,"Åıng":5237,"Ġpri":5238,"Lower":5239,"stÃ¤dt":5240,"Æ°á»Ŀ":5241,"Neustadt":5242,"Liberty":5243,"ĠTrinidad":5244,"ĠObregÃ³n":5245,"Ato":5246,"Aud":5247,"Aff":5248,"Bach":5249,"Bek":5250,"Bib":5251,"Bung":5252,"Brid":5253,"Buss":5254,"Cen":5255,"Coy":5256,"Cib":5257,"Cep":5258,"CrÃ©":5259,"Dau":5260,"Dian":5261,"Diam":5262,"Ech":5263,"Eich":5264,"Ever":5265,"Gw":5266,"Ged":5267,"Gum":5268,"Gud":5269,"Gour":5270,"Grim":5271,"Hul":5272,"Hob":5273,"HÃ¤":5274,"Jim":5275,"Jard":5276,"Jian":5277,"Jones":5278,"Kill":5279,"Kau":5280,"Lon":5281,"Lic":5282,"Led":5283,"Lod":5284,"Loz":5285,"Loch":5286,"Liang":5287,"Lans":5288,"Mec":5289,"Miy":5290,"MÄĥr":5291,"Myr":5292,"Nad":5293,"Oran":5294,"Oud":5295,"Oost":5296,"Opp":5297,"Past":5298,"Pass":5299,"RÃ©":5300,"Ria":5301,"RÄģ":5302,"Rie":5303,"Rong":5304,"Rep":5305,"RÃ©m":5306,"Soy":5307,"Sug":5308,"Sup":5309,"Sever":5310,"Tic":5311,"TÃ¡":5312,"Toc":5313,"Tarn":5314,"Vlad":5315,"Was":5316,"Wag":5317,"Yu":5318,"Zak":5319,"Zah":5320,"bri":5321,"bau":5322,"bak":5323,"ds":5324,"dorp":5325,"gl":5326,"guez":5327,"jak":5328,"kot":5329,"kern":5330,"lje":5331,"mal":5332,"nou":5333,"nis":5334,"oco":5335,"rer":5336,"vey":5337,"wy":5338,"wig":5339,"ych":5340,"yye":5341,"Ì§":5342,"Ġ0":5343,"Ġas":5344,"Ġker":5345,"anto":5346,"anica":5347,"anova":5348,"arde":5349,"inese":5350,"oral":5351,"ilin":5352,"urs":5353,"deg":5354,"leb":5355,"lein":5356,"leÅŁti":5357,"Santi":5358,"oltepec":5359,"Ã©a":5360,"ispo":5361,"tah":5362,"reÅŁti":5363,"raj":5364,"rau":5365,"ĠMed":5366,"tetten":5367,"ĠPier":5368,"unas":5369,"roe":5370,"Ã¡c":5371,"ĠSi":5372,"riÃ¨res":5373,"ĠBarr":5374,"ĠBluff":5375,"igne":5376,"Chac":5377,"Chris":5378,"auli":5379,"acan":5380,"acion":5381,"irano":5382,"andu":5383,"edon":5384,"then":5385,"odsk":5386,"ĠHab":5387,"ĠHermosa":5388,"ĠRoc":5389,"ĠRich":5390,"ĠGall":5391,"idian":5392,"iech":5393,"avent":5394,"berton":5395,"Eld":5396,"hev":5397,"ellen":5398,"ÄĥÈĻ":5399,"ivo":5400,"ĠJal":5401,"ecchio":5402,"oyan":5403,"Marm":5404,"ĠFi":5405,"ogna":5406,"Ã¼let":5407,"shahr":5408,"octor":5409,"azu":5410,"ĠDa":5411,"ĠDam":5412,"egas":5413,"ampur":5414,"Antonio":5415,"lip":5416,"endo":5417,"enden":5418,"endon":5419,"ĠKa":5420,"Stara":5421,"guÃ©":5422,"zhausen":5423,"upo":5424,"ieri":5425,"ĠOz":5426,"Ä±ÅŁ":5427,"antla":5428,"ezzano":5429,"ÈĻu":5430,"niÃ¨res":5431,"orno":5432,"Valverde":5433,"Orta":5434,"Å¡ov":5435,"Å¡ice":5436,"Å¡Äĩ":5437,"Przy":5438,"Novaya":5439,"ĠVald":5440,"brada":5441,"Corral":5442,"Casa":5443,"See":5444,"ĠHead":5445,"ĠHeath":5446,"AbÅ«":5447,"istol":5448,"anje":5449,"incon":5450,"ĠUno":5451,"ustin":5452,"kty":5453,"hoe":5454,"rence":5455,"ForÃªt":5456,"Acqu":5457,"Strat":5458,"ibera":5459,"Ã¥s":5460,"Bray":5461,"Sabana":5462,"Roman":5463,"ĠElena":5464,"Cherry":5465,"Rams":5466,"Rivers":5467,"Queens":5468,"Cambridge":5469,"Auburn":5470,"Åļw":5471,"house":5472,"Fontan":5473,"beke":5474,"Garden":5475,"Michel":5476,"Aurora":5477,"ĠAzul":5478,"forma":5479,"ĠGrand":5480,"Bandar":5481,"ĠBernardo":5482,"Clear":5483,"Ġcity":5484,"Villafranca":5485,"Clifton":5486,"KÃ¡to":5487,"ChÃ¢tillon":5488,"ĠkerÃ¼let":5489,"Ain":5490,"Ask":5491,"Bam":5492,"Bic":5493,"Bid":5494,"Bast":5495,"Bara":5496,"Bath":5497,"Banj":5498,"BÃ¢r":5499,"Bisch":5500,"Cit":5501,"Cic":5502,"CÃ¡":5503,"Cue":5504,"Cai":5505,"Clev":5506,"Ded":5507,"Dib":5508,"Ey":5509,"Fo":5510,"Fall":5511,"Fuen":5512,"Fox":5513,"Fleur":5514,"Gus":5515,"Gord":5516,"Hain":5517,"Hus":5518,"HÃ¼":5519,"Hope":5520,"Iw":5521,"Koch":5522,"Kash":5523,"Mano":5524,"Mem":5525,"Mala":5526,"Mind":5527,"Moss":5528,"Math":5529,"Mess":5530,"Mikh":5531,"Noc":5532,"Ore":5533,"Ond":5534,"Pio":5535,"Pall":5536,"Puch":5537,"Puy":5538,"Priv":5539,"Pfa":5540,"Qal":5541,"Ring":5542,"Rain":5543,"Sn":5544,"Sik":5545,"Sard":5546,"Sour":5547,"Sala":5548,"Sind":5549,"Sund":5550,"Swan":5551,"Tz":5552,"Ting":5553,"Tern":5554,"TÃ¢n":5555,"Vos":5556,"Vau":5557,"Vieux":5558,"Wau":5559,"Wed":5560,"Wul":5561,"Wass":5562,"Yal":5563,"Yur":5564,"aÅŁ":5565,"bl":5566,"bang":5567,"bod":5568,"bello":5569,"cÃ©":5570,"cov":5571,"cell":5572,"ceni":5573,"hat":5574,"hlen":5575,"hren":5576,"hoven":5577,"ieni":5578,"jing":5579,"kur":5580,"kop":5581,"kala":5582,"loh":5583,"lovka":5584,"mun":5585,"mah":5586,"nie":5587,"nÃ¤s":5588,"poli":5589,"rus":5590,"rup":5591,"rovo":5592,"tam":5593,"tta":5594,"ude":5595,"von":5596,"veld":5597,"wol":5598,"yon":5599,"zent":5600,"Å¥":5601,"anco":5602,"arna":5603,"inn":5604,"enc":5605,"enica":5606,"enskoye":5607,"alc":5608,"alat":5609,"elin":5610,"asu":5611,"esi":5612,"eso":5613,"esburg":5614,"chau":5615,"church":5616,"uran":5617,"def":5618,"olla":5619,"olina":5620,"isse":5621,"tage":5622,"ĠCad":5623,"adr":5624,"itou":5625,"ĠMay":5626,"tek":5627,"icino":5628,"ĠPic":5629,"ungo":5630,"ĠSac":5631,"ĠStr":5632,"ĠSelo":5633,"rik":5634,"Laf":5635,"ĠBri":5636,"ige":5637,"aglio":5638,"imi":5639,"imar":5640,"Chong":5641,"Church":5642,"ĠAng":5643,"abl":5644,"abu":5645,"ÃŃz":5646,"ĠTin":5647,"AlÄ«":5648,"apo":5649,"apleu":5650,"ĠGlen":5651,"ĠGÃ³mez":5652,"ĠGonzÃ¡lez":5653,"idan":5654,"usi":5655,"ongan":5656,"bai":5657,"kaw":5658,"berto":5659,"berland":5660,"ueÃ±a":5661,"umi":5662,"ĠLÃ³pez":5663,"ĠJavier":5664,"Mari":5665,"ĠNat":5666,"ĠNoi":5667,"oke":5668,"ĠFr":5669,"ersch":5670,"sheng":5671,"Shir":5672,"ĠDel":5673,"egh":5674,"Ars":5675,"quÃŃ":5676,"quillo":5677,"evskaya":5678,"tsa":5679,"ichy":5680,"Stor":5681,"Stre":5682,"zhai":5683,"uban":5684,"orda":5685,"Neuh":5686,"ĠIon":5687,"Ã¨ne":5688,"awr":5689,"cade":5690,"upon":5691,"enstedt":5692,"Mond":5693,"Brus":5694,"huang":5695,"huet":5696,"Colomb":5697,"ffa":5698,"niÅ£a":5699,"izen":5700,"aji":5701,"ozia":5702,"Three":5703,"Valencia":5704,"uelos":5705,"ynivka":5706,"Belm":5707,"ĠAllende":5708,"Ã³wka":5709,"ÅĤo":5710,"Ã§o":5711,"Newtown":5712,"bronn":5713,"Calv":5714,"ingston":5715,"Esperanza":5716,"ignes":5717,"Ã«z":5718,"Torres":5719,"isht":5720,"Adel":5721,"Adam":5722,"ÈĻtii":5723,"áº¯":5724,"esso":5725,"cheid":5726,"Ã¡ramo":5727,"ĠShar":5728,"Ãģgios":5729,"Cabez":5730,"Avon":5731,"Camden":5732,"Albany":5733,"Holly":5734,"Strath":5735,"Univers":5736,"Greenfield":5737,"Greenwood":5738,"Ashland":5739,"Åłt":5740,"ĠCalatrava":5741,"Fuent":5742,"Stav":5743,"Sandy":5744,"ĠLucia":5745,"ĠTorinese":5746,"RiviÃ¨re":5747,"ĠPalmas":5748,"atuba":5749,"autista":5750,"combe":5751,"Kirchberg":5752,"GÃ¶k":5753,"uneuf":5754,"Laurel":5755,"ÅŃp":5756,"Oxford":5757,"rÃŃguez":5758,"Warren":5759,"ĠMichele":5760,"Lawrence":5761,"ĠPueblo":5762,"ĠInferiore":5763,"Julien":5764,"lvaro":5765,"Ä©nh":5766,"Brighton":5767,"Vincent":5768,"ĠRapids":5769,"ĠVodÄĥ":5770,"ĠSopra":5771,"Bellevue":5772,"ChÃ¢teauneuf":5773,"Bav":5774,"Beg":5775,"Bres":5776,"Bens":5777,"Biel":5778,"Cala":5779,"Cry":5780,"Comb":5781,"Dad":5782,"Dro":5783,"DiÃ©":5784,"Fon":5785,"Fun":5786,"Fuk":5787,"Fren":5788,"FÃ¼r":5789,"Fontaine":5790,"Gon":5791,"Gob":5792,"Grande":5793,"GÃ¶l":5794,"Hos":5795,"Hov":5796,"Hey":5797,"Jh":5798,"Kov":5799,"Kud":5800,"Kend":5801,"Key":5802,"Kup":5803,"Keb":5804,"Lur":5805,"Loh":5806,"MÄģ":5807,"Mell":5808,"Moc":5809,"Maf":5810,"Mouss":5811,"Nel":5812,"Net":5813,"Nand":5814,"Nob":5815,"Pam":5816,"Pow":5817,"Pey":5818,"Pola":5819,"Post":5820,"Poll":5821,"Run":5822,"Raw":5823,"Sis":5824,"Scot":5825,"TÃ¶":5826,"Tort":5827,"Tux":5828,"Uk":5829,"VÃ©":5830,"Vand":5831,"Wi":5832,"Wak":5833,"Whe":5834,"Wins":5835,"Wick":5836,"Xian":5837,"Yuan":5838,"Zha":5839,"cza":5840,"ej":5841,"fax":5842,"grad":5843,"hue":5844,"jah":5845,"kol":5846,"kÃ¡":5847,"kiv":5848,"kowo":5849,"livka":5850,"mur":5851,"ming":5852,"mÃ¡n":5853,"mart":5854,"nar":5855,"nin":5856,"nel":5857,"pio":5858,"ring":5859,"sp":5860,"set":5861,"uÅ¡":5862,"vens":5863,"wel":5864,"wall":5865,"xia":5866,"yg":5867,"yÄģ":5868,"yana":5869,"yevo":5870,"zheim":5871,"zada":5872,"zowice":5873,"ĠÃ":5874,"oslav":5875,"eres":5876,"inet":5877,"enci":5878,"enfeld":5879,"onna":5880,"alay":5881,"alac":5882,"elez":5883,"chnyy":5884,"deen":5885,"lain":5886,"ator":5887,"atÃ¡":5888,"atitlÃ¡n":5889,"oukou":5890,"oufla":5891,"olino":5892,"ollo":5893,"tab":5894,"itch":5895,"reu":5896,"redo":5897,"Ġdegli":5898,"iai":5899,"ĠManz":5900,"ĠMinas":5901,"ĠPines":5902,"angel":5903,"unfo":5904,"Ã¡ki":5905,"ĠSoledad":5906,"ĠScalo":5907,"riÅŁ":5908,"etsk":5909,"Laz":5910,"Lakes":5911,"oman":5912,"Chr":5913,"Chu":5914,"ĠAp":5915,"akaha":5916,"ĠTam":5917,"ĠTlal":5918,"ĠHigh":5919,"ules":5920,"ĠGia":5921,"ĠVes":5922,"iek":5923,"ĠLas":5924,"ĠLomas":5925,"ellina":5926,"Marl":5927,"ĠNav":5928,"ĠNine":5929,"ĠNiÃ±o":5930,"owie":5931,"ĠFar":5932,"ÅŁani":5933,"ÅŁeh":5934,"enge":5935,"Shal":5936,"Shil":5937,"azzano":5938,"allas":5939,"ĠDos":5940,"ĠDun":5941,"stra":5942,"Arch":5943,"ardino":5944,"quia":5945,"quim":5946,"Anne":5947,"Neuen":5948,"ĠEr":5949,"ĠIm":5950,"Ã¨ze":5951,"Monaster":5952,"ĠChim":5953,"iani":5954,"Å«b":5955,"ĠWal":5956,"Guang":5957,"BrÄĥ":5958,"ezz":5959,"ĠLab":5960,"ĠLago":5961,"aju":5962,"Thor":5963,"Thur":5964,"Village":5965,"Castelle":5966,"loo":5967,"epp":5968,"hama":5969,"QuáºŃn":5970,"erma":5971,"Berez":5972,"Beaver":5973,"Prad":5974,"Malab":5975,"Huay":5976,"Buff":5977,"Burn":5978,"Parad":5979,"ulag":5980,"ĠYar":5981,"Karak":5982,"Cons":5983,"zewo":5984,"Deh":5985,"ÄģrÄ«":5986,"Brod":5987,"Asp":5988,"Asti":5989,"Canton":5990,"oulÃ©":5991,"ureba":5992,"orges":5993,"Weil":5994,"zione":5995,"Kamen":5996,"Plage":5997,"PhÃº":5998,"Ã¶rth":5999,"Donji":6000,"SaÃ´ne":6001,"regal":6002,"mbre":6003,"Oakland":6004,"Altam":6005,"Muara":6006,"igues":6007,"outou":6008,"NyÃŃr":6009,"Presid":6010,"Pitts":6011,"ĠCameros":6012,"Belleville":6013,"Maple":6014,"Roche":6015,"ĠPeter":6016,"Logan":6017,"Villalba":6018,"ĠGeorge":6019,"YeÅŁ":6020,"Ġpod":6021,"Johns":6022,"Clayton":6023,"Columbus":6024,"Ãµes":6025,"NicolÃ¡s":6026,"ĠBranch":6027,"Alexandria":6028,"ĠWoods":6029,"Fayette":6030,"á»Ļc":6031,"ĠJacinto":6032,"Coronel":6033,"ĠMeadows":6034,"Æ°á»Ŀng":6035,"ktyabr":6036,"Aig":6037,"Agh":6038,"Bub":6039,"Bier":6040,"Bian":6041,"Bez":6042,"BÄģn":6043,"Bess":6044,"Cio":6045,"City":6046,"Country":6047,"Das":6048,"Dat":6049,"Dach":6050,"Dud":6051,"Dax":6052,"DÃ¼r":6053,"Doctor":6054,"End":6055,"Epp":6056,"Fla":6057,"Fav":6058,"Gin":6059,"Gau":6060,"Gund":6061,"GÃ¢r":6062,"Hes":6063,"HÃ©":6064,"Hai":6065,"II":6066,"Jor":6067,"Jur":6068,"Jat":6069,"Jaw":6070,"Koc":6071,"Kass":6072,"Kuk":6073,"Kuz":6074,"Kuy":6075,"Kenn":6076,"Kfar":6077,"Lour":6078,"Lock":6079,"Muk":6080,"Malm":6081,"Muang":6082,"Myk":6083,"Nic":6084,"NÄģ":6085,"Namb":6086,"Oro":6087,"One":6088,"Ong":6089,"Pim":6090,"Pai":6091,"Pend":6092,"Piano":6093,"Qian":6094,"Rang":6095,"Rag":6096,"Raz":6097,"Ridge":6098,"Sla":6099,"Soh":6100,"SÅĤ":6101,"Stone":6102,"Tos":6103,"Tch":6104,"Tamp":6105,"Tuz":6106,"Torn":6107,"Ub":6108,"Ut":6109,"Vog":6110,"Viz":6111,"Voz":6112,"VÃ¢n":6113,"Watt":6114,"Waver":6115,"Yi":6116,"Yas":6117,"Zim":6118,"Zem":6119,"ZdrÃ³j":6120,"ade":6121,"bing":6122,"cone":6123,"cedo":6124,"ex":6125,"ete":6126,"eir":6127,"fil":6128,"fing":6129,"fang":6130,"fonte":6131,"grove":6132,"hin":6133,"has":6134,"horn":6135,"ii":6136,"jen":6137,"kivka":6138,"kovice":6139,"lj":6140,"lod":6141,"mern":6142,"noy":6143,"nut":6144,"pt":6145,"pac":6146,"ped":6147,"pice":6148,"rano":6149,"rÄ«":6150,"rest":6151,"stad":6152,"tÃ©":6153,"vie":6154,"won":6155,"west":6156,"xian":6157,"yam":6158,"yÃ¼k":6159,"zÃ©":6160,"zÃ¼":6161,"zeg":6162,"ÃĦ":6163,"Äª":6164,"Å¯":6165,"ĠÅ¢":6166,"Ġupon":6167,"osi":6168,"oski":6169,"anb":6170,"arak":6171,"arai":6172,"arele":6173,"erv":6174,"erberg":6175,"inan":6176,"enhausen":6177,"enthal":6178,"alÃ©":6179,"alÄ±":6180,"orst":6181,"orada":6182,"elec":6183,"ilor":6184,"asta":6185,"esheim":6186,"amin":6187,"det":6188,"dey":6189,"lair":6190,"lawn":6191,"aty":6192,"atur":6193,"atti":6194,"atico":6195,"iste":6196,"isheim":6197,"issen":6198,"adan":6199,"ading":6200,"itÃ©":6201,"reÈĻti":6202,"reuth":6203,"oville":6204,"ovica":6205,"ingdale":6206,"rai":6207,"ĠMun":6208,"ĠMai":6209,"tez":6210,"icz":6211,"ĠPad":6212,"ĠPass":6213,"Ã¡ch":6214,"rigo":6215,"eter":6216,"ĠBah":6217,"ĠBren":6218,"ĠBureba":6219,"igui":6220,"ombe":6221,"imba":6222,"Chit":6223,"Ã³l":6224,"tola":6225,"iria":6226,"andra":6227,"andro":6228,"akou":6229,"ĠTen":6230,"ĠTop":6231,"odoro":6232,"ĠHouse":6233,"ĠReg":6234,"ĠRibera":6235,"Alam":6236,"api":6237,"ĠGhar":6238,"ĠVol":6239,"usto":6240,"iola":6241,"avilla":6242,"tiv":6243,"coy":6244,"baj":6245,"berts":6246,"ĠLam":6247,"ĠLom":6248,"ĠLomb":6249,"ĠLima":6250,"Äĥra":6251,"ÄĥÈĽ":6252,"ĠJar":6253,"ĠJul":6254,"ĠJoya":6255,"Mare":6256,"Mariano":6257,"ĠNord":6258,"astro":6259,"owiec":6260,"Ġdelle":6261,"Shan":6262,"Shib":6263,"Arlington":6264,"arden":6265,"quis":6266,"quip":6267,"Anna":6268,"eview":6269,"aley":6270,"gut":6271,"zhan":6272,"zhong":6273,"utu":6274,"ĠEd":6275,"Ã¨ve":6276,"Leban":6277,"Lewis":6278,"Ã¢ne":6279,"ierre":6280,"ĠOcot":6281,"Montag":6282,"ĠChÃ¢u":6283,"Barg":6284,"Å«m":6285,"Bras":6286,"Brou":6287,"Brent":6288,"ryn":6289,"Thal":6290,"Castello":6291,"epec":6292,"Quinc":6293,"Ã¤ng":6294,"indo":6295,"Gram":6296,"ocheng":6297,"Ort":6298,"ashan":6299,"ĠSang":6300,"Newcastle":6301,"cken":6302,"prÃ¼":6303,"undu":6304,"inson":6305,"brÃ¼ck":6306,"itage":6307,"Esch":6308,"Burton":6309,"Boj":6310,"Box":6311,"Paris":6312,"sted":6313,"ÃŁen":6314,"Borg":6315,"arejo":6316,"Montec":6317,"Reh":6318,"Moos":6319,"Roi":6320,"iesa":6321,"Breiten":6322,"Bretagne":6323,"Isla":6324,"Kalin":6325,"Rosario":6326,"Cros":6327,"racia":6328,"hoo":6329,"Plum":6330,"oledo":6331,"Ã¸d":6332,"Form":6333,"Velika":6334,"VelkÃ©":6335,"Ãªs":6336,"Gray":6337,"Playa":6338,"ettingen":6339,"Comp":6340,"Ãĩay":6341,"Midway":6342,"nikovo":6343,"ĠThong":6344,"Äħb":6345,"Torrec":6346,"MuÃ±":6347,"Vicente":6348,"ĠCastle":6349,"ĠCastello":6350,"ĠPlace":6351,"ĠTej":6352,"Hoog":6353,"Sunny":6354,"valle":6355,"rieux":6356,"ÃŃsima":6357,"ĠPalmar":6358,"Bally":6359,"ĠMaggiore":6360,"Egg":6361,"Pomp":6362,"ĠManuel":6363,"como":6364,"lalpan":6365,"Neuville":6366,"Noord":6367,"Pozo":6368,"Brooklyn":6369,"Mitter":6370,"ĠCentral":6371,"Linden":6372,"ĠMontes":6373,"vedere":6374,"wÄģra":6375,"Fresno":6376,"ĠWielka":6377,"Carroll":6378,"Aberdeen":6379,"Ġcentre":6380,"Maurice":6381,"ÄģzÄģr":6382,"Columbia":6383,"crest":6384,"Tisz":6385,"Ekiti":6386,"right":6387,"ĠRodrÃŃguez":6388,"ĠJohn":6389,"ĠPrimero":6390,"uciÃ³n":6391,"Rizal":6392,"Princeton":6393,"ĠWielkie":6394,"ustiano":6395,"ĠParaÃŃso":6396,"Kensington":6397,"aventura":6398,"University":6399,"ÅŁehir":6400,"Lebanon":6401,"Aul":6402,"Ble":6403,"Bong":6404,"Bent":6405,"Bany":6406,"Boll":6407,"Cet":6408,"Cost":6409,"Dang":6410,"Dak":6411,"Dap":6412,"DÃ¶":6413,"Damp":6414,"Dund":6415,"Earl":6416,"Eaton":6417,"Feld":6418,"Fate":6419,"Fish":6420,"Fuj":6421,"Ges":6422,"GÄĥ":6423,"Gut":6424,"Hot":6425,"Hoy":6426,"Ich":6427,"Ket":6428,"Kag":6429,"Kus":6430,"Kell":6431,"Kent":6432,"Kip":6433,"Kham":6434,"Khan":6435,"KÄģl":6436,"KÄ±zÄ±":6437,"Ley":6438,"Liu":6439,"Lumb":6440,"Mav":6441,"Maw":6442,"Mamb":6443,"Moul":6444,"Momb":6445,"MÃ¶n":6446,"Nk":6447,"Non":6448,"Naw":6449,"Ooster":6450,"Paz":6451,"Pala":6452,"RÃ¡":6453,"Rah":6454,"Rut":6455,"Reb":6456,"Raf":6457,"Siv":6458,"Sale":6459,"Suz":6460,"Salm":6461,"Stad":6462,"SÄĥl":6463,"Toy":6464,"Teg":6465,"Uch":6466,"Vet":6467,"Vac":6468,"Vey":6469,"VÃ¢r":6470,"Wand":6471,"Wij":6472,"Warm":6473,"Wiel":6474,"Witt":6475,"Yuzh":6476,"Zel":6477,"bou":6478,"bay":6479,"bog":6480,"buch":6481,"cle":6482,"cina":6483,"cani":6484,"cester":6485,"celles":6486,"dol":6487,"dia":6488,"ein":6489,"eta":6490,"gur":6491,"gou":6492,"hard":6493,"hÃ¡za":6494,"iba":6495,"kl":6496,"ket":6497,"kul":6498,"kamp":6499,"lig":6500,"lÃ³":6501,"lovo":6502,"lock":6503,"mos":6504,"mac":6505,"ment":6506,"mero":6507,"nit":6508,"nÄģ":6509,"oÃº":6510,"py":6511,"pina":6512,"qq":6513,"rg":6514,"rÄģ":6515,"rand":6516,"rÃ³n":6517,"rÃ³w":6518,"schen":6519,"tlÃ¡n":6520,"uÃŃ":6521,"via":6522,"veni":6523,"wat":6524,"wyn":6525,"xc":6526,"Ġen":6527,"Ġle":6528,"ande":6529,"anueva":6530,"eru":6531,"erup":6532,"erÃŃa":6533,"inco":6534,"eneg":6535,"eston":6536,"chit":6537,"urd":6538,"dev":6539,"degem":6540,"atro":6541,"olu":6542,"olco":6543,"taj":6544,"tao":6545,"ĠCac":6546,"ĠCec":6547,"ĠClem":6548,"ĠCerrato":6549,"ĠCÃ¢mp":6550,"adh":6551,"rade":6552,"ĠMin":6553,"ĠMata":6554,"ĠMÃ¼hl":6555,"ted":6556,"ĠPen":6557,"ĠPom":6558,"ĠPino":6559,"ĠPres":6560,"ĠPÃ¡ramo":6561,"angen":6562,"uny":6563,"unciÃ³n":6564,"roc":6565,"ĠSin":6566,"ĠSum":6567,"ĠSoc":6568,"ĠSotto":6569,"rij":6570,"rier":6571,"riana":6572,"etu":6573,"ĠBÃ¬nh":6574,"ĠBautista":6575,"iglia":6576,"ague":6577,"agny":6578,"omi":6579,"imin":6580,"imil":6581,"Chen":6582,"Ches":6583,"Chia":6584,"Chum":6585,"Chem":6586,"Choc":6587,"ĠAug":6588,"ĠAtz":6589,"aban":6590,"abia":6591,"iran":6592,"ires":6593,"ĠTan":6594,"ĠTem":6595,"odz":6596,"ĠHan":6597,"ĠHope":6598,"ĠRhein":6599,"Albe":6600,"AlcalÃ¡":6601,"apu":6602,"ĠGuz":6603,"ahua":6604,"ĠVar":6605,"iot":6606,"iez":6607,"illet":6608,"nec":6609,"nee":6610,"neu":6611,"umo":6612,"umen":6613,"ĠLang":6614,"ĠLÃ¡zaro":6615,"tersdorf":6616,"oyar":6617,"ĠNÃº":6618,"ĠFran":6619,"ĠFres":6620,"ĠFranc":6621,"ogan":6622,"ograd":6623,"Ã¶v":6624,"engen":6625,"achÅį":6626,"Sham":6627,"Shaw":6628,"ĠDar":6629,"ĠDes":6630,"ĠDorf":6631,"storp":6632,"Ä«b":6633,"quet":6634,"Anj":6635,"Ans":6636,"opan":6637,"ĠMaritt":6638,"endi":6639,"ĠKar":6640,"ĠKha":6641,"eya":6642,"ubi":6643,"utz":6644,"assÃ©":6645,"assikro":6646,"Lew":6647,"upp":6648,"gola":6649,"Monti":6650,"ĠChic":6651,"ĠWat":6652,"Carl":6653,"Carm":6654,"oho":6655,"ohrad":6656,"onder":6657,"Thomas":6658,"nox":6659,"Santana":6660,"BelÃ©n":6661,"ĠAlf":6662,"Montel":6663,"Å¡ka":6664,"Manzan":6665,"ÅĤowice":6666,"Äģnpur":6667,"Prat":6668,"Prince":6669,"uerte":6670,"ossou":6671,"brÄĥ":6672,"Äįany":6673,"Krum":6674,"arral":6675,"arrub":6676,"Khor":6677,"veen":6678,"ĠHeads":6679,"Burlington":6680,"mann":6681,"manns":6682,"uyan":6683,"áº¿":6684,"anjang":6685,"Karang":6686,"issy":6687,"Meer":6688,"borne":6689,"Rein":6690,"Spen":6691,"Rox":6692,"ĠShore":6693,"AgÃŃa":6694,"ÄģdÄ«":6695,"lores":6696,"yeh":6697,"yeong":6698,"Petr":6699,"olds":6700,"Cris":6701,"Crest":6702,"Andrea":6703,"ĠGuay":6704,"Blag":6705,"doba":6706,"Talis":6707,"Urb":6708,"ÄĻd":6709,"Luis":6710,"Emm":6711,"Geis":6712,"Äĥreni":6713,"Äĩi":6714,"Bonne":6715,"Unidad":6716,"ÅĦsk":6717,"Nava":6718,"Naval":6719,"Ã©dougou":6720,"Walnut":6721,"ĠStre":6722,"Glas":6723,"Glendale":6724,"ĠColle":6725,"Winchester":6726,"ĠSeca":6727,"ĠCastro":6728,"ÅĽci":6729,"Izvo":6730,"Temple":6731,"Tepet":6732,"Otter":6733,"Staraya":6734,"Svet":6735,"Sveti":6736,"Szcz":6737,"Krasnaya":6738,"Florence":6739,"ÅģÄĻ":6740,"Ã²a":6741,"Zaragoza":6742,"ĠCatalina":6743,"Pilar":6744,"Preston":6745,"Ixta":6746,"Waterloo":6747,"stow":6748,"Kampong":6749,"Seven":6750,"Candelaria":6751,"Rochester":6752,"Motta":6753,"Evans":6754,"iÄĩi":6755,"Harrison":6756,"Wellington":6757,"thorne":6758,"Centerville":6759,"ĠBuenavista":6760,"Bridgeport":6761,"Sosn":6762,"Young":6763,"amoros":6764,"ĠLargo":6765,"ĠTomÃ¡s":6766,"Mansfield":6767,"Mission":6768,"Sovet":6769,"Concordia":6770,"ĠFerry":6771,"Slobozia":6772,"á»ĵng":6773,"cliffe":6774,"iá»ĩ":6775,"Douglas":6776,"Lancaster":6777,"Plymouth":6778,"gomery":6779,"Neukirchen":6780,"ĠCaÃ±ada":6781,"ĠPuente":6782,"Crystal":6783,"ĠGiacomo":6784,"Ait":6785,"Aro":6786,"Beng":6787,"Bli":6788,"Balm":6789,"Boss":6790,"Cah":6791,"Cus":6792,"Cip":6793,"Coz":6794,"Cly":6795,"CÃ¢r":6796,"Det":6797,"Dok":6798,"Dik":6799,"Dash":6800,"Fara":6801,"Ford":6802,"Fry":6803,"Gai":6804,"GouÃ©":6805,"Hac":6806,"Hino":6807,"Hut":6808,"Hern":6809,"HÃ¶r":6810,"Hidalgo":6811,"Huey":6812,"Igu":6813,"Jol":6814,"Jay":6815,"Jed":6816,"Jak":6817,"Jem":6818,"Jud":6819,"KÄģ":6820,"Ked":6821,"Kard":6822,"Kind":6823,"Kha":6824,"KÅį":6825,"Lent":6826,"Lek":6827,"Mp":6828,"Mia":6829,"Mom":6830,"Mort":6831,"Mei":6832,"Moch":6833,"Metz":6834,"Nal":6835,"Nil":6836,"Nia":6837,"Ngu":6838,"Nash":6839,"Osh":6840,"Out":6841,"Pov":6842,"Pell":6843,"RÃ¢":6844,"Rug":6845,"Rij":6846,"Rhein":6847,"Ses":6848,"Sell":6849,"Sach":6850,"Sukh":6851,"Tw":6852,"TÃ©":6853,"Tad":6854,"Tug":6855,"Tez":6856,"Tiz":6857,"Tomb":6858,"Tann":6859,"Vou":6860,"Vers":6861,"Vysh":6862,"Wey":6863,"Web":6864,"Wola":6865,"Wake":6866,"Yer":6867,"YÃªn":6868,"Zi":6869,"Zan":6870,"beni":6871,"cou":6872,"cul":6873,"cÃ¡n":6874,"ders":6875,"dens":6876,"dougou":6877,"fle":6878,"fontaine":6879,"gia":6880,"horod":6881,"jerg":6882,"kap":6883,"kum":6884,"kaya":6885,"luk":6886,"lÄĥu":6887,"mour":6888,"mada":6889,"mund":6890,"nor":6891,"nah":6892,"nock":6893,"sb":6894,"sby":6895,"uya":6896,"vil":6897,"vou":6898,"vila":6899,"wei":6900,"yra":6901,"yany":6902,"Ãİ":6903,"Ġ4":6904,"anna":6905,"arp":6906,"arne":6907,"arpur":6908,"argues":6909,"eria":6910,"erra":6911,"inec":6912,"inskaya":6913,"alar":6914,"alak":6915,"alba":6916,"orro":6917,"orne":6918,"elas":6919,"ilu":6920,"ilas":6921,"esch":6922,"chu":6923,"uray":6924,"amang":6925,"atem":6926,"olz":6927,"olsheim":6928,"isan":6929,"isio":6930,"tap":6931,"ĠCos":6932,"ĠCort":6933,"ĠCald":6934,"itella":6935,"rei":6936,"ovy":6937,"ingh":6938,"tega":6939,"iceni":6940,"ĠPur":6941,"ĠPri":6942,"ĠPiano":6943,"anger":6944,"roz":6945,"ÄģÅŁ":6946,"Äģni":6947,"Ã¡la":6948,"ĠSta":6949,"ĠSav":6950,"ĠSai":6951,"rib":6952,"etti":6953,"Laval":6954,"ĠBy":6955,"igÃ¼":6956,"igua":6957,"agro":6958,"omar":6959,"illi":6960,"Chan":6961,"Chur":6962,"Chun":6963,"Chik":6964,"Chep":6965,"Ã³t":6966,"acas":6967,"Ġdes":6968,"tow":6969,"abas":6970,"andy":6971,"andale":6972,"ÃŃm":6973,"ÃŃos":6974,"sky":6975,"ĠTau":6976,"ĠTul":6977,"ĠHo":6978,"ĠHÃł":6979,"ĠRi":6980,"ĠRay":6981,"ĠRun":6982,"ĠRob":6983,"apia":6984,"usan":6985,"usen":6986,"ieÅĽ":6987,"aville":6988,"coe":6989,"bera":6990,"bern":6991,"uea":6992,"ueil":6993,"ueira":6994,"uman":6995,"ĠLou":6996,"ĠLand":6997,"ĠLlan":6998,"otton":6999,"ivia":7000,"teros":7001,"ecchia":7002,"Mara":7003,"ĠNo":7004,"ogu":7005,"shu":7006,"ship":7007,"acht":7008,"ĠDub":7009,"stant":7010,"Ã¡ndez":7011,"Ã¡nchez":7012,"Armen":7013,"Ä«k":7014,"Anton":7015,"even":7016,"evskoye":7017,"opold":7018,"ĠMargar":7019,"tstadt":7020,"aleana":7021,"ĠKo":7022,"ĠKham":7023,"ĠKunda":7024,"icha":7025,"Stol":7026,"Stro":7027,"Stari":7028,"eyville":7029,"eldon":7030,"Neuv":7031,"Ã¢ng":7032,"ourou":7033,"iero":7034,"ensdorf":7035,"Barre":7036,"Å«q":7037,"Guin":7038,"Guad":7039,"Guard":7040,"Carn":7041,"Brat":7042,"Bristol":7043,"ambi":7044,"izo":7045,"ondi":7046,"Thung":7047,"tenheim":7048,"Vals":7049,"Villag":7050,"Amand":7051,"lane":7052,"Bela":7053,"Montre":7054,"Montgomery":7055,"Ãºj":7056,"Ãºcar":7057,"Ord":7058,"Salinas":7059,"Morav":7060,"bruck":7061,"Äįice":7062,"itacion":7063,"tepa":7064,"Krzy":7065,"Khal":7066,"Caste":7067,"Torri":7068,"Burns":7069,"Burgos":7070,"rovskoye":7071,"ulak":7072,"mans":7073,"mannsdorf":7074,"Adj":7075,"á»©":7076,"á»¹":7077,"ĠYai":7078,"ĠYuen":7079,"istric":7080,"essel":7081,"uxi":7082,"Meh":7083,"ixi":7084,"Campos":7085,"zyl":7086,"Brock":7087,"Spas":7088,"Sarthe":7089,"Brez":7090,"Agata":7091,"Heath":7092,"Int":7093,"Inver":7094,"Verd":7095,"Cape":7096,"Mats":7097,"linge":7098,"Lakewood":7099,"attan":7100,"ĠMartÃŃ":7101,"Bouss":7102,"Fras":7103,"Front":7104,"Fruit":7105,"ĠEstancia":7106,"Holt":7107,"uhÃ©":7108,"ancy":7109,"Ã´n":7110,"kirk":7111,"ether":7112,"Horod":7113,"Ã¥r":7114,"Ã©dÃ©":7115,"Mayfield":7116,"Taur":7117,"Treb":7118,"Dobr":7119,"Ã³rdoba":7120,"ĠCalera":7121,"acios":7122,"ĠRoad":7123,"Miranda":7124,"ĠPlata":7125,"Xincheng":7126,"Padang":7127,"Granite":7128,"ĠPhra":7129,"Buda":7130,"ÄĮes":7131,"Quebrada":7132,"atsu":7133,"LÃ©ger":7134,"holz":7135,"Mitch":7136,"Troit":7137,"Äģpuram":7138,"ĠPeÃ±a":7139,"Kyzyl":7140,"Dayton":7141,"iÅŁoara":7142,"Helena":7143,"ginia":7144,"Piedra":7145,"tepeque":7146,"Middletown":7147,"Nowe":7148,"Negr":7149,"Ã¦r":7150,"ĠSeco":7151,"John":7152,"Ã©guhÃ©":7153,"ĠSegundo":7154,"Farmington":7155,"Trinidad":7156,"Friedrich":7157,"fjord":7158,"ĠJesÃºs":7159,"áº§u":7160,"Piazza":7161,"KÃ¶nigs":7162,"ĠJoaquÃŃn":7163,"Jamestown":7164,"Russell":7165,"ĠPiave":7166,"Hebron":7167,"Vysok":7168,"wiesen":7169,"inconada":7170,"Riverside":7171,"Pfaff":7172,"ĠCadore":7173,"Belmonte":7174,"French":7175,"Castelletto":7176,"Spencer":7177,"istrict":7178,"Aut":7179,"Bant":7180,"Boch":7181,"Bien":7182,"Bist":7183,"Bust":7184,"BÅĻ":7185,"Bull":7186,"CÃ©":7187,"Cun":7188,"Cell":7189,"Cup":7190,"Coss":7191,"Coul":7192,"Cyr":7193,"Dri":7194,"Dow":7195,"Deg":7196,"Dale":7197,"Dip":7198,"Dry":7199,"Dep":7200,"Dick":7201,"Ec":7202,"Ez":7203,"Eff":7204,"Fro":7205,"Fab":7206,"Fund":7207,"Fonte":7208,"FÃ¢n":7209,"Gia":7210,"Gim":7211,"Gub":7212,"Gala":7213,"Gao":7214,"Glad":7215,"GbÃ©":7216,"Gonz":7217,"Hv":7218,"Het":7219,"Hand":7220,"Hed":7221,"Hap":7222,"Hamp":7223,"Hass":7224,"Hip":7225,"Hick":7226,"Haut":7227,"Haus":7228,"Ile":7229,"Kow":7230,"Koul":7231,"Ler":7232,"Lot":7233,"Lond":7234,"Mers":7235,"Mall":7236,"Mian":7237,"Mish":7238,"Most":7239,"Moll":7240,"MÃ¶r":7241,"Muss":7242,"Miami":7243,"Nac":7244,"Niam":7245,"Nazar":7246,"Oj":7247,"Ora":7248,"Oise":7249,"Oktyabr":7250,"Ps":7251,"Pid":7252,"Pach":7253,"Peg":7254,"Pud":7255,"Puc":7256,"Phu":7257,"Plo":7258,"Part":7259,"Pins":7260,"Pula":7261,"Pho":7262,"Row":7263,"Rush":7264,"Ranch":7265,"Sle":7266,"Sia":7267,"Sod":7268,"Sip":7269,"Sart":7270,"Sien":7271,"Six":7272,"SÃ¡r":7273,"Sett":7274,"Tes":7275,"Tit":7276,"Till":7277,"Tow":7278,"Taz":7279,"Tud":7280,"Tut":7281,"Twin":7282,"Uj":7283,"Vul":7284,"Vran":7285,"Vest":7286,"Verm":7287,"VÄĥl":7288,"VÄ©nh":7289,"Won":7290,"Wing":7291,"Xal":7292,"Yin":7293,"Yon":7294,"ZÃ©":7295,"Zang":7296,"Zaw":7297,"bir":7298,"bli":7299,"bamba":7300,"cur":7301,"cap":7302,"cara":7303,"cles":7304,"cello":7305,"ceda":7306,"del":7307,"dra":7308,"forth":7309,"gad":7310,"gne":7311,"gorn":7312,"hain":7313,"hara":7314,"herst":7315,"iff":7316,"jÄģn":7317,"jÅį":7318,"jÃ¸":7319,"joki":7320,"kor":7321,"kun":7322,"kom":7323,"kau":7324,"kove":7325,"kÃ½":7326,"lim":7327,"line":7328,"mil":7329,"mington":7330,"mount":7331,"nos":7332,"nas":7333,"nat":7334,"ned":7335,"nich":7336,"nogorsk":7337,"ode":7338,"oth":7339,"pay":7340,"para":7341,"rino":7342,"sun":7343,"som":7344,"sac":7345,"sley":7346,"vera":7347,"xter":7348,"xcal":7349,"yevka":7350,"zÃ³n":7351,"zate":7352,"Ãĺ":7353,"Ġ6":7354,"ĠÅ½":7355,"osse":7356,"oshan":7357,"anÃ¡":7358,"arÃŃ":7359,"arts":7360,"erh":7361,"erie":7362,"erbach":7363,"eruela":7364,"onal":7365,"alag":7366,"alpur":7367,"elton":7368,"iltepec":7369,"asz":7370,"chat":7371,"china":7372,"amal":7373,"amas":7374,"deÈĻti":7375,"lao":7376,"lade":7377,"atar":7378,"atra":7379,"atte":7380,"atay":7381,"olas":7382,"Ã©rez":7383,"isano":7384,"isdorf":7385,"ĠCi":7386,"ĠCur":7387,"ĠCay":7388,"ĠCod":7389,"ĠCue":7390,"ĠCop":7391,"ĠCanyon":7392,"itra":7393,"ituciÃ³n":7394,"ĠMÃ©":7395,"ĠMak":7396,"ical":7397,"ices":7398,"ĠPel":7399,"ĠPes":7400,"ayal":7401,"aykh":7402,"unan":7403,"roth":7404,"Ã¡p":7405,"Ã¡da":7406,"Ã¡ly":7407,"ĠSay":7408,"ĠSqu":7409,"ĠSerd":7410,"Lakh":7411,"ĠBi":7412,"ĠBÄģzÄģr":7413,"igg":7414,"ompa":7415,"imer":7416,"imÃ©":7417,"Chis":7418,"Chad":7419,"Chab":7420,"Chai":7421,"Chant":7422,"Chorn":7423,"ĠAsh":7424,"Ã³k":7425,"acÃ¡":7426,"Ġdell":7427,"toy":7428,"iry":7429,"andougou":7430,"ÃŃt":7431,"ÃŃba":7432,"thon":7433,"ĠTomas":7434,"ĠTree":7435,"ĠTajo":7436,"odar":7437,"oden":7438,"odol":7439,"ĠHen":7440,"ĠHue":7441,"ĠHondo":7442,"ĠRes":7443,"ĠRet":7444,"ĠRoche":7445,"Alla":7446,"apat":7447,"apÃ¡n":7448,"ulce":7449,"ĠGil":7450,"ĠGri":7451,"ĠGrad":7452,"ĠGordo":7453,"ahd":7454,"ahe":7455,"ahn":7456,"ĠVi":7457,"idu":7458,"ides":7459,"idougou":7460,"nea":7461,"nem":7462,"nech":7463,"bernad":7464,"ueang":7465,"ums":7466,"ĠLor":7467,"ĠLuang":7468,"Els":7469,"ellan":7470,"terthur":7471,"emp":7472,"ĠNuovo":7473,"ĠNicola":7474,"ÅŁeni":7475,"erstown":7476,"ogno":7477,"Ã¶m":7478,"shagen":7479,"ocin":7480,"obe":7481,"oban":7482,"aix":7483,"aira":7484,"Shin":7485,"Shell":7486,"Ship":7487,"Shij":7488,"Shahr":7489,"azo":7490,"azÄ±":7491,"egno":7492,"eggio":7493,"quite":7494,"Ank":7495,"Anth":7496,"Anse":7497,"burton":7498,"evskiy":7499,"ĠMarco":7500,"tsevo":7501,"geÅŁti":7502,"entina":7503,"ĠKr":7504,"ĠKey":7505,"Stud":7506,"zhd":7507,"ordan":7508,"Neum":7509,"ekh":7510,"ĠEjido":7511,"iyat":7512,"Leh":7513,"Leu":7514,"cei":7515,"ciu":7516,"ouro":7517,"kee":7518,"ibe":7519,"ibu":7520,"ĠOj":7521,"Monroe":7522,"nye":7523,"ĠWells":7524,"BrÃ©":7525,"Bris":7526,"Brun":7527,"uzzo":7528,"ĠLaur":7529,"ffel":7530,"izzano":7531,"aje":7532,"onds":7533,"Thanh":7534,"Castil":7535,"ighton":7536,"eppe":7537,"hamn":7538,"Sche":7539,"Scho":7540,"Villiers":7541,"Belo":7542,"Belvedere":7543,"Montal":7544,"Montrose":7545,"Orm":7546,"Å¡Å¥":7547,"alma":7548,"aroo":7549,"gher":7550,"Manuel":7551,"ÅĤy":7552,"afla":7553,"Ã§on":7554,"Bergen":7555,"Beach":7556,"ijo":7557,"undi":7558,"under":7559,"Huar":7560,"Huitz":7561,"Escal":7562,"Casale":7563,"ĠCruc":7564,"Add":7565,"ĠArroyo":7566,"isso":7567,"essou":7568,"Bais":7569,"ilao":7570,"Cook":7571,"Campbell":7572,"Palos":7573,"Rech":7574,"Spe":7575,"SarÄ±":7576,"BanÄ«":7577,"Roque":7578,"tori":7579,"Breit":7580,"ireÅŁti":7581,"Portland":7582,"oult":7583,"iewo":7584,"Obern":7585,"Crist":7586,"Plop":7587,"broke":7588,"Åŀte":7589,"Ãģlvaro":7590,"annon":7591,"Ports":7592,"ancha":7593,"ancheng":7594,"Velyk":7595,"Plat":7596,"Plaine":7597,"ĠSalz":7598,"Albion":7599,"ĠEspino":7600,"pool":7601,"point":7602,"ĠMoreno":7603,"Ã´nio":7604,"Wilson":7605,"Wilhel":7606,"Woodville":7607,"mbaro":7608,"Palma":7609,"Palmar":7610,"Midland":7611,"ĠThÃłnh":7612,"ylivka":7613,"Lyon":7614,"Lyub":7615,"Norton":7616,"Dobro":7617,"Romain":7618,"Ã³ria":7619,"Molino":7620,"czyn":7621,"rigg":7622,"ĠPlain":7623,"Loup":7624,"Aleks":7625,"Gobernad":7626,"ĠIndepend":7627,"enhofen":7628,"Å¼y":7629,"Lagun":7630,"ĠGarda":7631,"ĠFork":7632,"Sulpice":7633,"Stoke":7634,"ĠPhÃº":7635,"Moselle":7636,"pect":7637,"Sumber":7638,"Summer":7639,"ĠCuauhtÃ©moc":7640,"Imeni":7641,"Centen":7642,"LÃ©on":7643,"Massa":7644,"Hanover":7645,"Ryb":7646,"ĠNicolas":7647,"ĠOliv":7648,"Joseph":7649,"Aguas":7650,"Byst":7651,"Marcel":7652,"ĠClub":7653,"ĠHuitz":7654,"Pietra":7655,"Mound":7656,"Prairie":7657,"quilpan":7658,"strup":7659,"ĠUnion":7660,"ĠRocks":7661,"Nikol":7662,"Gunung":7663,"Hartford":7664,"Gornji":7665,"ĠCerro":7666,"ĠTepet":7667,"ĠGeorgen":7668,"ĠCaball":7669,"Virginia":7670,"wiÄĻ":7671,"ĠAyala":7672,"RhÃ´ne":7673,"galant":7674,"ĠPaolo":7675,"ĠVallÃ¨s":7676,"Quintana":7677,"Shelby":7678,"Hazel":7679,"Poblado":7680,"villiers":7681,"unswick":7682,"Bethel":7683,"Nicolas":7684,"ĠCorner":7685,"ĠCorners":7686,"ĠTriunfo":7687,"Huntington":7688,"Stony":7689,"ĠAntÃ´nio":7690,"ffield":7691,"ĠPiedra":7692,"bÃ¡Ã±ez":7693,"croft":7694,"Marshall":7695,"ĠNuova":7696,"Oulad":7697,"Lagoa":7698,"Velyka":7699,"ĠHabitacion":7700,"Stratford":7701,"Cuevas":7702,"ĠBrianza":7703,"GÃ¶kÃ§":7704,"Buffalo":7705,"Fateh":7706,"ĠClemente":7707,"ĠMÃ¼hlkreis":7708,"ĠGuzmÃ¡n":7709,"ĠSerdÃ¡n":7710,"Aq":7711,"Aal":7712,"Aco":7713,"Aba":7714,"Aka":7715,"Ahuac":7716,"Bie":7717,"Bev":7718,"Baf":7719,"Bund":7720,"Bato":7721,"Bush":7722,"Bott":7723,"Cag":7724,"Cec":7725,"Cof":7726,"Cock":7727,"Dio":7728,"Dog":7729,"Daz":7730,"Daj":7731,"Domb":7732,"Dumb":7733,"DÄĻb":7734,"Ej":7735,"Fen":7736,"Fle":7737,"Fang":7738,"FÄĥ":7739,"Fron":7740,"Fush":7741,"Fisch":7742,"Gill":7743,"Gain":7744,"Ghe":7745,"Gres":7746,"Gry":7747,"Geb":7748,"GÅĤ":7749,"GÃ¶r":7750,"Hr":7751,"Hid":7752,"Hell":7753,"Hers":7754,"Hind":7755,"HÃ©r":7756,"Higuera":7757,"Ist":7758,"Ins":7759,"Jil":7760,"Jind":7761,"Jama":7762,"Kain":7763,"Kran":7764,"Kamb":7765,"Kof":7766,"Kita":7767,"Kish":7768,"Kula":7769,"Krem":7770,"KÄ±r":7771,"Lil":7772,"LÄĥ":7773,"Lark":7774,"LÃ¸":7775,"Luna":7776,"Lido":7777,"Mic":7778,"Mim":7779,"Mour":7780,"Miz":7781,"Mire":7782,"Mold":7783,"Muh":7784,"MÄĽ":7785,"Menz":7786,"Munt":7787,"Nz":7788,"Nin":7789,"Nich":7790,"Nass":7791,"Nine":7792,"Neck":7793,"Ola":7794,"Oco":7795,"Oke":7796,"Ouen":7797,"Pah":7798,"Pich":7799,"Pek":7800,"Pern":7801,"Poh":7802,"Poch":7803,"Phan":7804,"Path":7805,"PÃ©r":7806,"Qi":7807,"Rz":7808,"Rol":7809,"Sall":7810,"Sern":7811,"Sier":7812,"Saj":7813,"SÃ¤":7814,"Sole":7815,"Scar":7816,"Soledad":7817,"Tand":7818,"Tina":7819,"Tsur":7820,"Toul":7821,"Tumb":7822,"Tax":7823,"TÃ¼r":7824,"Triv":7825,"TÄĥt":7826,"Toledo":7827,"Vez":7828,"Wur":7829,"Wet":7830,"Wern":7831,"Wys":7832,"Wierz":7833,"Yay":7834,"Yav":7835,"Zer":7836,"Znam":7837,"aur":7838,"aia":7839,"bil":7840,"bano":7841,"cab":7842,"cino":7843,"cana":7844,"cke":7845,"cala":7846,"cera":7847,"dre":7848,"fur":7849,"fra":7850,"fino":7851,"gÃ©":7852,"gun":7853,"gir":7854,"gado":7855,"gueva":7856,"hills":7857,"hermosa":7858,"iÅ£a":7859,"jara":7860,"jiao":7861,"kat":7862,"kay":7863,"kah":7864,"kale":7865,"khan":7866,"kendorf":7867,"lla":7868,"lit":7869,"loc":7870,"lino":7871,"my":7872,"mak":7873,"mÃ¤":7874,"mida":7875,"mith":7876,"nu":7877,"nal":7878,"nil":7879,"oba":7880,"pl":7881,"pata":7882,"rice":7883,"rÃŃa":7884,"rone":7885,"rick":7886,"rella":7887,"rado":7888,"rales":7889,"sc":7890,"sum":7891,"saw":7892,"sworth":7893,"tara":7894,"tÃ¢n":7895,"uin":7896,"uÈĻ":7897,"vres":7898,"vington":7899,"wed":7900,"wai":7901,"wara":7902,"wÄģn":7903,"wart":7904,"wold":7905,"xin":7906,"zig":7907,"zem":7908,"zno":7909,"Ãĵ":7910,"Ġ7":7911,"Ġu":7912,"ĠÄĢ":7913,"ĠÃļ":7914,"anton":7915,"anovo":7916,"anya":7917,"arana":7918,"inal":7919,"inta":7920,"inca":7921,"enj":7922,"enice":7923,"onay":7924,"alp":7925,"alai":7926,"iliÃ©":7927,"asin":7928,"esia":7929,"chos":7930,"char":7931,"chil":7932,"amu":7933,"amos":7934,"amay":7935,"amac":7936,"dee":7937,"lab":7938,"leby":7939,"leÈĻti":7940,"atec":7941,"ouville":7942,"ouna":7943,"olia":7944,"Ã©bo":7945,"Ã©jar":7946,"iska":7947,"isai":7948,"islav":7949,"iswil":7950,"tava":7951,"ĠCav":7952,"ĠCont":7953,"adel":7954,"ades":7955,"itar":7956,"rech":7957,"reira":7958,"ovÃ«":7959,"ingan":7960,"ingdon":7961,"iagu":7962,"ĠMix":7963,"teca":7964,"icia":7965,"icourt":7966,"ĠPi":7967,"ĠPau":7968,"ĠPir":7969,"ĠPug":7970,"ĠPilar":7971,"ayevo":7972,"ayette":7973,"rock":7974,"Äģda":7975,"Äģrah":7976,"Äģgarh":7977,"Ã¡v":7978,"Ã¡polis":7979,"ĠSor":7980,"ĠSad":7981,"ĠSha":7982,"rios":7983,"ety":7984,"etano":7985,"Lai":7986,"ĠBil":7987,"ĠBol":7988,"ĠBia":7989,"ĠBang":7990,"ĠBell":7991,"ĠBank":7992,"ĠBerg":7993,"igheim":7994,"agra":7995,"oming":7996,"illan":7997,"illing":7998,"illia":7999,"illip":8000,"Chet":8001,"Chup":8002,"Chiang":8003,"ĠAur":8004,"ĠAbr":8005,"ĠAmar":8006,"acal":8007,"acÄ±k":8008,"abar":8009,"abat":8010,"aberg":8011,"irÃ©":8012,"ander":8013,"ÃŃna":8014,"ÃŃni":8015,"thage":8016,"aklÄ±":8017,"aina":8018,"ĠTl":8019,"ĠTo":8020,"ĠTol":8021,"ĠTig":8022,"ĠTot":8023,"odo":8024,"odu":8025,"odougou":8026,"ĠHom":8027,"ĠHau":8028,"ĠHerm":8029,"ĠHuer":8030,"Alh":8031,"Alv":8032,"Alle":8033,"Alta":8034,"Alma":8035,"Alder":8036,"Albert":8037,"ulia":8038,"ĠGate":8039,"ĠGÃ³ra":8040,"aho":8041,"idz":8042,"idos":8043,"iday":8044,"idence":8045,"usch":8046,"iembre":8047,"avou":8048,"tiz":8049,"tiers":8050,"neÅŁti":8051,"neux":8052,"anowice":8053,"berge":8054,"bersdorf":8055,"ĠLos":8056,"ĠLamb":8057,"ĠLuna":8058,"oty":8059,"otes":8060,"Marano":8061,"ĠFil":8062,"ĠFri":8063,"ĠFlat":8064,"ersberg":8065,"ersleben":8066,"rane":8067,"rans":8068,"ikÃ³":8069,"Ã¼nd":8070,"shÃ¶":8071,"azza":8072,"ĠDorado":8073,"Ä«rah":8074,"Ä«yeh":8075,"Anto":8076,"anao":8077,"evac":8078,"opo":8079,"liu":8080,"lich":8081,"entos":8082,"inao":8083,"ĠKil":8084,"ĠKur":8085,"ĠKam":8086,"ĠKou":8087,"ĠKra":8088,"ĠKok":8089,"icho":8090,"iches":8091,"zhu":8092,"eys":8093,"ube":8094,"eldorf":8095,"Nek":8096,"Neun":8097,"ĠEul":8098,"ĠEbro":8099,"ipi":8100,"ipan":8101,"ĠIz":8102,"Leb":8103,"Ã¢mb":8104,"ceÅŁti":8105,"ciana":8106,"uping":8107,"ĠOst":8108,"ensen":8109,"Monc":8110,"Monto":8111,"ĠChiqu":8112,"Ä±m":8113,"Å«t":8114,"ĠWin":8115,"ĠWind":8116,"ĠWater":8117,"Guil":8118,"Brz":8119,"Bram":8120,"uze":8121,"ndon":8122,"ngel":8123,"izer":8124,"ozy":8125,"Thir":8126,"tenau":8127,"Castrillo":8128,"Schwe":8129,"vais":8130,"inden":8131,"GrÃ¼n":8132,"Montf":8133,"Monts":8134,"Montigny":8135,"Ãºa":8136,"Orb":8137,"Org":8138,"Orge":8139,"Å¡k":8140,"almouth":8141,"ghetto":8142,"ĠSannio":8143,"Berkel":8144,"uche":8145,"Prato":8146,"cker":8147,"lya":8148,"lyk":8149,"prÃ¨s":8150,"NovÃ©":8151,"Novom":8152,"Mali":8153,"Malu":8154,"Malvern":8155,"Morgan":8156,"Morelos":8157,"Huam":8158,"Northfield":8159,"Äįina":8160,"Äįki":8161,"arrat":8162,"Corte":8163,"Espin":8164,"uiÃ©":8165,"Ã«n":8166,"errero":8167,"ishche":8168,"rovsk":8169,"Trenton":8170,"lenbach":8171,"á»§":8172,"á»³":8173,"Abas":8174,"uyu":8175,"uyang":8176,"ĠYÃªn":8177,"Conf":8178,"Concei":8179,"verton":8180,"BaÅŁ":8181,"Cole":8182,"Cool":8183,"Coop":8184,"cheon":8185,"Moor":8186,"torp":8187,"Agn":8188,"ollar":8189,"Zhelez":8190,"Benton":8191,"Tej":8192,"Cruc":8193,"ÄŁa":8194,"calco":8195,"Clermont":8196,"Caba":8197,"Caban":8198,"arlÄ±":8199,"arlington":8200,"PeÃ±a":8201,"ife":8202,"ift":8203,"iforn":8204,"ÅĻeb":8205,"Milan":8206,"Mineral":8207,"Phra":8208,"Geneva":8209,"ĠVicentino":8210,"George":8211,"oaia":8212,"Holz":8213,"Mason":8214,"llar":8215,"ĠEscob":8216,"ĠEsgueva":8217,"Ã´me":8218,"Melrose":8219,"ralba":8220,"Ã¥g":8221,"royos":8222,"Herz":8223,"lette":8224,"Navas":8225,"ĠReina":8226,"ĠReforma":8227,"ylÃ¤":8228,"Torrem":8229,"ĠColonia":8230,"TaÅŁ":8231,"Norwood":8232,"Sabang":8233,"Druzh":8234,"Äĥneasa":8235,"czÃ³w":8236,"rigny":8237,"Franken":8238,"Radom":8239,"Konstant":8240,"wangen":8241,"Å¼e":8242,"Half":8243,"Oued":8244,"Potrer":8245,"Ã¡zar":8246,"ĠÃģl":8247,"Äĵl":8248,"Llang":8249,"amanca":8250,"Croix":8251,"Danville":8252,"Pozz":8253,"inhos":8254,"ĠMatamoros":8255,"Itap":8256,"Verkhnyaya":8257,"ĠPeÃ±":8258,"Waterford":8259,"ĠPolyana":8260,"Chapel":8261,"rizal":8262,"Fontenay":8263,"ĠPinar":8264,"Westh":8265,"quiles":8266,"Clair":8267,"DumbrÄĥ":8268,"Ribeira":8269,"Wool":8270,"ĠSerra":8271,"Ronco":8272,"Tavern":8273,"Piedras":8274,"Cotton":8275,"umpang":8276,"ĠRamÃ³n":8277,"opolis":8278,"opolski":8279,"Ã¦k":8280,"Craig":8281,"Vrb":8282,"ĠBartolomeo":8283,"Lakeland":8284,"Lakeview":8285,"Athens":8286,"Williams":8287,"Novosel":8288,"Trinity":8289,"ĠVechi":8290,"Dorfkern":8291,"ĠUnter":8292,"ĠMerc":8293,"Æ°á»Ľ":8294,"ĠBranco":8295,"ĠLarga":8296,"Thornton":8297,"Baldwin":8298,"Oleksand":8299,"Charlotte":8300,"Cumberland":8301,"Prospect":8302,"Lauter":8303,"MÃ©doc":8304,"ĠMuÃ±":8305,"ĠPotrero":8306,"ĠFarms":8307,"Neder":8308,"Ã©lix":8309,"Independence":8310,"Decatur":8311,"TÃ¢rgu":8312,"ĠGeneral":8313,"lessis":8314,"ĠCroce":8315,"Vienne":8316,"ĠNaranj":8317,"ĠCharles":8318,"ĠEscond":8319,"Henderson":8320,"Salvacion":8321,"Eureka":8322,"champs":8323,"ĠLodge":8324,"Somerset":8325,"RÃ©my":8326,"Cleveland":8327,"ĠSharq":8328,"ĠHighlands":8329,"ĠLabem":8330,"fontein":8331,"ĠGharb":8332,"Torrecilla":8333,"ĠWaters":8334,"Izvoarele":8335,"ĠSquare":8336,"ĠIndependencia":8337,"ĠHabitacional":8338,"ConceiÃ§Ã£o":8339,"Ai":8340,"Bing":8341,"Bend":8342,"BÃ¢":8343,"Bala":8344,"Biss":8345,"BÄģr":8346,"Beck":8347,"Cang":8348,"Ceb":8349,"Cair":8350,"Cull":8351,"CÃ¢mp":8352,"Dov":8353,"Deng":8354,"Duc":8355,"Dug":8356,"Duk":8357,"Doh":8358,"Dorn":8359,"Dix":8360,"DÄģr":8361,"DÄħ":8362,"Ein":8363,"Esk":8364,"Ens":8365,"Fan":8366,"Fam":8367,"FÃ©":8368,"Fed":8369,"Farr":8370,"Farn":8371,"Gj":8372,"Gov":8373,"Gay":8374,"Gog":8375,"Goss":8376,"Gost":8377,"Hak":8378,"Hast":8379,"Hok":8380,"Hont":8381,"Heg":8382,"Hek":8383,"Haf":8384,"Hato":8385,"Hann":8386,"Hack":8387,"Hagen":8388,"Hugh":8389,"If":8390,"Jen":8391,"Jau":8392,"Jast":8393,"Job":8394,"Jug":8395,"Jiu":8396,"JÃ¤r":8397,"JÃ¡sz":8398,"KÃ©":8399,"Koy":8400,"Kog":8401,"Kant":8402,"KÄģn":8403,"Kuch":8404,"Kann":8405,"Lec":8406,"Loy":8407,"Lens":8408,"Lant":8409,"Lland":8410,"Luch":8411,"Lomb":8412,"Mw":8413,"Muz":8414,"Moro":8415,"MÃ©n":8416,"Mix":8417,"Nom":8418,"Nah":8419,"Num":8420,"Ney":8421,"Nish":8422,"Nicola":8423,"Oly":8424,"Poy":8425,"PÃ¶":8426,"Peng":8427,"Pino":8428,"Pard":8429,"Pug":8430,"Ples":8431,"PÅĻ":8432,"Prig":8433,"Prav":8434,"Pesc":8435,"Qin":8436,"Qir":8437,"Rhe":8438,"Rup":8439,"Rafael":8440,"Sog":8441,"Seng":8442,"Sull":8443,"Satu":8444,"Sunga":8445,"Sesto":8446,"Tl":8447,"Tas":8448,"Tia":8449,"Taw":8450,"Try":8451,"Taj":8452,"Tula":8453,"Tuf":8454,"Town":8455,"Tamar":8456,"Uc":8457,"Uy":8458,"Uri":8459,"Ush":8460,"Und":8461,"Utt":8462,"Ull":8463,"Vim":8464,"VÃ¤":8465,"Wim":8466,"WÃ¤":8467,"Wiang":8468,"Warn":8469,"Wetz":8470,"Woj":8471,"Yap":8472,"Yeni":8473,"Zand":8474,"ZÄĥ":8475,"Zub":8476,"Zamb":8477,"ZÅĤ":8478,"Zare":8479,"Zacu":8480,"bun":8481,"bong":8482,"bok":8483,"bella":8484,"bouÃ©":8485,"bbs":8486,"cq":8487,"cam":8488,"cano":8489,"cÃ³n":8490,"cent":8491,"cut":8492,"dor":8493,"eiras":8494,"fl":8495,"fin":8496,"fre":8497,"flores":8498,"gul":8499,"gÄĥ":8500,"hy":8501,"hle":8502,"had":8503,"hit":8504,"hra":8505,"hun":8506,"hau":8507,"hir":8508,"hav":8509,"hisar":8510,"jun":8511,"jie":8512,"jÃ¡n":8513,"kas":8514,"kav":8515,"koye":8516,"kha":8517,"liv":8518,"lÃ¸":8519,"mÃ©":8520,"met":8521,"mir":8522,"mach":8523,"nen":8524,"nak":8525,"num":8526,"nje":8527,"nÄĽ":8528,"oor":8529,"oÅ¡":8530,"oÄŁ":8531,"pon":8532,"pÃ¡n":8533,"qin":8534,"rang":8535,"rera":8536,"rÃ³d":8537,"sin":8538,"sang":8539,"she":8540,"sey":8541,"ting":8542,"tun":8543,"tim":8544,"tÃ³":8545,"uba":8546,"utsch":8547,"vad":8548,"vier":8549,"vÃ¡s":8550,"will":8551,"wey":8552,"wane":8553,"xheim":8554,"yu":8555,"yin":8556,"yre":8557,"yville":8558,"zor":8559,"zah":8560,"zkÃ³w":8561,"ÌĦ":8562,"ÑĢ":8563,"Ġ5":8564,"ĠSantiago":8565,"ĠÅł":8566,"osz":8567,"anov":8568,"arat":8569,"arang":8570,"arth":8571,"arah":8572,"erle":8573,"ering":8574,"erano":8575,"erna":8576,"erdale":8577,"inari":8578,"innes":8579,"inje":8580,"enham":8581,"enzo":8582,"alem":8583,"elheim":8584,"elfingen":8585,"ilah":8586,"asen":8587,"esar":8588,"esboro":8589,"chino":8590,"chich":8591,"chÃ©n":8592,"chetta":8593,"chÃ³ri":8594,"ury":8595,"uras":8596,"ures":8597,"urai":8598,"deb":8599,"deville":8600,"dega":8601,"lei":8602,"atinga":8603,"Sanch":8604,"ouda":8605,"olk":8606,"oly":8607,"olan":8608,"olot":8609,"olok":8610,"isu":8611,"isson":8612,"tawa":8613,"ĠCond":8614,"adena":8615,"adura":8616,"itepec":8617,"reek":8618,"oveni":8619,"raga":8620,"ĠMah":8621,"ĠMond":8622,"ĠMora":8623,"ĠMure":8624,"ĠMayor":8625,"icas":8626,"icay":8627,"ĠPis":8628,"ĠPha":8629,"ĠPaso":8630,"angar":8631,"Äģi":8632,"Äģp":8633,"Äģth":8634,"ÄģÅ£":8635,"Äģkh":8636,"Ã¡pam":8637,"ĠShe":8638,"ĠSung":8639,"ĠSham":8640,"ĠSuÃ¡rez":8641,"rian":8642,"rign":8643,"riÃ¨re":8644,"Laj":8645,"Laud":8646,"ĠBut":8647,"ĠBaj":8648,"ĠBrad":8649,"ĠBene":8650,"ĠBajo":8651,"igas":8652,"igna":8653,"igiano":8654,"toni":8655,"agÃ¼":8656,"agung":8657,"agiri":8658,"imachi":8659,"Cho":8660,"ChÃ©":8661,"Chill":8662,"Cheb":8663,"Charm":8664,"auan":8665,"ĠAra":8666,"ĠArag":8667,"ĠAngeles":8668,"Ã³v":8669,"acon":8670,"acay":8671,"acker":8672,"aby":8673,"aburi":8674,"ÃŃc":8675,"ÃŃcuaro":8676,"edin":8677,"eden":8678,"akar":8679,"ĠTro":8680,"ĠTak":8681,"ĠTav":8682,"ĠToro":8683,"ĠTron":8684,"ĠHoll":8685,"ĠRat":8686,"ĠRad":8687,"ĠRed":8688,"ĠRub":8689,"ĠRica":8690,"ĠRÃŃos":8691,"Als":8692,"Allen":8693,"AlÄģq":8694,"aph":8695,"apÃ©":8696,"ulong":8697,"ĠGer":8698,"ĠGerm":8699,"ĠGora":8700,"ĠGraz":8701,"ĠVir":8702,"ĠVid":8703,"ĠVera":8704,"iding":8705,"idio":8706,"uso":8707,"ieta":8708,"aviva":8709,"tif":8710,"tiÃ©r":8711,"neville":8712,"nega":8713,"anoa":8714,"ĠLev":8715,"ĠLub":8716,"ĠLondon":8717,"ĠLá»Ļc":8718,"otou":8719,"otta":8720,"ĠJam":8721,"ĠJuli":8722,"emia":8723,"Marqu":8724,"ĠNam":8725,"owe":8726,"ĠFa":8727,"ĠFl":8728,"ĠFont":8729,"ÅŁeÅŁti":8730,"ershausen":8731,"oge":8732,"ogn":8733,"Ã¶hr":8734,"Ã¼tz":8735,"achen":8736,"aide":8737,"Shun":8738,"Shore":8739,"Shira":8740,"Shakh":8741,"azÃ¡n":8742,"ĠDo":8743,"Aren":8744,"Arcos":8745,"Ä«pur":8746,"quir":8747,"quila":8748,"estina":8749,"ĠMarta":8750,"ĠMarys":8751,"tstown":8752,"Stal":8753,"Stam":8754,"arkt":8755,"guhÃ©":8756,"ubb":8757,"utan":8758,"Nef":8759,"Neud":8760,"eki":8761,"ernÃ¡ndez":8762,"iyya":8763,"Ã¨vre":8764,"awk":8765,"cial":8766,"ugn":8767,"upu":8768,"iermark":8769,"ĠOn":8770,"ensac":8771,"Ã±gan":8772,"Montagne":8773,"ĠChang":8774,"Barton":8775,"nyye":8776,"nytsia":8777,"Å«Å£":8778,"ĠWo":8779,"ĠWill":8780,"Guat":8781,"ineÈĻti":8782,"Carp":8783,"Brum":8784,"Bruck":8785,"Brunswick":8786,"huela":8787,"huizen":8788,"ezd":8789,"ĠLach":8790,"ffe":8791,"landa":8792,"ÈĻani":8793,"ÈĻeÈĻti":8794,"ambe":8795,"nga":8796,"ayao":8797,"izu":8798,"ozi":8799,"ozal":8800,"Thom":8801,"ebro":8802,"ebir":8803,"eroa":8804,"Villaverde":8805,"epe":8806,"eport":8807,"Schle":8808,"Aman":8809,"ynohrad":8810,"Grad":8811,"Grov":8812,"ĠAld":8813,"ĠAlba":8814,"ĠAltos":8815,"Ã³wek":8816,"Montm":8817,"ounou":8818,"Ors":8819,"Orne":8820,"Å¡te":8821,"voir":8822,"olotepec":8823,"Manh":8824,"ĠSand":8825,"Ã§i":8826,"Ã§an":8827,"Berk":8828,"Berri":8829,"Berlin":8830,"ucho":8831,"hany":8832,"cki":8833,"ueras":8834,"ienica":8835,"NovÃ¡":8836,"Novob":8837,"Malp":8838,"Mora":8839,"ĠValt":8840,"Hua":8841,"Huach":8842,"Äįov":8843,"ÄįÃŃ":8844,"Äįka":8845,"Bula":8846,"ĠZac":8847,"á¸Ĳ":8848,"Khlong":8849,"uix":8850,"Casta":8851,"Ã«m":8852,"Ã«s":8853,"ĠCristo":8854,"Seaf":8855,"bee":8856,"Tras":8857,"Adolfo":8858,"iedl":8859,"ĠYork":8860,"chensk":8861,"rancas":8862,"Concep":8863,"BaÃ±os":8864,"Meridian":8865,"irio":8866,"zyna":8867,"Montem":8868,"Real":8869,"nesville":8870,"Spin":8871,"Sparta":8872,"Roberts":8873,"Ãłs":8874,"pert":8875,"elsbach":8876,"ĠIsla":8877,"Aksu":8878,"Erb":8879,"Ceres":8880,"Cerreto":8881,"Island":8882,"ysville":8883,"ĠPole":8884,"Inn":8885,"Verg":8886,"Capp":8887,"Capit":8888,"Zhou":8889,"Peter":8890,"garten":8891,"weil":8892,"Benn":8893,"merald":8894,"Clover":8895,"Poien":8896,"Pointe":8897,"Pech":8898,"Atz":8899,"Ãªque":8900,"ÄģlÄ«":8901,"Äģlpur":8902,"ĠGuad":8903,"Weis":8904,"Weit":8905,"schau":8906,"ĠSalinas":8907,"Emb":8908,"genland":8909,"Garb":8910,"Krasno":8911,"Å¾ice":8912,"uhl":8913,"Terre":8914,"Terra":8915,"Äĩe":8916,"Bonny":8917,"Stras":8918,"ethen":8919,"Woodstock":8920,"tram":8921,"Donja":8922,"Kouadio":8923,"roydon":8924,"ÅĦski":8925,"Tsaga":8926,"Palmas":8927,"Ayd":8928,"Ã¯t":8929,"Hamburg":8930,"Walton":8931,"Blang":8932,"Norman":8933,"Drum":8934,"Naranj":8935,"Miramar":8936,"KaÅ¡":8937,"Tamaz":8938,"ĠXian":8939,"Selva":8940,"kovskiy":8941,"ĠQuir":8942,"ĠTormes":8943,"Birken":8944,"Villefran":8945,"Scor":8946,"Rocchetta":8947,"Ã¼nde":8948,"Ostrov":8949,"Nagy":8950,"Lambert":8951,"ĠMauro":8952,"Florida":8953,"ĠÃģvila":8954,"ĠCuesta":8955,"ĠShahr":8956,"Centro":8957,"Komar":8958,"Rade":8959,"Venustiano":8960,"Kloten":8961,"Rocky":8962,"szent":8963,"ĠFelice":8964,"GÃ¼mÃ¼":8965,"Livingston":8966,"kÃ¶ping":8967,"Kirchheim":8968,"rieden":8969,"Pedra":8970,"BahÃŃa":8971,"Jargalant":8972,"holt":8973,"Aguilar":8974,"MÃ¼nster":8975,"MezÅĳ":8976,"ĠCentre":8977,"Falken":8978,"Topol":8979,"Fontana":8980,"Frankfort":8981,"Butler":8982,"Market":8983,"Loreto":8984,"ĠSantos":8985,"Ingen":8986,"Severn":8987,"ĠMilan":8988,"Ä«dah":8989,"ĠCristina":8990,"MÄĥg":8991,"Ribeir":8992,"ĠBurgenland":8993,"ĠCapo":8994,"ĠSabino":8995,"Chinch":8996,"markt":8997,"ĠAgustin":8998,"Aldeanueva":8999,"ĠJoan":9000,"ÅĤawice":9001,"BÃ¼yÃ¼k":9002,"tempan":9003,"iÅ¡te":9004,"ĠBernardino":9005,"Nowy":9006,"College":9007,"Hinter":9008,"Felipe":9009,"á¹Ń":9010,"Blanken":9011,"ĠBaÃ±os":9012,"ĠRivers":9013,"stÃ¤tten":9014,"MihÄĥ":9015,"Nogent":9016,"ĠIldef":9017,"Quintanilla":9018,"Civitella":9019,"Hyde":9020,"villers":9021,"ĠBuenaventura":9022,"Stockton":9023,"Herrera":9024,"Hillsboro":9025,"Pembroke":9026,"Vadu":9027,"Augusta":9028,"BiaÅĤ":9029,"Chelsea":9030,"ĠPaulista":9031,"Å¡tÄĽ":9032,"Beverly":9033,"ĠLimÃ³n":9034,"Constant":9035,"Bloomfield":9036,"Howard":9037,"ĠTirol":9038,"Edgewood":9039,"otzingo":9040,"Easton":9041,"ĠPobla":9042,"ĠSimÃ³n":9043,"Trzeb":9044,"MÃ¼nch":9045,"Ridg":9046,"Sylvan":9047,"ĠProvidencia":9048,"ĠHelena":9049,"atherine":9050,"Frederick":9051,"Bridg":9052,"SantibÃ¡Ã±ez":9053,"Gordon":9054,"aÅŁr":9055,"Presidente":9056,"VÃ¢nÄĥ":9057,"Brentwood":9058,"Carrollton":9059,"ĠNÃºmero":9060,"Talisay":9061,"Wakefield":9062,"á»©c":9063,"Johnson":9064,"FÃ¢ntÃ¢n":9065,"ahdÄģrÄ«":9066,"Gobernador":9067,"ĠPuglia":9068,"Berkeley":9069,"ifornia":9070,"ĠEscobedo":9071,"Æ°á»Ľc":9072,"AlÄģqahdÄģrÄ«":9073,"tiÃ©rrez":9074,"GÃ¼mÃ¼ÅŁ":9075,"ĠIldefonso":9076,"FÃ¢ntÃ¢nele":9077,"AÃ±":9078,"Ada":9079,"Aquiles":9080,"BÃ¡":9081,"Biv":9082,"Bies":9083,"Bih":9084,"BÃ¼r":9085,"Cach":9086,"Cud":9087,"Cien":9088,"Cao":9089,"Curt":9090,"Cax":9091,"Crem":9092,"Cyp":9093,"Dn":9094,"Dil":9095,"Dzh":9096,"Dung":9097,"Diang":9098,"Dhar":9099,"Dallas":9100,"Eben":9101,"Fos":9102,"Fag":9103,"Fell":9104,"FrÃ©":9105,"Fitz":9106,"FÄĥr":9107,"Gle":9108,"Glan":9109,"GÃ©n":9110,"Goul":9111,"Gott":9112,"Hj":9113,"Hep":9114,"Hund":9115,"Host":9116,"Hank":9117,"Humb":9118,"Henn":9119,"Haver":9120,"Houghton":9121,"Iron":9122,"Jou":9123,"Jand":9124,"Jah":9125,"Jav":9126,"Joa":9127,"Jagu":9128,"Junction":9129,"Kv":9130,"Kid":9131,"Kik":9132,"Kung":9133,"Kep":9134,"Koro":9135,"KÅĤ":9136,"Kani":9137,"Kank":9138,"Khao":9139,"Lel":9140,"Lla":9141,"Mt":9142,"Muc":9143,"Mek":9144,"Mier":9145,"Mittel":9146,"Nt":9147,"Nis":9148,"Nant":9149,"Niz":9150,"Naj":9151,"Naf":9152,"Nowa":9153,"Nakhon":9154,"Oberg":9155,"Oles":9156,"Obr":9157,"PÃ³":9158,"PÄĥ":9159,"Pik":9160,"Pip":9161,"Poul":9162,"Push":9163,"Panc":9164,"Puj":9165,"Qor":9166,"Qia":9167,"Ramb":9168,"Roll":9169,"Riet":9170,"Rank":9171,"Raven":9172,"Rouss":9173,"Sr":9174,"Sic":9175,"Sne":9176,"Sara":9177,"Sof":9178,"Sira":9179,"Soul":9180,"SÄĥr":9181,"Sax":9182,"Senn":9183,"Sonn":9184,"Scott":9185,"Tus":9186,"Tara":9187,"Tord":9188,"Tind":9189,"Tash":9190,"Tuch":9191,"Tess":9192,"Tix":9193,"Tiel":9194,"Tyr":9195,"Uss":9196,"Vu":9197,"Vla":9198,"Vod":9199,"Veg":9200,"Vier":9201,"Vine":9202,"Vaux":9203,"Vynohrad":9204,"Ward":9205,"Worth":9206,"Wyn":9207,"WÅĤ":9208,"Woll":9209,"Wells":9210,"Yat":9211,"Yau":9212,"Yue":9213,"Yem":9214,"Yok":9215,"Zv":9216,"Zin":9217,"Zay":9218,"Zaf":9219,"Zales":9220,"Zsch":9221,"Zlat":9222,"band":9223,"bow":9224,"blan":9225,"bona":9226,"bjerg":9227,"cav":9228,"cÄ±":9229,"cito":9230,"dah":9231,"fia":9232,"fred":9233,"gam":9234,"glen":9235,"hos":9236,"hio":9237,"hrad":9238,"iq":9239,"jd":9240,"kr":9241,"kos":9242,"kra":9243,"key":9244,"kup":9245,"lg":9246,"lum":9247,"leng":9248,"lberg":9249,"lovice":9250,"lÃ¶v":9251,"mam":9252,"mau":9253,"mano":9254,"mÄģn":9255,"mita":9256,"nang":9257,"nbach":9258,"ohe":9259,"oire":9260,"pf":9261,"ppe":9262,"qa":9263,"rn":9264,"rar":9265,"ril":9266,"rina":9267,"rosa":9268,"sas":9269,"ses":9270,"sden":9271,"sboro":9272,"tra":9273,"tana":9274,"tingen":9275,"uar":9276,"ual":9277,"vino":9278,"vigny":9279,"vestre":9280,"wm":9281,"wand":9282,"wagan":9283,"xe":9284,"xley":9285,"xico":9286,"ying":9287,"yant":9288,"zat":9289,"zra":9290,"zÄĻ":9291,"Ä¾":9292,"Å©":9293,"Åª":9294,"Åĺ":9295,"Ġv":9296,"Ġand":9297,"osc":9298,"anon":9299,"anou":9300,"anzo":9301,"anico":9302,"arf":9303,"aren":9304,"arch":9305,"arap":9306,"arka":9307,"arino":9308,"erde":9309,"erau":9310,"inch":9311,"inde":9312,"inburg":9313,"onos":9314,"onet":9315,"onac":9316,"alen":9317,"alas":9318,"alÃŃa":9319,"albo":9320,"alÅ«r":9321,"orskiy":9322,"elice":9323,"iley":9324,"esz":9325,"esen":9326,"esse":9327,"chiv":9328,"chowice":9329,"uria":9330,"amÃ©":9331,"amento":9332,"degg":9333,"detto":9334,"lap":9335,"laya":9336,"latt":9337,"ledo":9338,"atina":9339,"oude":9340,"ouakro":9341,"olÃ©":9342,"olong":9343,"olzh":9344,"Ã©la":9345,"Ã©fla":9346,"isti":9347,"tada":9348,"ĠCand":9349,"ĠCob":9350,"ĠCaj":9351,"ĠColl":9352,"ĠCosta":9353,"adar":9354,"adji":9355,"iter":9356,"itre":9357,"itÃ¡":9358,"itland":9359,"ovia":9360,"ovets":9361,"inger":9362,"inghem":9363,"iapa":9364,"raw":9365,"ĠMen":9366,"ĠMang":9367,"ĠMass":9368,"ĠMaj":9369,"tec":9370,"teuil":9371,"icÃ³":9372,"ĠPon":9373,"ĠPav":9374,"ĠPont":9375,"ĠPozo":9376,"ĠPÃ©rez":9377,"ays":9378,"ayu":9379,"ayong":9380,"unay":9381,"roda":9382,"robo":9383,"Äģwar":9384,"Ã¡rio":9385,"ĠSo":9386,"ĠSon":9387,"ĠSom":9388,"ĠSev":9389,"ĠSÃ£o":9390,"ĠSide":9391,"ĠSoto":9392,"ĠSÃ¡nchez":9393,"riy":9394,"riÃ¡n":9395,"rida":9396,"ĠBad":9397,"ĠBag":9398,"ĠBall":9399,"ĠBuk":9400,"ĠBuz":9401,"ĠBlas":9402,"ĠBranca":9403,"iger":9404,"iguan":9405,"tonilco":9406,"agon":9407,"agawa":9408,"omiya":9409,"ims":9410,"imon":9411,"imont":9412,"Chh":9413,"Chiv":9414,"Chann":9415,"ĠAk":9416,"ĠAnita":9417,"acco":9418,"acalco":9419,"tobe":9420,"abb":9421,"abi":9422,"abÃ©":9423,"abah":9424,"abana":9425,"abli":9426,"abela":9427,"irs":9428,"ÃŃng":9429,"ÃŃrez":9430,"ÃŃlia":9431,"edd":9432,"eds":9433,"edonia":9434,"thi":9435,"skÃ©":9436,"ĠTal":9437,"ĠTab":9438,"ĠTour":9439,"ĠTung":9440,"ĠTÃ¢n":9441,"ĠHat":9442,"ĠHang":9443,"ĠHum":9444,"ĠHÃ²a":9445,"ĠRoy":9446,"ĠRaw":9447,"ĠRib":9448,"ĠRico":9449,"ĠRoca":9450,"ĠRancho":9451,"Alice":9452,"apol":9453,"ulas":9454,"ĠGra":9455,"ĠGrou":9456,"ĠGorda":9457,"ĠGaleana":9458,"ĠVl":9459,"uster":9460,"useppe":9461,"iej":9462,"avera":9463,"avillas":9464,"nek":9465,"coa":9466,"cole":9467,"bais":9468,"kai":9469,"kaj":9470,"ĠLung":9471,"ĠLind":9472,"ĠLiber":9473,"ĠLlob":9474,"heiro":9475,"otin":9476,"otal":9477,"otillo":9478,"ivar":9479,"teren":9480,"Marin":9481,"Marco":9482,"astel":9483,"okou":9484,"ÅŁtea":9485,"erstadt":9486,"ersee":9487,"ogon":9488,"ogue":9489,"iken":9490,"Ã¶d":9491,"Ã¶ck":9492,"Ã¼t":9493,"sho":9494,"Sho":9495,"Shch":9496,"Shat":9497,"Shik":9498,"aze":9499,"azan":9500,"ĠDra":9501,"ĠDef":9502,"ĠDistrict":9503,"eghe":9504,"Arr":9505,"Aram":9506,"Argen":9507,"Arenas":9508,"Ä«f":9509,"quÃ©":9510,"Ants":9511,"Angu":9512,"evi":9513,"evsk":9514,"opal":9515,"oping":9516,"opleu":9517,"ĠMary":9518,"tsu":9519,"lion":9520,"aleja":9521,"endam":9522,"endingen":9523,"ichen":9524,"ichang":9525,"ichÅį":9526,"Stur":9527,"guer":9528,"guas":9529,"guila":9530,"eyevo":9531,"ubo":9532,"elden":9533,"orden":9534,"uty":9535,"utton":9536,"Nep":9537,"Neer":9538,"Neub":9539,"assin":9540,"assing":9541,"ĠEx":9542,"iyuan":9543,"iyivka":9544,"Lee":9545,"Lei":9546,"Lez":9547,"Leis":9548,"Leopold":9549,"ceville":9550,"ceÈĻti":9551,"ugnano":9552,"ouri":9553,"ĠOeste":9554,"ensville":9555,"Ã±ar":9556,"ukan":9557,"enix":9558,"ĠChich":9559,"ĠChuen":9560,"iane":9561,"iany":9562,"Bart":9563,"Barcel":9564,"nyk":9565,"Å«f":9566,"Å«k":9567,"ĠWy":9568,"ĠWai":9569,"ĠWashington":9570,"ĠWieÅĽ":9571,"Gua":9572,"Gual":9573,"Carri":9574,"Carter":9575,"Carras":9576,"Carlis":9577,"Carlos":9578,"Carthage":9579,"BrÃ¼":9580,"Brunn":9581,"huatlÃ¡n":9582,"eze":9583,"ndale":9584,"ohar":9585,"ÈĻeni":9586,"ambra":9587,"niÈĽa":9588,"ryville":9589,"ebo":9590,"ebad":9591,"Villav":9592,"Castille":9593,"Castillo":9594,"Schm":9595,"Schli":9596,"Quil":9597,"Quart":9598,"Quentin":9599,"Amer":9600,"ssa":9601,"lans":9602,"ynÄĽ":9603,"Gren":9604,"Gron":9605,"Grat":9606,"GrÄĥ":9607,"GrÃ¤":9608,"Gross":9609,"Belaya":9610,"Bellav":9611,"ĠAlam":9612,"ĠAlban":9613,"Ãºr":9614,"Ãºna":9615,"oneta":9616,"queira":9617,"Orchard":9618,"Å¡iÄĩ":9619,"almi":9620,"almimil":9621,"vois":9622,"orejo":9623,"Westwood":9624,"Manj":9625,"Manor":9626,"Salz":9627,"Berl":9628,"Beech":9629,"Ã£es":9630,"ije":9631,"ijiang":9632,"Newark":9633,"denburg":9634,"Prud":9635,"Novok":9636,"Morr":9637,"Morro":9638,"Morales":9639,"ĠValde":9640,"bron":9641,"Äįin":9642,"Äįko":9643,"irah":9644,"Kron":9645,"arras":9646,"Kholm":9647,"Espar":9648,"ignana":9649,"Casar":9650,"Casti":9651,"beau":9652,"sons":9653,"Olsz":9654,"Torr":9655,"Torralba":9656,"Maas":9657,"á»į":9658,"Abu":9659,"iedo":9660,"Pert":9661,"uyama":9662,"ÃŁnitz":9663,"Karab":9664,"ĠArg":9665,"ĠArroyos":9666,"paÅŁa":9667,"Meuse":9668,"Mechan":9669,"Baia":9670,"BaÄŁ":9671,"Cox":9672,"Campillo":9673,"Baden":9674,"Deal":9675,"Deutsch":9676,"ansville":9677,"chee":9678,"Palacios":9679,"ttes":9680,"Asc":9681,"Sarat":9682,"Banks":9683,"Rode":9684,"mead":9685,"Ãłng":9686,"armey":9687,"ĠUr":9688,"ĠUrb":9689,"Äģdi":9690,"ĠPointe":9691,"Invern":9692,"Cann":9693,"Zhen":9694,"oldo":9695,"ombre":9696,"Obersch":9697,"Magn":9698,"Magliano":9699,"iÃ©nega":9700,"Ãīc":9701,"Ãīp":9702,"radÃŃa":9703,"ufemia":9704,"enex":9705,"ific":9706,"Osiek":9707,"Osped":9708,"Atlant":9709,"Grafen":9710,"Enfield":9711,"Stevens":9712,"Blair":9713,"Fram":9714,"Whitt":9715,"ĠSalvat":9716,"Minas":9717,"Minam":9718,"Uru":9719,"Urz":9720,"ettes":9721,"Loir":9722,"Alban":9723,"Ã©ria":9724,"Cior":9725,"ĠEspin":9726,"ancingo":9727,"Cuau":9728,"CuauhtÃ©moc":9729,"Wilton":9730,"Woodbury":9731,"Melchor":9732,"Batu":9733,"ĠBaru":9734,"ujillo":9735,"Ã¥ng":9736,"Ãĩam":9737,"ÅĦska":9738,"ÅĦskie":9739,"Herb":9740,"Walker":9741,"ĠQal":9742,"ĠStan":9743,"Lyman":9744,"Oakwood":9745,"ĠColorada":9746,"ĠGiuseppe":9747,"Frei":9748,"ertÃ©":9749,"baru":9750,"barra":9751,"ĠConcord":9752,"Redwood":9753,"ĠCaliente":9754,"ĠCalabro":9755,"Stazione":9756,"Kew":9757,"bonne":9758,"ĠCastell":9759,"Varennes":9760,"ÅĽl":9761,"Traian":9762,"ĠQuint":9763,"Birch":9764,"ÄĥuÈĽi":9765,"Bangor":9766,"Sunset":9767,"ĠDoming":9768,"ĠDomÃŃng":9769,"Halle":9770,"Smol":9771,"Temp":9772,"Waim":9773,"Beaufort":9774,"Richland":9775,"Almol":9776,"Granville":9777,"Granada":9778,"Springdale":9779,"Simpang":9780,"Gervais":9781,"mpton":9782,"ÄĮern":9783,"Quezon":9784,"Szent":9785,"lovskaya":9786,"Krasnok":9787,"Krasnog":9788,"Savigny":9789,"Flore":9790,"Imper":9791,"Ġá¸¨am":9792,"Soto":9793,"Toto":9794,"Uster":9795,"Itu":9796,"ĠOrd":9797,"ĠVieja":9798,"Castellar":9799,"Ġ10":9800,"Middel":9801,"Pozuelo":9802,"ĠNicolÃ²":9803,"liswil":9804,"Lubuk":9805,"Alfredo":9806,"Mezz":9807,"ĠCamino":9808,"orodok":9809,"Moulay":9810,"Tenango":9811,"patti":9812,"Ġsulla":9813,"uleÈĻti":9814,"Czer":9815,"Czern":9816,"iemonte":9817,"Mabini":9818,"ĠSabina":9819,"market":9820,"ĠSerena":9821,"Basse":9822,"Gries":9823,"ĠBonita":9824,"atzingo":9825,"Cheong":9826,"beyli":9827,"Ġaan":9828,"Äĥdeni":9829,"áº¡nh":9830,"ÄĥcÄĥ":9831,"Äĥceni":9832,"Gornja":9833,"Nizhne":9834,"Valdel":9835,"Fulton":9836,"Hirsch":9837,"rappa":9838,"Williamstown":9839,"ĠRioja":9840,"mÃ¼nster":9841,"ustavo":9842,"ĠNoviembre":9843,"Brownsville":9844,"ĠVeche":9845,"Sharon":9846,"Oliveira":9847,"ĠSauces":9848,"Mercedes":9849,"Ravens":9850,"Seymour":9851,"ĠRaab":9852,"CondÃ©":9853,"ĠJohns":9854,"ParaÃŃso":9855,"ĠNouÄĥ":9856,"istrica":9857,"DrÄĥg":9858,"Fium":9859,"Jasper":9860,"Ungureni":9861,"Wayne":9862,"yevsk":9863,"ilhac":9864,"Chatham":9865,"apuram":9866,"Taft":9867,"bosch":9868,"ĠPedregal":9869,"ĠJesus":9870,"áº£ng":9871,"áº§n":9872,"Charlestown":9873,"Yenice":9874,"ĠGÃ³rne":9875,"Zuid":9876,"ĠEmiliano":9877,"Cervera":9878,"Reyn":9879,"Rohrbach":9880,"ĠÅļlÄħskie":9881,"ĠCarrillo":9882,"ĠMicÄĥ":9883,"ĠNeckar":9884,"Philip":9885,"Ã°ur":9886,"abrook":9887,"ÃīvÃªque":9888,"Pervomayskoye":9889,"Vladim":9890,"Bischof":9891,"Lafayette":9892,"martin":9893,"Paradise":9894,"SÅĤup":9895,"Voznes":9896,"Waverly":9897,"Quincy":9898,"KÄ±zÄ±l":9899,"ĠCÃ¢mpie":9900,"AlbeÅŁti":9901,"ĠFresno":9902,"ĠMarittima":9903,"Lewiston":9904,"ĠStreet":9905,"Clyde":9906,"denswil":9907,"Ãİle":9908,"CastejÃ³n":9909,"Mitchell":9910,"BÅĻez":9911,"Aleksey":9912,"LÃ©onard":9913,"ĠCaballeros":9914,"FushÃ«":9915,"ĠMixtepec":9916,"ĠBiagio":9917,"Hastings":9918,"Qiryat":9919,"WÃ¤denswil":9920,"ĠAragÃ³n":9921,"ĠAldama":9922,"Concepcion":9923,"Villefranche":9924,"Carlisle":9925,"Bellavista":9926,"Mechanic":9927,"Ospedal":9928,"ĠDomÃŃnguez":9929,"Ais":9930,"Aca":9931,"Auz":9932,"Auch":9933,"Aix":9934,"AÄŁ":9935,"Apol":9936,"Bem":9937,"Baw":9938,"Bock":9939,"Brac":9940,"Bett":9941,"Biber":9942,"BÃ©d":9943,"Cri":9944,"Cale":9945,"Caw":9946,"Cuy":9947,"Cess":9948,"Celle":9949,"Cumb":9950,"Caux":9951,"Croydon":9952,"Dis":9953,"Dic":9954,"Damb":9955,"Dani":9956,"Down":9957,"DÃ¶r":9958,"Dmit":9959,"Eck":9960,"Ett":9961,"Fus":9962,"Fog":9963,"Fli":9964,"Fier":9965,"Foug":9966,"Flat":9967,"Falmouth":9968,"GÃ©":9969,"Gio":9970,"Gow":9971,"Gers":9972,"Gamp":9973,"Gop":9974,"Goz":9975,"Garr":9976,"Gole":9977,"Gosh":9978,"Goud":9979,"Hing":9980,"Hang":9981,"Hei":9982,"Hock":9983,"Hurst":9984,"Huerta":9985,"Ira":9986,"Ibr":9987,"Jel":9988,"Jad":9989,"Jang":9990,"Jeb":9991,"JÃ¤":9992,"Kie":9993,"Kach":9994,"Kale":9995,"Kub":9996,"Kort":9997,"KÄ±":9998,"Kala":9999,"Kaj":10000,"Kart":10001,"Kly":10002,"Kund":10003,"Kels":10004,"KÃ¶r":10005,"Kyr":10006,"Kosh":10007,"Kimb":10008,"Knox":10009,"Lille":10010,"Lik":10011,"Lier":10012,"Luan":10013,"Lung":10014,"Lone":10015,"Liss":10016,"Lima":10017,"London":10018,"Mov":10019,"Mob":10020,"Mana":10021,"Mine":10022,"Mate":10023,"Mash":10024,"Mula":10025,"Mist":10026,"Maul":10027,"Mys":10028,"Mets":10029,"MÆ°á»Ŀng":10030,"NÃ¡":10031,"Nig":10032,"Niv":10033,"Nij":10034,"Nanj":10035,"Nanch":10036,"NÄģá¸©":10037,"Oul":10038,"Ocot":10039,"PÃ¡":10040,"Pab":10041,"Pers":10042,"Puk":10043,"Pind":10044,"Poli":10045,"Pater":10046,"Pax":10047,"Pith":10048,"Pred":10049,"Pampa":10050,"QaÅŁr":10051,"Ries":10052,"RÃ¸":10053,"Ruh":10054,"Rover":10055,"Retz":10056,"Set":10057,"Send":10058,"Sond":10059,"Sakh":10060,"Sred":10061,"Siem":10062,"Tov":10063,"Tain":10064,"Tiv":10065,"Tog":10066,"Tik":10067,"Tier":10068,"Tala":10069,"Term":10070,"Toro":10071,"Twe":10072,"TÅį":10073,"Trim":10074,"Tambo":10075,"Uit":10076,"Vat":10077,"Vre":10078,"Vell":10079,"Vec":10080,"Voy":10081,"Vai":10082,"Vij":10083,"Vign":10084,"VÃ¡r":10085,"Viana":10086,"VÃ¶l":10087,"Vosto":10088,"VÃ¢l":10089,"Wis":10090,"Wie":10091,"Wav":10092,"Went":10093,"Wash":10094,"Wart":10095,"Wied":10096,"WÄĻ":10097,"WÃ¼l":10098,"Xind":10099,"Xiao":10100,"YÃ©":10101,"Yom":10102,"Yanj":10103,"Zb":10104,"Zd":10105,"Zy":10106,"Zhan":10107,"Zgorn":10108,"aff":10109,"aÅ£":10110,"bra":10111,"bet":10112,"boy":10113,"bala":10114,"bly":10115,"cil":10116,"cid":10117,"cie":10118,"czew":10119,"cabamba":10120,"dd":10121,"das":10122,"dow":10123,"dieu":10124,"dijk":10125,"eur":10126,"ede":10127,"eza":10128,"fast":10129,"four":10130,"foss":10131,"fling":10132,"falu":10133,"gue":10134,"gum":10135,"gell":10136,"gna":10137,"gles":10138,"hong":10139,"hÃ¶":10140,"hÄģr":10141,"hope":10142,"jer":10143,"jÃ©":10144,"jay":10145,"jani":10146,"jevo":10147,"kil":10148,"kre":10149,"kie":10150,"kenstein":10151,"ld":10152,"lle":10153,"lass":10154,"lÃ³s":10155,"mou":10156,"main":10157,"maz":10158,"mana":10159,"mberg":10160,"mingen":10161,"nog":10162,"nant":10163,"oq":10164,"oia":10165,"pes":10166,"pad":10167,"park":10168,"rong":10169,"rilla":10170,"rud":10171,"rÃ¨":10172,"rate":10173,"sv":10174,"sal":10175,"scheid":10176,"tom":10177,"tÃŃ":10178,"ueng":10179,"uÃ¢n":10180,"uÃ±a":10181,"vÃ©":10182,"vig":10183,"vent":10184,"wau":10185,"wij":10186,"wÄģr":10187,"xo":10188,"yÃ©":10189,"yst":10190,"yna":10191,"zos":10192,"zer":10193,"zone":10194,"zele":10195,"Ãį":10196,"ÃĲ":10197,"Ä¼":10198,"Èļ":10199,"Ðµ":10200,"Ð¾":10201,"Ġnel":10202,"anay":10203,"anche":10204,"ancu":10205,"ancourt":10206,"arton":10207,"arag":10208,"arovo":10209,"arno":10210,"arivka":10211,"arese":10212,"ink":10213,"incourt":10214,"inÃ³polis":10215,"enque":10216,"enÃ§":10217,"enzano":10218,"enfels":10219,"onj":10220,"onou":10221,"onik":10222,"onese":10223,"alin":10224,"aling":10225,"alah":10226,"aloya":10227,"orm":10228,"orde":10229,"orre":10230,"orama":10231,"elv":10232,"elde":10233,"ilt":10234,"ilam":10235,"ilsk":10236,"ilovo":10237,"ilhan":10238,"ilapan":10239,"ilento":10240,"asio":10241,"aspar":10242,"esco":10243,"esca":10244,"esbury":10245,"chÃ©":10246,"chÃ³w":10247,"chevo":10248,"urra":10249,"urga":10250,"amel":10251,"amora":10252,"amÃ©kro":10253,"law":10254,"leto":10255,"leda":10256,"lehem":10257,"aten":10258,"atÃŃ":10259,"atka":10260,"atino":10261,"Sanc":10262,"oung":10263,"olpan":10264,"Ã©kou":10265,"taf":10266,"ĠCid":10267,"ĠCons":10268,"ĠClair":10269,"ĠCilento":10270,"ader":10271,"adon":10272,"adian":10273,"itsch":10274,"rec":10275,"reh":10276,"real":10277,"reich":10278,"ovit":10279,"ovce":10280,"ovichi":10281,"ingue":10282,"iawa":10283,"iakro":10284,"raque":10285,"rave":10286,"ĠMam":10287,"ĠMet":10288,"ĠMog":10289,"ĠMach":10290,"ĠMina":10291,"ĠMez":10292,"ĠMoh":10293,"ĠMira":10294,"ĠMile":10295,"ĠMÄĽ":10296,"ĠMias":10297,"ĠMá»¹":10298,"tei":10299,"teaux":10300,"icy":10301,"icar":10302,"icun":10303,"icio":10304,"ĠPos":10305,"ĠPro":10306,"ĠPong":10307,"ĠPine":10308,"ĠPhan":10309,"ĠPrad":10310,"ĠPlay":10311,"ĠPardo":10312,"ĠParan":10313,"ĠPlessis":10314,"ĠPiemonte":10315,"anges":10316,"angun":10317,"angarh":10318,"ayuca":10319,"ayevka":10320,"rob":10321,"roit":10322,"Ã¡li":10323,"ĠSv":10324,"ĠSun":10325,"ĠSap":10326,"ĠSah":10327,"ĠSib":10328,"ĠSep":10329,"ĠSola":10330,"ĠShan":10331,"rip":10332,"Laus":10333,"Lauf":10334,"ĠBab":10335,"ĠBaz":10336,"ĠBolÃŃ":10337,"tongo":10338,"agy":10339,"ager":10340,"omor":10341,"omulco":10342,"omaggiore":10343,"imen":10344,"Chag":10345,"Chul":10346,"Chian":10347,"auga":10348,"ĠAh":10349,"ĠAla":10350,"ĠAth":10351,"acons":10352,"toc":10353,"tot":10354,"toke":10355,"aber":10356,"abac":10357,"ablan":10358,"ably":10359,"ird":10360,"iru":10361,"andan":10362,"anden":10363,"edi":10364,"edorf":10365,"edios":10366,"akam":10367,"akent":10368,"ĠTet":10369,"ĠTai":10370,"ĠTera":10371,"ĠTicino":10372,"ody":10373,"ĠHig":10374,"ĠHoch":10375,"ĠHora":10376,"ĠHacienda":10377,"ĠRou":10378,"ĠRov":10379,"ĠRain":10380,"ĠRoch":10381,"ĠRinconada":10382,"Ali":10383,"Alia":10384,"Aless":10385,"Algar":10386,"Almen":10387,"Alcon":10388,"apÃ¡":10389,"ulam":10390,"uleni":10391,"ullo":10392,"ulles":10393,"ulÃŃn":10394,"ĠGon":10395,"ĠGul":10396,"ĠGÃ¡l":10397,"ĠGrappa":10398,"ĠVas":10399,"ĠVille":10400,"idong":10401,"idueÃ±a":10402,"usha":10403,"iog":10404,"ieÅŁti":10405,"ieve":10406,"iemi":10407,"avka":10408,"nei":10409,"neuk":10410,"berk":10411,"berley":10412,"ueÃ±as":10413,"ĠLi":10414,"ĠLy":10415,"ĠLec":10416,"ĠLeg":10417,"ĠLour":10418,"Elwood":10419,"Elkh":10420,"Elgin":10421,"otl":10422,"ĠJer":10423,"ĠJorge":10424,"ĠJames":10425,"ecik":10426,"emer":10427,"embe":10428,"oyuan":10429,"MarÃŃa":10430,"Marien":10431,"Markaz":10432,"ĠNang":10433,"ĠNap":10434,"ĠNaran":10435,"owy":10436,"okee":10437,"ĠFal":10438,"ĠFÃ©lix":10439,"ĠFertÃ©":10440,"ÅŁar":10441,"Ã¶ll":10442,"shire":10443,"obos":10444,"Ġdels":10445,"Shum":10446,"ĠDur":10447,"ĠDav":10448,"ĠDob":10449,"ĠDulce":10450,"egna":10451,"stre":10452,"Ã¡nh":10453,"Arqu":10454,"Arkh":10455,"Arbo":10456,"Arthur":10457,"Arenal":10458,"amps":10459,"ampleu":10460,"Ã³na":10461,"quel":10462,"quillas":10463,"Anta":10464,"udu":10465,"ĠMarsh":10466,"ĠMariano":10467,"ĠMarket":10468,"lib":10469,"liet":10470,"alea":10471,"enty":10472,"uce":10473,"ucu":10474,"uccio":10475,"ender":10476,"ĠKings":10477,"ĠKrem":10478,"Stall":10479,"Stare":10480,"zhao":10481,"uben":10482,"elda":10483,"ordino":10484,"assel":10485,"eker":10486,"ĠEtla":10487,"ernheim":10488,"ĠIxtla":10489,"iyn":10490,"Ã¨che":10491,"awl":10492,"away":10493,"upi":10494,"ibor":10495,"ĠOd":10496,"ĠOt":10497,"ĠOx":10498,"ĠOri":10499,"ĠChi":10500,"ĠChan":10501,"ianello":10502,"Barro":10503,"Barran":10504,"Å«rah":10505,"ĠWil":10506,"Guis":10507,"Guing":10508,"Carb":10509,"Carde":10510,"Carpin":10511,"Carmel":10512,"Bron":10513,"Brice":10514,"Bryn":10515,"dao":10516,"daÄŁ":10517,"huapan":10518,"antas":10519,"antang":10520,"antina":10521,"ezo":10522,"ColÃ³n":10523,"oha":10524,"ÈĻa":10525,"ÈĻca":10526,"ÈĻteni":10527,"ajac":10528,"ondÃ³n":10529,"Thou":10530,"ThÃ©":10531,"Thomp":10532,"eiba":10533,"tenburg":10534,"tenham":10535,"Valla":10536,"Valder":10537,"Valence":10538,"ebe":10539,"nole":10540,"Castrov":10541,"Castels":10542,"lof":10543,"hammad":10544,"Schwar":10545,"Ã¤Ã¤":10546,"Amherst":10547,"sso":10548,"ssel":10549,"inder":10550,"indale":10551,"Villarejo":10552,"ynske":10553,"Gru":10554,"ochi":10555,"Belin":10556,"ĠAll":10557,"Montalb":10558,"Ãºt":10559,"fields":10560,"aroen":10561,"Westminster":10562,"ghÄ©":10563,"Mank":10564,"ĠSannita":10565,"ÅĤd":10566,"Äģnah":10567,"Äģnagar":10568,"Salit":10569,"ucha":10570,"Bech":10571,"Beaul":10572,"iji":10573,"ijon":10574,"ijÃ¤rvi":10575,"Prest":10576,"Prata":10577,"Prado":10578,"Novod":10579,"Novyye":10580,"Malin":10581,"Huy":10582,"Huac":10583,"Huix":10584,"insheim":10585,"Å£eÅŁti":10586,"Calzada":10587,"California":10588,"Balaton":10589,"Äįani":10590,"Äįevo":10591,"ingside":10592,"irac":10593,"Buh":10594,"arren":10595,"arram":10596,"itzsch":10597,"Esper":10598,"Caselle":10599,"Cascade":10600,"ĠCrest":10601,"Sef":10602,"bej":10603,"boa":10604,"Mais":10605,"Param":10606,"Tron":10607,"TrÃªs":10608,"á»£":10609,"Perth":10610,"uyÃªn":10611,"ĠYbbs":10612,"istor":10613,"ĠArenal":10614,"ĠAnn":10615,"Mein":10616,"Mech":10617,"Bail":10618,"Baie":10619,"eleone":10620,"Palai":10621,"ÄģrÄģ":10622,"areo":10623,"Montebello":10624,"Rejon":10625,"Moj":10626,"Sper":10627,"Saran":10628,"Saray":10629,"Ãłn":10630,"Ã¡rt":10631,"Brew":10632,"aneta":10633,"Heus":10634,"elsberg":10635,"olls":10636,"armouth":10637,"ĠIsle":10638,"ĠUl":10639,"Äģdh":10640,"Vert":10641,"Verona":10642,"Canale":10643,"Kalam":10644,"Roseb":10645,"Rosedale":10646,"ietta":10647,"Petite":10648,"Petrop":10649,"ushima":10650,"iewice":10651,"Oberndorf":10652,"rento":10653,"Andover":10654,"iÃ©kro":10655,"browa":10656,"meralda":10657,"Portage":10658,"Ã¸bing":10659,"ClÃ©":10660,"eneÅŁti":10661,"ihr":10662,"Aven":10663,"Avondale":10664,"Velik":10665,"Veliko":10666,"ifla":10667,"Cameron":10668,"Grav":10669,"Grafton":10670,"Ent":10671,"Steen":10672,"ziers":10673,"ziÃ¨res":10674,"Äģmpur":10675,"ppo":10676,"tlahuaca":10677,"ĠSalto":10678,"Miner":10679,"Phillip":10680,"Garg":10681,"Holland":10682,"Holiday":10683,"ileÅŁti":10684,"Acton":10685,"Comte":10686,"Commer":10687,"Solnech":10688,"erior":10689,"ennis":10690,"Strzel":10691,"ÈĽeÈĻti":10692,"Woodland":10693,"Woodlawn":10694,"Batang":10695,"ĠBarra":10696,"Horad":10697,"ujia":10698,"Paseos":10699,"regat":10700,"ĠKhÄĵl":10701,"yansk":10702,"Heritage":10703,"ÄĽÅĻice":10704,"Palmira":10705,"Palmillas":10706,"Palmyra":10707,"angaon":10708,"Braun":10709,"Edg":10710,"Walla":10711,"roso":10712,"Äħs":10713,"ussac":10714,"Silv":10715,"ĠAndrews":10716,"Lynd":10717,"Lyons":10718,"Oakdale":10719,"AltÄ±n":10720,"Fairfax":10721,"Winfield":10722,"Saban":10723,"Dobra":10724,"Rome":10725,"phur":10726,"ĠConst":10727,"ykovo":10728,"ahualco":10729,"Niedern":10730,"biate":10731,"Stafford":10732,"ĠVercell":10733,"rigal":10734,"Galle":10735,"kovac":10736,"Cherem":10737,"Bogd":10738,"Bogorod":10739,"Hook":10740,"enhagen":10741,"Izvor":10742,"Waik":10743,"Warsaw":10744,"ÄĲáº¡":10745,"Ã¼nz":10746,"Dames":10747,"Grant":10748,"Glenwood":10749,"OstrÃ³w":10750,"Riva":10751,"Sultan":10752,"ViÅ¡":10753,"Podg":10754,"Ahue":10755,"Queen":10756,"Ponta":10757,"lovsk":10758,"vardey":10759,"ÄĢs":10760,"ĠMaÅĤ":10761,"ĠMaá¸©":10762,"Ã¡zquez":10763,"ĠTownship":10764,"Summit":10765,"ĠÃģguila":10766,"ĠCuau":10767,"aguas":10768,"DaÄŁ":10769,"Landes":10770,"Komsom":10771,"Venta":10772,"ĠMagÃ³n":10773,"Arap":10774,"endaal":10775,"orstadt":10776,"Shev":10777,"Sheffield":10778,"Neuilly":10779,"Zarz":10780,"Kirchdorf":10781,"Cave":10782,"Cavall":10783,"Teluk":10784,"Middleton":10785,"Æ°ng":10786,"ĠCanton":10787,"Dublin":10788,"ĠRomero":10789,"Mandal":10790,"ĠMateos":10791,"ĠOlona":10792,"Boston":10793,"Bosco":10794,"Opat":10795,"Buci":10796,"Saturn":10797,"ĠEnrique":10798,"Dioul":10799,"Champs":10800,"MiÄĻd":10801,"Watertown":10802,"ĠPolje":10803,"Court":10804,"Taiping":10805,"ĠFlorida":10806,"PurÃŃsima":10807,"azarÄ±":10808,"velines":10809,"Homer":10810,"Stanley":10811,"iÅŁtea":10812,"Lisbon":10813,"Micha":10814,"ĠCarmel":10815,"Riverdale":10816,"lamos":10817,"nÃŃk":10818,"Filip":10819,"HÃ¶ch":10820,"Aldea":10821,"Llanf":10822,"ĠRamos":10823,"ĠRamÃŃrez":10824,"ĠMolino":10825,"Arcadia":10826,"Gulf":10827,"ĠPrado":10828,"Demir":10829,"Englewood":10830,"Arnold":10831,"Nizhnyaya":10832,"Cantal":10833,"ĠPorto":10834,"ĠObispo":10835,"Villamayor":10836,"Haute":10837,"isiÃ³n":10838,"ĠSegura":10839,"ĠVeneto":10840,"Providencia":10841,"Williamsburg":10842,"Vernon":10843,"ĠRiviÃ¨re":10844,"JabÅĤ":10845,"Sector":10846,"ĠSchwarz":10847,"azzolo":10848,"Bradford":10849,"front":10850,"grave":10851,"Mihai":10852,"Vasil":10853,"Chesterfield":10854,"Texcal":10855,"Ferndale":10856,"Sieg":10857,"Ã®t":10858,"ĠSarabia":10859,"Bagnolo":10860,"Hillcrest":10861,"Hillsborough":10862,"Raymond":10863,"ĠPuebla":10864,"righton":10865,"Bethlehem":10866,"ĠFuente":10867,"Brandon":10868,"Ã©noufla":10869,"istritz":10870,"DrÄĥgu":10871,"Frauen":10872,"saysay":10873,"Jacksonville":10874,"horst":10875,"syth":10876,"Covington":10877,"Cortes":10878,"Primero":10879,"franco":10880,"ĠAsunciÃ³n":10881,"áº£i":10882,"Charleston":10883,"ĠGÃ³rna":10884,"ĠCrossing":10885,"Dietikon":10886,"ĠMirador":10887,"ShÄģhpur":10888,"Collinsville":10889,"Independencia":10890,"Serravalle":10891,"Louisville":10892,"ĠWielkopolski":10893,"Higash":10894,"jevac":10895,"ĠBuena":10896,"ĠRuiz":10897,"Francavilla":10898,"Ricardo":10899,"Dragom":10900,"Staryy":10901,"ĠIrpino":10902,"ĠPodlas":10903,"ĠJadÄ«dah":10904,"ogorskiy":10905,"Abbots":10906,"Heilig":10907,"Hajd":10908,"Sterling":10909,"ĠSelva":10910,"ĠSicilia":10911,"ĠHerrera":10912,"Myrtle":10913,"ĠDaeng":10914,"OrtakÃ¶y":10915,"Citrus":10916,"Fleury":10917,"Vosk":10918,"ĠNativ":10919,"Neuhaus":10920,"ĠIonio":10921,"áº¯k":10922,"ÅłtÄĽ":10923,"Nelson":10924,"ĠManzana":10925,"Lakeside":10926,"Fayetteville":10927,"Cioc":10928,"Å¯v":10929,"ĠLomellina":10930,"ĠLombardo":10931,"MÃ¶nch":10932,"ĠSocial":10933,"Hinoj":10934,"Khair":10935,"Nashville":10936,"Webster":10937,"VÄĥleni":10938,"ĠMÃ©xico":10939,"ĠHenares":10940,"gherita":10941,"CofradÃŃa":10942,"Dumbrava":10943,"Neckar":10944,"ĠAurora":10945,"ĠTlalmimil":10946,"ĠTigre":10947,"ĠFriuli":10948,"ĠEulalia":10949,"ÄŁaÃ§":10950,"CabaÃ±as":10951,"Cottonwood":10952,"Oleksandrivka":10953,"Nicolae":10954,"lÃ¸se":10955,"ĠBenedetto":10956,"ĠHollow":10957,"ebirge":10958,"KaÅ¡tel":10959,"ĠMilanese":10960,"RibeirÃ£o":10961,"VÃ¢nÄĥtori":10962,"ĠGround":10963,"ĠLlobregat":10964,"ĠAlbanese":10965,"Inverness":10966,"ĠBolÃŃvar":10967,"neukirchen":10968,"ĠNaranjo":10969,"ghÄ©a":10970,"Petropav":10971,"ĠVercellese":10972,"MiÄĻdzy":10973,"ĠTlalmimilolpan":10974,"'<":10975,"Aou":10976,"Apr":10977,"Ave":10978,"Apa":10979,"Aux":10980,"Acu":10981,"BÄģ":10982,"BÃŃ":10983,"BÅ«":10984,"BÃ¤":10985,"Bola":10986,"Boun":10987,"Bani":10988,"Bly":10989,"Bata":10990,"Bick":10991,"BÃ¡r":10992,"Bold":10993,"BÄģl":10994,"BÄĥr":10995,"Bakh":10996,"Biga":10997,"Bluff":10998,"BÃ¬nh":10999,"Cig":11000,"Cano":11001,"Cik":11002,"Cara":11003,"Cey":11004,"Clo":11005,"Cola":11006,"Cint":11007,"Coro":11008,"Caul":11009,"Citt":11010,"Cuen":11011,"Cliff":11012,"Canyon":11013,"CÃ³rdoba":11014,"Dell":11015,"Dour":11016,"Dalm":11017,"Dies":11018,"Dren":11019,"DouÃ©":11020,"Darlington":11021,"Dijon":11022,"Emerald":11023,"Fow":11024,"Find":11025,"Faul":11026,"Fountain":11027,"Forges":11028,"Get":11029,"Gap":11030,"Gie":11031,"Got":11032,"Gach":11033,"Gent":11034,"Gaw":11035,"Glo":11036,"Gorg":11037,"Garn":11038,"Gban":11039,"GÃ³r":11040,"Gunn":11041,"Gilles":11042,"GÃ³mez":11043,"Hl":11044,"Hale":11045,"Hausen":11046,"Hels":11047,"HÃ¸":11048,"Hatt":11049,"HÃ¢r":11050,"Halls":11051,"Ili":11052,"Igar":11053,"JÃ³":11054,"Jir":11055,"Jod":11056,"Jap":11057,"Jum":11058,"JÃ¼":11059,"Jamb":11060,"Jouy":11061,"Kour":11062,"Khu":11063,"Kiz":11064,"Kari":11065,"Koll":11066,"Korg":11067,"KÄĻ":11068,"Ksi":11069,"Kriv":11070,"Khem":11071,"Lia":11072,"Lid":11073,"Lend":11074,"Lass":11075,"Lint":11076,"Lath":11077,"Less":11078,"Lux":11079,"Lies":11080,"Luf":11081,"Lith":11082,"Lamar":11083,"Lodi":11084,"MÄ«":11085,"Mung":11086,"Merr":11087,"Mied":11088,"Melle":11089,"Mies":11090,"Mago":11091,"MÃ¢n":11092,"Mett":11093,"Migli":11094,"Mull":11095,"MÄ«r":11096,"Mukh":11097,"Nay":11098,"Nun":11099,"Nim":11100,"Nell":11101,"Nok":11102,"Nai":11103,"Nib":11104,"Nany":11105,"NÅ«r":11106,"Nyk":11107,"Nancy":11108,"Ode":11109,"Ota":11110,"Oth":11111,"Osk":11112,"OÄŁ":11113,"Orop":11114,"Pain":11115,"PÃ¡n":11116,"Pana":11117,"Pez":11118,"Polo":11119,"Panj":11120,"Pion":11121,"PiÃ©":11122,"Pole":11123,"PÄģl":11124,"Pyr":11125,"Pias":11126,"Pyat":11127,"PÄĥd":11128,"Pizz":11129,"Quan":11130,"Qary":11131,"Rop":11132,"RÄģn":11133,"Rish":11134,"Rick":11135,"Rans":11136,"Rost":11137,"Rust":11138,"Rott":11139,"Sina":11140,"Sola":11141,"SÄģn":11142,"Sui":11143,"Sied":11144,"Swe":11145,"Sold":11146,"SÅį":11147,"SÄĻ":11148,"Slat":11149,"SÆ¡n":11150,"Tv":11151,"Tid":11152,"Teng":11153,"Thu":11154,"Teb":11155,"Tlan":11156,"Tof":11157,"Tiang":11158,"Trac":11159,"Trez":11160,"Timb":11161,"Ulan":11162,"Vag":11163,"Voh":11164,"Vire":11165,"VÄĥr":11166,"Vignes":11167,"Wr":11168,"Wam":11169,"Wain":11170,"Wem":11171,"Weg":11172,"Wud":11173,"Wuy":11174,"WÃ¶r":11175,"With":11176,"WÃ¶rth":11177,"Wright":11178,"WÄģdÄ«":11179,"Xun":11180,"Yag":11181,"Yaz":11182,"Yerm":11183,"Yash":11184,"Yax":11185,"Yagu":11186,"Yvelines":11187,"Zur":11188,"Zir":11189,"Zeg":11190,"Zug":11191,"Zeb":11192,"Zump":11193,"Zhao":11194,"aá¸©":11195,"ailles":11196,"bis":11197,"bic":11198,"bag":11199,"bus":11200,"bitz":11201,"biano":11202,"bane":11203,"bulag":11204,"bÃ¦k":11205,"cong":11206,"cka":11207,"cada":11208,"cÄĥu":11209,"catepec":11210,"cÄ±k":11211,"creek":11212,"dle":11213,"dou":11214,"dri":11215,"dock":11216,"ew":11217,"eul":11218,"fou":11219,"font":11220,"flingen":11221,"god":11222,"gong":11223,"gart":11224,"giano":11225,"gÄĥu":11226,"hm":11227,"hur":11228,"hla":11229,"hay":11230,"hÃ¼":11231,"huan":11232,"hingen":11233,"hart":11234,"hwa":11235,"iale":11236,"jur":11237,"jat":11238,"jou":11239,"jov":11240,"jÄ«":11241,"jian":11242,"kad":11243,"kÃŃ":11244,"kek":11245,"kiz":11246,"kowa":11247,"kalan":11248,"lÃŃ":11249,"loy":11250,"lug":11251,"lÃ¤":11252,"lish":11253,"lona":11254,"lons":11255,"lÅĳ":11256,"likon":11257,"mis":11258,"may":11259,"mec":11260,"mels":11261,"mado":11262,"nod":11263,"niv":11264,"nai":11265,"nate":11266,"ness":11267,"nago":11268,"oti":11269,"off":11270,"otepec":11271,"pla":11272,"pit":11273,"pak":11274,"pell":11275,"pont":11276,"pero":11277,"prÃ©":11278,"pole":11279,"pils":11280,"pital":11281,"qiu":11282,"rol":11283,"rill":11284,"ross":11285,"rath":11286,"sÃ¡":11287,"sak":11288,"sund":11289,"sele":11290,"sÃ¸":11291,"tol":11292,"tne":11293,"torf":11294,"uay":11295,"uart":11296,"uwa":11297,"vir":11298,"vÃ¡n":11299,"vez":11300,"vaux":11301,"viller":11302,"wana":11303,"wley":11304,"wani":11305,"woude":11306,"yz":11307,"yas":11308,"yte":11309,"yro":11310,"yak":11311,"ysk":11312,"yny":11313,"zob":11314,"zbach":11315,"zzano":11316,"Ä§":11317,"ÄŃ":11318,"ÅĨ":11319,"Ġed":11320,"Ġles":11321,"Ġá¸Ĳ":11322,"Ľi":11323,"anar":11324,"anÃ©":11325,"antown":11326,"anello":11327,"annes":11328,"anlÄ±":11329,"arin":11330,"arle":11331,"arÃ¡n":11332,"arney":11333,"aridel":11334,"erio":11335,"erev":11336,"erich":11337,"erfield":11338,"inia":11339,"inki":11340,"ench":11341,"encio":11342,"enÃ§a":11343,"onon":11344,"onto":11345,"onica":11346,"onnes":11347,"alon":11348,"alde":11349,"alom":11350,"alÃ¡n":11351,"oros":11352,"oran":11353,"oron":11354,"orano":11355,"orga":11356,"eling":11357,"elong":11358,"elare":11359,"elange":11360,"ilong":11361,"ileni":11362,"ask":11363,"asia":11364,"asna":11365,"aside":11366,"esan":11367,"esana":11368,"esina":11369,"esine":11370,"chun":11371,"chach":11372,"chÃ¢":11373,"chburg":11374,"chingen":11375,"chies":11376,"amil":11377,"amat":11378,"amÃ¡":11379,"amonte":11380,"lai":11381,"lec":11382,"atÃ©":11383,"atia":11384,"atto":11385,"atovo":11386,"atley":11387,"atyn":11388,"atlÄ±":11389,"atenango":11390,"atchee":11391,"Sanhe":11392,"oulo":11393,"ouane":11394,"ousa":11395,"olin":11396,"olod":11397,"olph":11398,"olinos":11399,"oltern":11400,"Ã©nd":11401,"Ã©ko":11402,"Ã©oua":11403,"isko":11404,"iszÃ³w":11405,"isÅĤaw":11406,"isellen":11407,"tapa":11408,"taciÃ³n":11409,"tazar":11410,"ĠCed":11411,"ĠCoc":11412,"ĠCai":11413,"ĠCour":11414,"ĠCant":11415,"ĠCave":11416,"adale":11417,"adillo":11418,"aderos":11419,"adhoo":11420,"itta":11421,"itte":11422,"itingen":11423,"itha":11424,"itello":11425,"reb":11426,"rew":11427,"reta":11428,"reia":11429,"rejo":11430,"ovyy":11431,"ovÃ¬":11432,"ovÄĥÅ£":11433,"ingu":11434,"inggi":11435,"iav":11436,"ĠMÃ©n":11437,"ĠMans":11438,"ĠMount":11439,"ĠMuang":11440,"ĠMandi":11441,"ĠMendo":11442,"tey":11443,"tegem":11444,"icos":11445,"icÃ«":11446,"icias":11447,"ĠPul":11448,"ĠPoc":11449,"ĠPop":11450,"ĠPoz":11451,"ĠPolo":11452,"ĠPere":11453,"ĠPreto":11454,"ĠPanjang":11455,"angb":11456,"ayac":11457,"unes":11458,"Ã¡i":11459,"Ã¡Å¾":11460,"Ã¡ll":11461,"ĠSat":11462,"ĠSak":11463,"ĠSud":11464,"ĠSaw":11465,"ĠSuch":11466,"ĠStep":11467,"ĠStein":11468,"ĠSatu":11469,"etnoye":11470,"Lagu":11471,"Labu":11472,"ĠBun":11473,"ĠBod":11474,"ĠBul":11475,"ĠBec":11476,"ĠBog":11477,"ĠBoc":11478,"ĠBud":11479,"ĠBÃ¢r":11480,"ĠBÄĥl":11481,"ĠBrod":11482,"ĠBrighton":11483,"igal":11484,"igang":11485,"tonville":11486,"tondo":11487,"aguer":11488,"aguÃ¡":11489,"omon":11490,"omÃ©":11491,"imito":11492,"imonte":11493,"imeno":11494,"Chas":11495,"Chall":11496,"China":11497,"Chats":11498,"Chef":11499,"Chois":11500,"ChÄģnd":11501,"auss":11502,"ĠAj":11503,"ĠAch":11504,"ĠAli":11505,"Ã³ÅĤ":11506,"acao":11507,"tock":11508,"abon":11509,"abag":11510,"irk":11511,"irm":11512,"irt":11513,"irang":11514,"ands":11515,"andar":11516,"ÃŃjar":11517,"edu":11518,"edilla":11519,"edÃ³n":11520,"thill":11521,"thorn":11522,"akÃ©":11523,"akhi":11524,"skov":11525,"skoy":11526,"skÃ½":11527,"aines":11528,"ainville":11529,"ĠTel":11530,"ĠTil":11531,"ĠTres":11532,"ĠTenango":11533,"ĠTapia":11534,"odian":11535,"ĠHer":11536,"ĠHin":11537,"ĠHay":11538,"ĠHart":11539,"ĠHampton":11540,"ĠRic":11541,"ĠRab":11542,"ĠRec":11543,"ĠRaya":11544,"ĠRoa":11545,"Alang":11546,"Alton":11547,"Alamo":11548,"Altav":11549,"Altona":11550,"Allier":11551,"Altstadt":11552,"apelle":11553,"aphum":11554,"uling":11555,"ulung":11556,"uliano":11557,"ultepec":11558,"ĠGa":11559,"ĠGap":11560,"ĠGlor":11561,"ĠGallo":11562,"ĠGracia":11563,"ĠGustavo":11564,"ahi":11565,"ahar":11566,"ahio":11567,"ahui":11568,"ahoe":11569,"ĠVog":11570,"ĠVinc":11571,"ĠVillas":11572,"ĠVecchio":11573,"ĠVegas":11574,"usu":11575,"ustadt":11576,"ioka":11577,"iei":11578,"onge":11579,"aves":11580,"avet":11581,"avino":11582,"avaram":11583,"tih":11584,"tifla":11585,"tikon":11586,"neh":11587,"neja":11588,"neve":11589,"neye":11590,"neuf":11591,"cock":11592,"baz":11593,"ueta":11594,"umal":11595,"ĠLiv":11596,"ĠLamp":11597,"ĠLip":11598,"ĠLup":11599,"ĠLario":11600,"Elena":11601,"Eller":11602,"heta":11603,"ellin":11604,"ellÃ©":11605,"otu":11606,"ivi":11607,"ĠJa":11608,"ĠJe":11609,"ĠJil":11610,"ĠJara":11611,"oyi":11612,"Mard":11613,"Maro":11614,"Marly":11615,"Marietta":11616,"ĠNog":11617,"ĠNakhon":11618,"ĠNacion":11619,"owska":11620,"okrovka":11621,"ĠFerr":11622,"ĠFigu":11623,"erston":11624,"oges":11625,"oguhÃ©":11626,"rance":11627,"iku":11628,"ikovo":11629,"Ã¶g":11630,"Ã¶ss":11631,"Ã¶zÃ¼":11632,"Ã¼nster":11633,"shine":11634,"shoye":11635,"obu":11636,"obli":11637,"Shou":11638,"Shap":11639,"Shub":11640,"Shiz":11641,"Shiro":11642,"Shannon":11643,"ĠDal":11644,"ĠDor":11645,"ĠDale":11646,"ĠDios":11647,"ege":11648,"egy":11649,"eglio":11650,"stel":11651,"Argu":11652,"Arena":11653,"Arma":11654,"inoasa":11655,"Ä«ra":11656,"Ã³nica":11657,"quio":11658,"quina":11659,"quita":11660,"quira":11661,"estel":11662,"estra":11663,"Anak":11664,"Antip":11665,"ops":11666,"opÃ³":11667,"ĠMartha":11668,"tsovo":11669,"tsburg":11670,"liÃ¨res":11671,"alee":11672,"gee":11673,"entro":11674,"endr":11675,"endal":11676,"ĠKir":11677,"ĠKuj":11678,"Sten":11679,"Still":11680,"Stir":11681,"Stry":11682,"zhang":11683,"zhyn":11684,"zhnyy":11685,"iceÅŁti":11686,"assen":11687,"asset":11688,"ĠEigh":11689,"ipo":11690,"iping":11691,"iyam":11692,"iyÄģ":11693,"iyah":11694,"Ã¨n":11695,"Ã¨vres":11696,"Leut":11697,"ceola":11698,"ugli":11699,"ugao":11700,"ours":11701,"upan":11702,"upur":11703,"keby":11704,"ibar":11705,"ibre":11706,"ierzyce":11707,"ĠOco":11708,"Ã±or":11709,"Monast":11710,"Monforte":11711,"ĠChal":11712,"ĠCham":11713,"ĠChase":11714,"ĠCharoen":11715,"ianu":11716,"Bari":11717,"nych":11718,"nytsya":11719,"Å«h":11720,"Å«j":11721,"Å«kh":11722,"ĠWall":11723,"ĠWald":11724,"ĠWild":11725,"Guy":11726,"Bry":11727,"Bruch":11728,"uzi":11729,"Colon":11730,"Coloni":11731,"Colinas":11732,"ĠLaf":11733,"ĠLawn":11734,"ĠLaja":11735,"ĠLajas":11736,"ohl":11737,"atea":11738,"atepÃ©":11739,"izan":11740,"izon":11741,"izzo":11742,"izzi":11743,"ozÃ«r":11744,"Thames":11745,"fior":11746,"Valpara":11747,"ebi":11748,"ebu":11749,"Villahermosa":11750,"nola":11751,"loi":11752,"epy":11753,"Santos":11754,"Ã¤ll":11755,"Ambro":11756,"Gras":11757,"Grum":11758,"Grind":11759,"Grove":11760,"Grange":11761,"ĠAlbert":11762,"ĠAltas":11763,"Montan":11764,"MontrÃ©":11765,"Montalto":11766,"Ãºc":11767,"Ãºl":11768,"Ãºchil":11769,"oneÅŁti":11770,"senburg":11771,"senheim":11772,"Orlov":11773,"Å¡a":11774,"Å¡ovice":11775,"seh":11776,"seebad":11777,"voo":11778,"Westville":11779,"Westfield":11780,"rÃ©e":11781,"Mani":11782,"Mann":11783,"Manning":11784,"ÅĤÄĻ":11785,"ÅĤowo":11786,"Salas":11787,"Salto":11788,"Salvat":11789,"Salvador":11790,"Berz":11791,"BerÃ«z":11792,"uchÃ³w":11793,"Bej":11794,"Beacons":11795,"lyan":11796,"ossi":11797,"ÃŃnos":11798,"ieniec":11799,"Novov":11800,"Morin":11801,"ĠValverde":11802,"Hual":11803,"Huaj":11804,"Huayl":11805,"gao":11806,"Å£u":11807,"bruk":11808,"Calab":11809,"Balla":11810,"ÄįÃŃn":11811,"itai":11812,"ingstedt":11813,"khovo":11814,"khoz":11815,"Buj":11816,"Bueng":11817,"Buge":11818,"ĠZhen":11819,"Kral":11820,"Corb":11821,"Cors":11822,"Corozal":11823,"á¸ı":11824,"Khok":11825,"Este":11826,"Eschen":11827,"Ã«t":11828,"Seabrook":11829,"beuf":11830,"sonia":11831,"sonzo":11832,"Oliva":11833,"Greg":11834,"Greci":11835,"Greens":11836,"Greater":11837,"Greif":11838,"Paredes":11839,"Trud":11840,"Adi":11841,"Adliswil":11842,"stede":11843,"á»Ľi":11844,"Abad":11845,"ĠYang":11846,"ĠYelt":11847,"ÃŁe":11848,"ÃŁbach":11849,"Boris":11850,"Borov":11851,"Borghetto":11852,"ĠAren":11853,"ĠArena":11854,"ĠArcos":11855,"issac":11856,"Conde":11857,"Conway":11858,"ĠAnton":11859,"ocket":11860,"Mead":11861,"Mehr":11862,"ixco":11863,"ioni":11864,"ional":11865,"Baille":11866,"BaÃ±":11867,"Merri":11868,"aldi":11869,"Campol":11870,"Dealu":11871,"uax":11872,"uaÃ§u":11873,"ansi":11874,"zyca":11875,"areÃ±a":11876,"arejos":11877,"bork":11878,"Montev":11879,"Reis":11880,"Reed":11881,"Brom":11882,"Span":11883,"Banat":11884,"Roos":11885,"RoÃŁ":11886,"meer":11887,"Longquan":11888,"Ã¡rd":11889,"ĠSho":11890,"ĠShaykh":11891,"Bred":11892,"Breuil":11893,"Breaza":11894,"Heim":11895,"Heidel":11896,"ĠUm":11897,"AkÃ§":11898,"Ern":11899,"Erlenbach":11900,"IsÃ¨re":11901,"Inh":11902,"Inz":11903,"Capri":11904,"CapitÃ¡n":11905,"yeon":11906,"Zheng":11907,"ustri":11908,"ustine":11909,"Kalk":11910,"Rosh":11911,"ieto":11912,"Petro":11913,"Petersburg":11914,"wein":11915,"oldt":11916,"cual":11917,"cuautla":11918,"Obers":11919,"orghe":11920,"CrÄĥ":11921,"Magsaysay":11922,"racÃŃn":11923,"racuse":11924,"hota":11925,"Ploun":11926,"Ploug":11927,"Plaridel":11928,"elaar":11929,"Ãīt":11930,"Ãīpin":11931,"Kirchen":11932,"oleto":11933,"Ãģno":11934,"anning":11935,"annah":11936,"Porte":11937,"Ã¸nd":11938,"eneta":11939,"Cabo":11940,"Cabra":11941,"Å«ru":11942,"Pearl":11943,"Osceola":11944,"Atla":11945,"Graf":11946,"Graven":11947,"ÄģlÄ«yah":11948,"Entr":11949,"Steinh":11950,"Wein":11951,"Kamenka":11952,"Frum":11953,"Murph":11954,"Phon":11955,"Urs":11956,"Emmer":11957,"Loing":11958,"Serre":11959,"Albar":11960,"Krasnoye":11961,"Å¾a":11962,"Madrid":11963,"MadÄ«n":11964,"Äĥrm":11965,"Äĥrului":11966,"Holy":11967,"Martens":11968,"MartÃŃn":11969,"Acc":11970,"ller":11971,"ĠEsp":11972,"tzen":11973,"tzingo":11974,"Como":11975,"Bonn":11976,"Bonif":11977,"StrÃ¡Å¾":11978,"Ã¶nÃ¼":11979,"Wilmington":11980,"Woodb":11981,"Melbourne":11982,"kerk":11983,"viÅ£a":11984,"ĠBarco":11985,"ĠBarrio":11986,"donk":11987,"Ashton":11988,"akhurst":11989,"Kouassi":11990,"lavice":11991,"regon":11992,"Gorod":11993,"warth":11994,"Navarre":11995,"ÄħÅ¼":11996,"yliv":11997,"ĠAndres":11998,"Oakley":11999,"Trev":12000,"Winn":12001,"Ã¼rz":12002,"Fremont":12003,"Freeport":12004,"phis":12005,"bourn":12006,"Ã³rz":12007,"Grandview":12008,"ahuasi":12009,"ahuacÃ¡n":12010,"moos":12011,"igliana":12012,"BÃ©th":12013,"koua":12014,"Delta":12015,"Haag":12016,"Pinilla":12017,"Vilanova":12018,"ĠVeronese":12019,"Limon":12020,"Williston":12021,"Mahm":12022,"rivia":12023,"ĠXoch":12024,"Medford":12025,"kovci":12026,"kovskaya":12027,"ĠPlaine":12028,"Loud":12029,"ÅĽnica":12030,"anzuela":12031,"Ramat":12032,"Trap":12033,"buena":12034,"Charle":12035,"ĠInÃ©s":12036,"Konan":12037,"harpur":12038,"Linton":12039,"Linares":12040,"enhora":12041,"Sunshine":12042,"Å¼a":12043,"ĠCarlo":12044,"roux":12045,"ĠCorral":12046,"Irv":12047,"Padre":12048,"Waid":12049,"enzuela":12050,"rieu":12051,"Dalton":12052,"Roccas":12053,"Tepetz":12054,"Warwick":12055,"ÄĲáº¯k":12056,"ĠRosas":12057,"Ostseebad":12058,"ramento":12059,"Gaur":12060,"ViiÅŁoara":12061,"StarÃ©":12062,"StarÃ¡":12063,"Buli":12064,"Sidney":12065,"mpia":12066,"walk":12067,"ojia":12068,"ĠMonta":12069,"Denton":12070,"lement":12071,"riaga":12072,"Penns":12073,"ousse":12074,"Flores":12075,"ĠÃģngel":12076,"astide":12077,"ĠAmaro":12078,"ĠShaharch":12079,"yshche":12080,"Parker":12081,"tersheim":12082,"allah":12083,"andoah":12084,"Tlacotepec":12085,"Golub":12086,"onnay":12087,"agnÃ©":12088,"ĠOrlic":12089,"ĠOrtega":12090,"kÃ¶prÃ¼":12091,"Liub":12092,"zanÃ³w":12093,"Indre":12094,"Kotel":12095,"Souk":12096,"Ġ11":12097,"Press":12098,"ikhom":12099,"Mauges":12100,"Soko":12101,"Whitehall":12102,"Seneca":12103,"niceni":12104,"ĠMatas":12105,"ĠOld":12106,"Aguil":12107,"Byron":12108,"Oglio":12109,"Argel":12110,"ninge":12111,"ĠCamacho":12112,"ĠPeÃ±Ã³n":12113,"Valdem":12114,"pswich":12115,"ammad":12116,"ĠPolvor":12117,"ĠSebastiÃ£o":12118,"Durham":12119,"Pietr":12120,"Pietro":12121,"quiÃ¨res":12122,"Ocampo":12123,"Butt":12124,"Bernard":12125,"Home":12126,"eggia":12127,"Stanton":12128,"Steinbach":12129,"ontaines":12130,"Desert":12131,"Kemp":12132,"Tecom":12133,"Ä«dÄ«":12134,"Czarna":12135,"Ãħr":12136,"ÅĮm":12137,"Riverton":12138,"Riverview":12139,"werder":12140,"ĠÄĲá»©c":12141,"ĠCapilla":12142,"ĠAbÅ«":12143,"Touraine":12144,"Waller":12145,"ĠGrange":12146,"ĠSteiermark":12147,"ZapotitlÃ¡n":12148,"ÅŃng":12149,"tavou":12150,"ĠChapel":12151,"Essex":12152,"ĠBonito":12153,"bÃ¼ren":12154,"ĠRamon":12155,"Cassano":12156,"áº¡c":12157,"Lady":12158,"cescu":12159,"Blanc":12160,"David":12161,"Hawthorne":12162,"Ikot":12163,"Jacob":12164,"Chicon":12165,"Hatfield":12166,"Koby":12167,"Miraflores":12168,"tteville":12169,"ĠBormida":12170,"Provence":12171,"Lowell":12172,"Naples":12173,"ledas":12174,"ĠRivera":12175,"ĠRiviera":12176,"Houston":12177,"Xinglong":12178,"ÄĹs":12179,"Chamber":12180,"ÅŁaÄŁÄ±":12181,"ĠDolna":12182,"ĠDolores":12183,"Bradley":12184,"graben":12185,"Äģwah":12186,"tschach":12187,"ĠMichael":12188,"Sherwood":12189,"Sheridan":12190,"SchÃ¶nau":12191,"ĠAlbans":12192,"Ãļj":12193,"Clarence":12194,"Claremont":12195,"Humber":12196,"JoÃ£o":12197,"Lukav":12198,"Pyh":12199,"Sambre":12200,"Wyoming":12201,"ĠNegro":12202,"Bridgewater":12203,"Racovi":12204,"ĠJohann":12205,"Cordova":12206,"ÅĪany":12207,"ĠAguas":12208,"ÃŃritu":12209,"Didier":12210,"Friend":12211,"Socorro":12212,"nacht":12213,"iagara":12214,"ĠLeonardo":12215,"ĠLeonhard":12216,"Prosper":12217,"Smithfield":12218,"Randolph":12219,"ĠMazowie":12220,"ĠGranada":12221,"ĠVelha":12222,"itsyno":12223,"Boulder":12224,"Uzun":12225,"Vieille":12226,"Ã¡ndaro":12227,"ĠKalÄģn":12228,"Bloomingdale":12229,"Cinco":12230,"Nazaire":12231,"Sucre":12232,"breit":12233,"Alcolea":12234,"WeiÃŁen":12235,"JunÃŃn":12236,"Grosse":12237,"Edgewater":12238,"Pandan":12239,"adiokro":12240,"ĠPiedras":12241,"olayivka":12242,"ĠÅļlÄħski":12243,"Vienna":12244,"ĠHolly":12245,"Cerrito":12246,"Cerritos":12247,"Kreuz":12248,"Ljung":12249,"ĠCerrito":12250,"ĠJadraque":12251,"Shenandoah":12252,"Caldas":12253,"ixtlahuaca":12254,"Heiligen":12255,"Encinas":12256,"DoÄŁan":12257,"Harrisburg":12258,"Battle":12259,"ĠScrivia":12260,"ĠLodigiano":12261,"SchÃ¶ne":12262,"Velyki":12263,"Wildwood":12264,"Diamond":12265,"Hobart":12266,"TÃ¡pi":12267,"baum":12268,"Christi":12269,"ĠRocco":12270,"iechÃ³w":12271,"Eldorado":12272,"ÄĥÈĻeni":12273,"ĠKaeo":12274,"Ä±ÅŁla":12275,"Å¡Äĩe":12276,"Acquaviva":12277,"Banjar":12278,"Wasser":12279,"wolde":12280,"ĠSacatepÃ©":12281,"ĠStrada":12282,"áº¯c":12283,"Noble":12284,"enciado":12285,"Neuenkirchen":12286,"Altamira":12287,"Lourdes":12288,"ĠPadre":12289,"Mareuil":12290,"ĠOcotlÃ¡n":12291,"ĠCecilia":12292,"ĠAtzompa":12293,"arrubia":12294,"Glasgow":12295,"HacÄ±":12296,"fleet":12297,"ĠPurÃŃsima":12298,"ĠRayÃ³n":12299,"ĠLouis":12300,"Neuvy":12301,"Montreuil":12302,"ĠMartÃŃnez":12303,"Ã¥rd":12304,"Gladstone":12305,"Hippol":12306,"Pulau":12307,"Settimo":12308,"ĠCiudad":12309,"ĠCayetano":12310,"Neumarkt":12311,"ĠOjeda":12312,"ĠLaurel":12313,"ĠCruces":12314,"Åŀtefan":12315,"Portsmouth":12316,"Lagunillas":12317,"Fatehpur":12318,"Jamaica":12319,"Menzel":12320,"ĠLambro":12321,"Antoine":12322,"Nekras":12323,"Neunkirchen":12324,"ĠWinterthur":12325,"ĠWindsor":12326,"Espinosa":12327,"Abasolo":12328,"iftlik":12329,"Druzhba":12330,"Konstantin":12331,"Potrerillos":12332,"ĠMuÃ±oz":12333,"ĠNaranjos":12334,"ĠEscondido":12335,"ĠSharqÄ«yah":12336,"DÄħbrowa":12337,"Sullivan":12338,"Wetzikon":12339,"ĠButte":12340,"Seaford":12341,"Krasnoarmey":12342,"AydÄ±n":12343,"Humboldt":12344,"ĠVltavou":12345,"ĠLiberty":12346,"Schlieren":12347,"Atlantic":12348,"ĠDomingos":12349,"Krasnogvardey":12350,"Vladimir":12351,"Ospedaletto":12352,"NÄģá¸©iyat":12353,"ĠMÄĽsto":12354,"ĠMiasto":12355,"Beaulieu":12356,"ĠConstituciÃ³n":12357,"Izvoru":12358,"ÄĲáº¡i":12359,"Shevchen":12360,"Saturnin":12361,"Dioulasso":12362,"ĠMendoza":12363,"ĠBÄĥlcescu":12364,"ĠNacional":12365,"ĠFigueroa":12366,"ĠKujaw":12367,"Beaconsfield":12368,"ĠYeltes":12369,"Heidelberg":12370,"MadÄ«nat":12371,"ĠShaharchasi":12372,"ĠOrlicÃŃ":12373,"ĠSacatepÃ©quez":12374,"Aid":12375,"Aus":12376,"Ati":12377,"Aich":12378,"Aci":12379,"Aya":12380,"Aver":12381,"Aust":12382,"Auv":12383,"Austin":12384,"AÅŁaÄŁÄ±":12385,"Bers":12386,"Best":12387,"Bale":12388,"Bich":12389,"Bland":12390,"Beb":12391,"Bind":12392,"Berm":12393,"Bolo":12394,"BÃ¶r":12395,"Byr":12396,"Bosh":12397,"BÃ¤r":12398,"Besh":12399,"BÄ«r":12400,"Baud":12401,"Bajo":12402,"Bress":12403,"Báº¯c":12404,"Cie":12405,"Ceg":12406,"Cev":12407,"Cuz":12408,"Calm":12409,"Cash":12410,"Caf":12411,"Cuch":12412,"Cire":12413,"CÄĥr":12414,"Cava":12415,"Cott":12416,"CÃ¡rdenas":12417,"Cacho":12418,"CiÃ©nega":12419,"Dai":12420,"Dard":12421,"Dek":12422,"Dres":12423,"Dier":12424,"DÅ«":12425,"Dhu":12426,"Dera":12427,"Dari":12428,"Dhan":12429,"DÃ©s":12430,"Dunn":12431,"Doum":12432,"ER":12433,"ES":12434,"Ea":12435,"Ere":12436,"Esh":12437,"Eaux":12438,"Fj":12439,"Fau":12440,"Fah":12441,"Foy":12442,"FÃ¼":12443,"Foz":12444,"Fond":12445,"Flo":12446,"Feh":12447,"Flem":12448,"Flag":12449,"Five":12450,"Fontaines":12451,"Gok":12452,"Gev":12453,"Gara":12454,"Gey":12455,"Geld":12456,"Gaj":12457,"Gaf":12458,"Ghi":12459,"GÄĥl":12460,"Gbon":12461,"Gwang":12462,"Gates":12463,"Hw":12464,"Hra":12465,"Hec":12466,"Hark":12467,"Hort":12468,"Hung":12469,"Hamb":12470,"Hita":12471,"Hans":12472,"HÃł":12473,"Ic":12474,"Ij":12475,"Ion":12476,"Isk":12477,"Igh":12478,"Itz":12479,"Imb":12480,"Isonzo":12481,"Jet":12482,"Jie":12483,"Jev":12484,"Jut":12485,"Juv":12486,"Juli":12487,"Jordan":12488,"Kne":12489,"Khe":12490,"Kuan":12491,"Korn":12492,"Kint":12493,"Kalm":12494,"Koss":12495,"Kira":12496,"Klen":12497,"Kiss":12498,"Klin":12499,"Kih":12500,"KÅĻ":12501,"KÄģm":12502,"Krom":12503,"Krak":12504,"LÃŃ":12505,"Lard":12506,"Liz":12507,"Lof":12508,"Lama":12509,"List":12510,"Lix":12511,"Llor":12512,"LÄģl":12513,"Liver":12514,"Luck":12515,"Lenz":12516,"Mop":12517,"Male":12518,"Mina":12519,"Meld":12520,"Mola":12521,"More":12522,"MÄģn":12523,"Much":12524,"Mij":12525,"MÃª":12526,"Miro":12527,"Mesa":12528,"Mogo":12529,"Mits":12530,"MÄģnd":12531,"MÃ¤n":12532,"Mueang":12533,"Nh":12534,"Nos":12535,"Nol":12536,"Nest":12537,"Nana":12538,"Nort":12539,"Nip":12540,"Nian":12541,"Nott":12542,"Niem":12543,"NÃ¸r":12544,"Narros":12545,"Nether":12546,"Niagara":12547,"Of":12548,"Oos":12549,"Ono":12550,"Ohl":12551,"Otten":12552,"Odi":12553,"Pill":12554,"Pue":12555,"Pour":12556,"Poro":12557,"Perr":12558,"Pick":12559,"Pust":12560,"Pann":12561,"PÃ¢r":12562,"PÃ´":12563,"PÃ¨re":12564,"Piro":12565,"Pesh":12566,"PÄĥu":12567,"Prag":12568,"Punt":12569,"Prom":12570,"Prem":12571,"PÄ±nar":12572,"Persh":12573,"Pusz":12574,"Puerta":12575,"Qas":12576,"Rur":12577,"Rast":12578,"Rai":12579,"Ruc":12580,"RÃ¤":12581,"Rion":12582,"RÃ¸d":12583,"Sf":12584,"Sre":12585,"Sill":12586,"Sco":12587,"Sei":12588,"Sula":12589,"Sath":12590,"Sumb":12591,"SÃ¢r":12592,"Suh":12593,"SÃ©m":12594,"Sover":12595,"Slov":12596,"Sym":12597,"SÅĤaw":12598,"Sault":12599,"SÅ«q":12600,"SÃ¨vre":12601,"Tille":12602,"Tsh":12603,"Tard":12604,"Tana":12605,"Tark":12606,"Tuk":12607,"Toh":12608,"Tond":12609,"TÃ¤":12610,"Toch":12611,"Tij":12612,"Tama":12613,"Tank":12614,"Tanc":12615,"Tenn":12616,"TÃ½":12617,"Tull":12618,"Tando":12619,"Tlam":12620,"Uta":12621,"Ure":12622,"Uth":12623,"Una":12624,"Vara":12625,"Vord":12626,"Vass":12627,"Vian":12628,"Vint":12629,"Voss":12630,"Vish":12631,"Vico":12632,"Vaul":12633,"Vakh":12634,"Voj":12635,"Vult":12636,"Wig":12637,"Wap":12638,"Wong":12639,"Wob":12640,"Wich":12641,"Wier":12642,"Wess":12643,"Ware":12644,"Wagen":12645,"Wrigh":12646,"Xo":12647,"Xil":12648,"XÃ£":12649,"Yv":12650,"Yab":12651,"Yum":12652,"Yell":12653,"Yosh":12654,"Zm":12655,"Zun":12656,"Zong":12657,"Zum":12658,"Zev":12659,"Zarr":12660,"aan":12661,"bÄģ":12662,"bab":12663,"bul":12664,"bot":12665,"boc":12666,"bana":12667,"bina":12668,"bark":12669,"bug":12670,"bian":12671,"bani":12672,"bendorf":12673,"bold":12674,"bush":12675,"bougou":12676,"bisch":12677,"cim":12678,"cate":12679,"cÃŃa":12680,"cÃ³w":12681,"cze":12682,"cillas":12683,"dang":12684,"dir":12685,"dach":12686,"dham":12687,"dney":12688,"eau":12689,"eka":12690,"eÅŁ":12691,"fes":12692,"fÃ©":12693,"fim":12694,"fah":12695,"fers":12696,"fouÃ©":12697,"feh":12698,"fried":12699,"flow":12700,"gil":12701,"gov":12702,"get":12703,"gai":12704,"gnies":12705,"hil":12706,"hang":12707,"hak":12708,"hus":12709,"herm":12710,"houn":12711,"hwar":12712,"haus":12713,"hampton":12714,"histor":12715,"ior":12716,"iÃ³n":12717,"iza":12718,"ique":12719,"iosa":12720,"jel":12721,"jÃ³":12722,"jac":12723,"jÃ«":12724,"kill":12725,"kem":12726,"kok":12727,"kut":12728,"kheim":12729,"koro":12730,"kofen":12731,"lÄģ":12732,"lÄĥ":12733,"lÄ«":12734,"lana":12735,"lina":12736,"leni":12737,"lung":12738,"lbach":12739,"lÄģn":12740,"lÃŃn":12741,"lund":12742,"lito":12743,"larn":12744,"luca":12745,"mig":12746,"mot":12747,"mik":12748,"mez":12749,"mÃ¡r":12750,"mersdorf":12751,"miao":12752,"nav":12753,"now":12754,"nard":12755,"novo":12756,"nine":12757,"nava":12758,"nitsa":12759,"nimas":12760,"pos":12761,"pil":12762,"pro":12763,"pano":12764,"phe":12765,"pilco":12766,"pierre":12767,"qÄģ":12768,"qah":12769,"qian":12770,"ror":12771,"ruz":12772,"rico":12773,"ruck":12774,"reras":12775,"sol":12776,"sing":12777,"sfeld":12778,"sdale":12779,"snacht":12780,"tw":12781,"tat":12782,"tÄģ":12783,"tus":12784,"tna":12785,"tina":12786,"tub":12787,"tyn":12788,"tree":12789,"ued":12790,"usk":12791,"uque":12792,"uja":12793,"uÅĦ":12794,"vol":12795,"vid":12796,"vec":12797,"villa":12798,"vard":12799,"vest":12800,"vant":12801,"varo":12802,"vÄģn":12803,"vari":12804,"vald":12805,"voll":12806,"veno":12807,"vliet":12808,"wez":12809,"woud":12810,"wards":12811,"wihr":12812,"xu":12813,"xas":12814,"xpan":12815,"xiu":12816,"yde":12817,"yay":12818,"yun":12819,"yri":12820,"yth":12821,"yers":12822,"yÅĽl":12823,"zd":12824,"zab":12825,"zka":12826,"zach":12827,"zingen":12828,"zolo":12829,"zki":12830,"zendorf":12831,"Ä¡":12832,"Ð°":12833,"Ð¸":12834,"ÙĬ":12835,"Ġar":12836,"Ġat":12837,"Ġad":12838,"osÃŃ":12839,"osha":12840,"anap":12841,"anci":12842,"aron":12843,"arte":12844,"aray":12845,"arri":12846,"aret":12847,"arav":12848,"arco":12849,"arano":12850,"arÃ³n":12851,"arca":12852,"arella":12853,"erz":12854,"erin":12855,"erta":12856,"erre":12857,"erzh":12858,"erke":12859,"erata":12860,"eries":12861,"inar":12862,"inam":12863,"inou":12864,"inand":12865,"inth":12866,"inice":12867,"inaldo":12868,"enov":12869,"enia":12870,"enac":12871,"enti":12872,"onah":12873,"onio":12874,"onice":12875,"onovo":12876,"onera":12877,"onico":12878,"alillo":12879,"alÃ©n":12880,"aloa":12881,"orz":12882,"oril":12883,"orto":12884,"orong":12885,"orhe":12886,"elj":12887,"elm":12888,"elberg":12889,"elieu":12890,"elgem":12891,"ilj":12892,"ilen":12893,"ilat":12894,"ilou":12895,"ilov":12896,"ilac":12897,"ilpan":12898,"ildo":12899,"aste":12900,"asaki":12901,"asota":12902,"estone":12903,"chas":12904,"chain":12905,"chem":12906,"chev":12907,"chug":12908,"chyn":12909,"chfield":12910,"chiano":12911,"chany":12912,"uris":12913,"urÃŃ":12914,"amur":12915,"amand":12916,"amish":12917,"ameca":12918,"dete":12919,"lean":12920,"lego":12921,"lett":12922,"atl":12923,"atre":12924,"atham":12925,"atpur":12926,"atÃŃo":12927,"atitla":12928,"Sangar":12929,"ouz":12930,"ouch":12931,"outa":12932,"ouba":12933,"ouine":12934,"oucester":12935,"olon":12936,"olun":12937,"olengo":12938,"Ã©on":12939,"Ã©ra":12940,"Ã©ville":12941,"Ã©go":12942,"Ã©ni":12943,"Ã©llar":12944,"isen":12945,"isle":12946,"isou":12947,"isca":12948,"isberg":12949,"isten":12950,"isnes":12951,"ishui":12952,"tago":12953,"tayan":12954,"table":12955,"ĠCe":12956,"ĠCes":12957,"ĠCoy":12958,"ĠCres":12959,"ĠCip":12960,"ĠCount":12961,"ĠCost":12962,"ĠCumb":12963,"ĠCarn":12964,"ĠCorte":12965,"ĠCerd":12966,"ĠClar":12967,"ĠCabr":12968,"ĠComp":12969,"ĠCountry":12970,"ĠCÃ³rdoba":12971,"add":12972,"adap":12973,"itia":12974,"itrov":12975,"reo":12976,"reux":12977,"ovu":12978,"ovell":12979,"ovei":12980,"ingford":12981,"iap":12982,"iau":12983,"iaca":12984,"raine":12985,"rawe":12986,"ĠMus":12987,"ĠMem":12988,"ĠMant":12989,"ĠMold":12990,"ĠMinh":12991,"ĠMotte":12992,"ĠMirim":12993,"ĠMiami":12994,"teo":12995,"icco":12996,"icana":12997,"icina":12998,"ĠPil":12999,"ĠPac":13000,"ĠPap":13001,"ĠPly":13002,"ĠPira":13003,"ĠPonte":13004,"ĠPath":13005,"ĠPeral":13006,"ĠPunta":13007,"angue":13008,"ayag":13009,"ayama":13010,"unus":13011,"unter":13012,"roya":13013,"Äģsa":13014,"Äģganj":13015,"Ã¡cuaro":13016,"ĠSm":13017,"ĠSÃ¡":13018,"ĠSong":13019,"ĠSob":13020,"ĠSub":13021,"ĠStadt":13022,"ĠSÃ¡z":13023,"ĠSever":13024,"ĠSlob":13025,"ĠSoria":13026,"ĠSidi":13027,"riÈĻ":13028,"etro":13029,"etÃ¡":13030,"Lah":13031,"Lao":13032,"Laut":13033,"Lauz":13034,"Lajas":13035,"ĠBoh":13036,"ĠBua":13037,"ĠBois":13038,"ĠBÄģgh":13039,"ĠBÃ©jar":13040,"igou":13041,"igrad":13042,"agara":13043,"agudo":13044,"omin":13045,"omac":13046,"omand":13047,"omice":13048,"omut":13049,"omera":13050,"omero":13051,"omachi":13052,"omÄĽÅĻice":13053,"illers":13054,"illÃ¡n":13055,"imes":13056,"imah":13057,"imiento":13058,"Chol":13059,"ChÄģ":13060,"Chod":13061,"Chio":13062,"Chot":13063,"Chaz":13064,"Chino":13065,"Chib":13066,"Chala":13067,"Chry":13068,"Cherm":13069,"Chish":13070,"Chick":13071,"Chalo":13072,"Chiesa":13073,"Chá»£":13074,"auf":13075,"aula":13076,"augh":13077,"ĠAst":13078,"ĠApp":13079,"ĠApol":13080,"ĠAlem":13081,"Ã³c":13082,"Ã³f":13083,"acab":13084,"acoy":13085,"acÃ³n":13086,"acena":13087,"Ġden":13088,"topol":13089,"abang":13090,"abella":13091,"irin":13092,"irit":13093,"irsk":13094,"andilla":13095,"ÃŃra":13096,"ÃŃvar":13097,"eder":13098,"tho":13099,"thana":13100,"thier":13101,"akk":13102,"aker":13103,"akin":13104,"aken":13105,"akoro":13106,"skyi":13107,"ainen":13108,"ĠTon":13109,"ĠTes":13110,"ĠTat":13111,"ĠTim":13112,"ĠThi":13113,"ĠTule":13114,"ĠTagli":13115,"ĠTaju":13116,"ĠTerrero":13117,"odat":13118,"odio":13119,"odeni":13120,"ĠHou":13121,"ĠHong":13122,"ĠHot":13123,"ĠHoyo":13124,"ĠHome":13125,"ĠHuerta":13126,"ĠRei":13127,"ĠRoma":13128,"Alar":13129,"Alic":13130,"Alim":13131,"Almar":13132,"Aller":13133,"Alcan":13134,"Altay":13135,"apura":13136,"apampa":13137,"apÄ±nar":13138,"ulm":13139,"ulen":13140,"ĠGo":13141,"ĠGol":13142,"ĠGhe":13143,"ĠGÃ¼":13144,"ĠGuan":13145,"ĠGiang":13146,"ĠGorodok":13147,"ĠGaspar":13148,"ĠVis":13149,"ĠVed":13150,"ĠVers":13151,"ĠVino":13152,"ĠVent":13153,"ĠVtor":13154,"ĠVlad":13155,"ĠVorstadt":13156,"idia":13157,"idero":13158,"idonia":13159,"ushu":13160,"ioara":13161,"ieb":13162,"ief":13163,"iev":13164,"avak":13165,"avod":13166,"averal":13167,"avallo":13168,"avodsk":13169,"tiy":13170,"tich":13171,"tiÃ¨re":13172,"neg":13173,"nex":13174,"neuil":13175,"coch":13176,"cour":13177,"cota":13178,"baÄŁ":13179,"anoke":13180,"anowo":13181,"kach":13182,"kaway":13183,"umont":13184,"umberland":13185,"ĠLin":13186,"ĠLes":13187,"ĠLÃŃ":13188,"ĠLlor":13189,"ĠLox":13190,"Ellen":13191,"heil":13192,"heath":13193,"ellas":13194,"ellÃ³":13195,"ellino":13196,"Äĥng":13197,"ÄĥÅŁti":13198,"ÄĥteÅŁti":13199,"otan":13200,"otyn":13201,"iven":13202,"ives":13203,"ivis":13204,"tert":13205,"tering":13206,"terville":13207,"terson":13208,"tershausen":13209,"ĠJun":13210,"ĠJard":13211,"ĠJud":13212,"ĠJord":13213,"ĠJimÃ©":13214,"ecac":13215,"ecco":13216,"ecca":13217,"emo":13218,"eman":13219,"emet":13220,"oyne":13221,"Marian":13222,"Margar":13223,"Marks":13224,"Marble":13225,"Margate":13226,"Marysville":13227,"Maravillas":13228,"ĠNg":13229,"ĠNic":13230,"ĠNie":13231,"ĠNong":13232,"ĠNik":13233,"ĠNovo":13234,"ĠNinh":13235,"ĠNoria":13236,"ĠNghÄ©a":13237,"astre":13238,"astra":13239,"ower":13240,"oway":13241,"oku":13242,"ĠFam":13243,"ĠFra":13244,"ĠFab":13245,"ĠFour":13246,"ĠFair":13247,"ĠFoo":13248,"ĠFuerte":13249,"ÅŁe":13250,"ÅŁin":13251,"ÅŁia":13252,"ÅŁteni":13253,"ersham":13254,"ognes":13255,"ikan":13256,"Ã¶b":13257,"Ã¶ng":13258,"Ã¼zÃ¼":13259,"ontitlÃ¡n":13260,"shy":13261,"shang":13262,"shah":13263,"shÄ«":13264,"shaya":13265,"achapa":13266,"oce":13267,"ocon":13268,"ocun":13269,"occo":13270,"oby":13271,"obre":13272,"oboua":13273,"obbio":13274,"obrz":13275,"airi":13276,"Shor":13277,"Shing":13278,"Sheng":13279,"Shaf":13280,"Shire":13281,"Shady":13282,"Shrews":13283,"azm":13284,"azy":13285,"ĠDj":13286,"ĠDong":13287,"ĠDion":13288,"ĠDru":13289,"ĠDennis":13290,"egen":13291,"egal":13292,"egra":13293,"eglia":13294,"Ã¡nya":13295,"Arj":13296,"Arar":13297,"Arra":13298,"Arba":13299,"Arles":13300,"Arden":13301,"Arpa":13302,"Ä«la":13303,"Ä«ya":13304,"Ã³nio":13305,"ardt":13306,"quen":13307,"quero":13308,"quena":13309,"quito":13310,"quista":13311,"quitlÃ¡n":13312,"quÃ©s":13313,"Anc":13314,"Anast":13315,"orfolk":13316,"burne":13317,"udas":13318,"ĠMari":13319,"ĠMarino":13320,"ĠMarkt":13321,"tstein":13322,"araja":13323,"lione":13324,"aleu":13325,"naw":13326,"nais":13327,"entry":13328,"ucco":13329,"endas":13330,"endonk":13331,"ĠKing":13332,"ĠKamp":13333,"ĠKarl":13334,"Stub":13335,"Staro":13336,"Strom":13337,"arks":13338,"guang":13339,"zhay":13340,"zhne":13341,"zheng":13342,"eyli":13343,"eytin":13344,"ubu":13345,"ubok":13346,"elds":13347,"utri":13348,"Need":13349,"asser":13350,"ekro":13351,"ĠEp":13352,"ĠEss":13353,"ĠEmp":13354,"ipu":13355,"erndorf":13356,"ernales":13357,"ĠItz":13358,"ĠItal":13359,"Lep":13360,"Lede":13361,"awi":13362,"awang":13363,"Ã¢na":13364,"caÃ±":13365,"ugi":13366,"upy":13367,"uper":13368,"iban":13369,"ibou":13370,"iere":13371,"ĠOjo":13372,"ĠOula":13373,"ĠOcotepec":13374,"enste":13375,"enstetten":13376,"uko":13377,"ukay":13378,"ukovo":13379,"ukÅ«":13380,"Monmouth":13381,"ĠCha":13382,"ĠCho":13383,"ĠChor":13384,"ĠChol":13385,"ĠChau":13386,"ĠChir":13387,"ĠChian":13388,"Barc":13389,"Barr":13390,"Baru":13391,"Barri":13392,"Barber":13393,"Barns":13394,"Barrow":13395,"Barrancas":13396,"ĠWa":13397,"ĠWe":13398,"ĠWen":13399,"ĠWang":13400,"ĠWein":13401,"Guach":13402,"Guadal":13403,"Carc":13404,"Cartag":13405,"Carolina":13406,"Bren":13407,"Brass":13408,"Brgy":13409,"uzo":13410,"dade":13411,"huay":13412,"antino":13413,"ezen":13414,"Colli":13415,"Colling":13416,"Colmen":13417,"Collado":13418,"Colfax":13419,"ĠLaw":13420,"ĠLabor":13421,"ffin":13422,"atepe":13423,"ambre":13424,"rysh":13425,"izio":13426,"ornik":13427,"Thi":13428,"Tho":13429,"Thiers":13430,"eiu":13431,"tenay":13432,"nois":13433,"Castron":13434,"loe":13435,"loon":13436,"Schar":13437,"Scher":13438,"Schne":13439,"Schitu":13440,"Santiagu":13441,"Ques":13442,"Quir":13443,"Quip":13444,"Quatt":13445,"Ã¤ff":13446,"Ama":13447,"Amor":13448,"Amag":13449,"Ambo":13450,"ssou":13451,"hae":13452,"ynn":13453,"ynÃ³w":13454,"Gris":13455,"Grass":13456,"ochnoye":13457,"ochitlÃ¡n":13458,"Belfast":13459,"ĠAltam":13460,"ĠAlcÃ¡n":13461,"Montc":13462,"Monten":13463,"Monteleone":13464,"ermes":13465,"Ãºla":13466,"Orle":13467,"Orba":13468,"Orland":13469,"Orme":13470,"woods":13471,"Å¡i":13472,"alme":13473,"seo":13474,"seong":13475,"oloapan":13476,"Westport":13477,"Westlake":13478,"ashat":13479,"ghi":13480,"ghan":13481,"Manz":13482,"Manzana":13483,"ĠSands":13484,"ÅĤm":13485,"ÅĤud":13486,"ÅĤkowice":13487,"Ã§ek":13488,"ariÃ¡":13489,"Salcedo":13490,"Salamanca":13491,"Berd":13492,"Berwick":13493,"ucht":13494,"Bea":13495,"Bee":13496,"Beh":13497,"Beuv":13498,"Bexley":13499,"Newmarket":13500,"artÃŃn":13501,"artida":13502,"denham":13503,"Prin":13504,"Pram":13505,"Pring":13506,"Prados":13507,"cks":13508,"uerbach":13509,"lyy":13510,"ienne":13511,"NovÃ½":13512,"Malk":13513,"Malv":13514,"Malak":13515,"Morton":13516,"Moraleja":13517,"ĠVals":13518,"joa":13519,"tado":13520,"Huat":13521,"HuÃ©":13522,"Huaz":13523,"HuÃ©r":13524,"insberg":13525,"ĠJoseph":13526,"bras":13527,"Calat":13528,"Calder":13529,"Caledonia":13530,"Bali":13531,"Balta":13532,"Balogo":13533,"Äįica":13534,"Äįovice":13535,"khod":13536,"ĠZa":13537,"ĠZen":13538,"ĠZem":13539,"ĠZamora":13540,"Corc":13541,"Coral":13542,"Corbi":13543,"itzendorf":13544,"Khon":13545,"KhÄģ":13546,"Khir":13547,"Khand":13548,"uieni":13549,"Ã«v":13550,"Ã«vka":13551,"Seen":13552,"Seaside":13553,"beach":13554,"veh":13555,"Torric":13556,"Torrel":13557,"Burla":13558,"Boa":13559,"Both":13560,"BoÄŁ":13561,"bole":13562,"Maure":13563,"Greensburg":13564,"ulah":13565,"ulao":13566,"TrÃł":13567,"Trujillo":13568,"lenz":13569,"Adams":13570,"Southern":13571,"Southport":13572,"Abd":13573,"Abou":13574,"Periy":13575,"uyÃ¨res":13576,"waÅĤd":13577,"ĠYuc":13578,"ÃŁling":13579,"áº©":13580,"istlÃ¡n":13581,"Borde":13582,"anjiang":13583,"Conn":13584,"Connell":13585,"zea":13586,"zef":13587,"ĠBeÄį":13588,"vere":13589,"vert":13590,"verne":13591,"ridor":13592,"Mej":13593,"Mehl":13594,"Baun":13595,"BaÃ¯":13596,"Baxter":13597,"Coatepec":13598,"Campan":13599,"Campof":13600,"Badia":13601,"area":13602,"Reit":13603,"ttingen":13604,"nesboro":13605,"Broek":13606,"Ascot":13607,"AsunciÃ³n":13608,"Mois":13609,"Moore":13610,"Sarm":13611,"Sarai":13612,"ouges":13613,"Bank":13614,"RoÅ¾":13615,"Roanoke":13616,"anejo":13617,"Hein":13618,"Head":13619,"Heid":13620,"Akron":13621,"Äģdah":13622,"Isa":13623,"ysz":13624,"yshevo":13625,"Canter":13626,"Zhur":13627,"Kali":13628,"Kalten":13629,"RosiÃ¨res":13630,"Roslyn":13631,"Roseville":13632,"weis":13633,"olding":13634,"Benav":13635,"Groot":13636,"Oberw":13637,"urea":13638,"ureÅŁti":13639,"organ":13640,"Cric":13641,"Magh":13642,"Magall":13643,"Magny":13644,"hoek":13645,"PlÃ©":13646,"Anderson":13647,"Andrews":13648,"Ãīg":13649,"Ãīch":13650,"Ãīcole":13651,"rades":13652,"ufeng":13653,"Ãģr":13654,"Ãģgua":13655,"Ãģyi":13656,"aterina":13657,"Äģbah":13658,"umbia":13659,"Aves":13660,"Avoca":13661,"Forrest":13662,"Velilla":13663,"VelkÃ¡":13664,"Ã¢nc":13665,"Pear":13666,"ifeng":13667,"Atti":13668,"Camal":13669,"ÅĻany":13670,"ÅĻovice":13671,"ĠGutiÃ©rrez":13672,"ĠGuareÃ±a":13673,"Lesnoy":13674,"Bouc":13675,"Bouz":13676,"Harp":13677,"Harbor":13678,"Harvey":13679,"schlag":13680,"Kamenn":13681,"Langley":13682,"Plains":13683,"gnac":13684,"Muro":13685,"Murray":13686,"giate":13687,"ĠSalitre":13688,"ÄĻba":13689,"iniÅŁ":13690,"Castelo":13691,"Castelnau":13692,"Emin":13693,"Loos":13694,"kston":13695,"Serg":13696,"Krasne":13697,"Å¾i":13698,"Koto":13699,"Koff":13700,"KoÅĤ":13701,"Madh":13702,"marie":13703,"Ã©rica":13704,"Ciuc":13705,"Holm":13706,"Holden":13707,"AcatlÃ¡n":13708,"Taras":13709,"desheim":13710,"ĠEsper":13711,"Bagong":13712,"ĠMorales":13713,"ĠMorris":13714,"Terran":13715,"ĠCrem":13716,"enningen":13717,"Bonnet":13718,"kota":13719,"Strel":13720,"Strum":13721,"Bolivar":13722,"ÈĽeni":13723,"Ã¶nn":13724,"Cuba":13725,"Woodford":13726,"Woodbridge":13727,"trud":13728,"Melgar":13729,"ĠBarbara":13730,"Horton":13731,"Ashford":13732,"CaÃ±as":13733,"Saal":13734,"lerville":13735,"Ãĩak":13736,"Ãĩatal":13737,"Pasir":13738,"Pasadena":13739,"wayn":13740,"ĠKhÄģs":13741,"á¸©ah":13742,"mbar":13743,"Gornyy":13744,"ÄĽÅ¾":13745,"letta":13746,"letto":13747,"Palmer":13748,"Ã¯a":13749,"Ã©di":13750,"ĠThor":13751,"Waltham":13752,"Äħcz":13753,"ĠQan":13754,"ĠStar":13755,"Glend":13756,"Gloucester":13757,"ĠRech":13758,"ĠReadap":13759,"ussy":13760,"alote":13761,"ĠAndreu":13762,"Mayo":13763,"Suvor":13764,"ĠColor":13765,"Trem":13766,"taglia":13767,"Altos":13768,"Fred":13769,"Freud":13770,"phia":13771,"pherd":13772,"oshima":13773,"Ä«nah":13774,"ĠElm":13775,"ahuac":13776,"ahuatlÃ¡n":13777,"Ã¶ld":13778,"Rediu":13779,"ĠCalab":13780,"ĠCalzada":13781,"BÃ©l":13782,"BÃ©ziers":13783,"ĠRodeo":13784,"HaÃŁ":13785,"Molin":13786,"overy":13787,"iasco":13788,"ĠXX":13789,"ĠXuÃ¢n":13790,"ĠXuyÃªn":13791,"riglia":13792,"France":13793,"Kefar":13794,"Medve":13795,"Sauk":13796,"ĠPlaza":13797,"Loutr":13798,"Tabon":13799,"ÅĽna":13800,"anzas":13801,"inasco":13802,"Aleg":13803,"Alem":13804,"Dundee":13805,"Kurort":13806,"ĠTexcal":13807,"Birnin":13808,"Hoi":13809,"Hoop":13810,"Linjiang":13811,"ĠCarrizal":13812,"Scur":13813,"Scand":13814,"ĠCorona":13815,"ĠCorneja":13816,"Izum":13817,"Paderno":13818,"telvi":13819,"enzell":13820,"enzana":13821,"ÄĲá»ĵng":13822,"ĠBlancas":13823,"Glencoe":13824,"Ostro":13825,"Ostrow":13826,"Ruff":13827,"Ruther":13828,"ĠForks":13829,"Ottawa":13830,"Sult":13831,"ViÅŁ":13832,"ViÃ±":13833,"cones":13834,"Starok":13835,"Sinj":13836,"ĠPhisai":13837,"Makar":13838,"winkel":13839,"ÄĮer":13840,"Gher":13841,"Surd":13842,"Somerville":13843,"ĠMonica":13844,"varez":13845,"ÄĢb":13846,"ÄĢd":13847,"ÄĢq":13848,"ĠMaur":13849,"oussa":13850,"oussou":13851,"Äģspur":13852,"Krasnoyar":13853,"Florent":13854,"ĠCuaut":13855,"Flora":13856,"Imm":13857,"Lucas":13858,"Lucena":13859,"Åģub":13860,"KilÃ³m":13861,"Nyzh":13862,"VallÃ©e":13863,"Centreville":13864,"McKin":13865,"ukhov":13866,"ukhovo":13867,"Tanah":13868,"Arak":13869,"Piatra":13870,"Åĳd":13871,"terswil":13872,"Eglinton":13873,"Klim":13874,"Rockville":13875,"Rockford":13876,"Tlaco":13877,"Unirea":13878,"Shek":13879,"Shem":13880,"Shepherd":13881,"Uspen":13882,"unceston":13883,"Itur":13884,"raten":13885,"ĠMadrid":13886,"Alac":13887,"Jincheng":13888,"Jinshan":13889,"Livez":13890,"ĠMex":13891,"ĠOrchard":13892,"Crook":13893,"Sorrento":13894,"Souq":13895,"Ġ12":13896,"Blackburn":13897,"DzÃ¼":13898,"MÃ©ziÃ¨res":13899,"Priest":13900,"Wangen":13901,"caster":13902,"ĠRomÃ¡n":13903,"nicÃŃ":13904,"ettai":13905,"Brookfield":13906,"Brookhaven":13907,"Doroban":13908,"ĠNeustadt":13909,"Aguada":13910,"Trois":13911,"Ãĸl":13912,"Argent":13913,"á»ĭnh":13914,"Bethany":13915,"Estancia":13916,"MÃ¼ll":13917,"ĠEnmed":13918,"ĠZapotitlÃ¡n":13919,"Upton":13920,"Veinte":13921,"ĠCoatlÃ¡n":13922,"onzalo":13923,"ĠPolesine":13924,"Courcelles":13925,"Falcon":13926,"Robled":13927,"Ocna":13928,"Timber":13929,"Germantown":13930,"PopeÅŁti":13931,"Stanford":13932,"BÄĥile":13933,"Gardner":13934,"Praia":13935,"Reme":13936,"Wesley":13937,"uleÅŁti":13938,"Claude":13939,"Munster":13940,"Ä°n":13941,"Tecol":13942,"monton":13943,"stringen":13944,"Boden":13945,"Leninskiy":13946,"MÄĥd":13947,"Qingyuan":13948,"Ãħs":13949,"ĠBrand":13950,"ĠBurgos":13951,"ĠCapulÃŃn":13952,"itlapilco":13953,"Pacific":13954,"estead":13955,"Pangkalan":13956,"Ronc":13957,"ĠBelbo":13958,"Forestville":13959,"Rossville":13960,"ĠPeters":13961,"Alcub":13962,"Nikola":13963,"Pelham":13964,"Piedmont":13965,"Rouge":13966,"Round":13967,"ĠBonfil":13968,"Zhongshan":13969,"Cottage":13970,"bÃ¼hl":13971,"iÅ¡t":13972,"iÅ¡ov":13973,"ĠBernard":13974,"Shuanghe":13975,"Shuanglong":13976,"Rance":13977,"Rantau":13978,"CheÅĤm":13979,"oyotepec":13980,"Monterey":13981,"Buchanan":13982,"Exeter":13983,"Fresn":13984,"ĠMolina":13985,"Apple":13986,"Appleton":13987,"Hinton":13988,"Yaroslav":13989,"langen":13990,"ĠCasas":13991,"ĠParis":13992,"Wellsville":13993,"á¹¯":13994,"aylovka":13995,"Labastide":13996,"Davyd":13997,"Feistritz":13998,"Hawai":13999,"Hawthorn":14000,"rÃŃcola":14001,"anesville":14002,"Ã³poulo":14003,"Schwab":14004,"anuova":14005,"ĠSegunda":14006,"Providence":14007,"Kazan":14008,"Lichten":14009,"Wenquan":14010,"ledge":14011,"Ã©kaha":14012,"Girard":14013,"Jiangkou":14014,"SÃ¢nm":14015,"Krym":14016,"Pokrovskoye":14017,"RÄģmnagar":14018,"ĠBoedo":14019,"ĠNovarese":14020,"Ä«mah":14021,"zewice":14022,"Browns":14023,"Bowling":14024,"Cogon":14025,"Warrenton":14026,"Ãľber":14027,"ĠBalka":14028,"ĠVeit":14029,"Civita":14030,"turno":14031,"Clarendon":14032,"Brant":14033,"Henry":14034,"Ludwig":14035,"Pampas":14036,"wego":14037,"CÄĥp":14038,"Hillside":14039,"BiaÅĤa":14040,"Paraje":14041,"falva":14042,"oubli":14043,"Ã©vez":14044,"ĠFuentes":14045,"Bellaire":14046,"Monticelli":14047,"DrÄĥgo":14048,"KÃ¼Ã§":14049,"KÃ¼snacht":14050,"Lieben":14051,"ĠTomÃ©":14052,"ÅĻÃŃÄįÃŃ":14053,"Hunter":14054,"Huntsville":14055,"Yelan":14056,"yevskiy":14057,"yevskaya":14058,"ĠBanÄ«":14059,"Charlton":14060,"StraÃŁ":14061,"Clarksville":14062,"ĠLeonards":14063,"Litchfield":14064,"Vesel":14065,"vÃ¡ros":14066,"Ã¹ng":14067,"ĠMelbourne":14068,"Smithville":14069,"Pouilly":14070,"iÈĻoara":14071,"ĠBoston":14072,"ĠIxta":14073,"á»Ļt":14074,"ÄĥrÄĥÅŁti":14075,"ÄĥrÄĥÈĻti":14076,"Boulogne":14077,"Lynn":14078,"rubia":14079,"rubio":14080,"Chaumont":14081,"ĠTraun":14082,"Broadview":14083,"Bright":14084,"Rokyt":14085,"Ripley":14086,"ĠPascual":14087,"aydah":14088,"ÄĥmÃ¢n":14089,"Osteria":14090,"ĠQuemada":14091,"ĠInnkreis":14092,"Huehuet":14093,"Äĥsti":14094,"Guayabal":14095,"aqov":14096,"ĠCroix":14097,"ĠPlanes":14098,"Chandler":14099,"ĠTsuen":14100,"ittelfeld":14101,"Aleksandrov":14102,"Ulaan":14103,"Zamora":14104,"ouyÃ©":14105,"ĠMesnil":14106,"ĠPiauÃŃ":14107,"tophe":14108,"Marshfield":14109,"quarie":14110,"Mexico":14111,"Abram":14112,"Debre":14113,"Ljub":14114,"Morningside":14115,"ilyurt":14116,"ĠIndustri":14117,"Carboneras":14118,"Verkhniye":14119,"Pervomayskiy":14120,"BjÃ¶r":14121,"Tipton":14122,"adzor":14123,"ĠHerradura":14124,"ÄĥÅŁeÅŁti":14125,"enschwil":14126,"Novopokrovka":14127,"ĠNewton":14128,"Atotonilco":14129,"MÄĥrgin":14130,"Riach":14131,"Sugar":14132,"Zakr":14133,"glise":14134,"ĠMedio":14135,"Christophe":14136,"ĠRichmond":14137,"ĠJalÃ³n":14138,"ĠValdavia":14139,"Åļwier":14140,"CÃ¡i":14141,"Mikhay":14142,"Mikhaylovka":14143,"CabezÃ³n":14144,"Benson":14145,"FÃ¼rsten":14146,"Kendall":14147,"Peyr":14148,"Scotts":14149,"Winston":14150,"Wickham":14151,"ĠErmita":14152,"ĠImper":14153,"ĠChimalpa":14154,"Burnham":14155,"YeÅŁil":14156,"Johnston":14157,"Wattle":14158,"vieja":14159,"anbulag":14160,"ĠBrenner":14161,"ĠRegis":14162,"quipulas":14163,"Thalwil":14164,"ckenridge":14165,"Crosby":14166,"Compton":14167,"enegro":14168,"rocÅĤaw":14169,"ĠSummit":14170,"ĠAugusta":14171,"ĠHanÃ©":14172,"ĠChicago":14173,"Carlton":14174,"áº¿n":14175,"ÅĽciel":14176,"Sosnovka":14177,"Versailles":14178,"amangalam":14179,"ĠCortÃ©s":14180,"ĠStazione":14181,"ĠMargarethen":14182,"Bistri":14183,"Hickory":14184,"Phoenix":14185,"ĠSayago":14186,"Addison":14187,"Baisha":14188,"Wilhelm":14189,"ĠTepetitlÃ¡n":14190,"AhuacatlÃ¡n":14191,"Hidden":14192,"Nassau":14193,"Scarborough":14194,"Wysoka":14195,"mÃ¤ki":14196,"adelphia":14197,"ĠHuertas":14198,"ĠFilip":14199,"ĠÃģlvarez":14200,"Jastrz":14201,"Zarechnyy":14202,"Zacualpan":14203,"gÄĥului":14204,"viertel":14205,"ĠMondovÃ¬":14206,"ĠMureÅŁ":14207,"ĠTronto":14208,"Shorewood":14209,"Stamford":14210,"ĠWilliam":14211,"Manhattan":14212,"Tamazula":14213,"Cienegu":14214,"Cypress":14215,"Dnip":14216,"JoaquÃŃn":14217,"Rolling":14218,"Worthington":14219,"ĠCandelaria":14220,"ĠPavÃ³n":14221,"Leisure":14222,"Barcelona":14223,"ĠSalvatore":14224,"ÃĩamlÄ±":14225,"ĠConcordia":14226,"Imperial":14227,"ĠOrdaz":14228,"DrÄĥgÄĥneÅŁti":14229,"Tweed":14230,"Wentworth":14231,"ĠMezquit":14232,"ĠParanÃ¡":14233,"ĠRouge":14234,"ĠGonÃ§":14235,"ĠGÃ¡llego":14236,"ĠLecce":14237,"stream":14238,"Thompson":14239,"Brewster":14240,"Gallegos":14241,"Bogorodskoye":14242,"Komsomol":14243,"Bucium":14244,"HajdÃº":14245,"Voskres":14246,"ĠNativitas":14247,"Hinojosa":14248,"OÄŁuz":14249,"Qaryat":14250,"Tracy":14251,"Ã¡llÃ¡s":14252,"ĠBÃ¢rgÄĥului":14253,"ĠGloria":14254,"Antipolo":14255,"Stirling":14256,"ĠEighty":14257,"MontrÃ©al":14258,"Salvatierra":14259,"Spanish":14260,"Woodbine":14261,"ĠMazowiecki":14262,"Hippolyte":14263,"ERES":14264,"historical":14265,"miklÃ³s":14266,"mÃ¡rton":14267,"ĠCounty":14268,"ĠSÃ¡zavou":14269,"ĠTagliamento":14270,"ĠTajuÃ±a":14271,"ĠJimÃ©nez":14272,"Shrewsbury":14273,"ukÅ«mat":14274,"ĠChianti":14275,"Cartagena":14276,"ĠAlcÃ¡ntara":14277,"Torricella":14278,"Ãģyios":14279,"ĠReadaptaciÃ³n":14280,"Rutherford":14281,"KilÃ³metro":14282,"ĠEnmedio":14283,"ERESO":14284,"Aar":14285,"Ail":14286,"Ate":14287,"Ace":14288,"Aiz":14289,"Aten":14290,"Aga":14291,"Arac":14292,"Ahl":14293,"Bik":14294,"BÄ«":14295,"Biz":14296,"Bone":14297,"Bena":14298,"Boro":14299,"Bof":14300,"BÃ©n":14301,"Bila":14302,"Boug":14303,"Bomb":14304,"Banda":14305,"Betz":14306,"Bhar":14307,"Bondo":14308,"BÃ¢l":14309,"BÄģg":14310,"Cid":14311,"Cem":14312,"Cana":14313,"Coh":14314,"Clan":14315,"Cella":14316,"Cans":14317,"Cinc":14318,"CÃł":14319,"CÃ´":14320,"Criv":14321,"Crop":14322,"CÄĥt":14323,"Cáº§u":14324,"Cwm":14325,"Cáº©":14326,"Dm":14327,"Dv":14328,"Dit":14329,"Dand":14330,"DÃŃ":14331,"Dus":14332,"DÄĥ":14333,"Ders":14334,"Dend":14335,"Dey":14336,"Dord":14337,"Dass":14338,"Dern":14339,"Dala":14340,"Dond":14341,"Dind":14342,"DrÃ©":14343,"DÅĤ":14344,"Diano":14345,"Dist":14346,"Doll":14347,"Dank":14348,"Dole":14349,"Doma":14350,"Dih":14351,"Dzi":14352,"DÃ¢r":14353,"Dvor":14354,"DÃ¢mb":14355,"Eu":14356,"Eur":14357,"Eto":14358,"Eti":14359,"Ene":14360,"Eyn":14361,"Eix":14362,"Even":14363,"Eym":14364,"FB":14365,"Fas":14366,"Fak":14367,"Fai":14368,"Fale":14369,"Fark":14370,"Fey":14371,"Faj":14372,"Fuch":14373,"Fels":14374,"FlÃ©":14375,"Flav":14376,"Falls":14377,"Frontera":14378,"Gig":14379,"Gid":14380,"Gue":14381,"Gli":14382,"Gern":14383,"Geni":14384,"Gland":14385,"Gno":14386,"Gola":14387,"Gari":14388,"Gart":14389,"Gies":14390,"Gomb":14391,"Gann":14392,"Garl":14393,"Gales":14394,"Gatt":14395,"GÃ©r":14396,"GÃ¼r":14397,"Gbal":14398,"Gallo":14399,"GÃ³ra":14400,"Gantang":14401,"His":14402,"HÄģ":14403,"Hoc":14404,"Hond":14405,"Hly":14406,"Hess":14407,"Hany":14408,"Homb":14409,"Hole":14410,"HÄĥl":14411,"Hasan":14412,"Haine":14413,"HÃ¸r":14414,"Horgen":14415,"HÃ²a":14416,"Hubb":14417,"Ila":14418,"Ipp":14419,"Ibi":14420,"Iowa":14421,"Ibarra":14422,"Jers":14423,"Juc":14424,"Jord":14425,"Jup":14426,"Juch":14427,"Jank":14428,"JÄģm":14429,"Javier":14430,"Jssel":14431,"Kig":14432,"Kers":14433,"Kiy":14434,"Kny":14435,"Kins":14436,"Kany":14437,"Kys":14438,"Kitt":14439,"Komb":14440,"Kumb":14441,"Kuh":14442,"KÃ½":14443,"KÃ¼r":14444,"Kati":14445,"Koren":14446,"KÃ¤r":14447,"Klad":14448,"Krop":14449,"Kenne":14450,"KÄģnd":14451,"Lara":14452,"Laro":14453,"Lash":14454,"Lund":14455,"Lerr":14456,"Lion":14457,"Lane":14458,"LiÃ©":14459,"Lann":14460,"Leno":14461,"Ligny":14462,"Leland":14463,"Lunc":14464,"Lunga":14465,"LÃ¨ze":14466,"Mj":14467,"Mk":14468,"Mr":14469,"Ms":14470,"Mv":14471,"MÃ¡":14472,"Ment":14473,"Mub":14474,"Mord":14475,"MÃ¢":14476,"Mens":14477,"MÅ«":14478,"Maya":14479,"Mena":14480,"Mign":14481,"Muy":14482,"Mick":14483,"Miri":14484,"Miel":14485,"Mure":14486,"MÄģl":14487,"MÃ©r":14488,"MÃ¢r":14489,"Meth":14490,"Makh":14491,"Mango":14492,"Manga":14493,"Maha":14494,"MÃ¶l":14495,"Mills":14496,"Mamm":14497,"MÃ©nÃ©":14498,"MÃ¢nd":14499,"Má»¹":14500,"Nj":14501,"Ns":14502,"Nid":14503,"Nio":14504,"NÄĥ":14505,"NÃ¼":14506,"Nach":14507,"Nuc":14508,"NÃ¤":14509,"NÃº":14510,"Naro":14511,"Nien":14512,"Niang":14513,"Nick":14514,"Nanc":14515,"Nagar":14516,"Nyang":14517,"Norfolk":14518,"Oh":14519,"Ouan":14520,"Ons":14521,"Oua":14522,"Ocu":14523,"Oder":14524,"Odon":14525,"Ouss":14526,"Oriz":14527,"Ovoo":14528,"Oakhurst":14529,"Oregon":14530,"Pong":14531,"Pent":14532,"Pamb":14533,"Piz":14534,"Pei":14535,"Pep":14536,"Paro":14537,"PÅĤ":14538,"Pari":14539,"Pani":14540,"Puer":14541,"Parr":14542,"Piss":14543,"Pess":14544,"Pila":14545,"PÄģr":14546,"Pelle":14547,"Pank":14548,"Pomb":14549,"Patt":14550,"PÃ½":14551,"Preg":14552,"Piana":14553,"PÃ¶l":14554,"Passo":14555,"Penz":14556,"Prog":14557,"Progres":14558,"Pisc":14559,"Ponder":14560,"Qo":14561,"Qala":14562,"Quel":14563,"Reng":14564,"Rach":14565,"Rass":14566,"Rek":14567,"RÅ«":14568,"Rant":14569,"Rez":14570,"Rosa":14571,"Roug":14572,"Rye":14573,"Ruf":14574,"Roma":14575,"Ranc":14576,"Reth":14577,"Rieux":14578,"RÄĥc":14579,"RÃ¢m":14580,"Rinconada":14581,"Sde":14582,"Sri":14583,"Sti":14584,"Ska":14585,"SÄ«":14586,"Siz":14587,"Soch":14588,"Serm":14589,"Sita":14590,"Sign":14591,"Sve":14592,"Siss":14593,"Sess":14594,"Siri":14595,"Sinc":14596,"Sorg":14597,"SiÃ©":14598,"Scal":14599,"SÄģm":14600,"SÃ¶r":14601,"Slu":14602,"Saba":14603,"SÄĥc":14604,"SÄ«dÄ«":14605,"TÄģ":14606,"Tio":14607,"Tell":14608,"TÄĥ":14609,"TÃ¼":14610,"Tach":14611,"Tass":14612,"Talm":14613,"Tari":14614,"Tart":14615,"Tien":14616,"Tita":14617,"Tuy":14618,"TÃ©n":14619,"Tura":14620,"Toll":14621,"Turt":14622,"Toli":14623,"TÄģl":14624,"TÃ´":14625,"Takh":14626,"Treg":14627,"Tomas":14628,"Two":14629,"Tagu":14630,"Tats":14631,"Taver":14632,"Tacu":14633,"Towns":14634,"TÅĻeb":14635,"Ux":14636,"Uet":14637,"Uba":14638,"Uda":14639,"Uly":14640,"Upp":14641,"Umar":14642,"Vay":14643,"VÄĥ":14644,"Vot":14645,"Vard":14646,"Vli":14647,"Vip":14648,"Vib":14649,"Vala":14650,"VÅ¡":14651,"Viri":14652,"Vies":14653,"Voul":14654,"Vide":14655,"Vlas":14656,"Vigo":14657,"Wou":14658,"Wac":14659,"Wir":14660,"Wid":14661,"Wach":14662,"Wien":14663,"Werr":14664,"Wiet":14665,"Wann":14666,"Wawa":14667,"WÄħ":14668,"WÃ¶l":14669,"Welles":14670,"Wepp":14671,"Xic":14672,"Xix":14673,"Xoco":14674,"Yos":14675,"Yol":14676,"Yad":14677,"Yac":14678,"Yec":14679,"Yamp":14680,"Yark":14681,"Yek":14682,"Yuk":14683,"Yant":14684,"Yeb":14685,"Yep":14686,"Yao":14687,"Yonne":14688,"Yancheng":14689,"Yeghe":14690,"Yarmouth":14691,"Zon":14692,"Zas":14693,"Zit":14694,"Zach":14695,"Zuc":14696,"Ziz":14697,"Zona":14698,"Zoll":14699,"ZÃ©rÃ©":14700,"Zeytin":14701,"ail":14702,"aÄŁ":14703,"bh":14704,"bill":14705,"bÃ¶":14706,"billa":14707,"best":14708,"bich":14709,"bier":14710,"buk":14711,"buz":14712,"boh":14713,"biel":14714,"bide":14715,"bling":14716,"buen":14717,"blÃ©":14718,"baba":14719,"bÃ¼r":14720,"bbi":14721,"batu":14722,"cac":14723,"colo":14724,"cari":14725,"cart":14726,"cele":14727,"coli":14728,"ciago":14729,"catlÃ¡n":14730,"cayo":14731,"cÄĥneÅŁti":14732,"cÃ¼k":14733,"dom":14734,"die":14735,"down":14736,"dasht":14737,"east":14738,"fs":14739,"fig":14740,"fir":14741,"fak":14742,"fell":14743,"ferr":14744,"fish":14745,"fenbach":14746,"gs":14747,"gay":14748,"gab":14749,"goy":14750,"gast":14751,"gara":14752,"gung":14753,"gda":14754,"garo":14755,"gani":14756,"gata":14757,"giri":14758,"gendorf":14759,"glia":14760,"gÃ¶l":14761,"gowo":14762,"gorod":14763,"gazi":14764,"hia":14765,"hri":14766,"het":14767,"him":14768,"hÃ³":14769,"hot":14770,"hÄ«":14771,"hala":14772,"hari":14773,"hiri":14774,"hler":14775,"hÄģt":14776,"ione":14777,"iolo":14778,"iona":14779,"jes":14780,"jam":14781,"jec":14782,"jna":14783,"jica":14784,"jera":14785,"japa":14786,"jovice":14787,"jandro":14788,"kang":14789,"kÃ³":14790,"kab":14791,"kell":14792,"kens":14793,"kila":14794,"kÃ¶l":14795,"kylÃ¤":14796,"lers":14797,"lens":14798,"lui":14799,"lope":14800,"mÄģ":14801,"mag":14802,"mod":14803,"meni":14804,"mala":14805,"mant":14806,"maj":14807,"moz":14808,"miel":14809,"mons":14810,"marn":14811,"machi":14812,"mersheim":14813,"nton":14814,"nag":14815,"nong":14816,"nÃ³w":14817,"nja":14818,"nova":14819,"nÅ«r":14820,"nodoro":14821,"niewo":14822,"oeiro":14823,"pia":14824,"pul":14825,"pok":14826,"peng":14827,"puz":14828,"pala":14829,"pper":14830,"piÃ©":14831,"pillas":14832,"pampa":14833,"pÄģra":14834,"pazarÄ±":14835,"qal":14836,"qay":14837,"qÄ«n":14838,"rt":14839,"rara":14840,"rale":14841,"rent":14842,"rza":14843,"rine":14844,"ringen":14845,"rÄģn":14846,"rona":14847,"ruy":14848,"rÃł":14849,"rush":14850,"rumb":14851,"rise":14852,"rÃ³s":14853,"reros":14854,"ringham":14855,"rÃ¼ck":14856,"sat":14857,"sall":14858,"singen":14859,"swood":14860,"sari":14861,"spr":14862,"sbury":14863,"swell":14864,"sjÃ¶":14865,"til":14866,"tÃ³w":14867,"tura":14868,"tendorf":14869,"tÃºn":14870,"uu":14871,"uas":14872,"uti":14873,"uge":14874,"uÃ±":14875,"ubach":14876,"uera":14877,"uova":14878,"uapa":14879,"uway":14880,"uÃ±o":14881,"vay":14882,"voy":14883,"vei":14884,"vola":14885,"vario":14886,"villy":14887,"vecchio":14888,"wr":14889,"wit":14890,"wing":14891,"wak":14892,"wind":14893,"wali":14894,"werd":14895,"wisch":14896,"wÃ¶rth":14897,"xa":14898,"xte":14899,"yer":14900,"yal":14901,"yac":14902,"yue":14903,"yno":14904,"yurt":14905,"yakh":14906,"yÅĦ":14907,"yalla":14908,"yÃªn":14909,"yotl":14910,"zk":14911,"zv":14912,"zim":14913,"zap":14914,"zara":14915,"zna":14916,"zola":14917,"zago":14918,"zenbach":14919,"ÄĨ":14920,"Äı":14921,"Ìĩ":14922,"Ñĥ":14923,"Ġ&":14924,"Ġul":14925,"Ġcon":14926,"ĠÅģ":14927,"Ġvor":14928,"Ġcel":14929,"ĠÅ»":14930,"ĠÈĺ":14931,"Ġunter":14932,"ģn":14933,"osu":14934,"osco":14935,"osano":14936,"osovo":14937,"osÅĤaw":14938,"oszcz":14939,"anal":14940,"anac":14941,"anville":14942,"anhe":14943,"anera":14944,"anpur":14945,"anivka":14946,"anÃ§a":14947,"arb":14948,"aring":14949,"arec":14950,"arez":14951,"arica":14952,"arten":14953,"arÃ³w":14954,"arito":14955,"arama":14956,"argarh":14957,"erel":14958,"erka":14959,"erey":14960,"erlo":14961,"erskiy":14962,"erve":14963,"erbo":14964,"erfeld":14965,"erolles":14966,"erheide":14967,"inÃ©":14968,"inio":14969,"inne":14970,"ints":14971,"inja":14972,"enic":14973,"enio":14974,"enville":14975,"enec":14976,"enik":14977,"ents":14978,"enich":14979,"enivka":14980,"enskaya":14981,"enÃ§o":14982,"onÃ©":14983,"onara":14984,"once":14985,"oncillo":14986,"alim":14987,"alÃŃ":14988,"aloc":14989,"alva":14990,"aleda":14991,"alunga":14992,"orb":14993,"orla":14994,"orra":14995,"orino":14996,"orna":14997,"oreni":14998,"orien":14999,"orivka":15000,"orosso":15001,"elg":15002,"elou":15003,"elang":15004,"elÃ¢ndia":15005,"ilon":15006,"ilis":15007,"ilai":15008,"ilua":15009,"aston":15010,"aski":15011,"ashevo":15012,"eser":15013,"esio":15014,"esda":15015,"esdorf":15016,"esita":15017,"chon":15018,"chov":15019,"chie":15020,"chberg":15021,"chheim":15022,"cheri":15023,"chnoye":15024,"chwitz":15025,"uron":15026,"urou":15027,"urne":15028,"urey":15029,"urovo":15030,"amont":15031,"amÃ³n":15032,"amina":15033,"amatsu":15034,"deburg":15035,"dejo":15036,"deira":15037,"laj":15038,"laz":15039,"lada":15040,"lapa":15041,"layan":15042,"lef":15043,"leg":15044,"leh":15045,"lej":15046,"levo":15047,"letown":15048,"atos":15049,"atun":15050,"atau":15051,"atÃ³n":15052,"atli":15053,"atuan":15054,"atica":15055,"atore":15056,"atown":15057,"atsi":15058,"Sans":15059,"Santer":15060,"Sanjiang":15061,"oui":15062,"ouar":15063,"ouer":15064,"ouen":15065,"oule":15066,"ouma":15067,"ouze":15068,"ouillet":15069,"olos":15070,"olen":15071,"olim":15072,"olop":15073,"olÅ£":15074,"isz":15075,"isville":15076,"island":15077,"isario":15078,"taÅŁ":15079,"tagi":15080,"ĠCel":15081,"ĠCov":15082,"ĠCir":15083,"ĠCong":15084,"ĠCano":15085,"ĠCard":15086,"ĠCeb":15087,"ĠCien":15088,"ĠCelle":15089,"ĠCedro":15090,"ĠCali":15091,"ĠCliff":15092,"ĠCinco":15093,"ĠCaterina":15094,"adin":15095,"aden":15096,"adle":15097,"adana":15098,"adores":15099,"aduey":15100,"adavia":15101,"itat":15102,"itic":15103,"itro":15104,"itio":15105,"itama":15106,"itÃł":15107,"itinga":15108,"itlalpan":15109,"rets":15110,"reja":15111,"reuil":15112,"ovik":15113,"ovana":15114,"ovaya":15115,"ovlje":15116,"ovgrad":15117,"oviÄĩi":15118,"ingin":15119,"ingal":15120,"inges":15121,"ingrad":15122,"iah":15123,"iak":15124,"iaco":15125,"iapo":15126,"rae":15127,"raq":15128,"raje":15129,"raben":15130,"ĠMc":15131,"ĠMi":15132,"ĠMom":15133,"ĠMau":15134,"ĠMul":15135,"ĠMend":15136,"ĠMula":15137,"ĠMath":15138,"ĠMiss":15139,"ĠMess":15140,"ĠMella":15141,"ĠMiel":15142,"ĠMango":15143,"ĠMack":15144,"ĠMota":15145,"ĠMÃ³nica":15146,"ĠMÃ¼rz":15147,"tet":15148,"tead":15149,"teira":15150,"teaga":15151,"icon":15152,"icano":15153,"icara":15154,"icello":15155,"icella":15156,"icchio":15157,"ĠPou":15158,"ĠPast":15159,"ĠPall":15160,"ĠPek":15161,"ĠPint":15162,"ĠPico":15163,"ĠPost":15164,"ĠPanc":15165,"ĠPuj":15166,"ĠPros":15167,"ĠPorte":15168,"ĠPinos":15169,"ĠPesc":15170,"ĠPavese":15171,"angas":15172,"ayang":15173,"ayne":15174,"unj":15175,"unia":15176,"unna":15177,"undorf":15178,"roÃŁ":15179,"Äģsi":15180,"Äģvar":15181,"Äģrak":15182,"Ã¡huac":15183,"ĠSy":15184,"ĠSag":15185,"ĠSot":15186,"ĠSuc":15187,"ĠShu":15188,"ĠSpa":15189,"ĠSasso":15190,"ĠSlov":15191,"ĠSonn":15192,"ĠShui":15193,"ĠSesia":15194,"ĠSutton":15195,"rix":15196,"rien":15197,"riet":15198,"riÃ³n":15199,"riÃł":15200,"etan":15201,"etal":15202,"etch":15203,"etere":15204,"Lax":15205,"Lach":15206,"Laun":15207,"Lagar":15208,"Lapin":15209,"Lazar":15210,"ĠBl":15211,"ĠBes":15212,"ĠBir":15213,"ĠBus":15214,"ĠBara":15215,"ĠBass":15216,"ĠBug":15217,"ĠBari":15218,"ĠBerr":15219,"ĠBella":15220,"ĠBust":15221,"ĠBush":15222,"ĠBris":15223,"ĠBuey":15224,"ĠBrava":15225,"ĠBaja":15226,"ĠBarros":15227,"ĠBáº£":15228,"igar":15229,"iganj":15230,"igao":15231,"igbeu":15232,"igueira":15233,"tonda":15234,"agr":15235,"agas":15236,"agay":15237,"agni":15238,"aggi":15239,"aggio":15240,"agram":15241,"omy":15242,"omen":15243,"omano":15244,"omey":15245,"omonte":15246,"omatlÃ¡n":15247,"illard":15248,"illera":15249,"illero":15250,"illington":15251,"illya":15252,"illert":15253,"illoux":15254,"illermo":15255,"imat":15256,"imit":15257,"imÃ¡n":15258,"imore":15259,"imbo":15260,"imilco":15261,"Chy":15262,"Chon":15263,"Chay":15264,"Chig":15265,"Chah":15266,"Chop":15267,"Chey":15268,"Chass":15269,"Chuk":15270,"Chart":15271,"Chico":15272,"Chiri":15273,"ChÃª":15274,"Choi":15275,"auc":15276,"aug":15277,"aum":15278,"auville":15279,"audi":15280,"ĠAto":15281,"ĠAce":15282,"ĠAire":15283,"ĠAtla":15284,"Ã³a":15285,"Ã³g":15286,"Ã³st":15287,"Ã³var":15288,"aces":15289,"acam":15290,"acra":15291,"acÄĥ":15292,"accia":15293,"Ġdin":15294,"Ġdello":15295,"tois":15296,"toya":15297,"toky":15298,"abis":15299,"abÃ³n":15300,"abuan":15301,"abito":15302,"iram":15303,"irana":15304,"irli":15305,"iranga":15306,"andÃ©":15307,"ÃŃd":15308,"ÃŃl":15309,"ÃŃtsa":15310,"edy":15311,"edal":15312,"edas":15313,"edom":15314,"edge":15315,"edÃ¨s":15316,"thÃ©":15317,"thaca":15318,"thofen":15319,"throp":15320,"thouse":15321,"aky":15322,"akot":15323,"skill":15324,"skem":15325,"ains":15326,"ĠTi":15327,"ĠTu":15328,"ĠTos":15329,"ĠTar":15330,"ĠTou":15331,"ĠTay":15332,"ĠTun":15333,"ĠTap":15334,"ĠTong":15335,"ĠTum":15336,"ĠTaw":15337,"ĠThu":15338,"ĠTha":15339,"ĠTrÃ©":15340,"ĠThan":15341,"ĠTula":15342,"ĠTuy":15343,"odos":15344,"odon":15345,"odia":15346,"ĠHal":15347,"ĠHed":15348,"ĠHai":15349,"ĠHaw":15350,"ĠHagen":15351,"ĠHá»ĵ":15352,"ĠHernÃ¡ndez":15353,"ĠHouyÃ©":15354,"ĠRon":15355,"ĠRus":15356,"ĠRav":15357,"ĠRai":15358,"ĠRight":15359,"Alz":15360,"Alun":15361,"Allan":15362,"Albor":15363,"Allende":15364,"uld":15365,"ulpa":15366,"ĠGau":15367,"ĠGord":15368,"ĠGrim":15369,"ĠGoi":15370,"ahin":15371,"ahon":15372,"ahia":15373,"ahama":15374,"ĠVo":15375,"ĠVr":15376,"ĠVin":15377,"ĠVil":15378,"ĠVig":15379,"ĠViv":15380,"ĠValm":15381,"ĠVaras":15382,"idul":15383,"idoro":15384,"idona":15385,"ieck":15386,"iegos":15387,"ongj":15388,"avon":15389,"avas":15390,"avac":15391,"avita":15392,"avichy":15393,"tipan":15394,"neb":15395,"nev":15396,"new":15397,"neus":15398,"neÈĻti":15399,"coiu":15400,"anoy":15401,"kao":15402,"bers":15403,"bergo":15404,"ueca":15405,"ueve":15406,"umet":15407,"umbur":15408,"ĠLan":15409,"ĠLad":15410,"ĠLun":15411,"ĠLet":15412,"ĠLem":15413,"ĠLey":15414,"ĠLine":15415,"ĠLoz":15416,"ĠLock":15417,"ĠLiri":15418,"ĠLee":15419,"ĠLinh":15420,"ĠLuka":15421,"ĠLÃ¢m":15422,"ĠLhota":15423,"Elb":15424,"Elster":15425,"hea":15426,"hee":15427,"hey":15428,"heir":15429,"ellos":15430,"ellano":15431,"Äĥce":15432,"otang":15433,"otÃŃ":15434,"otti":15435,"otino":15436,"otts":15437,"otera":15438,"otnica":15439,"otitÃ¡n":15440,"otenango":15441,"tere":15442,"tery":15443,"terton":15444,"terbach":15445,"ĠJan":15446,"ĠJum":15447,"ĠJust":15448,"ĠJunta":15449,"ĠJusto":15450,"ĠJizer":15451,"ecera":15452,"emar":15453,"emans":15454,"Marz":15455,"Marta":15456,"Marac":15457,"Marip":15458,"Marche":15459,"Marston":15460,"ĠNob":15461,"ĠNep":15462,"ĠNied":15463,"ĠNagar":15464,"ĠNÄģÅŁ":15465,"ĠNisou":15466,"owra":15467,"owai":15468,"okan":15469,"oker":15470,"okum":15471,"okout":15472,"okoi":15473,"ĠFÃ©":15474,"ĠFul":15475,"ĠFranca":15476,"ĠFermo":15477,"ÅŁr":15478,"ersen":15479,"ersel":15480,"ersfeld":15481,"erstetten":15482,"ogh":15483,"ogong":15484,"ogee":15485,"ogarh":15486,"ikk":15487,"ikam":15488,"Ã¶he":15489,"Ã¶tt":15490,"Ã¼ng":15491,"Ã¼tten":15492,"Ã¼tte":15493,"onts":15494,"shal":15495,"shat":15496,"shun":15497,"shoy":15498,"shaw":15499,"shaf":15500,"shchina":15501,"enger":15502,"engah":15503,"engstringen":15504,"ocan":15505,"obas":15506,"obes":15507,"obia":15508,"obamba":15509,"Shab":15510,"Shed":15511,"Shiv":15512,"Short":15513,"Sheldon":15514,"azÃº":15515,"azapa":15516,"ally":15517,"allur":15518,"allÅ«r":15519,"ĠDan":15520,"ĠDin":15521,"egi":15522,"egon":15523,"egre":15524,"egui":15525,"egua":15526,"stÃŃ":15527,"statt":15528,"strana":15529,"Ark":15530,"Aral":15531,"Arco":15532,"ArÄ±":15533,"Arroy":15534,"ampi":15535,"ampang":15536,"inola":15537,"Ä«na":15538,"Ä«jÄģn":15539,"Ã³ni":15540,"Ã³nas":15541,"ardon":15542,"ardia":15543,"ardiel":15544,"quay":15545,"quara":15546,"quier":15547,"querÃ³n":15548,"estan":15549,"estin":15550,"esten":15551,"esting":15552,"Anch":15553,"Anac":15554,"Anda":15555,"anaju":15556,"eval":15557,"eves":15558,"evci":15559,"opf":15560,"opil":15561,"opoli":15562,"ĠMarg":15563,"ĠMarzo":15564,"ĠMarsi":15565,"ĠMarques":15566,"ĠMarcel":15567,"ĠMargherita":15568,"ĠMarquÃ©s":15569,"lian":15570,"liang":15571,"alejos":15572,"geest":15573,"entis":15574,"entidueÃ±a":15575,"ucio":15576,"endel":15577,"endrecht":15578,"inaw":15579,"ĠKon":15580,"ĠKÃ¶":15581,"ĠKut":15582,"ĠKry":15583,"ĠKÅĤ":15584,"ĠKÅį":15585,"ĠKlang":15586,"ĠKhao":15587,"ĠKiat":15588,"ĠKidul":15589,"Stand":15590,"StÄĥ":15591,"Stella":15592,"Strad":15593,"Stutt":15594,"Stuart":15595,"arki":15596,"guo":15597,"zhany":15598,"zhanka":15599,"eye":15600,"eyer":15601,"ubon":15602,"ubay":15603,"ubey":15604,"uten":15605,"utal":15606,"utter":15607,"utlu":15608,"Neul":15609,"Neco":15610,"NeochÃ³ri":15611,"eken":15612,"ĠEra":15613,"ĠEng":15614,"ĠEdu":15615,"ĠEufemia":15616,"ipac":15617,"surg":15618,"ĠIng":15619,"ĠIbor":15620,"ĠIgles":15621,"iyo":15622,"iysk":15623,"iyÅ«r":15624,"Ã¨le":15625,"Ã¨ge":15626,"Ã¨ves":15627,"Leim":15628,"Leesburg":15629,"awat":15630,"Ã¢y":15631,"caia":15632,"cajo":15633,"cita":15634,"ugas":15635,"uges":15636,"ugat":15637,"ughe":15638,"oure":15639,"oural":15640,"ourala":15641,"upang":15642,"upleu":15643,"ibi":15644,"ibah":15645,"ibli":15646,"ibago":15647,"ibouo":15648,"ĠOg":15649,"ĠOriz":15650,"ĠOteros":15651,"ensberg":15652,"ensleben":15653,"ukou":15654,"uket":15655,"goa":15656,"gota":15657,"Monk":15658,"Monreal":15659,"ĠCher":15660,"ĠChum":15661,"ĠChica":15662,"ĠChiesa":15663,"ianos":15664,"ianka":15665,"Barm":15666,"Bars":15667,"Barac":15668,"Barranca":15669,"Barrington":15670,"Ä±nd":15671,"Ä±lÄ±":15672,"nyi":15673,"Å«Åį":15674,"ĠWar":15675,"ĠWis":15676,"ĠWong":15677,"ĠWell":15678,"ĠWorth":15679,"ĠWalk":15680,"ĠWhit":15681,"ĠWarren":15682,"Guer":15683,"Guas":15684,"Guap":15685,"Guess":15686,"Guild":15687,"Guijo":15688,"inea":15689,"inez":15690,"Carre":15691,"Carab":15692,"Carav":15693,"Carson":15694,"Carmo":15695,"Carleton":15696,"Carrizal":15697,"Brind":15698,"Brze":15699,"Broughton":15700,"daia":15701,"hude":15702,"huala":15703,"hualtepec":15704,"alajara":15705,"antic":15706,"antÃ¡n":15707,"ezze":15708,"ndi":15709,"Colchester":15710,"Colorado":15711,"Colombe":15712,"ĠLac":15713,"ffÃ©":15714,"ohr":15715,"ÈĻului":15716,"ÈĻtea":15717,"nien":15718,"nial":15719,"niÃ³w":15720,"niÃ¨re":15721,"ryan":15722,"ryany":15723,"izd":15724,"izy":15725,"izra":15726,"izonte":15727,"izavet":15728,"ajar":15729,"ajay":15730,"ajiang":15731,"ozor":15732,"ozas":15733,"ornoye":15734,"Thy":15735,"Thum":15736,"Thann":15737,"ThÃ©r":15738,"fiel":15739,"tene":15740,"eby":15741,"eben":15742,"Villac":15743,"noe":15744,"uelle":15745,"lohe":15746,"loff":15747,"Schil":15748,"Schell":15749,"Schwan":15750,"Schwer":15751,"Quit":15752,"Quero":15753,"Quiri":15754,"Quinto":15755,"Quáº£ng":15756,"leston":15757,"lestown":15758,"Ã¤ck":15759,"Ã¤ki":15760,"Amar":15761,"Amal":15762,"Ames":15763,"Amur":15764,"Ambar":15765,"sse":15766,"ssi":15767,"sser":15768,"hail":15769,"haur":15770,"haun":15771,"lanta":15772,"olah":15773,"olato":15774,"Villard":15775,"Villarr":15776,"Villares":15777,"Villase":15778,"Villaman":15779,"ynia":15780,"ynove":15781,"GrÃ¼":15782,"oches":15783,"ochtitlÃ¡n":15784,"ĠAlc":15785,"ĠAlgar":15786,"ĠAlcor":15787,"ĠAlberto":15788,"Montl":15789,
[...]
